, 441244
. 363008
the 301588
and 214347
to 188670
of 167236
a 154062
that 136028
I 116294
in 113794
it 103063
we 96841
you 95761
is 88408
&apos;s 78493
this 66742
&quot; 51950
so 49498
they 47186
for 46003
was 43706
are 41934
but 39467
have 39304
on 38466
with 37873
what 36014
can 34599
&apos;t 32933
? 32808
be 30803
as 30762
-- 30159
about 29699
there 27994
at 27723
not 27420
all 27180
my 27079
do 24961
one 24614
people 24556
like 24105
our 23969
&apos;re 23741
from 23423
) 22927
or 22925
( 22905
if 22683
an 21254
: 21120
when 20388
just 19947
these 19754
he 19097
now 19049
by 18335
me 18288
because 18137
more 17313
them 17202
how 17174
out 17137
their 16922
your 16166
up 15954
had 15891
know 15691
very 15570
who 15371
were 15038
going 14923
would 14606
us 14328
think 14299
see 13826
which 13599
get 13139
really 13138
time 13138
&apos;ve 12631
Laughter 12629
here 12610
some 12538
then 12528
has 12009
world 11920
&apos;m 11908
into 11874
don 11533
will 11514
way 11221
could 11100
where 11001
other 10944
years 10771
actually 10471
been 10148
things 10146
make 10045
she 9845
want 9791
no 9770
those 9586
go 9568
than 9295
right 9259
first 9117
also 8914
even 8815
something 8673
two 8468
well 8297
most 8275
much 8240
his 8134
over 8028
work 8019
said 8016
only 7996
many 7940
need 7692
back 7649
her 7496
look 7478
life 7410
thing 7354
say 7263
take 7129
little 7092
got 7017
every 6857
Applause 6788
new 6722
did 6541
around 6480
different 6277
good 6241
why 6233
lot 6224
through 6175
let 6032
same 5986
being 5860
down 5805
kind 5730
use 5571
day 5478
come 5447
&apos;ll 5439
; 5361
any 5131
called 5054
today 5034
after 5025
doing 4967
its 4825
three 4805
made 4800
&apos;d 4707
put 4699
human 4689
percent 4666
tell 4637
change 4619
own 4584
didn 4536
find 4447
each 4426
before 4425
might 4350
able 4244
still 4213
year 4186
should 4149
another 4146
fact 4132
never 4123
better 4108
started 4085
talk 4041
idea 4012
together 3954
Thank 3928
last 3884
great 3875
give 3871
important 3864
thought 3826
system 3808
women 3773
too 3766
him 3761
big 3742
part 3721
problem 3702
does 3691
next 3677
story 3626
start 3613
between 3607
off 3577
few 3566
again 3557
used 3557
brain 3551
help 3530
went 3515
water 3491
place 3418
data 3388
came 3343
course 3326
ago 3324
love 3289
found 3277
question 3267
technology 3266
maybe 3245
long 3242
may 3232
example 3228
end 3222
mean 3215
show 3193
doesn 3161
feel 3159
children 3155
bit 3131
&apos; 3097
person 3094
understand 3091
always 3076
live 3040
point 3037
wanted 2997
call 2963
looking 2960
real 2954
away 2924
school 2870
working 2865
using 2852
number 2849
ever 2846
means 2822
believe 2818
power 2805
done 2803
! 2802
everything 2783
trying 2773
while 2741
less 2719
country 2712
try 2691
home 2686
million 2680
information 2676
enough 2673
become 2661
whole 2652
create 2649
future 2608
without 2606
thinking 2602
body 2587
four 2549
making 2547
small 2544
10 2534
money 2531
second 2531
man 2526
best 2522
kids 2490
took 2483
am 2481
space 2472
social 2449
ask 2444
getting 2437
times 2430
five 2400
food 2400
family 2386
light 2382
old 2382
lives 2377
health 2351
such 2337
energy 2332
sort 2327
left 2321
comes 2314
hard 2269
across 2264
imagine 2263
told 2262
sense 2230
And 2222
probably 2212
talking 2202
ways 2201
often 2200
care 2193
experience 2188
makes 2168
once 2159
pretty 2149
someone 2149
design 2141
music 2122
happened 2119
countries 2109
build 2108
men 2099
building 2098
moment 2096
having 2092
anything 2091
quite 2085
science 2083
both 2071
asked 2069
young 2060
living 2059
saw 2057
yet 2053
community 2047
room 2041
later 2035
happen 2009
play 2007
process 2007
days 2006
learn 2001
almost 2000
coming 1991
far 1984
instead 1979
seen 1977
side 1974
else 1972
high 1972
city 1966
cells 1963
already 1959
simple 1958
case 1954
remember 1945
whether 1935
keep 1926
single 1925
possible 1924
move 1923
dollars 1917
interesting 1912
happens 1885
nothing 1883
sometimes 1874
sure 1874
inside 1871
half 1864
job 1858
... 1857
within 1856
history 1851
myself 1850
bad 1841
set 1825
problems 1818
words 1817
says 1815
until 1807
answer 1793
public 1793
global 1792
stuff 1791
matter 1788
planet 1785
goes 1782
Earth 1780
stories 1780
The 1775
reason 1775
since 1771
20 1763
- 1759
Africa 1759
wrong 1742
research 1741
wasn 1735
isn 1732
video 1723
re@@ 1721
everyone 1718
age 1715
true 1713
OK 1702
though 1697
mind 1691
saying 1690
group 1681
face 1678
others 1672
child 1667
hand 1664
un@@ 1663
months 1661
knew 1660
looked 1655
form 1646
business 1644
computer 1644
order 1644
So 1640
billion 1639
woman 1638
United 1636
-@@ 1633
ideas 1631
government 1629
hope 1627
picture 1626
read 1626
learned 1616
under 1612
became 1609
language 1605
against 1602
New 1596
study 1594
bring 1584
open 1584
control 1578
turn 1576
friends 1573
amazing 1566
share 1566
black 1562
heard 1551
questions 1550
everybody 1547
book 1542
car 1536
exactly 1533
top 1528
themselves 1525
students 1523
looks 1521
project 1518
cancer 1517
basically 1515
must 1514
beautiful 1509
six 1509
heart 1507
line 1504
yes 1501
built 1497
company 1496
word 1495
name 1492
society 1485
past 1484
works 1484
States 1483
night 1477
stop 1477
decided 1473
taking 1464
completely 1451
during 1447
hear 1443
ourselves 1439
species 1439
head 1426
education 1421
places 1421
level 1411
gets 1410
run 1409
ones 1404
America 1396
S@@ 1394
guy 1393
mother 1392
hours 1391
learning 1389
&#91; 1384
&#93; 1382
sound 1378
thousands 1376
rather 1371
disease 1369
turns 1364
couldn 1363
somebody 1363
itself 1360
happening 1358
30 1351
nature 1351
couple 1349
worked 1347
piece 1344
animals 1343
early 1341
created 1338
felt 1338
entire 1331
along 1324
huge 1324
team 1322
large 1318
finally 1317
companies 1316
systems 1309
reality 1299
universe 1299
humans 1298
art 1297
least 1297
figure 1295
news 1293
100 1288
needs 1288
parents 1285
model 1282
air 1281
free 1281
cell 1277
state 1277
environment 1276
front 1276
house 1270
easy 1252
difficult 1246
American 1245
yourself 1243
began 1242
needed 1242
takes 1241
behind 1239
perhaps 1236
kinds 1235
won 1234
given 1233
known 1231
outside 1231
cities 1226
minutes 1226
ability 1224
war 1224
You 1216
But 1215
based 1209
scientists 1206
gave 1202
common 1199
simply 1196
Oh 1190
seeing 1190
leave 1189
natural 1186
climate 1185
powerful 1185
eyes 1184
political 1184
game 1182
century 1177
50 1175
moving 1172
China 1171
changed 1170
culture 1170
longer 1166
machine 1163
♫ 1163
third 1158
blood 1148
close 1147
land 1146
per 1146
taken 1146
local 1144
particular 1138
difference 1130
image 1129
realized 1129
size 1124
death 1123
population 1122
turned 1117
grow 1116
white 1116
lots 1113
cannot 1111
yeah 1111
CA 1107
patients 1103
attention 1102
either 1099
hands 1098
media 1098
walk 1098
full 1094
okay 1092
phone 1089
certain 1086
happy 1084
red 1081
feeling 1078
lost 1078
York 1076
access 1075
India 1072
guys 1072
audience 1071
born 1071
in@@ 1069
area 1068
parts 1068
God 1066
scale 1065
fish 1064
support 1057
father 1056
quickly 1056
week 1048
middle 1045
step 1044
spent 1039
DNA 1038
value 1036
changes 1035
numbers 1032
pay 1030
economic 1029
opportunity 1029
seven 1026
A@@ 1025
spend 1024
friend 1020
growing 1019
complex 1017
poor 1017
speak 1017
whatever 1016
P@@ 1015
amount 1011
risk 1011
millions 1009
test 1009
rest 1008
terms 1008
view 1006
write 1006
tried 1005
15 1003
likely 1001
hundreds 1000
ocean 999
beginning 996
program 991
TED 990
girls 990
understanding 989
weeks 989
surface 987
Internet 986
alone 986
challenge 981
fear 981
field 981
physical 980
market 977
key 971
girl 969
wouldn 968
gone 963
deal 961
medical 960
er 956
paper 954
It 949
behavior 949
personal 949
deep 947
shows 945
anyone 944
growth 944
impact 944
met 937
We 931
die 930
voice 930
eight 929
communities 927
tools 926
color 924
giving 921
What 918
seems 918
knowledge 917
cost 916
sitting 911
buy 909
hold 909
individual 907
brought 905
telling 905
ground 899
realize 899
especially 897
soon 894
average 893
i 893
solve 892
tiny 890
images 889
literally 888
focus 885
result 885
online 884
interested 882
morning 882
C@@ 880
asking 879
watch 879
wonderful 879
areas 878
developed 875
o 875
truth 875
wrote 875
industry 872
movement 868
recently 867
Well 865
economy 859
clear 858
T@@ 857
center 857
creating 855
incredible 854
discovered 852
short 852
starting 852
forward 851
similar 850
structure 850
changing 849
eat 848
material 846
aren 844
beyond 843
seem 841
act 837
towards 837
40 836
issues 836
playing 835
absolutely 834
chance 833
led 833
books 830
choice 830
running 830
patient 826
ed 825
green 825
blue 824
rate 821
G@@ 817
development 817
feet 816
relationship 815
designed 814
save 812
several 812
solution 811
produce 810
son 810
type 810
fast 809
allow 807
violence 807
issue 806
force 805
k@@ 805
normal 805
sounds 805
animal 803
B@@ 802
stand 801
oil 800
stage 800
baby 799
meet 799
E@@ 797
groups 797
including 793
law 792
reach 792
resources 792
digital 790
conversation 788
stay 788
cause 787
technologies 787
potential 784
evidence 783
gives 783
eventually 779
major 779
showed 778
sex 777
South 774
dark 773
lead 773
carbon 772
situation 770
generation 769
kid 769
trust 769
becomes 768
perfect 768
product 767
robot 767
begin 765
nobody 765
English 764
approach 762
Europe 761
cut 761
bigger 758
network 758
shape 758
miles 754
modern 753
M@@ 752
nice 752
rules 752
safe 752
World 750
choose 750
journey 748
cars 746
theory 745
action 743
lab 743
solar 743
teach 743
box 742
lived 742
present 742
basic 740
drugs 737
however 737
bottom 736
class 735
talked 735
jobs 734
response 734
K@@ 732
ready 732
table 732
cool 731
map 730
strong 729
effect 727
fight 727
rights 727
pain 726
sea 726
sleep 723
send 721
D@@ 720
bodies 720
ing 720
special 720
US 719
dead 719
break 718
computers 718
developing 718
reasons 718
e@@ 717
families 717
results 717
died 716
fun 716
es 715
continue 713
experiment 713
writing 713
role 712
low 711
This 709
higher 708
haven 707
explain 706
incredibly 706
guess 705
healthy 703
available 702
ice 701
ate 700
biggest 700
putting 700
success 700
skin 698
street 696
measure 695
hit 692
among 691
drug 690
s 690
dream 689
cases 687
develop 687
knows 687
schools 687
involved 686
moved 686
meaning 684
eye 683
quality 682
F@@ 681
favorite 681
memory 681
drive 680
de@@ 679
plant 679
listen 677
further 676
film 675
office 675
hundred 674
starts 674
thank 674
fly 673
A 672
police 670
leaders 668
crisis 667
plants 666
poverty 666
worse 666
worth 666
named 664
scientific 664
intelligence 660
goal 657
innovation 657
12 656
grew 656
self-@@ 656
speed 655
treatment 655
decisions 654
standing 654
fall 653
particularly 653
protect 653
certainly 652
national 652
college 651
doctor 651
plan 651
usually 650
allowed 649
security 649
bacteria 648
device 648
mass 646
message 646
lose 645
machines 644
wall 644
everywhere 642
H@@ 641
connected 640
faster 639
objects 638
reading 638
robots 638
taught 638
finding 637
walking 637
watching 637
obviously 636
pick 636
hospital 635
month 635
African 634
crazy 634
loved 634
doctors 633
humanity 633
showing 632
training 632
examples 631
individuals 631
onto 631
25 629
creative 629
hour 629
Chinese 628
medicine 627
mental 627
pictures 627
boy 626
conditions 626
please 626
add 625
sit 624
totally 624
specific 623
suddenly 621
anybody 620
fire 620
late 620
nine 620
above 619
solutions 619
student 619
provide 618
North 617
increase 617
period 617
successful 617
impossible 616
lines 616
vision 616
Google 615
R@@ 615
indeed 615
decades 614
consider 613
notice 613
rich 613
truly 613
meant 612
software 611
y@@ 611
materials 610
positive 610
largest 609
wants 609
written 609
code 608
spread 608
studies 608
progress 607
road 606
door 604
tool 603
evolution 602
products 602
race 602
sent 602
O@@ 601
teachers 601
L@@ 600
camera 599
smart 599
tells 599
allows 598
wait 598
brains 596
kept 596
N@@ 595
female 595
mine 595
pressure 595
supposed 595
record 592
shown 592
throughout 591
democracy 590
wife 589
ers 588
exist 588
shared 588
Now 587
trees 587
challenges 585
d@@ 585
minute 585
somewhere 584
follow 583
earth 582
extremely 582
object 582
older 581
waste 581
upon 580
al 579
exciting 579
games 578
activity 576
list 576
recognize 576
t 576
excited 575
expect 575
skills 575
models 573
practice 572
tree 570
larger 569
freedom 568
experiences 567
movie 566
That 565
serious 565
sun 565
types 564
essentially 563
perspective 563
gas 562
nuclear 562
U.S. 561
content 561
forms 561
effects 560
genetic 560
mom 560
general 559
11 558
organization 558
travel 558
en@@ 557
source 557
fundamental 556
massive 555
helped 554
male 554
a@@ 553
diseases 553
current 552
60 551
despite 550
service 550
nearly 549
West 548
buildings 548
complicated 548
workers 548
beings 547
although 546
extraordinary 546
pieces 546
levels 545
path 545
uses 545
somehow 543
stars 543
career 542
screen 542
weren 542
Americans 541
decision 541
dangerous 540
waiting 539
y 539
ended 538
over@@ 538
points 538
touch 538
virus 538
listening 537
revolution 537
2 536
governments 536
traditional 536
kill 535
main 535
sky 535
position 534
1 533
ation 533
critical 533
anymore 532
connect 532
lower 532
values 532
ated 531
thousand 531
unique 531
wonder 531
projects 530
teacher 529
citizens 528
i@@ 528
speaking 528
tend 528
biology 527
daughter 527
pattern 527
alive 525
becoming 525
context 525
o@@ 525
dis@@ 524
financial 524
genes 524
justice 524
knowing 524
series 524
e 523
unfortunately 523
emotional 521
greatest 521
whose 520
feels 519
smaller 519
ting 518
electricity 517
patterns 517
clean 516
wind 516
identity 515
killed 514
bunch 512
earlier 512
himself 512
policy 512
rise 512
Mars 511
W@@ 511
de 511
meeting 511
stress 511
relationships 510
treat 510
income 509
concept 508
range 508
architecture 507
board 507
p@@ 507
physics 507
military 506
international 505
village 505
TV 502
b@@ 502
bed 500
organizations 499
famous 498
hot 498
colleagues 497
effective 497
fine 497
greater 497
improve 497
interest 497
sorts 497
store 497
thanks 497
version 497
visual 497
/ 496
gender 496
institutions 496
politics 496
site 496
plastic 495
private 495
200 494
minds 494
anyway 493
clearly 493
services 493
slow 493
train 493
I@@ 492
wish 492
80 491
decide 491
performance 491
directly 490
members 490
town 490
ancient 489
feed 489
beauty 488
happiness 488
actual 486
causes 486
except 486
shot 486
ends 485
fully 485
choices 484
connection 484
final 484
strange 484
forget 483
none 483
function 482
search 482
weight 482
production 481
reduce 481
s@@ 481
broken 480
direction 479
immediately 479
zero 479
mostly 478
expensive 477
walked 477
win 477
babies 476
following 476
recent 476
researchers 476
term 476
ar@@ 475
costs 475
War 474
driving 474
laws 474
understood 474
floor 473
decade 472
hair 472
secret 472
sharing 472
ted 472
artist 471
fit 471
m@@ 471
near 471
neurons 471
complete 468
region 468
cold 467
easier 467
moral 467
address 466
biological 466
therefore 466
City 465
survive 465
compassion 464
University 463
ch@@ 463
di@@ 463
raise 463
worst 463
No 462
king 462
matters 462
forest 460
math 460
ahead 459
ts 459
cultural 458
molecules 457
purpose 457
terrible 457
18 456
instance 456
seconds 456
sell 455
ti@@ 455
pull 454
conflict 453
price 453
al@@ 452
forth 452
afraid 451
hole 451
Facebook 450
at@@ 450
easily 450
loss 450
emotions 449
li@@ 449
page 449
John 448
ating 448
birth 448
East 447
answers 447
anywhere 447
chemical 447
particles 447
ultimately 447
communication 446
familiar 446
programs 446
aware 445
closer 445
dance 445
engineering 445
mobile 445
ran 445
differently 444
stopped 444
capital 443
paid 443
push 443
useful 443
apart 442
helping 442
return 442
an@@ 441
streets 441
attack 440
inspired 440
creativity 439
draw 439
worry 439
be@@ 438
obvious 438
urban 438
HIV 437
atmosphere 437
responsibility 437
How 436
helps 435
party 435
total 435
willing 435
arm 434
boys 434
devices 434
flow 434
leading 434
sign 434
heat 433
original 433
states 433
studying 433
diversity 432
t@@ 432
communicate 431
g@@ 431
multiple 431
non-@@ 431
sexual 431
held 430
legal 430
religion 430
ball 429
highly 429
check 428
co@@ 428
dad 428
k 428
prison 428
u@@ 428
shift 427
track 427
popular 426
subject 426
agree 425
experiments 425
foot 425
Chris 424
forces 423
planets 423
explore 422
giant 422
ly 422
opposite 422
depression 421
oxygen 421
sat 421
task 421
significant 420
various 420
flying 419
teaching 418
event 417
fuel 417
hearing 417
offer 417
text 417
If 416
V@@ 416
creates 416
ates 415
carry 415
join 415
produced 415
seemed 415
birds 414
focused 414
scientist 414
star 414
ac@@ 413
achieve 413
90 412
Dr. 412
environmental 412
er@@ 412
noticed 412
summer 412
enormous 411
lack 411
magic 411
nation 411
song 411
temperature 411
dog 410
currently 409
played 409
published 409
square 409
structures 408
peace 407
vast 407
AI 405
passed 405
sick 405
spaces 405
trade 405
California 404
London 404
below 404
fantastic 404
possibly 404
gene 403
remarkable 403
infrastructure 402
moments 402
twice 402
wealth 402
invented 401
on@@ 401
importantly 400
legs 399
missing 399
benefits 398
failure 398
ship 398
suffering 398
3 397
capacity 397
dying 397
fighting 397
report 397
con@@ 396
networks 396
character 395
mission 395
pass 395
quantum 395
surgery 395
70 394
billions 394
eating 393
farmers 393
engage 392
negative 392
opportunities 392
or@@ 392
believed 391
coffee 391
condition 391
events 391
lights 391
n 391
sh@@ 391
speech 391
elements 390
evolved 390
walls 390
apply 389
fix 389
letter 389
rule 389
supply 389
degrees 388
strategy 388
civil 387
le@@ 387
leadership 387
lo@@ 387
Hey 386
deeply 386
husband 386
lies 386
B 385
artists 385
base 385
extra 385
quick 384
ri@@ 384
societies 384
sustainable 384
according 383
active 383
artificial 383
bringing 383
related 383
television 383
hate 382
safety 382
website 382
adults 381
raised 381
necessarily 380
J@@ 379
Western 379
core 379
discover 379
due 379
religious 379
respond 379
otherwise 378
differences 377
lucky 377
describe 376
dreams 376
everyday 376
basis 375
extreme 375
glass 375
letters 375
stuck 375
wear 375
sorry 374
ant 373
avoid 373
ine 373
leaving 373
ro@@ 373
drop 372
respect 372
slightly 372
standard 372
stick 372
consciousness 371
shouldn 371
straight 371
aid 370
degree 370
responsible 370
z@@ 370
16 369
bridge 369
cycle 369
neighborhood 369
18@@ 368
collective 368
labor 367
le 367
necessary 367
self 367
consequences 366
filled 366
signals 366
constantly 365
effort 365
generations 365
homes 365
n@@ 365
brings 364
feelings 364
holding 364
radio 364
web 364
gotten 363
harder 363
turning 363
block 362
crime 362
waves 362
ab@@ 361
corner 361
daily 361
entirely 361
majority 361
14 360
bought 360
engineers 360
possibility 360
pre@@ 360
spot 359
trouble 359
brother 358
National 357
affect 357
benefit 357
calls 357
press 357
cover 356
definition 356
demand 356
identify 356
immune 356
predict 356
prevent 356
steps 356
500 355
visit 355
Why 354
experienced 354
landscape 354
distance 353
influence 353
damage 352
investment 352
m 352
phones 352
se@@ 352
soil 352
window 352
efficient 351
tissue 351
capable 350
central 350
email 350
funny 350
meters 350
wearing 350
conversations 349
limited 349
300 348
arms 348
considered 348
folks 348
forever 348
languages 348
ten 348
wave 348
begins 347
river 347
rock 347
weird 347
e-@@ 346
figured 346
keeping 346
received 346
spending 345
catch 344
dinner 344
internet 344
names 344
1,000 343
businesses 343
failed 343
imagination 343
partner 343
moves 342
random 342
wild 342
French 341
en 341
interact 341
leader 341
rates 341
caused 340
compared 340
equal 340
l@@ 340
requires 340
studied 340
trained 340
2@@ 339
motion 339
noise 339
sister 339
slowly 339
target 339
throw 339
account 338
afford 338
caught 338
era 338
perfectly 338
mouth 337
transform 337
watched 337
3@@ 336
balance 336
faces 336
joy 336
r@@ 336
24 335
forced 335
g 335
manage 335
risks 335
invisible 334
associated 333
bone 333
ous 333
surprise 333
tough 333
unless 333
deeper 332
lesson 332
married 332
f@@ 331
facing 331
leaves 331
tons 331
bi@@ 330
boat 330
markets 330
painting 330
signal 330
w@@ 330
Twitter 329
colors 329
struggle 329
calling 328
creatures 328
sing 328
San 327
algorithms 327
blind 327
competition 327
deliver 327
photograph 327
vote 327
10,000 326
ma@@ 326
opened 326
separate 326
als 325
invest 325
muscle 325
sold 325
voices 325
worried 325
losing 324
match 324
moon 324
typical 324
British 323
E 323
childhood 323
genome 323
slide 323
desire 322
enjoy 322
park 322
university 322
European 321
industrial 321
passion 321
president 321
roll 321
designers 320
h@@ 320
managed 319
platform 319
discovery 318
factors 318
leads 318
represent 318
threat 318
Washington 317
as@@ 317
malaria 317
planning 317
professional 317
described 316
17 315
ca@@ 315
date 315
oceans 315
ra@@ 315
expected 314
hidden 314
long-term 314
phenomenon 314
C 313
bank 313
experts 313
fair 313
faith 313
honest 313
mountain 313
smell 313
sudden 313
u 313
accept 312
beat 312
c@@ 312
protein 312
background 311
breath 311
charge 311
grown 311
proud 311
survival 311
engineer 310
narrative 310
traffic 310
tremendous 310
13 309
My 309
exact 309
note 309
om@@ 309
pollution 309
reaction 309
comfortable 307
movies 307
organisms 307
heads 306
oh 306
processes 306
treated 306
U@@ 305
lie 305
stem 305
vulnerable 305
warming 305
bus 304
count 304
ding 304
seriously 304
ter 304
virtual 304
weapons 304
David 303
followed 303
invited 303
$ 302
characters 302
conference 302
exercise 302
facts 302
os@@ 302
Afghanistan 301
In@@ 301
b 301
essential 301
fields 301
increased 301
rural 301
symptoms 301
yellow 301
dollar 300
mathematics 300
normally 300
strength 300
trial 300
argue 299
collect 299
complexity 299
exists 299
gold 299
microbes 299
paying 299
photo 299
serve 299
thoughts 299
Japan 298
ar 298
campaign 298
card 298
increasingly 298
scene 298
wide 298
Asia 297
In 297
advantage 297
circle 297
fill 297
flight 297
nervous 297
si@@ 297
4 296
connections 296
d 296
debate 296
election 296
layer 296
sector 296
actions 295
surprised 295
argument 294
der 294
hopefully 294
net 294
principle 294
release 294
sad 294
abuse 293
classroom 293
direct 293
empathy 293
fell 293
mothers 293
regular 293
surprising 293
testing 293
x 293
addition 292
ans 292
continent 292
existence 292
mis@@ 292
op@@ 292
plane 292
9 291
analysis 291
concerned 291
el@@ 291
gap 291
require 291
spoke 291
Re@@ 290
Yeah 290
fascinating 290
it@@ 290
ks 290
mentioned 290
option 290
p 290
proteins 290
users 290
CO2 289
There 289
st@@ 289
tions 289
% 288
contact 288
finished 288
ings 288
jump 288
professor 288
remain 288
v@@ 288
whom 288
Germany 287
Mr. 287
notion 287
profound 287
sentence 287
stood 287
videos 287
ap@@ 286
foreign 286
D 285
compare 285
cultures 285
generate 285
goals 285
highest 285
paint 285
versus 285
y-@@ 285
2,000 284
Middle 284
anger 284
appear 284
tens 284
whenever 284
bird 283
capture 283
enter 283
ha@@ 283
refugees 283
saving 283
shoes 283
Indian 282
Y@@ 282
fail 282
gravity 282
island 282
location 282
neighbors 282
sides 282
statistics 282
brand 281
brilliant 281
dealing 281
drawing 281
producing 281
rare 281
trillion 281
activities 280
broke 280
etc 280
member 280
trip 280
typically 280
Mexico 279
centuries 279
chain 279
edge 279
l 279
specifically 279
status 279
ton 279
adult 278
am@@ 278
fashion 278
grandmother 278
increasing 278
kilometers 278
ants 277
atoms 277
driven 277
electric 277
emissions 277
galaxy 277
grade 277
soldiers 277
um 277
victims 277
agriculture 276
closed 276
curious 276
inter@@ 276
interaction 276
marriage 276
parent 276
plus 276
potentially 276
th@@ 276
clinical 275
hurt 275
inner 275
organized 275
principles 275
shapes 275
tomorrow 275
z 275
launched 274
ters 274
universal 274
Great 273
electrical 273
setting 273
wake 273
wisdom 273
Iraq 272
added 272
cognitive 272
drink 272
gay 272
intelligent 272
messages 272
operating 272
released 272
wondering 272
7 271
creation 271
prove 271
unlike 271
chemicals 270
designing 270
sand 270
sequence 270
Z@@ 269
bar 269
belief 269
detect 269
importance 269
me@@ 269
photos 269
picked 269
promise 269
signs 269
arrived 268
causing 268
commercial 268
farm 268
include 268
leg 268
management 268
situations 268
court 267
details 267
emotion 267
galaxies 267
holes 267
illness 267
options 267
possibilities 267
pounds 267
toward 267
ad@@ 266
bear 266
bits 266
blocks 266
cat 266
definitely 266
ds 266
existing 266
faced 266
fourth 266
hadn 266
naturally 266
400 265
alternative 265
bo@@ 265
correct 265
cure 265
rid 265
seat 265
sets 265
sugar 265
Sun 264
sub@@ 264
te@@ 264
3D 263
civilization 263
cloud 263
engine 263
quote 263
reached 263
ad 262
ch 262
encourage 262
fake 262
fellow 262
heavy 262
lifetime 262
one-@@ 262
perform 262
teams 262
zone 262
Mar@@ 261
bees 261
conscious 261
define 261
method 261
roughly 261
variety 261
4@@ 260
Kenya 260
double 260
funding 260
gun 260
hasn 260
hospitals 260
ne@@ 260
ordinary 260
property 260
Australia 259
Brazil 259
equivalent 259
houses 259
politicians 259
ring 259
advice 258
cheap 258
covered 258
j@@ 258
keeps 258
memories 258
required 258
false 257
liquid 257
mouse 257
radiation 257
affected 256
fairly 256
ic 256
out@@ 256
saved 256
selling 256
sources 256
chemistry 255
fossil 255
killing 255
movements 255
rapidly 255
re-@@ 255
row 255
spirit 255
aging 254
angry 254
confidence 254
depends 254
se 254
switch 254
8 253
T 253
ages 253
coral 253
employees 253
meaningful 253
relatively 253
silence 253
techniques 253
valuable 253
President 252
advanced 252
behaviors 252
carefully 252
environments 252
feedback 252
gift 252
graph 252
insects 252
manufacturing 252
pulled 252
weather 252
dynamic 251
escape 251
ex@@ 251
fundamentally 251
novel 251
anxiety 250
factory 250
gain 250
pages 250
shame 250
talks 250
Music 249
article 249
clouds 249
empty 249
sending 249
GDP 248
challenging 248
combination 248
hell 248
jail 248
mo@@ 248
pair 248
sites 248
therapy 248
Times 247
designer 247
effectively 247
finish 247
museum 247
nations 247
worlds 247
When 246
Yes 246
bright 246
evolutionary 246
former 246
ge@@ 246
generally 246
nor 246
organs 246
remains 246
remote 246
ter@@ 246
theater 246
worldwide 246
awesome 245
car@@ 245
chose 245
consumption 245
detail 245
tumor 245
battle 244
camp 244
copy 244
d-@@ 244
defined 244
formed 244
kitchen 244
perception 244
tu@@ 244
unit 244
partners 243
players 243
sees 243
station 243
suggest 243
taste 243
trick 243
underneath 243
AIDS 242
anti-@@ 242
construction 242
receive 242
satellite 242
technological 242
Canada 241
ancestors 241
diverse 241
economics 241
epidemic 241
high-@@ 241
joined 241
metal 241
mistakes 241
organic 241
per@@ 241
violent 241
Paul 240
ag@@ 240
clothes 240
convinced 240
equipment 240
meat 240
molecule 240
notes 240
opening 240
providing 240
rain 240
da 239
falling 239
features 239
independent 239
introduced 239
radical 239
regions 239
tests 239
An@@ 238
attacks 238
collection 238
constant 238
criminal 238
distribution 238
he@@ 238
inequality 238
mistake 238
scary 238
spectrum 238
sts 238
tri@@ 238
5 237
claim 237
desert 237
graduate 237
mile 237
policies 237
prepared 237
print 237
viruses 237
engaged 236
link 236
pe@@ 236
previous 236
productive 236
represents 236
sensitive 236
soul 236
suffer 236
technical 236
thinks 236
ty 236
bias 235
eggs 235
est 235
exchange 235
fewer 235
mathematical 235
physically 235
6 234
Ma@@ 234
credit 234
es@@ 234
harm 234
hide 234
muscles 234
puts 234
staff 234
t-@@ 234
under@@ 234
algorithm 233
autism 233
burning 233
lessons 233
scared 233
amounts 232
biscuit 232
doubt 232
fishing 232
infected 232
ker 232
lunch 232
master 232
ment 232
ness 232
primary 232
statement 232
teeth 232
20th 231
Amazon 231
breaking 231
cameras 231
concrete 231
cross 231
em 231
fund 231
resistance 231
ride 231
sample 231
sports 231
traveling 231
England 230
France 230
dry 230
magazine 230
molecular 230
pleasure 230
remind 230
warm 230
MIT 229
breathe 229
corruption 229
courage 229
ent 229
equally 229
library 229
remove 229
sp@@ 229
&apos;@@ 228
Ar@@ 228
Einstein 228
George 228
He 228
accident 228
breast 228
carrying 228
player 228
properties 228
round 228
singing 228
style 228
wood 228
acting 227
fiction 227
internal 227
introduce 227
lay 227
mirror 227
participate 227
processing 227
qu@@ 227
super 227
super@@ 227
ta@@ 227
visible 227
youth 227
combined 226
ons 226
protected 226
rely 226
rising 226
stronger 226
tive 226
Francisco 225
Harvard 225
centers 225
collected 225
consumer 225
forests 225
fresh 225
intellectual 225
protection 225
tested 225
vaccine 225
younger 225
Britain 224
ally 224
committed 224
des 224
el 224
replace 224
restaurant 224
seek 224
stupid 224
up@@ 224
King 223
church 223
controlled 223
ded 223
disorder 223
explained 223
outcome 223
overcome 223
plays 223
records 223
tasks 223
De@@ 222
continued 222
enable 222
entrepreneurs 222
honor 222
metaphor 222
mi@@ 222
practices 222
privacy 222
arts 221
emerging 221
im@@ 221
rooms 221
th 221
Japanese 220
Man 220
Muslim 220
assume 220
bu@@ 220
dioxide 220
evil 220
express 220
hero 220
neither 220
occur 220
placed 220
to@@ 220
ul@@ 220
Bill 219
allowing 219
buying 219
chair 219
cu@@ 219
goods 219
methods 219
milk 219
ol@@ 219
ot@@ 219
pushing 219
stone 219
transition 219
acts 218
amp 218
army 218
ations 218
boxes 218
budget 218
coal 218
ecosystem 218
embrace 218
judge 218
nose 218
poem 218
psychological 218
transformation 218
danger 217
determine 217
largely 217
launch 217
relative 217
.@@ 216
45 216
75 216
NASA 216
curiosity 216
driver 216
equality 216
globe 216
ladies 216
laugh 216
ma 216
opinion 216
quiet 216
recorded 216
35 215
absolute 215
awareness 215
button 215
destruction 215
experiencing 215
functions 215
les 215
logic 215
meetings 215
pro@@ 215
shop 215
topic 215
vehicle 215
100,000 214
150 214
Spanish 214
bag 214
convince 214
diet 214
fat 214
finger 214
swimming 214
yesterday 214
Let 213
Wow 213
YouTube 213
applied 213
breathing 213
housing 213
os 213
outcomes 213
personally 213
pregnant 213
solved 213
tradition 213
Congress 212
Richard 212
X 212
deaths 212
films 212
mountains 212
north 212
sensors 212
severe 212
whereas 212
Street 211
awful 211
collaboration 211
components 211
expand 211
handle 211
ked 211
liked 211
reaching 211
runs 211
Di@@ 210
Paris 210
accurate 210
border 210
circumstances 210
dots 210
inspiration 210
pre-@@ 210
printing 210
Center 209
bones 209
bread 209
brothers 209
host 209
interests 209
interview 209
poetry 209
puzzle 209
resource 209
suppose 209
surrounded 209
unknown 209
Con@@ 208
School 208
citizen 208
contains 208
efficiency 208
expression 208
factor 208
fold 208
grid 208
innovative 208
ir@@ 208
mechanism 208
te 208
trials 208
well-@@ 208
well-being 208
II 207
One 207
admit 207
dogs 207
efforts 207
man@@ 207
participants 207
relevant 207
sight 207
survey 207
Valley 206
cutting 206
emergency 206
expert 206
exposed 206
foundation 206
micro@@ 206
painful 206
secure 206
applications 205
cards 205
divide 205
for@@ 205
healthcare 205
herself 205
mix 205
mystery 205
winter 205
Al@@ 204
airplane 204
app 204
aspects 204
disaster 204
discussion 204
economies 204
flu 204
frame 204
gu@@ 204
infection 204
passionate 204
privilege 204
roof 204
root 204
sa@@ 204
score 204
smile 204
suicide 204
user 204
c 203
dramatic 203
ec@@ 203
is@@ 203
ling 203
linked 203
ours 203
tech 203
toxic 203
ve 203
classes 202
combine 202
domestic 202
framework 202
grows 202
h 202
increases 202
lady 202
maintain 202
marine 202
offered 202
roads 202
solving 202
stable 202
5@@ 201
Chicago 201
German 201
closely 201
coast 201
dimensions 201
do@@ 201
engaging 201
ensure 201
populations 201
skill 201
south 201
tax 201
thin 201
transportation 201
vi@@ 201
volume 201
wondered 201
agreed 200
authority 200
dropped 200
interactions 200
maps 200
odd 200
overall 200
refugee 200
shaped 200
sophisticated 200
stayed 200
struggling 200
technique 200
8@@ 199
Big 199
boring 199
co-@@ 199
cortex 199
crowd 199
go@@ 199
literature 199
loud 199
miss 199
sc@@ 199
tion 199
appreciate 198
borders 198
computing 198
drives 198
evening 198
garden 198
ignore 198
ke@@ 198
lying 198
mention 198
productivity 198
season 198
songs 198
ste@@ 198
&amp; 197
Black 197
They 197
carried 197
dy 197
flat 197
instrument 197
limits 197
marketing 197
soft 197
stream 197
struck 197
uncomfortable 197
unusual 197
us@@ 197
views 197
wherever 197
writer 197
21 196
Los 196
Nigeria 196
aspect 196
burn 196
consumers 196
contain 196
democratic 196
fi@@ 196
hoping 196
illegal 196
interface 196
joke 196
mark 196
presented 196
provided 196
recognized 196
reward 196
sunlight 196
belong 195
fruit 195
musical 195
newspaper 195
plans 195
2008 194
Anderson 194
James 194
ah 194
barely 194
click 194
determined 194
dramatically 194
evolve 194
fortunately 194
lets 194
shut 194
solid 194
6@@ 193
Do 193
explanation 193
fingers 193
grandfather 193
males 193
photographs 193
succeed 193
99 192
ending 192
generated 192
hang 192
hearts 192
hits 192
invention 192
ky 192
ms 192
occurred 192
standards 192
ster 192
stock 192
swim 192
ve@@ 192
welcome 192
worker 192
2010 191
21st 191
Car@@ 191
colleague 191
continues 191
customers 191
dinosaurs 191
dust 191
ears 191
falls 191
fears 191
hydrogen 191
imagined 191
intense 191
mortality 191
non@@ 191
organism 191
percentage 191
reported 191
suggests 191
terrorism 191
two-@@ 191
w 191
22 190
Bank 190
House 190
busy 190
crying 190
guide 190
impacts 190
measured 190
recording 190
tall 190
ties 190
2015 189
Boston 189
affects 189
ator 189
contrast 189
crucial 189
destroyed 189
dozen 189
gut 189
mess 189
pop 189
three-@@ 189
Health 188
behave 188
destroy 188
diagnosed 188
fuels 188
gentlemen 188
gi@@ 188
practical 188
reflect 188
shoot 188
spring 188
strangers 188
wing 188
Institute 187
Korea 187
attempt 187
conclusion 187
depending 187
director 187
distributed 187
existed 187
historical 187
operate 187
parking 187
precisely 187
quarter 187
r 187
rocket 187
rocks 187
underwater 187
ur@@ 187
-like 186
Ch@@ 186
antibiotics 186
il@@ 186
insight 186
length 186
mu@@ 186
ni@@ 186
operation 186
presence 186
synthetic 186
tics 186
transformed 186
treatments 186
truck 186
wars 186
x@@ 186
3,000 185
State 185
academic 185
contribute 185
exploration 185
ge 185
luck 185
ously 185
papers 185
par@@ 185
philosophy 185
stands 185
winning 185
Don 184
Su@@ 184
audio 184
bet 184
comfort 184
drinking 184
floating 184
grab 184
ho@@ 184
lungs 184
psychology 184
2000 183
Arab 183
Moon 183
Pro@@ 183
Project 183
R 183
cheers 183
focusing 183
greenhouse 183
orbit 183
steel 183
title 183
Russia 182
celebrate 182
error 182
figures 182
gs 182
ideal 182
infinite 182
insurance 182
neural 182
organ 182
post 182
properly 182
vaccines 182
zoom 182
Latin 181
adapt 181
aside 181
band 181
battery 181
birthday 181
bottle 181
bubble 181
dignity 181
distant 181
feeding 181
fixed 181
journalist 181
pure 181
repeat 181
signed 181
weak 181
7@@ 180
chicken 180
conservation 180
fluid 180
ga@@ 180
in-@@ 180
isolated 180
no@@ 180
particle 180
performing 180
raising 180
repair 180
so@@ 180
adding 179
conventional 179
ic@@ 179
laboratory 179
medium 179
removed 179
silent 179
strategies 179
sweet 179
tic 179
Le@@ 178
apartment 178
appropriate 178
banks 178
beliefs 178
limit 178
mammals 178
motor 178
s-@@ 178
tail 178
vehicles 178
ver@@ 178
villages 178
1@@ 177
curve 177
depend 177
drawn 177
finance 177
frankly 177
horrible 177
invite 177
passing 177
plate 177
resolution 177
transport 177
trauma 177
traveled 177
wheel 177
23 176
Okay 176
afternoon 176
ators 176
concern 176
display 176
element 176
et 176
flies 176
nowhere 176
personality 176
piano 176
recognition 176
senses 176
sharks 176
ultimate 176
units 176
Michael 175
abstract 175
accessible 175
clinic 175
flag 175
neighbor 175
pi@@ 175
somewhat 175
surveillance 175
tired 175
vessels 175
walks 175
Israel 174
architect 174
brown 174
collapse 174
connecting 174
decline 174
educated 174
involves 174
obsessed 174
ps 174
slavery 174
wanting 174
5,000 173
Web 173
brave 173
cents 173
darkness 173
equation 173
fl@@ 173
la 173
produces 173
proof 173
pushed 173
reducing 173
♪ 173
BG 172
Hi 172
apparently 172
architects 172
extent 172
hungry 172
mon@@ 172
phrase 172
returned 172
spreading 172
tr@@ 172
19@@ 171
2009 171
appears 171
beach 171
cats 171
engagement 171
horse 171
invent 171
ism 171
ke 171
represented 171
tea 171
tonight 171
tracking 171
tries 171
All 170
Look 170
clever 170
clock 170
corporate 170
defense 170
dies 170
exploring 170
flowers 170
hu@@ 170
lung 170
objective 170
provides 170
roots 170
samples 170
victim 170
Charles 169
Egypt 169
additional 169
careful 169
chart 169
classic 169
commitment 169
confident 169
crops 169
du@@ 169
fed 169
height 169
hi@@ 169
holds 169
identical 169
liver 169
low-@@ 169
plenty 169
surely 169
unexpected 169
via 169
writers 169
Angeles 168
accepted 168
achieved 168
ality 168
ard 168
captured 168
disappear 168
doors 168
dozens 168
friendly 168
grand 168
letting 168
logical 168
makers 168
meter 168
protecting 168
scan 168
suit 168
ves 168
19th 167
capitalism 167
conservative 167
divided 167
expectations 167
granted 167
ill 167
journalists 167
missed 167
official 167
reverse 167
tes 167
visited 167
27 166
600 166
Alzheimer 166
O 166
Texas 166
X@@ 166
amongst 166
ary 166
dirty 166
elections 166
ful 166
includes 166
instructions 166
microscope 166
prices 166
prime 166
raw 166
seeds 166
string 166
Obama 165
application 165
au@@ 165
cheaper 165
feature 165
globally 165
institution 165
legacy 165
locked 165
pause 165
stranger 165
trend 165
vital 165
CEO 164
Iran 164
creature 164
dancing 164
educational 164
ent@@ 164
gather 164
hunger 164
instruments 164
ob@@ 164
peak 164
positions 164
reduced 164
so-called 164
stores 164
tors 164
translate 164
wine 164
Mary 163
affordable 163
asks 163
bomb 163
boundaries 163
chest 163
football 163
lens 163
meanwhile 163
medication 163
ors 163
permanent 163
phase 163
rapid 163
shock 163
split 163
stops 163
studio 163
thick 163
threats 163
2007 162
Darwin 162
Pacific 162
Thomas 162
al-@@ 162
cash 162
chronic 162
climb 162
economists 162
immediate 162
integrated 162
investing 162
laser 162
latest 162
layers 162
loop 162
regardless 162
sheet 162
st 162
wi@@ 162
G 161
Mc@@ 161
component 161
department 161
et@@ 161
iPhone 161
identified 161
kers 161
parties 161
permission 161
sisters 161
smoke 161
sum 161
tears 161
Africans 160
apple 160
automatically 160
bike 160
blow 160
collecting 160
confused 160
contract 160
cooking 160
delivered 160
hardly 160
ies 160
organize 160
pool 160
romantic 160
scenario 160
section 160
shopping 160
yours 160
19 159
Steve 159
attached 159
concepts 159
fore@@ 159
genius 159
implications 159
neighborhoods 159
odds 159
patent 159
powers 159
reports 159
searching 159
transparency 159
treating 159
Union 158
blame 158
crash 158
debt 158
earn 158
ence 158
enemy 158
har@@ 158
helpful 158
ins 158
ize 158
magical 158
mechanical 158
pocket 158
speakers 158
storm 158
telescope 158
thrown 158
whales 158
ads 157
chip 157
ci@@ 157
cup 157
dedicated 157
depressed 157
ear 157
lifestyle 157
ner 157
pitch 157
rarely 157
react 157
similarly 157
sustainability 157
toy 157
uncertainty 157
Greek 156
September 156
arguments 156
backwards 156
boss 156
chaos 156
clients 156
consume 156
cry 156
documents 156
federal 156
flip 156
foods 156
forming 156
heroes 156
included 156
inspire 156
la@@ 156
myth 156
officer 156
racism 156
selection 156
served 156
shoulder 156
subjects 156
underground 156
Be@@ 155
Ex@@ 155
Li@@ 155
Life 155
advance 155
bar@@ 155
behavioral 155
cave 155
ce@@ 155
chances 155
clip 155
deserve 155
drivers 155
drove 155
ley 155
lu@@ 155
measuring 155
presentation 155
relate 155
reveal 155
route 155
sleeping 155
theme 155
Co@@ 154
June 154
bl@@ 154
delivery 154
dense 154
density 154
disorders 154
flew 154
injury 154
iron 154
likes 154
lock 154
magnetic 154
mice 154
nurses 154
opposed 154
orange 154
picking 154
rational 154
ru@@ 154
theories 154
tip 154
ugly 154
International 153
Revolution 153
accounts 153
angle 153
anti@@ 153
assumptions 153
elephants 153
entertainment 153
external 153
industries 153
interacting 153
mid-@@ 153
ought 153
pa@@ 153
reminded 153
robotic 153
smarter 153
speaker 153
Ebola 152
a-@@ 152
consequence 152
directions 152
dish 152
habitat 152
hotel 152
informed 152
inspiring 152
investors 152
measures 152
prefer 152
responses 152
shake 152
supported 152
universities 152
Hollywood 151
UK 151
axis 151
brief 151
cute 151
designs 151
desk 151
egg 151
elected 151
electronic 151
failing 151
filter 151
ha 151
homeless 151
humor 151
illusion 151
laptop 151
meal 151
nearby 151
pilot 151
programming 151
pulling 151
shark 151
speaks 151
spiritual 151
teenagers 151
Atlantic 150
Christmas 150
Park 150
Tom 150
agency 150
agricultural 150
bill 150
buried 150
circles 150
cor@@ 150
elephant 150
entered 150
gray 150
hello 150
mate 150
mechanisms 150
recover 150
rice 150
savings 150
ses 150
underlying 150
virtually 150
Gu@@ 149
Nobel 149
Robert 149
Wikipedia 149
alien 149
chocolate 149
diabetes 149
disability 149
fascinated 149
forgotten 149
immigrants 149
killer 149
ler 149
outer 149
pace 149
poorest 149
prepare 149
rivers 149
thus 149
toilet 149
upper 149
wire 149
9@@ 148
Bo@@ 148
Is 148
Jim 148
PM 148
Pakistan 148
actors 148
choosing 148
diagnosis 148
elsewhere 148
favor 148
fifth 148
figuring 148
fought 148
ia 148
initial 148
ity 148
mindset 148
oldest 148
pack 148
promote 148
reference 148
shall 148
sons 148
talent 148
tap 148
volunteers 148
year-old 148
17@@ 147
appeared 147
arrive 147
balls 147
bio@@ 147
caring 147
cha@@ 147
frequency 147
grateful 147
hire 147
mainly 147
narrow 147
navigate 147
printed 147
salt 147
seed 147
threatened 147
trigger 147
voting 147
White 146
armed 146
chosen 146
improvement 146
input 146
motivated 146
neck 146
nutrients 146
o-@@ 146
origin 146
parallel 146
plot 146
professionals 146
profit 146
remaining 146
serving 146
sphere 146
surgeon 146
tragedy 146
50,000 145
Central 145
St@@ 145
announced 145
bri@@ 145
cast 145
established 145
estimate 145
estimated 145
ingredients 145
monitor 145
observe 145
paintings 145
reform 145
ridiculous 145
sacred 145
satellites 145
ships 145
spots 145
survived 145
tape 145
95 144
channel 144
collectively 144
daughters 144
four-@@ 144
gases 144
interactive 144
output 144
racial 144
recovery 144
significantly 144
suggested 144
tube 144
wash 144
Ah 143
Muslims 143
arrested 143
author 143
blog 143
breaks 143
discuss 143
emerge 143
facial 143
lawyers 143
monkey 143
painted 143
precise 143
quit 143
smoking 143
Al 142
Here 142
January 142
Per@@ 142
beneath 142
concerns 142
cord 142
discrimination 142
encounter 142
ethical 142
founded 142
gradually 142
hardware 142
imaging 142
ite 142
ized 142
lands 142
manager 142
proper 142
resilience 142
usual 142
ys 142
Me@@ 141
Museum 141
afterwards 141
ance 141
dress 141
farms 141
functional 141
governance 141
graphic 141
hanging 141
lion 141
sales 141
sculpture 141
seeking 141
symbol 141
unable 141
war@@ 141
-based 140
Apple 140
Arabic 140
abilities 140
bubbles 140
characteristics 140
dating 140
dot 140
expanding 140
farmer 140
flexible 140
flows 140
frequently 140
grain 140
ing@@ 140
laid 140
laughing 140
lift 140
mar@@ 140
miracle 140
opens 140
pointed 140
prototype 140
representation 140
senior 140
shooting 140
trans@@ 140
Mo@@ 139
advertising 139
agencies 139
all-@@ 139
ck 139
commit 139
expertise 139
finds 139
fraction 139
gods 139
guns 139
interestingly 139
license 139
limb 139
originally 139
prisoners 139
safer 139
wa@@ 139
Adam 138
bars 138
besides 138
cl@@ 138
consistent 138
counting 138
cur@@ 138
essence 138
heal 138
invested 138
mad 138
monkeys 138
neuroscience 138
owned 138
paradigm 138
performed 138
shed 138
wise 138
2011 137
Department 137
River 137
Silicon 137
cartoon 137
cook 137
corporations 137
document 137
f 137
hall 137
hormones 137
listened 137
loving 137
mechanics 137
perceive 137
predicted 137
predictions 137
seemingly 137
sensory 137
staying 137
ten@@ 137
ving 137
2012 136
80s 136
Martin 136
activists 136
ay@@ 136
barrier 136
compete 136
cooperation 136
dependent 136
ecosystems 136
embedded 136
fa@@ 136
fabric 136
fiber 136
flower 136
funded 136
incentives 136
inevitable 136
lions 136
lovely 136
luckily 136
medicines 136
multi@@ 136
nurse 136
occurs 136
probability 136
ra 136
reliable 136
safely 136
script 136
simultaneously 136
spin 136
spoken 136
surprisingly 136
terrifying 136
vertical 136
Foundation 135
Islam 135
Pe@@ 135
Southern 135
communications 135
controlling 135
dig 135
guilty 135
honestly 135
initially 135
ink 135
izing 135
motivation 135
photography 135
prize 135
rescue 135
stages 135
stroke 135
successfully 135
supporting 135
viral 135
workplace 135
60s 134
GPS 134
Man@@ 134
Manhattan 134
Mon@@ 134
Rome 134
agenda 134
alongside 134
clothing 134
currency 134
grass 134
half-@@ 134
horizon 134
improved 134
indigenous 134
ines 134
lawyer 134
liberal 134
needle 134
optimistic 134
partly 134
prosperity 134
reactions 134
sits 134
suffered 134
throwing 134
widely 134
70s 133
Arctic 133
ain 133
bathroom 133
burned 133
can@@ 133
capability 133
competitive 133
entering 133
fusion 133
head@@ 133
ka 133
native 133
nerve 133
poet 133
replaced 133
separated 133
sport 133
subtle 133
three-dimensional 133
waters 133
windows 133
90s 132
Bu@@ 132
He@@ 132
Jewish 132
S 132
Sweden 132
civic 132
conflicts 132
controls 132
extract 132
headed 132
household 132
mixed 132
precious 132
reefs 132
sentences 132
silk 132
tackle 132
weapon 132
wireless 132
Day 131
Wall 131
adopted 131
adventure 131
analyze 131
approaches 131
attract 131
biologists 131
discoveries 131
district 131
electronics 131
exposure 131
farming 131
females 131
frozen 131
globalization 131
gonna 131
multi-@@ 131
mysterious 131
periods 131
researcher 131
restore 131
scales 131
thrive 131
tissues 131
transparent 131
2005 130
26 130
Because 130
Russian 130
autonomous 130
colony 130
cre@@ 130
database 130
ders 130
lighting 130
primarily 130
sha@@ 130
skull 130
stations 130
touched 130
upset 130
ven@@ 130
2016 129
actor 129
alize 129
bags 129
com@@ 129
convert 129
deadly 129
elite 129
extinction 129
officials 129
ou@@ 129
ownership 129
proposed 129
pu@@ 129
shelter 129
sperm 129
substance 129
K 128
Nations 128
attitude 128
barriers 128
category 128
dominant 128
harvest 128
infections 128
mat@@ 128
merely 128
mood 128
musicians 128
ns 128
obesity 128
owner 128
secondly 128
secrets 128
shell 128
sticks 128
su@@ 128
survivors 128
volunteer 128
whale 128
ze 128
As 127
Sh@@ 127
alcohol 127
answered 127
constructed 127
damaged 127
der@@ 127
emerged 127
explosion 127
fan 127
god 127
habits 127
happier 127
healing 127
hypothesis 127
ish 127
operations 127
platforms 127
realm 127
religions 127
snow 127
soap 127
southern 127
tied 127
to-@@ 127
tra@@ 127
traditions 127
65 126
Can 126
Haiti 126
Italy 126
Where 126
alized 126
bound 126
conducted 126
crack 126
depth 126
er-@@ 126
extend 126
insights 126
landed 126
loves 126
po@@ 126
preserve 126
rape 126
reduction 126
roles 126
session 126
stomach 126
stored 126
strongly 126
tower 126
wings 126
Par@@ 125
aircraft 125
ale 125
ble 125
broad 125
burden 125
charity 125
circuit 125
dear 125
disappeared 125
dive 125
enforcement 125
ens 125
expansion 125
ff 125
genetics 125
il 125
intended 125
min@@ 125
naked 125
ny 125
participation 125
pile 125
profile 125
we@@ 125
-to-@@ 124
.com 124
2014 124
32 124
Rwanda 124
Space 124
addiction 124
back@@ 124
balloon 124
cable 124
calculate 124
dressed 124
elderly 124
electrons 124
fires 124
garbage 124
golden 124
improving 124
leap 124
opinions 124
post-@@ 124
reasonable 124
rolling 124
sl@@ 124
spinal 124
str@@ 124
versions 124
1980s 123
F 123
Prize 123
attractive 123
categories 123
chapter 123
combat 123
comments 123
corals 123
diagram 123
difficulty 123
end@@ 123
fancy 123
funds 123
gathered 123
glad 123
han@@ 123
hopes 123
laughter 123
marry 123
mer 123
offers 123
panels 123
quest 123
robust 123
symmetry 123
targets 123
telescopes 123
tour 123
trends 123
trucks 123
Islamic 122
Peter 122
Se@@ 122
Syria 122
Ti@@ 122
ches 122
dialogue 122
edges 122
extinct 122
fathers 122
ger 122
healthier 122
ignorance 122
intuition 122
load 122
ning 122
od@@ 122
pairs 122
rebuild 122
relatives 122
richer 122
surfaces 122
tag 122
tricks 122
warning 122
witness 122
1970s 121
20@@ 121
Florida 121
Global 121
Island 121
Ocean 121
October 121
Po@@ 121
Ro@@ 121
Second 121
Who 121
Y 121
algae 121
ars 121
beer 121
begun 121
bold 121
candidate 121
contemporary 121
disabled 121
drew 121
ear@@ 121
educate 121
emails 121
ents 121
ff@@ 121
footprint 121
ics 121
id@@ 121
imagery 121
located 121
previously 121
procedure 121
relations 121
remained 121
transfer 121
transmission 121
variation 121
4,000 120
For 120
L 120
Pole 120
She 120
actively 120
bacterial 120
bicycle 120
ce 120
challenged 120
claims 120
climbing 120
covering 120
cul@@ 120
file 120
neuro@@ 120
ph@@ 120
pl@@ 120
remembered 120
reputation 120
scores 120
shifting 120
storage 120
suggesting 120
terrorist 120
threw 120
unlikely 120
Detroit 119
Hu@@ 119
Stanford 119
Talk 119
Trump 119
breakfast 119
distinct 119
enabled 119
extended 119
five-@@ 119
gathering 119
glasses 119
harmful 119
ing-@@ 119
innocent 119
instantly 119
neuron 119
observed 119
offering 119
officers 119
paradox 119
physicists 119
pride 119
residents 119
revenue 119
rhythm 119
sal@@ 119
shocked 119
slides 119
structural 119
temperatures 119
the@@ 119
tie 119
tone 119
traits 119
uncle 119
Are 118
Gulf 118
Spain 118
ban@@ 118
cake 118
chimpanzees 118
dynamics 118
east 118
excitement 118
experimental 118
fragile 118
identities 118
iness 118
kick 118
locations 118
pan@@ 118
perceived 118
polio 118
pregnancy 118
sheep 118
sized 118
spectacular 118
steal 118
storytelling 118
till 118
tor 118
trapped 118
2006 117
Bi@@ 117
Christian 117
Mom 117
Way 117
artistic 117
aw@@ 117
binary 117
blah 117
closing 117
completed 117
cow 117
crew 117
demonstrate 117
factories 117
fied 117
frustrated 117
gra@@ 117
grandchildren 117
guarantee 117
hiding 117
injustice 117
items 117
jumped 117
mode 117
northern 117
nowadays 117
ory 117
pandemic 117
physicist 117
powered 117
radically 117
realizing 117
receiving 117
sink 117
smallest 117
socially 117
symbols 117
trash 117
v 117
vacuum 117
vulnerability 117
Microsoft 116
aggressive 116
annual 116
believes 116
charged 116
chief 116
customer 116
enables 116
facility 116
grief 116
inch 116
intervention 116
links 116
observation 116
pen 116
predators 116
profoundly 116
resistant 116
revealed 116
sting 116
tragic 116
woke 116
16@@ 115
Act 115
Ghana 115
March 115
Uganda 115
ably 115
agents 115
aim 115
airport 115
anatomy 115
bats 115
calories 115
ceiling 115
club 115
colored 115
compounds 115
corn 115
decrease 115
exhibition 115
fo@@ 115
gaps 115
habit 115
her@@ 115
honey 115
ina 115
innovations 115
ju@@ 115
panel 115
pig 115
propose 115
proved 115
pursue 115
review 115
ry 115
seas 115
sed 115
smartphone 115
stu@@ 115
super-@@ 115
wound 115
zed 115
Asian 114
Go 114
Sa@@ 114
ba@@ 114
bur@@ 114
calm 114
cosmic 114
els 114
endless 114
excellent 114
executive 114
explains 114
fired 114
firm 114
immigration 114
inclusive 114
judgment 114
mobility 114
mosquitoes 114
nets 114
observations 114
physicians 114
pound 114
prey 114
profits 114
rose 114
shots 114
silly 114
stones 114
teenager 114
telephone 114
tracks 114
unprecedented 114
wheelchair 114
2050 113
250 113
Eastern 113
Science 113
ambitious 113
applying 113
badly 113
baseball 113
candidates 113
ching 113
chips 113
closest 113
countless 113
crossing 113
devastating 113
earthquake 113
ed@@ 113
encouraged 113
feminist 113
fits 113
grandparents 113
guard 113
hardest 113
hitting 113
on-@@ 113
parks 113
pink 113
planes 113
protest 113
readers 113
refer 113
reflection 113
shadow 113
soldier 113
stability 113
suspect 113
tank 113
tension 113
2013 112
Ber@@ 112
General 112
Henry 112
Ra@@ 112
activist 112
animation 112
bee 112
ces 112
channels 112
fastest 112
fate 112
limitations 112
mail 112
peers 112
prior 112
psychologists 112
pump 112
simulation 112
someday 112
sta@@ 112
stays 112
surrounding 112
syndrome 112
tional 112
trace 112
Dan 111
acknowledge 111
ana 111
articles 111
atom 111
capabilities 111
concentration 111
couples 111
ev@@ 111
failures 111
furniture 111
gate 111
generating 111
genetically 111
ges 111
gram 111
influenced 111
ist 111
overwhelming 111
philosopher 111
photographer 111
preparing 111
queen 111
recipe 111
rubber 111
spider 111
translation 111
workforce 111
Bang 110
Congo 110
Her@@ 110
approached 110
apps 110
biases 110
branches 110
briefly 110
camps 110
cheese 110
comparison 110
conclude 110
desperately 110
detection 110
domain 110
drill 110
gang 110
homework 110
ically 110
imp@@ 110
ingly 110
label 110
lonely 110
ls 110
measurements 110
medications 110
optimism 110
physician 110
proven 110
reminds 110
sharp 110
toys 110
14@@ 109
20,000 109
2003 109
Go@@ 109
Just 109
Lu@@ 109
abandoned 109
air@@ 109
alright 109
audiences 109
authentic 109
bears 109
comment 109
compelling 109
eaten 109
engineered 109
exception 109
graduated 109
hill 109
hunting 109
id 109
ignored 109
interviewed 109
keys 109
mer@@ 109
mosquito 109
newspapers 109
organizing 109
punishment 109
regularly 109
robotics 109
scratch 109
screaming 109
span 109
strike 109
tends 109
vegetables 109
witnessed 109
August 108
Bar@@ 108
Bible 108
Com@@ 108
Ethiopia 108
Jesus 108
Lord 108
May 108
P 108
U.S 108
believing 108
capita 108
construct 108
crimes 108
dose 108
hired 108
ming 108
minimum 108
momentum 108
na 108
ned 108
nights 108
obstacles 108
orders 108
outbreak 108
ping 108
prediction 108
renewable 108
rent 108
silver 108
specialized 108
stepped 108
sto@@ 108
terror 108
und@@ 108
voters 108
wider 108
-year-old 107
2004 107
February 107
Smith 107
U.K. 107
ali@@ 107
assumption 107
bedroom 107
blank 107
clue 107
coach 107
decision-making 107
entrepreneur 107
expecting 107
facilities 107
implement 107
intuitive 107
maker 107
oc@@ 107
occasionally 107
peaceful 107
pharmaceutical 107
precision 107
publish 107
regulation 107
reporting 107
scenes 107
screens 107
shrimp 107
tly 107
washing 107
whatsoever 107
15@@ 106
2001 106
CRISPR 106
Frank 106
Friday 106
accidents 106
activate 106
adapted 106
advocate 106
ang@@ 106
assets 106
burst 106
che@@ 106
controversial 106
demands 106
detailed 106
explaining 106
fe@@ 106
heaven 106
humanitarian 106
literacy 106
minister 106
murder 106
nonprofit 106
penguins 106
pretend 106
primitive 106
purposes 106
pyramid 106
regret 106
simplicity 106
spacecraft 106
tribes 106
west 106
1990s 105
African-American 105
Antarctica 105
Bush 105
MRI 105
So@@ 105
awkward 105
ay 105
biodiversity 105
bug 105
ca 105
chi@@ 105
classical 105
coin 105
column 105
disagree 105
earliest 105
eliminate 105
errors 105
forgot 105
fy 105
incentive 105
infant 105
intimate 105
ization 105
lit 105
mayor 105
monitoring 105
mutations 105
nutrition 105
ot 105
packed 105
qualities 105
reef 105
rush 105
sends 105
siblings 105
stopping 105
terrorists 105
translated 105
venture 105
wealthy 105
30,000 104
85 104
Lo@@ 104
absence 104
accuracy 104
acid 104
acids 104
ak@@ 104
alarm 104
authorities 104
bend 104
ber@@ 104
bizarre 104
client 104
collaborative 104
constraints 104
continuous 104
counter 104
damn 104
description 104
dri@@ 104
emotionally 104
establish 104
estimates 104
headlines 104
inf@@ 104
isolation 104
labs 104
ongoing 104
ore 104
plain 104
posted 104
psychologist 104
que 104
regime 104
responded 104
smooth 104
static 104
sub-@@ 104
ths 104
tumors 104
upside 104
worthy 104
-up 103
Carolina 103
Italian 103
Ne@@ 103
Ru@@ 103
achievement 103
all@@ 103
approved 103
circuits 103
defend 103
dr@@ 103
encouraging 103
enzymes 103
excuse 103
expressed 103
fibers 103
follows 103
fortunate 103
genocide 103
handful 103
highway 103
landing 103
lecture 103
linear 103
managers 103
mb@@ 103
sacrifice 103
sensor 103
stretch 103
terrified 103
tically 103
tor@@ 103
tribe 103
winds 103
wired 103
work@@ 103
worrying 103
800 102
Higgs 102
Roman 102
SS 102
Sunday 102
ats 102
beating 102
boom 102
bro@@ 102
bs 102
compassionate 102
confront 102
cy@@ 102
deaf 102
formation 102
hormone 102
human-@@ 102
insect 102
intensive 102
irony 102
knee 102
managing 102
med 102
mentor 102
ne 102
nest 102
pen@@ 102
portion 102
profession 102
reaches 102
refused 102
repeated 102
reproduce 102
seats 102
shortly 102
slower 102
spinning 102
staring 102
sur@@ 102
ta 102
territory 102
tic@@ 102
tongue 102
tur@@ 102
Art 101
Bronx 101
Har@@ 101
Northern 101
approaching 101
athletes 101
batteries 101
bite 101
chains 101
charges 101
cuts 101
den@@ 101
describing 101
download 101
duty 101
evolving 101
formula 101
gl@@ 101
hated 101
ir 101
manner 101
ments 101
paths 101
personalized 101
prevention 101
promised 101
rec@@ 101
relief 101
risky 101
shirt 101
shocking 101
st-@@ 101
temporary 101
touching 101
wires 101
36 100
700 100
Col@@ 100
December 100
Not 100
To 100
adjust 100
alist 100
chairs 100
crop 100
empower 100
hopeful 100
impressive 100
integrate 100
kes 100
narratives 100
panic 100
publicly 100
ratio 100
resist 100
sadly 100
shops 100
sun@@ 100
tering 100
threshold 100
unclear 100
10@@ 99
120 99
Au@@ 99
Gates 99
Good 99
Homo 99
July 99
No@@ 99
Q@@ 99
Scott 99
Star 99
ass 99
connects 99
copies 99
den 99
dictionary 99
discovering 99
historically 99
kills 99
mal@@ 99
mankind 99
mapping 99
mp@@ 99
ol 99
open-source 99
passes 99
rough 99
sion 99
soccer 99
straightforward 99
striking 99
ticket 99
trajectory 99
transplant 99
wedding 99
zones 99
Ad@@ 98
Do@@ 98
H 98
Vietnam 98
accomplish 98
branch 98
bridges 98
comedy 98
communicating 98
cotton 98
dinosaur 98
drawings 98
engines 98
formal 98
intention 98
iz@@ 98
ki@@ 98
luxury 98
magnitude 98
microbial 98
ology 98
ots 98
printer 98
prisons 98
ran@@ 98
re 98
routine 98
sadness 98
sizes 98
sustain 98
tight 98
tobacco 98
unbelievable 98
urge 98
ver 98
Cha@@ 97
Dutch 97
Lab 97
Red 97
Women 97
beautifully 97
bonds 97
cared 97
cop@@ 97
correctly 97
cra@@ 97
de-@@ 97
desperate 97
dolphins 97
ecological 97
empowered 97
expressions 97
fying 97
gained 97
impression 97
informal 97
investigate 97
ites 97
kindness 97
kingdom 97
loan 97
lowest 97
mere 97
mor@@ 97
na@@ 97
norms 97
oo@@ 97
pigs 97
poems 97
polar 97
poster 97
recycling 97
rejected 97
res 97
soup 97
supplies 97
th-@@ 97
vacation 97
wor@@ 97
yourselves 97
BF 96
Jane 96
Qu@@ 96
Turkey 96
U.N. 96
agent 96
anonymous 96
architectural 96
asleep 96
assumed 96
boats 96
campus 96
contained 96
contribution 96
dimension 96
division 96
dreaming 96
earned 96
equity 96
ered 96
expectancy 96
ey 96
fallen 96
geometry 96
involve 96
ists 96
journalism 96
le-@@ 96
leverage 96
or-@@ 96
ori@@ 96
package 96
pat@@ 96
pencil 96
planned 96
pollen 96
pursuit 96
realistic 96
ros@@ 96
sensation 96
six-@@ 96
teenage 96
teens 96
vo@@ 96
waited 96
Cal@@ 95
M 95
Organization 95
Pi@@ 95
Rights 95
Sea 95
Th@@ 95
affecting 95
aged 95
approximately 95
astonishing 95
attacked 95
attitudes 95
bored 95
cancers 95
chromosomes 95
connectivity 95
contrary 95
dly 95
economist 95
gross 95
hand@@ 95
handed 95
harmony 95
instant 95
interpretation 95
kin 95
mainstream 95
origins 95
owners 95
pressing 95
protective 95
randomly 95
raped 95
refuse 95
squ@@ 95
strategic 95
succeeded 95
trains 95
van 95
wrap 95
é@@ 95
1950s 94
Gi@@ 94
Jack 94
Or 94
Sch@@ 94
accountable 94
agreement 94
alternatives 94
chromosome 94
curriculum 94
delivering 94
employment 94
flowing 94
freely 94
fu@@ 94
grocery 94
hum 94
ly@@ 94
marijuana 94
mathematicians 94
micro-@@ 94
morality 94
occurring 94
recognizing 94
remembering 94
replicate 94
ritual 94
rope 94
selected 94
separation 94
signature 94
slaves 94
thumb 94
tro@@ 94
unconscious 94
20s 93
50s 93
Dad 93
FDA 93
Mark 93
Soviet 93
These 93
alism 93
assistance 93
astronomers 93
behalf 93
biologist 93
boards 93
breeding 93
cellular 93
clarity 93
classrooms 93
comic 93
consumed 93
convey 93
cope 93
crossed 93
cycles 93
dec@@ 93
default 93
demonstrated 93
disabilities 93
discipline 93
drones 93
drum 93
equations 93
ethnic 93
fabulous 93
gardens 93
generous 93
gh@@ 93
infectious 93
lake 93
large-scale 93
low-income 93
manipulate 93
mask 93
mutation 93
offices 93
poly@@ 93
pri@@ 93
reactor 93
remarkably 93
resolve 93
screening 93
shine 93
subway 93
targeted 93
teaches 93
tendency 93
trading 93
tru@@ 93
tune 93
Berlin 92
Eric 92
Mike 92
Ri@@ 92
accountability 92
advances 92
analogy 92
bottles 92
ched 92
clay 92
competing 92
dropping 92
fortune 92
gen@@ 92
graphics 92
holy 92
islands 92
legitimate 92
libraries 92
migration 92
multiply 92
plug 92
pointing 92
rac@@ 92
receptors 92
representative 92
returns 92
revolutionary 92
selves 92
sted 92
stressed 92
trans 92
two-thirds 92
wore 92
29 91
33 91
Bob 91
Brooklyn 91
Cambridge 91
Court 91
Right 91
adopt 91
allies 91
altogether 91
array 91
ban 91
bas@@ 91
bombs 91
cation 91
chess 91
clinics 91
continuing 91
cs 91
deck 91
despair 91
destroying 91
discussions 91
dominated 91
equals 91
estate 91
illustrate 91
intensity 91
investments 91
lists 91
locally 91
mining 91
nu@@ 91
opera 91
overnight 91
partnership 91
practicing 91
priority 91
purple 91
reader 91
shifted 91
useless 91
vary 91
37 90
Beijing 90
Bri@@ 90
DB 90
Minister 90
Mother 90
People 90
Research 90
Rio 90
Tri@@ 90
Virginia 90
William 90
absorb 90
activism 90
ai 90
ak 90
and@@ 90
anxious 90
appearance 90
astronauts 90
banking 90
coastal 90
colonies 90
corners 90
deepest 90
drops 90
ee 90
findings 90
flash 90
footage 90
golf 90
hunt 90
ideology 90
initiative 90
kin@@ 90
laughed 90
logy 90
messy 90
mines 90
museums 90
overwhelmed 90
pants 90
peoples 90
planetary 90
pos@@ 90
promising 90
purely 90
realities 90
sk@@ 90
tables 90
topics 90
trap 90
tubes 90
understands 90
variations 90
wh@@ 90
Joe 89
Laughs 89
Narrator 89
November 89
PhD 89
Square 89
accurately 89
alizing 89
and-@@ 89
backs 89
belongs 89
blown 89
collapsed 89
cousin 89
cows 89
cream 89
cru@@ 89
delicious 89
efficiently 89
enemies 89
entry 89
g-@@ 89
grades 89
heritage 89
ian 89
independence 89
ined 89
lin@@ 89
magnificent 89
matrix 89
melt 89
methane 89
minority 89
mud 89
musician 89
nitrogen 89
nuts 89
openness 89
pers 89
pet 89
pockets 89
portrait 89
respected 89
sciences 89
settled 89
sho@@ 89
simpler 89
steady 89
struggles 89
taxes 89
tear 89
tre@@ 89
1960s 88
28 88
Your 88
administration 88
amazed 88
ari@@ 88
attempts 88
backgrounds 88
bat 88
carries 88
checking 88
collaborate 88
compromise 88
concert 88
conduct 88
consent 88
covers 88
dge 88
downtown 88
editor 88
fans 88
fault 88
fication 88
functioning 88
garage 88
glaciers 88
hackers 88
hip 88
inches 88
joint 88
ken 88
legislation 88
march 88
ordered 88
paralyzed 88
parenting 88
photographed 88
preventing 88
rethink 88
shifts 88
shore 88
skilled 88
stack 88
technically 88
tin 88
tolerance 88
ton@@ 88
travels 88
truths 88
ups 88
visiting 88
wage 88
# 87
-and-@@ 87
2017 87
Alexander 87
First 87
Oxford 87
Si@@ 87
ack 87
af@@ 87
airplanes 87
bugs 87
careers 87
celebrated 87
cigarette 87
demonstration 87
distances 87
donor 87
doubled 87
expanded 87
exponential 87
fence 87
fer@@ 87
fever 87
gains 87
gr@@ 87
hand-@@ 87
harness 87
heading 87
heavily 87
immense 87
injured 87
installed 87
journal 87
machinery 87
meals 87
metric 87
microscopic 87
myths 87
neat 87
nerves 87
neutral 87
pathways 87
perceptions 87
pot 87
prisoner 87
rage 87
sake 87
satisfaction 87
sheer 87
short-term 87
sir 87
surgeons 87
therapist 87
trips 87
tropical 87
tuna 87
tunnel 87
ward 87
widespread 87
wildlife 87
worms 87
é 87
&apos;clock 86
13@@ 86
6,000 86
April 86
Blue 86
Brown 86
Cor@@ 86
Daniel 86
FBI 86
Georgia 86
Greece 86
Jo@@ 86
Law 86
PTSD 86
Philadelphia 86
Tony 86
alization 86
associate 86
belt 86
bills 86
canvas 86
cap@@ 86
cleaning 86
continents 86
courses 86
cruel 86
declared 86
dirt 86
employee 86
enjoyed 86
ering 86
fac@@ 86
fies 86
friction 86
gentleman 86
gravitational 86
guards 86
hat 86
historic 86
imagining 86
inevitably 86
interpret 86
loans 86
marked 86
mentally 86
origami 86
pill 86
politically 86
posed 86
rats 86
riding 86
selfish 86
serves 86
shipping 86
shorter 86
skeleton 86
triangle 86
trusted 86
vessel 86
48 85
Academy 85
Arthur 85
Catholic 85
Ha@@ 85
SB 85
Santa 85
Zealand 85
accelerate 85
ach@@ 85
arguing 85
ative 85
atomic 85
augmented 85
ba 85
beaten 85
bow 85
brands 85
command 85
computational 85
contributing 85
craft 85
diameter 85
diving 85
dumb 85
enti@@ 85
frightening 85
ging 85
glucose 85
grave 85
horror 85
ire 85
item 85
knife 85
likelihood 85
marketplace 85
marks 85
marrow 85
numerous 85
pills 85
pin@@ 85
presidential 85
proportion 85
raises 85
restaurants 85
slave 85
sti@@ 85
terribly 85
therapies 85
zes 85
Ben@@ 84
Church 84
Green 84
Industrial 84
Olympics 84
Our 84
UN 84
V 84
achieving 84
ama@@ 84
av@@ 84
awe 84
bond 84
broader 84
cartoons 84
comp@@ 84
considering 84
continuously 84
counts 84
cracks 84
da@@ 84
describes 84
destination 84
destiny 84
flood 84
ged 84
geography 84
headline 84
helicopter 84
hoped 84
intersection 84
interventions 84
mit@@ 84
modeling 84
nearest 84
onstage 84
pulls 84
retirement 84
sandwich 84
select 84
sequences 84
sexually 84
sexy 84
smells 84
stigma 84
tent 84
transmit 84
voted 84
websites 84
welfare 84
wheels 84
Ap@@ 83
Civil 83
County 83
Empire 83
En@@ 83
Min@@ 83
NGOs 83
Norway 83
abundance 83
activated 83
amazingly 83
argued 83
authors 83
belonging 83
blowing 83
consensus 83
criminals 83
dishes 83
dopamine 83
elegant 83
est@@ 83
extension 83
generic 83
horses 83
ill@@ 83
immigrant 83
kidney 83
kit 83
landscapes 83
log 83
losses 83
manual 83
mathematician 83
mic 83
missions 83
philosophers 83
pie 83
pole 83
pornography 83
rat 83
rating 83
reasoning 83
repeatedly 83
reproductive 83
resilient 83
rituals 83
sectors 83
shelf 83
shit 83
smiling 83
temple 83
transformative 83
uc@@ 83
ya 83
Army 82
Inter@@ 82
Korean 82
Milky 82
N 82
Or@@ 82
SW 82
assigned 82
bang 82
breakthrough 82
builds 82
bullet 82
cate 82
chemotherapy 82
cross-@@ 82
deforestation 82
denial 82
determines 82
documentary 82
endangered 82
expedition 82
explored 82
famously 82
fraud 82
harsh 82
hey 82
hi 82
hierarchy 82
improvements 82
insulin 82
integration 82
jumping 82
passenger 82
perspectives 82
planted 82
rebel 82
recycled 82
returning 82
scholars 82
sexuality 82
sheets 82
shoe 82
shoulders 82
shrink 82
spell 82
spends 82
stake 82
strings 82
struggled 82
switched 82
towns 82
tweet 82
unhappy 82
viewed 82
virtue 82
2030 81
55 81
Bra@@ 81
DH 81
Johnson 81
Mi@@ 81
St. 81
amino 81
blindness 81
bowl 81
caves 81
combinations 81
decides 81
defining 81
demographic 81
dilemma 81
drone 81
embarrassing 81
fairness 81
fin@@ 81
flesh 81
gers 81
high-tech 81
hometown 81
hyper@@ 81
indicate 81
iting 81
jet 81
meets 81
miserable 81
oxytocin 81
passive 81
poison 81
practically 81
prescription 81
programmed 81
recommend 81
referred 81
reflected 81
regulations 81
rings 81
sanitation 81
shining 81
skeptical 81
sub-Saharan 81
subjective 81
ther 81
tw@@ 81
uniform 81
valley 81
wrapped 81
1.5 80
Atlanta 80
Ba@@ 80
Bangladesh 80
Chile 80
Council 80
Egyptian 80
Ireland 80
MS 80
alter 80
awake 80
cal 80
clues 80
computation 80
concentrated 80
criteria 80
democracies 80
deploy 80
discussing 80
ess 80
exam 80
gear 80
hal@@ 80
humility 80
investigation 80
keyboard 80
pad 80
passwords 80
peer 80
phenomena 80
predictable 80
representing 80
secondary 80
sixth 80
smallpox 80
sters 80
stressful 80
throat 80
twins 80
urgent 80
weekend 80
wet 80
wins 80
worm 80
ws 80
yield 80
zo@@ 80
2020 79
Age 79
Fund 79
High 79
Yorker 79
abundant 79
acceptable 79
antibiotic 79
appeal 79
applies 79
cal@@ 79
calculations 79
chamber 79
civility 79
co 79
cousins 79
dawn 79
displaced 79
distinction 79
encountered 79
exploit 79
foundations 79
gotta 79
happily 79
humble 79
lean 79
lin 79
ooh 79
pathway 79
penalty 79
plastics 79
privileged 79
proposal 79
questioning 79
racist 79
sauce 79
scanner 79
sen@@ 79
spreads 79
stolen 79
sugars 79
tal@@ 79
visualize 79
waking 79
wed 79
20-@@ 78
200,000 78
2002 78
42 78
Bur@@ 78
Grand 78
Howard 78
Indonesia 78
Islands 78
Jupiter 78
La@@ 78
Lake 78
Nick 78
RNA 78
Shakespeare 78
Sierra 78
Un@@ 78
alike 78
autonomy 78
belly 78
cluster 78
codes 78
contributed 78
converted 78
convicted 78
counter@@ 78
creator 78
edit 78
electrodes 78
electron 78
embarrassed 78
empowering 78
enabling 78
episode 78
fails 78
frames 78
generates 78
grasp 78
hatred 78
inherently 78
jellyfish 78
ker@@ 78
knees 78
limbs 78
logo 78
loneliness 78
men@@ 78
microphone 78
nucleus 78
professors 78
publishing 78
rainforest 78
rays 78
real-time 78
realization 78
releasing 78
scanning 78
ss@@ 78
star@@ 78
strip 78
texts 78
ther@@ 78
tsunami 78
ubiquitous 78
vers 78
vocal 78
wasted 78
whoever 78
ye@@ 78
zing 78
2018 77
60,000 77
Apollo 77
Can@@ 77
DC 77
Kingdom 77
On 77
Republican 77
Saturn 77
Seattle 77
Stephen 77
Which 77
anniversary 77
automated 77
blew 77
bra@@ 77
canopy 77
cattle 77
civilizations 77
coat 77
cocaine 77
consciously 77
convenient 77
curves 77
deals 77
decent 77
def@@ 77
don@@ 77
ently 77
feeds 77
girlfriend 77
hook 77
identifying 77
incident 77
individually 77
insane 77
interior 77
loads 77
mall 77
masses 77
millennials 77
minus 77
mold 77
optical 77
palm 77
patents 77
ple@@ 77
puzzles 77
qui@@ 77
radi@@ 77
settle 77
single-@@ 77
sounded 77
speeds 77
stairs 77
storms 77
texting 77
troops 77
valued 77
ved 77
wives 77
zz@@ 77
0 76
30s 76
Chi@@ 76
Disney 76
Du@@ 76
Gra@@ 76
Hedge 76
Jersey 76
Mer@@ 76
My@@ 76
NSA 76
Pre@@ 76
Sarah 76
Saturday 76
abroad 76
accomplished 76
aesthetic 76
aries 76
ash 76
assembly 76
backyard 76
basketball 76
beats 76
ber 76
cares 76
catching 76
commons 76
comparing 76
confusion 76
cues 76
dare 76
documented 76
drama 76
elementary 76
embracing 76
flags 76
fle@@ 76
fungi 76
gorgeous 76
greatly 76
institutional 76
introduction 76
lat@@ 76
leaf 76
livestock 76
long-@@ 76
matched 76
membrane 76
mimic 76
namely 76
nonetheless 76
ong 76
processed 76
request 76
sale 76
scenarios 76
sooner 76
spite 76
steam 76
stro@@ 76
supportive 76
tale 76
tion@@ 76
trafficking 76
trait 76
transit 76
victory 76
ying 76
31 75
40,000 75
Cs 75
Ford 75
Me 75
Mu@@ 75
Native 75
Nigerian 75
Of 75
Shanghai 75
Venus 75
We@@ 75
ant@@ 75
asteroid 75
ath@@ 75
br@@ 75
buses 75
confronted 75
critically 75
distinguish 75
down@@ 75
encryption 75
enterprise 75
epic 75
farther 75
genomes 75
glue 75
guitar 75
hom@@ 75
jo@@ 75
lanes 75
mapped 75
maximum 75
monster 75
observing 75
plates 75
recall 75
reject 75
retina 75
rises 75
rooted 75
schizophrenia 75
shy 75
slums 75
transforming 75
washed 75
weigh 75
winners 75
wrist 75
1960 74
At 74
CO@@ 74
Ca@@ 74
Development 74
Ed 74
El 74
Hospital 74
Moore 74
Netherlands 74
Newton 74
Pol@@ 74
Tanzania 74
addressing 74
applause 74
ata 74
avoiding 74
bail 74
by-@@ 74
cap 74
characteristic 74
cli@@ 74
composition 74
consists 74
copyright 74
cosmos 74
couch 74
digging 74
directed 74
disrupt 74
disruption 74
dolphin 74
examine 74
foster 74
gates 74
glow 74
halfway 74
illnesses 74
installation 74
int 74
modified 74
nodes 74
orchestra 74
ose 74
pathogens 74
pays 74
phantom 74
planting 74
principal 74
pulse 74
quo 74
racing 74
recovered 74
server 74
shaking 74
suck 74
supports 74
terrain 74
ture 74
vagina 74
votes 74
72 73
Bell 73
Canadian 73
Caribbean 73
ISIS 73
Indians 73
Lincoln 73
Please 73
acceptance 73
ach 73
addicted 73
anticipate 73
asset 73
ath 73
borrow 73
bother 73
bucks 73
collaborators 73
composed 73
confirmed 73
counted 73
dd@@ 73
denied 73
disturbing 73
eli@@ 73
ena 73
ency 73
entrance 73
fatal 73
filling 73
firsthand 73
frustration 73
ga 73
glamorous 73
goodbye 73
impacted 73
joining 73
lasting 73
life-@@ 73
lifted 73
lined 73
masters 73
mattered 73
norm 73
noticing 73
philosophical 73
politician 73
producers 73
promoting 73
radar 73
satisfied 73
seawater 73
sensing 73
simplest 73
slice 73
supermarket 73
texture 73
theoretical 73
threatening 73
tures 73
wheat 73
win@@ 73
youngest 73
1990 72
96 72
Bay 72
For@@ 72
Harry 72
Jeff 72
Ju@@ 72
Long 72
Mor@@ 72
Sal@@ 72
Ta@@ 72
Uber 72
X-ray 72
affairs 72
ambition 72
analyzing 72
arrest 72
artwork 72
assemble 72
book@@ 72
calculated 72
checked 72
chimpanzee 72
commonly 72
corrupt 72
demanding 72
dent 72
deployed 72
desires 72
detected 72
devil 72
enjoying 72
equipped 72
ery 72
float 72
hel@@ 72
iconic 72
incarceration 72
injuries 72
interviews 72
judges 72
k-@@ 72
ki 72
lic 72
low-cost 72
mysteries 72
orbiting 72
piles 72
priorities 72
probe 72
procedures 72
propaganda 72
pur@@ 72
qualified 72
reproduction 72
researching 72
responding 72
shing 72
shower 72
significance 72
spelling 72
spray 72
stare 72
sweat 72
sy 72
talented 72
thankfully 72
thriving 72
top@@ 72
traditionally 72
winner 72
Air 71
Delhi 71
IQ 71
Ki@@ 71
Nature 71
Professor 71
Ros@@ 71
Sha@@ 71
Swiss 71
USA 71
ace 71
aliens 71
asteroids 71
attracted 71
autistic 71
campaigns 71
certainty 71
circular 71
collision 71
convincing 71
coverage 71
deciding 71
disasters 71
disgust 71
ease 71
editing 71
enters 71
entropy 71
ethics 71
exp@@ 71
extraordinarily 71
finite 71
gifts 71
gy 71
harassment 71
intentions 71
interconnected 71
involving 71
justify 71
kicked 71
lamp 71
matches 71
mirrors 71
nasty 71
offspring 71
play@@ 71
pro-@@ 71
reflects 71
replacing 71
rewards 71
romance 71
sought 71
sufficient 71
suits 71
surgical 71
surround 71
thrilled 71
tricky 71
trivial 71
uni@@ 71
universes 71
utterly 71
viewer 71
wishes 71
+ 70
17th 70
1999 70
50-@@ 70
7,000 70
Ben 70
Clinton 70
Gore 70
Human 70
Jews 70
Kevin 70
La 70
Mississippi 70
Pal@@ 70
Singapore 70
Taliban 70
To@@ 70
Video 70
alpha 70
ang 70
assuming 70
bell 70
beneficial 70
bind 70
bit@@ 70
blogs 70
bul@@ 70
cat@@ 70
checks 70
clusters 70
compound 70
cyber 70
dates 70
digit 70
discussed 70
drag 70
ego 70
elaborate 70
enzyme 70
exhibit 70
exotic 70
famine 70
fitness 70
folding 70
founder 70
frequent 70
full-time 70
gar@@ 70
glimpse 70
grace 70
guilt 70
heating 70
hemisphere 70
hydro@@ 70
instinct 70
intimacy 70
labeled 70
land@@ 70
laying 70
melting 70
millennia 70
mixture 70
mp 70
noises 70
ok 70
ok@@ 70
orientation 70
ox@@ 70
pipe 70
rigid 70
school@@ 70
ser@@ 70
stereotypes 70
stra@@ 70
strikes 70
surgeries 70
sustained 70
tion-@@ 70
toes 70
transgender 70
wages 70
wooden 70
yard 70
1980 69
Bruno 69
College 69
El@@ 69
Fi@@ 69
Nairobi 69
Nelson 69
accidentally 69
acquired 69
acres 69
altitude 69
boundary 69
bump 69
candy 69
cating 69
cement 69
chan@@ 69
char@@ 69
climbed 69
clubs 69
cooling 69
crap 69
cri@@ 69
defines 69
demo 69
deserves 69
di 69
dial 69
discomfort 69
editors 69
ese 69
flu@@ 69
ft 69
funeral 69
ger@@ 69
hood 69
hy@@ 69
infrared 69
intact 69
intent 69
kidding 69
lightning 69
loose 69
mature 69
minimize 69
motors 69
my@@ 69
oral 69
passage 69
pray 69
preferences 69
promises 69
recycle 69
releases 69
reserves 69
scheme 69
stepping 69
strict 69
sw@@ 69
tom@@ 69
torture 69
traumatic 69
unfair 69
ut@@ 69
vice 69
ville 69
year-olds 69
1998 68
8,000 68
Argentina 68
Bre@@ 68
Cape 68
Come 68
Ed@@ 68
Fa@@ 68
Lagos 68
MR 68
Mac@@ 68
Queen 68
Supreme 68
System 68
Tim 68
U 68
Wi@@ 68
accelerating 68
accused 68
an-@@ 68
analyzed 68
answering 68
ash@@ 68
assignment 68
assistant 68
bal@@ 68
balanced 68
basement 68
beam 68
blocking 68
bor@@ 68
buttons 68
chase 68
col@@ 68
comet 68
comics 68
cooperate 68
cried 68
destructive 68
ecology 68
fantasy 68
financially 68
friendship 68
fruits 68
gesture 68
gg@@ 68
goodness 68
hor@@ 68
huh 68
implant 68
ingredient 68
inmates 68
innovate 68
jihad 68
kiss 68
knock 68
ko 68
lethal 68
lips 68
matic 68
mes 68
nar@@ 68
obstacle 68
passengers 68
pose 68
post@@ 68
pour 68
pper 68
regulate 68
relax 68
removing 68
resulting 68
rolled 68
scientifically 68
sensitivity 68
sequencing 68
shares 68
slip 68
sm@@ 68
spatial 68
streams 68
talents 68
tan@@ 68
tar@@ 68
timing 68
tin@@ 68
ultraviolet 68
unemployment 68
usage 68
varieties 68
western 68
willingness 68
worn 68
ze@@ 68
,000-@@ 67
10-@@ 67
34 67
98 67
Ac@@ 67
Berkeley 67
Coast 67
Derek 67
Force 67
Ke@@ 67
Michigan 67
Mil@@ 67
Saudi 67
Sir 67
Vi@@ 67
advantages 67
apologize 67
aspirations 67
atmospheric 67
attend 67
biased 67
bun@@ 67
cardiac 67
ceremony 67
champion 67
chasing 67
clo@@ 67
copper 67
courts 67
dar@@ 67
diagnose 67
disappointed 67
drunk 67
emerges 67
empowerment 67
enhance 67
fees 67
followers 67
frustrating 67
futures 67
genuine 67
helmet 67
ide@@ 67
iled 67
ise 67
left-hand 67
loses 67
mammal 67
manufacture 67
massively 67
maximize 67
mixing 67
mutual 67
newly 67
ony 67
over-@@ 67
philanthropy 67
placing 67
plankton 67
problematic 67
protests 67
pul@@ 67
q@@ 67
receptor 67
regard 67
reserve 67
right-hand 67
shipped 67
sions 67
skip 67
spill 67
staggering 67
stri@@ 67
structured 67
suspended 67
textbooks 67
toilets 67
&apos;all 66
Albert 66
Aristotle 66
Brian 66
CEOs 66
Hong 66
Leone 66
Mal@@ 66
Monday 66
Olympic 66
Pa@@ 66
RB 66
RS 66
San@@ 66
She@@ 66
Sp@@ 66
Switzerland 66
adds 66
ai@@ 66
alists 66
alphabet 66
apparent 66
are@@ 66
assembled 66
automobile 66
beloved 66
boost 66
cage 66
ced 66
chat 66
chickens 66
cliff 66
consuming 66
contributions 66
cr@@ 66
crystal 66
cube 66
dementia 66
diamonds 66
double-@@ 66
economically 66
elevator 66
existential 66
exploded 66
firing 66
flexibility 66
forgive 66
format 66
gestures 66
gn@@ 66
grounds 66
gun@@ 66
hack 66
helium 66
highlight 66
hippocampus 66
horizontal 66
iling 66
inclusion 66
jokes 66
jungle 66
laptops 66
lasted 66
lining 66
makeup 66
marker 66
measurement 66
minor 66
ney 66
obsolete 66
off@@ 66
ologist 66
operates 66
participating 66
pic@@ 66
pizza 66
prosthetic 66
protects 66
retail 66
scaling 66
sections 66
shes 66
squares 66
suggestion 66
tails 66
ter-@@ 66
thread 66
viable 66
visions 66
vocabulary 66
well-known 66
wn 66
Andrew 65
Children 65
Kennedy 65
Mandela 65
McDonald 65
Media 65
Netflix 65
Ni@@ 65
Parkinson 65
Party 65
Thanks 65
The@@ 65
artifacts 65
ashamed 65
athlete 65
attach 65
bon@@ 65
cart 65
catastrophic 65
celebration 65
cell@@ 65
cheat 65
concentrate 65
coordination 65
deliberately 65
detector 65
distress 65
divorce 65
embraced 65
experimenting 65
flo@@ 65
fre@@ 65
govern 65
gue 65
guest 65
hacking 65
infect 65
inherited 65
integrity 65
millimeter 65
minerals 65
nationalism 65
password 65
perfection 65
pond 65
pr@@ 65
prayer 65
predator 65
preparation 65
prostate 65
relation 65
reminder 65
replacement 65
reveals 65
rotate 65
ry@@ 65
sch@@ 65
sculptures 65
sec@@ 65
see@@ 65
settings 65
shadows 65
societal 65
spare 65
stic 65
strands 65
surviving 65
survivor 65
suspicious 65
time-@@ 65
um@@ 65
ung 65
unintended 65
visualization 65
warfare 65
with@@ 65
wow 65
2.5 64
25,000 64
Australian 64
Fer@@ 64
Fre@@ 64
Leonardo 64
Ms. 64
Palestinian 64
acute 64
anytime 64
apples 64
ashes 64
astronomy 64
brick 64
bury 64
clap 64
colorful 64
columns 64
crises 64
cyber@@ 64
deception 64
depths 64
directors 64
divine 64
donated 64
electro@@ 64
ell@@ 64
empire 64
expense 64
explanations 64
explode 64
fifty 64
fisheries 64
flavor 64
full-@@ 64
glacier 64
grains 64
grant 64
heroic 64
hiring 64
histories 64
illustration 64
inflation 64
inventor 64
juice 64
lenses 64
midst 64
nevertheless 64
novelty 64
occasion 64
odor 64
offshore 64
openly 64
patience 64
peculiar 64
persuade 64
photo@@ 64
practiced 64
pressures 64
pursuing 64
scope 64
seal 64
ski 64
solo 64
spark 64
ster@@ 64
systematically 64
tattoo 64
tide 64
tioned 64
tively 64
trail 64
tuberculosis 64
twist 64
unfortunate 64
visually 64
warrior 64
woods 64
worldview 64
0.@@ 63
15,000 63
3.@@ 63
64 63
Cold 63
Copenhagen 63
Gandhi 63
Greeks 63
Hubble 63
Israeli 63
JC 63
JH 63
KB 63
Mount 63
Old 63
Pri@@ 63
Ray 63
Then 63
Watson 63
absurd 63
accepting 63
accounting 63
acquire 63
acy 63
approval 63
asylum 63
automatic 63
bulb 63
combining 63
commodity 63
coordinate 63
correlation 63
cou@@ 63
day-to-day 63
deny 63
drought 63
exceptions 63
expectation 63
firmly 63
fishermen 63
fixing 63
fungus 63
grabbed 63
ham 63
headquarters 63
honesty 63
ids 63
implemented 63
inform 63
install 63
issued 63
memes 63
obese 63
ous@@ 63
outs 63
overhead 63
paralysis 63
patch 63
permanently 63
pixels 63
pp@@ 63
primates 63
profitable 63
ranging 63
reduces 63
relativity 63
rolls 63
scans 63
schedule 63
spiders 63
strongest 63
swing 63
systematic 63
systemic 63
tangible 63
tran@@ 63
transported 63
triggers 63
variable 63
veterans 63
yoga 63
0@@ 62
A-@@ 62
Beethoven 62
Christians 62
Columbia 62
Geographic 62
Greenland 62
IBM 62
Luther 62
Republic 62
Te@@ 62
W 62
affair 62
ambulance 62
ances 62
angles 62
annoying 62
ases 62
assault 62
authoritarian 62
blessed 62
carpet 62
celebrating 62
constrained 62
dancers 62
developers 62
eastern 62
electromagnetic 62
emphasize 62
entities 62
evaluate 62
floors 62
gaze 62
habitats 62
helpless 62
icon 62
jazz 62
lan@@ 62
learns 62
lifelong 62
lighter 62
longest 62
lottery 62
ment@@ 62
mouths 62
operated 62
ops 62
payment 62
phosphorus 62
picks 62
potent 62
programmers 62
progressive 62
proposition 62
punch 62
quietly 62
rains 62
routes 62
sail 62
settlement 62
shelves 62
souls 62
statue 62
stocks 62
sty 62
submit 62
summit 62
textbook 62
towers 62
tracked 62
transmitted 62
typing 62
utility 62
val@@ 62
variables 62
warmer 62
-free 61
130 61
18th 61
30-@@ 61
47 61
Alex 61
C. 61
Che@@ 61
Jones 61
Kong 61
Library 61
Like 61
Line 61
Mt 61
Syrian 61
Telescope 61
ancestor 61
ani@@ 61
apartments 61
appreciation 61
assess 61
association 61
att@@ 61
attempted 61
aunt 61
bearing 61
beds 61
beside 61
bil@@ 61
bloodstream 61
brutal 61
cardboard 61
claimed 61
cooperative 61
courageous 61
dangers 61
debris 61
disciplines 61
dung 61
emb@@ 61
ever-@@ 61
feminine 61
gentle 61
graphs 61
home@@ 61
impressed 61
intervene 61
invitation 61
kindergarten 61
lately 61
legally 61
loaded 61
maintenance 61
mating 61
meditation 61
mid@@ 61
motions 61
motivate 61
n-@@ 61
naive 61
nightmare 61
onic 61
oring 61
parasite 61
port 61
pped 61
prefrontal 61
presenting 61
ray 61
reporter 61
richest 61
ron@@ 61
rows 61
sailing 61
scarce 61
slowing 61
streaming 61
strengths 61
tags 61
tastes 61
themes 61
thin@@ 61
tical 61
tick 61
tickets 61
tightly 61
tips 61
tribal 61
uh 61
yp@@ 61
za 61
1,500 60
1930s 60
86 60
AR@@ 60
Alice 60
Association 60
Brazilian 60
Bro@@ 60
Charlie 60
Christopher 60
Hall 60
Jordan 60
Joseph 60
Ku@@ 60
Love 60
Peace 60
Pen@@ 60
Senate 60
Tokyo 60
Tor@@ 60
Tur@@ 60
Woman 60
Z 60
acted 60
adaptive 60
addressed 60
aff@@ 60
aligned 60
arena 60
bin 60
but@@ 60
chaotic 60
creators 60
defeat 60
delay 60
derived 60
dimensional 60
disappears 60
disruptive 60
dreamed 60
dro@@ 60
eighth 60
emergence 60
exclusive 60
exhausted 60
exploitation 60
feathers 60
fire@@ 60
fled 60
folds 60
founders 60
freezing 60
fun@@ 60
generosity 60
guaranteed 60
hear@@ 60
hon@@ 60
hostile 60
hot@@ 60
humankind 60
index 60
ingenuity 60
inherent 60
initiatives 60
intriguing 60
ladder 60
launching 60
leather 60
m-@@ 60
medi@@ 60
metabolism 60
migrate 60
occupy 60
od 60
off-@@ 60
pee 60
phrases 60
physiological 60
pit 60
pleasant 60
prevents 60
purchase 60
silicon 60
simulate 60
stakes 60
statistical 60
substances 60
superpower 60
tanks 60
terrific 60
theirs 60
ti 60
tis 60
toll 60
twin 60
voyage 60
writes 60
zeros 60
1,@@ 59
1950 59
1984 59
1995 59
38 59
Alan 59
Ban@@ 59
Br@@ 59
Gs 59
Hawaii 59
Louis 59
Mat@@ 59
NGO 59
Nor@@ 59
Parliament 59
Ser@@ 59
Steven 59
Talks 59
Tesla 59
Whoa 59
Wil@@ 59
Yale 59
absorbed 59
adoption 59
alert 59
bert 59
bility 59
bin@@ 59
ble@@ 59
blocked 59
broadly 59
cigarettes 59
clu@@ 59
confusing 59
cont@@ 59
culturally 59
custom 59
delicate 59
diagnostic 59
diarrhea 59
disappearing 59
donate 59
dough 59
ei@@ 59
envelope 59
excess 59
exercises 59
exit 59
festival 59
filters 59
fossils 59
freeze 59
frequencies 59
frightened 59
frontier 59
gratitude 59
habitable 59
headaches 59
holiday 59
households 59
ils 59
independently 59
ironic 59
irrational 59
knocked 59
lane 59
lap 59
liberty 59
maintaining 59
monthly 59
murdered 59
opposition 59
phenomenal 59
pipes 59
pleased 59
policing 59
poorly 59
portable 59
pressed 59
responds 59
salary 59
sessions 59
sin@@ 59
spiral 59
statistic 59
stealing 59
sticking 59
taller 59
tiles 59
tomato 59
triggered 59
tuned 59
twenty 59
unnecessary 59
urgency 59
ut 59
varied 59
wandering 59
wounds 59
xi@@ 59
350 58
97 58
Alabama 58
Coke 58
Fe@@ 58
Iceland 58
LA 58
Movement 58
Pennsylvania 58
Security 58
Ver@@ 58
Will 58
accent 58
apes 58
armor 58
assi@@ 58
authenticity 58
balloons 58
biomass 58
bricks 58
browser 58
ck@@ 58
coding 58
congestion 58
conviction 58
cricket 58
dancer 58
del@@ 58
digits 58
distribute 58
duck 58
eight-@@ 58
eless 58
ening 58
entitled 58
ess@@ 58
essay 58
fights 58
files 58
frog 58
fulfill 58
gallery 58
gan@@ 58
gigantic 58
gre@@ 58
gru@@ 58
guidance 58
guided 58
hammer 58
hence 58
hips 58
hut 58
illustrates 58
instruction 58
int@@ 58
ion 58
jeans 58
labels 58
magazines 58
migrants 58
moms 58
needing 58
obsession 58
outbreaks 58
ow@@ 58
parliament 58
pervasive 58
projection 58
prototypes 58
quantities 58
reactors 58
responsibilities 58
rhythms 58
ruled 58
self-driving 58
shaping 58
sia 58
sketch 58
slight 58
spirits 58
stated 58
successes 58
surroundings 58
tered 58
the-@@ 58
thy 58
traces 58
uniquely 58
unlock 58
viewing 58
visitors 58
wavelength 58
weekly 58
1994 57
2,@@ 57
Answer 57
Defense 57
Did 57
Dis@@ 57
Donald 57
Everest 57
IS@@ 57
MK 57
Mozart 57
Mumbai 57
News 57
Por@@ 57
Somalia 57
Swedish 57
Ter@@ 57
accompanied 57
accumulate 57
ater 57
beetle 57
circulation 57
competitors 57
complain 57
consistently 57
crude 57
currents 57
earning 57
ella 57
em@@ 57
enslaved 57
fast-forward 57
fragments 57
fri@@ 57
gal@@ 57
gri@@ 57
gro@@ 57
hallucinations 57
heated 57
high-quality 57
hint 57
horrific 57
hypothetical 57
ign@@ 57
infinitely 57
ining 57
lab@@ 57
lit@@ 57
lo 57
lobby 57
matching 57
mild 57
nicely 57
nursing 57
oftentimes 57
oning 57
ora 57
overseas 57
owe 57
parachute 57
pity 57
pouring 57
protocol 57
races 57
recruit 57
redesign 57
rescued 57
restricted 57
reviews 57
ris@@ 57
scream 57
seventh 57
smartphones 57
solidarity 57
statements 57
stimulation 57
stretched 57
testosterone 57
tweets 57
unstable 57
vultures 57
wan@@ 57
yards 57
40s 56
900 56
Goals 56
Golden 56
LED 56
Lebanon 56
Orleans 56
Republicans 56
Sil@@ 56
Wal@@ 56
admire 56
admitted 56
allo@@ 56
aluminum 56
asthma 56
automation 56
bamboo 56
bikes 56
bli@@ 56
bly 56
bre@@ 56
broadcast 56
budgets 56
caps 56
capturing 56
catastrophe 56
chef 56
confession 56
cop 56
corresponds 56
dest 56
din@@ 56
distracted 56
dness 56
dy@@ 56
employ 56
executed 56
execution 56
gy@@ 56
h-@@ 56
harbor 56
hats 56
ideals 56
imperative 56
inventions 56
ironically 56
irrelevant 56
joints 56
lectures 56
leg@@ 56
longevity 56
manufacturers 56
medieval 56
neighboring 56
oms 56
partnerships 56
poll 56
portraits 56
poses 56
posts 56
prioritize 56
promotion 56
quantity 56
reconstruct 56
reforms 56
regenerate 56
register 56
requirements 56
retired 56
retro@@ 56
second-@@ 56
shells 56
shouting 56
sil@@ 56
sing@@ 56
sor@@ 56
ss 56
stadium 56
steer 56
stunning 56
supernova 56
teen 56
thinkers 56
ty-@@ 56
un-@@ 56
unhealthy 56
vel@@ 56
wal@@ 56
weighs 56
wonders 56
00 55
1.2 55
92 55
Am@@ 55
Cri@@ 55
Cu@@ 55
Emma 55
Gabby 55
Gar@@ 55
JS 55
Justice 55
Kar@@ 55
LT 55
Ohio 55
Sam 55
Scotland 55
Thailand 55
Three 55
Yemen 55
adaptation 55
ail@@ 55
aking 55
aps 55
arise 55
arrangement 55
attending 55
banned 55
baseline 55
brush 55
cables 55
camel 55
cardiovascular 55
centimeters 55
closet 55
compass 55
condoms 55
contagious 55
containing 55
cooked 55
copied 55
cos@@ 55
dic@@ 55
disk 55
donors 55
drinks 55
equ@@ 55
eri@@ 55
expands 55
favorites 55
finishing 55
first-@@ 55
fitting 55
flourish 55
fool 55
fur@@ 55
gel 55
gged 55
governor 55
heroin 55
hurts 55
iceberg 55
ici@@ 55
improves 55
intentionally 55
interfaces 55
intrigued 55
ita 55
jar 55
jealousy 55
judgments 55
lastly 55
light-@@ 55
logging 55
logically 55
marathon 55
negotiate 55
optimize 55
penguin 55
peri@@ 55
pin 55
praying 55
predicting 55
premise 55
presents 55
projections 55
rap@@ 55
recession 55
recreate 55
regional 55
repeating 55
revealing 55
sand@@ 55
seaweed 55
sidewalk 55
six@@ 55
snake 55
space-time 55
specialist 55
spi@@ 55
spine 55
spl@@ 55
substantial 55
surveys 55
thesis 55
trunk 55
va 55
volumes 55
warn 55
12@@ 54
1997 54
2.@@ 54
300,000 54
43 54
44 54
87 54
Afghan 54
Alaska 54
At@@ 54
Business 54
Edward 54
Elizabeth 54
Ge@@ 54
Hi@@ 54
Hmm 54
JA 54
Jason 54
Koran 54
L.A. 54
Mad@@ 54
Mediterranean 54
Ph.D. 54
Prince 54
Q 54
Station 54
Two 54
abused 54
ades 54
adolescence 54
aggregate 54
archive 54
ards 54
atively 54
ax@@ 54
beetles 54
centered 54
check@@ 54
citizenship 54
cloth 54
contexts 54
costly 54
cran@@ 54
dges 54
disconnected 54
enthusiasm 54
ethnicity 54
executives 54
exponentially 54
fictional 54
filmed 54
fix@@ 54
flights 54
folk 54
glamour 54
hair@@ 54
hug 54
hugely 54
imaginary 54
insisted 54
jacket 54
lifting 54
lover 54
lows 54
maternal 54
mushroom 54
nonviolent 54
numb 54
ologists 54
oned 54
oppression 54
oriented 54
pal@@ 54
ped 54
penis 54
performers 54
plan@@ 54
preserved 54
psychiatric 54
puberty 54
rank 54
recognizes 54
registered 54
rejection 54
rou@@ 54
routinely 54
scholar 54
sh 54
sin 54
singular 54
slept 54
sli@@ 54
sometime 54
speci@@ 54
squeeze 54
sucks 54
taboo 54
tar 54
tattoos 54
thereby 54
tipping 54
torn 54
tremendously 54
tus 54
unfamiliar 54
ur 54
urine 54
vibrant 54
weekends 54
wiped 54
worries 54
zoo 54
í@@ 54
.org 53
52 53
AB 53
Costa 53
Deep 53
Design 53
ID 53
Little 53
Medical 53
SETI 53
SR 53
Ste@@ 53
Super@@ 53
TED@@ 53
Titan 53
Tu@@ 53
Wright 53
adjacent 53
adulthood 53
album 53
altered 53
arranged 53
articulate 53
ast@@ 53
attorney 53
battles 53
bles 53
boots 53
bot 53
burial 53
calculus 53
cheating 53
cher 53
civilian 53
coaches 53
coincidence 53
contaminated 53
corporation 53
criticism 53
crushed 53
cultivate 53
damaging 53
devastated 53
draws 53
easiest 53
eats 53
ek 53
extremism 53
firms 53
floods 53
guests 53
hosts 53
induced 53
ino 53
introducing 53
ited 53
jumps 53
kilometer 53
lea@@ 53
liberals 53
memorial 53
metabolic 53
midnight 53
modest 53
mul@@ 53
neuroscientists 53
noisy 53
om 53
ort 53
ov@@ 53
packaging 53
pe 53
persons 53
photons 53
physiology 53
pilots 53
plasma 53
polls 53
prone 53
psycho@@ 53
publication 53
pumps 53
quarters 53
reacting 53
reinvent 53
resolved 53
rewarded 53
salmon 53
scripts 53
secretly 53
shade 53
she@@ 53
slime 53
slu@@ 53
son@@ 53
sponsor 53
stance 53
sticky 53
stimulate 53
susceptible 53
tations 53
tenth 53
tionally 53
touches 53
trillions 53
tter 53
unity 53
unpredictable 53
uterus 53
verbal 53
vibrations 53
visits 53
warehouse 53
whi@@ 53
1.@@ 52
150,000 52
1996 52
40-@@ 52
Abraham 52
CR 52
Child 52
Democratic 52
Far@@ 52
Feynman 52
GG 52
Han@@ 52
Holocaust 52
Jen@@ 52
Mur@@ 52
Nike 52
Peru 52
Rom@@ 52
Society 52
Time 52
Ty@@ 52
Would 52
abandon 52
acre 52
arbitrary 52
arti@@ 52
assessment 52
auto@@ 52
bands 52
barrel 52
bounce 52
breakthroughs 52
calendar 52
captain 52
cated 52
conducting 52
conf@@ 52
conferences 52
consideration 52
crashing 52
crowded 52
cured 52
cylinder 52
delight 52
depressing 52
desktop 52
differ 52
difficulties 52
displays 52
eager 52
employed 52
employer 52
employers 52
entrepreneurial 52
entrepreneurship 52
envision 52
ere 52
escaped 52
faint 52
far@@ 52
flooded 52
hard-@@ 52
high-speed 52
highways 52
incarcerated 52
inefficient 52
ini@@ 52
innovators 52
ja 52
jam 52
junk 52
lakes 52
lazy 52
lia 52
lied 52
lifespan 52
literary 52
loyalty 52
markers 52
measurable 52
monsters 52
mosque 52
mosquitos 52
mus@@ 52
novels 52
optimal 52
partially 52
pops 52
posture 52
prof@@ 52
rap 52
receives 52
red@@ 52
relies 52
respiratory 52
rom@@ 52
satisfying 52
segment 52
sey 52
shi@@ 52
signaling 52
skeletal 52
skies 52
spe@@ 52
standardized 52
start-up 52
statistically 52
sty@@ 52
swee@@ 52
symbolic 52
synapses 52
tooth 52
undergraduate 52
va@@ 52
vegetable 52
wasting 52
water@@ 52
wipe 52
400,000 51
54 51
68 51
AK 51
Ab@@ 51
BC 51
Canyon 51
Cheers 51
Danny 51
Denmark 51
Egyptians 51
Eve 51
Four 51
Fran@@ 51
Freedom 51
Get 51
History 51
Larry 51
League 51
Liberia 51
Plato 51
Side 51
Spring 51
TK 51
Venezuela 51
Zero 51
Zimbabwe 51
ams 51
arrow 51
asi@@ 51
assure 51
attributes 51
backed 51
bacterium 51
bare 51
blast 51
broad@@ 51
celebrity 51
checklist 51
concussion 51
conservatives 51
contest 51
contradiction 51
copying 51
council 51
cro@@ 51
devoted 51
disconnect 51
doses 51
dump 51
endeavor 51
enormously 51
ethic 51
explorers 51
fame 51
fat@@ 51
fertilizer 51
fli@@ 51
fluorescent 51
forcing 51
forgiveness 51
frogs 51
gaining 51
grassroots 51
hairs 51
hing 51
hooked 51
ick 51
incomplete 51
inging 51
instances 51
izes 51
jewelry 51
kle 51
laundry 51
lers 51
marginalized 51
mastery 51
meantime 51
mentors 51
near-@@ 51
networking 51
no-@@ 51
of-@@ 51
offensive 51
ola 51
op 51
opponents 51
ote 51
photographers 51
playful 51
preservation 51
preventable 51
prevented 51
regenerative 51
relying 51
remembers 51
ren@@ 51
requests 51
rides 51
rockets 51
scalable 51
scanned 51
sickness 51
sle@@ 51
snakes 51
stimulus 51
sy@@ 51
tele@@ 51
thi@@ 51
thirty 51
toxins 51
trac@@ 51
transaction 51
uncover 51
unemployed 51
unimaginable 51
veteran 51
vicious 51
vivid 51
weakness 51
weighed 51
00@@ 50
24@@ 50
59 50
93 50
AG 50
Beach 50
Bel@@ 50
Cambodia 50
Colorado 50
Gaza 50
Ham@@ 50
Kenyan 50
Miami 50
PC 50
Roosevelt 50
Sahara 50
Sar@@ 50
TM 50
Vancouver 50
Voice 50
Year 50
academics 50
ade 50
adi@@ 50
altruism 50
amp@@ 50
appreciated 50
astronaut 50
atory 50
attacking 50
award 50
basket 50
bench 50
bing 50
blend 50
blink 50
boyfriend 50
broccoli 50
bush 50
censorship 50
civilians 50
cleaner 50
conception 50
conditioning 50
confined 50
contents 50
cortisol 50
coworkers 50
deficit 50
detecting 50
documenting 50
eliminated 50
eliminating 50
eternal 50
exceptional 50
execute 50
explicitly 50
flooding 50
focuses 50
fog 50
forecast 50
frontal 50
gen 50
graduates 50
halls 50
hills 50
historian 50
ich 50
illusions 50
indoor 50
influences 50
inhabit 50
intricate 50
invasion 50
inviting 50
itation 50
lam@@ 50
lever 50
manipulation 50
meaningless 50
mighty 50
mil@@ 50
mod@@ 50
mol@@ 50
moreover 50
mushrooms 50
nicotine 50
node 50
ozone 50
packing 50
passions 50
pets 50
photosynthesis 50
poets 50
prejudice 50
pros@@ 50
punish 50
questioned 50
remotely 50
replied 50
reporters 50
restrictions 50
rit@@ 50
royal 50
sa 50
serotonin 50
sign@@ 50
slowed 50
sol@@ 50
sounding 50
speeches 50
spheres 50
spouse 50
stabilize 50
stumbled 50
supporters 50
thermal 50
tolerant 50
transferred 50
transforms 50
treasure 50
uncertain 50
underway 50
update 50
upward 50
ure 50
valid 50
velocity 50
vely 50
ven 50
verb 50
virgin 50
watts 50
wel@@ 50
wiring 50
wrestling 50
12,000 49
2-@@ 49
Amy 49
As@@ 49
Boy 49
Dar@@ 49
Gre@@ 49
Instagram 49
Je@@ 49
Matt 49
Maybe 49
Russians 49
Wa@@ 49
acceleration 49
ager 49
alities 49
ane 49
anesthesia 49
appealing 49
beans 49
berg 49
blockchain 49
blueprint 49
boiling 49
cerebral 49
cheering 49
churches 49
cinema 49
clips 49
commands 49
compute 49
configuration 49
contracts 49
countryside 49
departments 49
determination 49
developments 49
digitally 49
distorted 49
dividing 49
dra@@ 49
dragged 49
drums 49
dude 49
duration 49
ely 49
entity 49
eradicate 49
ex-@@ 49
exams 49
excessive 49
excuses 49
expose 49
fade 49
feared 49
flames 49
founding 49
fuzzy 49
gallons 49
glorious 49
glory 49
goats 49
gran@@ 49
honored 49
hur@@ 49
investigating 49
laboratories 49
lessness 49
listed 49
locate 49
lump 49
metals 49
metaphors 49
mundane 49
nanoparticles 49
nonsense 49
objectives 49
octopus 49
overlooked 49
perceptual 49
positively 49
pot@@ 49
poured 49
prescribed 49
projected 49
pushes 49
rabbits 49
real-world 49
recommended 49
regulatory 49
relates 49
renewables 49
repetitive 49
roofs 49
ruling 49
scaled 49
scar@@ 49
scarcity 49
seasons 49
self-interest 49
settlements 49
shuttle 49
sian 49
simplified 49
spaceship 49
spec@@ 49
stor@@ 49
suicidal 49
superior 49
tactics 49
tagged 49
threaten 49
tism 49
transistors 49
triangles 49
unacceptable 49
union 49
uploaded 49
val 49
voluntary 49
94 48
Actually 48
Beatboxing 48
Constitution 48
Jerusalem 48
Journal 48
May@@ 48
Monterey 48
NA@@ 48
PMS 48
Philippines 48
Prime 48
Qaeda 48
Ross 48
Southeast 48
Sudan 48
Tuesday 48
With 48
_ 48
acoustic 48
ami@@ 48
animated 48
antibodies 48
appearing 48
arians 48
ase 48
ati@@ 48
attraction 48
avi@@ 48
banana 48
bipolar 48
bo 48
breed 48
ch-@@ 48
chemist 48
clicks 48
complications 48
compressed 48
conceive 48
constitution 48
convention 48
cups 48
dental 48
dependence 48
dered 48
descendants 48
deserts 48
developmental 48
disposal 48
divides 48
dome 48
donation 48
drain 48
eBay 48
educating 48
educators 48
elders 48
eu@@ 48
extensive 48
flat@@ 48
folded 48
gener@@ 48
grammar 48
grandma 48
gras 48
grounded 48
hed 48
impaired 48
impose 48
inability 48
indicates 48
ini 48
inject 48
intentional 48
invasive 48
ja@@ 48
ji@@ 48
linking 48
ll 48
manufactured 48
mers 48
mesh 48
mo 48
mono@@ 48
multinational 48
neurological 48
ome@@ 48
outdoor 48
oven 48
partial 48
pesticides 48
placebo 48
pling 48
potato 48
powder 48
protons 48
reads 48
realizes 48
reclaim 48
reflecting 48
refrigerator 48
repetition 48
retreat 48
screw 48
sensations 48
signing 48
specialists 48
starvation 48
storyteller 48
sums 48
tales 48
taxi 48
titles 48
tives 48
unseen 48
vibrating 48
violin 48
visceral 48
visionary 48
vitamin 48
weed 48
workshops 48
worthwhile 48
wounded 48
zip 48
66 47
Amsterdam 47
Arabia 47
Arizona 47
Bas@@ 47
Be 47
Benjamin 47
CT 47
Columbus 47
Fri@@ 47
Galileo 47
Gen@@ 47
Ho@@ 47
IT 47
J 47
Jefferson 47
Lady 47
Ly@@ 47
Ma 47
Maria 47
Marie 47
Massachusetts 47
Mountain 47
Nepal 47
Post 47
Pra@@ 47
Rick 47
SM 47
Simon 47
Ted 47
Things 47
Wars 47
accelerated 47
any@@ 47
ari 47
arriving 47
arteries 47
ately 47
belonged 47
bleeding 47
bless 47
bothered 47
breakdown 47
casting 47
certified 47
chimps 47
cognition 47
collaborating 47
controversy 47
cops 47
darker 47
deliberate 47
disc 47
embodied 47
ene 47
ep@@ 47
epi@@ 47
epiphany 47
equilibrium 47
evaluation 47
expressing 47
extends 47
extremes 47
fatty 47
fills 47
flawed 47
fulfilling 47
furthermore 47
gently 47
genuinely 47
goat 47
governed 47
heck 47
hop 47
hurting 47
icons 47
ig@@ 47
improvisation 47
instability 47
instincts 47
itch 47
juvenile 47
let@@ 47
literal 47
louder 47
low@@ 47
magnets 47
man-made 47
manifest 47
margins 47
mates 47
mble 47
melody 47
needles 47
nuanced 47
oping 47
optic 47
orbits 47
ou 47
ousness 47
packs 47
painter 47
pay@@ 47
pedestrian 47
pillars 47
poli@@ 47
posters 47
pping 47
preferred 47
prevalence 47
producer 47
programmer 47
recruited 47
redefine 47
rep@@ 47
resulted 47
retain 47
rhetoric 47
ries 47
ripped 47
sapiens 47
seals 47
semi-@@ 47
shiny 47
simulations 47
sit@@ 47
staircase 47
ston 47
stripped 47
summarize 47
surge 47
switching 47
symphony 47
targeting 47
tation 47
tortured 47
transformations 47
urbanization 47
verge 47
volcanoes 47
width 47
15th 46
180 46
1900 46
88 46
Air@@ 46
Buddhist 46
DVD 46
Dallas 46
Dave 46
Den@@ 46
Europeans 46
Hans 46
Hercules 46
Home 46
Kansas 46
LEGO 46
MB 46
Mid@@ 46
Nu@@ 46
Office 46
SA 46
Sin@@ 46
Stasi 46
TB 46
Tra@@ 46
Trade 46
UV 46
Wait 46
Win@@ 46
Wor@@ 46
YNH 46
a.m. 46
ack@@ 46
airline 46
aks 46
amplify 46
ancy 46
ano 46
arthritis 46
attended 46
beef 46
bucket 46
burns 46
bus@@ 46
cane 46
caregivers 46
cen@@ 46
cent 46
charts 46
chers 46
chunk 46
classified 46
coherent 46
collisions 46
colonial 46
coma 46
comm@@ 46
comprehensive 46
concluded 46
conspiracy 46
cookie 46
crashes 46
declining 46
deprivation 46
desp@@ 46
develops 46
diplomacy 46
dismissed 46
dru@@ 46
ele@@ 46
electoral 46
elevated 46
embryo 46
ets 46
ey@@ 46
eyed 46
face-to-face 46
fal@@ 46
fast-@@ 46
fertility 46
fireflies 46
flee 46
follow-up 46
gallon 46
gated 46
geographic 46
heights 46
hid 46
hopeless 46
hung 46
hybrid 46
implanted 46
impulse 46
indicators 46
inexpensive 46
infants 46
influential 46
intuitively 46
journeys 46
joyful 46
judged 46
jury 46
kidneys 46
kits 46
lasts 46
liters 46
minimal 46
mobilize 46
motivations 46
mps 46
neocortex 46
notions 46
observer 46
owns 46
parasites 46
paste 46
payments 46
periodic 46
personalities 46
pipeline 46
preserving 46
processor 46
prominent 46
prosecutor 46
providers 46
quiz 46
ration 46
reply 46
rotating 46
rotation 46
run@@ 46
separating 46
shout 46
sion@@ 46
sno@@ 46
sou@@ 46
symmetrical 46
temporarily 46
terminal 46
thrust 46
treats 46
triumph 46
ulate 46
ulation 46
upload 46
uranium 46
void 46
watches 46
-year 45
-year-olds 45
190@@ 45
1970 45
4.@@ 45
41 45
51 45
6.@@ 45
Black@@ 45
Captain 45
Celsius 45
Company 45
Diego 45
Doug 45
Ear@@ 45
Hawking 45
JF 45
Kepler 45
Marine 45
Miss 45
Oregon 45
Pan@@ 45
RM 45
Rob@@ 45
Stone 45
Sur@@ 45
Tom@@ 45
Van 45
adventures 45
adversity 45
alia 45
alistic 45
arrival 45
astounding 45
attempting 45
awards 45
behold 45
biologically 45
biting 45
bitter 45
bonus 45
bottom-up 45
bribe 45
calcium 45
calculation 45
capsule 45
cartilage 45
centimeter 45
chapters 45
chemists 45
cing 45
cocktail 45
coined 45
colleges 45
communal 45
competent 45
complaining 45
conceptual 45
cost-effective 45
critics 45
cubic 45
dan@@ 45
dealt 45
degraded 45
deli@@ 45
determining 45
digest 45
dor@@ 45
ed-@@ 45
eling 45
elites 45
ell 45
enc@@ 45
exclusively 45
experimentation 45
expressive 45
fluids 45
fueled 45
gasoline 45
ghost 45
grad 45
guidelines 45
herd 45
hotter 45
hypotheses 45
integrating 45
interviewing 45
ions 45
it-@@ 45
ji 45
kly 45
leak 45
lec@@ 45
lifetimes 45
materi@@ 45
meg@@ 45
meme 45
mercy 45
mia 45
mindful 45
mming 45
mos@@ 45
mum 45
necessity 45
nerd 45
newborn 45
nic@@ 45
noble 45
ological 45
ols 45
outrage 45
pigeon 45
pla@@ 45
pools 45
progression 45
prospect 45
prosperous 45
references 45
representatives 45
revenge 45
revolutions 45
ri 45
ro 45
ruin 45
san@@ 45
scare 45
scars 45
secular 45
setup 45
simulated 45
sis 45
sloths 45
sm 45
smo@@ 45
sneakers 45
spar@@ 45
spontaneous 45
spontaneously 45
stole 45
strain 45
strand 45
suburbs 45
swallow 45
tennis 45
tho@@ 45
thro@@ 45
tier 45
transactions 45
twelve 45
uck 45
uck@@ 45
ultrasound 45
underestimate 45
unpleasant 45
vent 45
vol@@ 45
wished 45
wolves 45
yields 45
1.3 44
1989 44
1991 44
21st-century 44
60-@@ 44
Cairo 44
Cuba 44
ED 44
Germans 44
Hindu 44
Iranian 44
Keith 44
Khan 44
Kim 44
LGBT 44
Medicine 44
Montana 44
Portugal 44
Ric@@ 44
SDGs 44
Sou@@ 44
Spi@@ 44
Vegas 44
advocates 44
alarming 44
ama 44
amygdala 44
analog 44
ap 44
atic 44
axes 44
balancing 44
beaches 44
bending 44
buddy 44
champions 44
cho@@ 44
chy 44
claws 44
collar 44
commodities 44
comparable 44
concentrations 44
constructive 44
container 44
continuum 44
counter-@@ 44
county 44
crushing 44
deemed 44
dom@@ 44
dried 44
dug 44
encounters 44
ent-@@ 44
epidemics 44
episodes 44
fatigue 44
foot@@ 44
functionality 44
gging 44
gli@@ 44
grand@@ 44
guts 44
hallway 44
han 44
hers 44
hos@@ 44
iPad 44
iPod 44
idiot 44
introverts 44
inventing 44
inventors 44
kilograms 44
lar@@ 44
lesbian 44
ll@@ 44
mama 44
mani@@ 44
manuscript 44
marriages 44
middle-class 44
miracles 44
mycelium 44
ner@@ 44
nurturing 44
obtained 44
of@@ 44
ona 44
operator 44
pan 44
pancreatic 44
parameters 44
peaks 44
pixel 44
poorer 44
predicts 44
pretending 44
pricing 44
prosecutors 44
psychiatrist 44
radius 44
ratings 44
reasonably 44
relaxed 44
residential 44
revenues 44
satisfy 44
scholarship 44
searched 44
selective 44
sells 44
shortage 44
sible 44
similarities 44
smartest 44
sparked 44
stems 44
suggestions 44
suitcase 44
suspected 44
sweeping 44
synthesis 44
tackling 44
temporal 44
temptation 44
tense 44
tionist 44
tones 44
toss 44
translator 44
trustworthy 44
tured 44
varying 44
ve-@@ 44
vents 44
vin 44
warriors 44
wer 44
wilderness 44
withstand 44
wr@@ 44
140 43
1945 43
82 43
Americas 43
Barack 43
Cam@@ 43
Craig 43
DP 43
Emily 43
GK 43
Ger@@ 43
Giussani 43
Have 43
J. 43
Joel 43
Kelly 43
LG 43
LHC 43
Lan@@ 43
Margaret 43
Ministry 43
Oakland 43
Ol@@ 43
PA 43
SP 43
Some 43
Star@@ 43
Sun@@ 43
Tower 43
abusive 43
accommodate 43
acknowledged 43
adolescents 43
age-@@ 43
ambiguity 43
anim@@ 43
anticipated 43
apped 43
appropriately 43
arguably 43
atrocities 43
attribute 43
ball@@ 43
berry 43
best-@@ 43
bla@@ 43
borrowed 43
burg 43
bye 43
candle 43
charging 43
cholera 43
cholesterol 43
cleared 43
conclusions 43
coordinated 43
counterintuitive 43
cracked 43
crosses 43
dated 43
detectors 43
devised 43
dictatorship 43
dictionaries 43
discourse 43
disgusting 43
distinctive 43
door@@ 43
durable 43
emit 43
en-@@ 43
ences 43
ensuring 43
erase 43
exquisite 43
fierce 43
fines 43
fishes 43
flame 43
framing 43
generator 43
gh 43
glance 43
goddess 43
gosh 43
guessing 43
handling 43
harvesting 43
hears 43
horrified 43
indicator 43
ine@@ 43
injection 43
insist 43
lawn 43
linguistic 43
logistics 43
manages 43
manipulated 43
mentality 43
mindfulness 43
misery 43
moisture 43
morally 43
nails 43
nit@@ 43
obligation 43
ography 43
ort@@ 43
penicillin 43
petition 43
poetic 43
pol@@ 43
polarization 43
polymer 43
presentations 43
priest 43
prostitution 43
radioactive 43
rainfall 43
readily 43
rebuilding 43
regulated 43
rel@@ 43
resi@@ 43
reuse 43
rushed 43
sequenced 43
severely 43
shield 43
shrinking 43
slum 43
smokers 43
spike 43
spo@@ 43
stan 43
steering 43
strive 43
suburban 43
surfing 43
syn@@ 43
textile 43
thirdly 43
tizing 43
tot@@ 43
translates 43
ular 43
unequal 43
unite 43
verify 43
villagers 43
water-@@ 43
wo@@ 43
workshop 43
11th 42
46 42
76 42
Colombia 42
Country 42
Cy@@ 42
E. 42
Francis 42
Generation 42
Group 42
Hen@@ 42
MA@@ 42
Mag@@ 42
Michelangelo 42
Mus@@ 42
NB 42
Nazi 42
Norman 42
Norwegian 42
Oklahoma 42
Patrick 42
PowerPoint 42
Princeton 42
Service 42
Singing 42
Snowden 42
Stewart 42
Sydney 42
Tennessee 42
Wh@@ 42
Williams 42
ables 42
aces 42
achievements 42
ala 42
align 42
alo@@ 42
audacious 42
backpack 42
ballot 42
beams 42
behaving 42
bites 42
black@@ 42
blob 42
bot@@ 42
bravery 42
brighter 42
bust 42
camels 42
cer 42
charter 42
committee 42
contributes 42
convenience 42
coupled 42
crawl 42
crystals 42
cular 42
decode 42
deep-@@ 42
depended 42
destined 42
dia 42
doubling 42
dre@@ 42
emission 42
epilepsy 42
faculty 42
feminism 42
fleeing 42
flipped 42
freeway 42
gamers 42
geo@@ 42
graffiti 42
grim 42
guessed 42
guides 42
headache 42
hin@@ 42
hotels 42
hub 42
human@@ 42
humane 42
ills 42
imaginative 42
immersed 42
imposed 42
intrinsic 42
inv@@ 42
kings 42
l-@@ 42
lasers 42
leaks 42
listeners 42
logists 42
loops 42
magnet 42
migrant 42
modify 42
mounted 42
mped 42
nail 42
ners 42
nurture 42
ome 42
onset 42
opposing 42
organizational 42
orphanage 42
playground 42
plu@@ 42
polite 42
populated 42
primate 42
promoted 42
rabbit 42
rainforests 42
rated 42
reflective 42
relevance 42
responsive 42
retire 42
rig 42
riots 42
schooling 42
seafood 42
segregated 42
sel@@ 42
sensible 42
singer 42
slope 42
smiles 42
spotted 42
stamp 42
stratosphere 42
stretching 42
strokes 42
submitted 42
sunny 42
supposedly 42
suppress 42
telomeres 42
temples 42
tiger 42
tile 42
timeline 42
tolerate 42
towel 42
trailer 42
troubling 42
trusting 42
turtle 42
understandable 42
unfold 42
vapor 42
viewers 42
wells 42
worship 42
yed 42
á@@ 42
100-@@ 41
2,500 41
53 41
58 41
80,000 41
83 41
= 41
ALS 41
AM 41
Ali@@ 41
Anna 41
Democrats 41
Dra@@ 41
Elon 41
Falcon 41
Flint 41
Fox 41
Green@@ 41
Jonathan 41
Libya 41
Lisa 41
Live 41
Madison 41
Mel@@ 41
Men 41
Mexican 41
Moses 41
Mrs. 41
Muhammad 41
Nar@@ 41
Pete 41
Pittsburgh 41
Renaissance 41
Robin 41
Secretary 41
See 41
Sel@@ 41
Sylvia 41
Warren 41
X-rays 41
abnormal 41
adaptable 41
addresses 41
amateur 41
ambi@@ 41
ape 41
arch@@ 41
arrows 41
availability 41
avoided 41
bad@@ 41
bass 41
battlefield 41
bloody 41
blows 41
bol@@ 41
bounded 41
brain-@@ 41
bread@@ 41
bursts 41
butt 41
butter 41
calculating 41
cally 41
catalyst 41
centralized 41
cking 41
classmates 41
commission 41
commitments 41
composer 41
conce@@ 41
conceived 41
cookies 41
correlated 41
correspond 41
corresponding 41
credible 41
creepy 41
crowds 41
crush 41
daddy 41
delete 41
developer 41
dged 41
dire 41
disparity 41
displayed 41
distraction 41
dominate 41
drank 41
efficacy 41
elder 41
emergent 41
ene@@ 41
ened 41
ero@@ 41
erosion 41
establishment 41
ever@@ 41
explosions 41
extending 41
fetus 41
flashing 41
four@@ 41
freak 41
glob@@ 41
go-@@ 41
grams 41
grandmothers 41
hacker 41
heels 41
holder 41
hunters 41
husbands 41
ideally 41
immunity 41
implicit 41
incidentally 41
incorporate 41
ind 41
indication 41
inhabitants 41
injected 41
intend 41
jaw 41
jun@@ 41
junior 41
levers 41
madness 41
magician 41
maintained 41
marching 41
margin 41
masterpiece 41
mbling 41
membranes 41
menu 41
mi 41
multiplied 41
officially 41
olfactory 41
out-of-@@ 41
outrageous 41
pads 41
persist 41
petri 41
planners 41
pled 41
poles 41
potatoes 41
prevalent 41
pristine 41
queer 41
rainy 41
reconstruction 41
refined 41
requiring 41
resonance 41
resting 41
rewarding 41
ridge 41
seated 41
self-esteem 41
sky@@ 41
slogan 41
solely 41
spy 41
sul@@ 41
testimony 41
tim@@ 41
tle 41
treaty 41
turtles 41
two-dimensional 41
under-@@ 41
undermine 41
vel 41
versa 41
wander 41
warned 41
whistle 41
yn@@ 41
yogurt 41
25@@ 40
49 40
500,000 40
71 40
80-@@ 40
84 40
91 40
Airbnb 40
Another 40
Antarctic 40
Buddha 40
Cancer 40
Christ 40
Christianity 40
Connecticut 40
Cre@@ 40
Fahrenheit 40
Fl@@ 40
Hy@@ 40
III 40
Joshua 40
Magazine 40
Mir@@ 40
Oliver 40
Public 40
Ran@@ 40
Roy 40
Royal 40
SARS 40
Stage 40
Titanic 40
Town 40
abstraction 40
ac 40
adequate 40
ading 40
ans@@ 40
appliances 40
arc 40
arrangements 40
ate@@ 40
ati 40
bath 40
beginnings 40
benign 40
bent 40
boarding 40
cabinet 40
capitalist 40
chop 40
cle 40
cleaned 40
cockroach 40
collagen 40
commerce 40
commissioned 40
compact 40
compli@@ 40
contacts 40
cooler 40
cue 40
curse 40
decentralized 40
descended 40
devi@@ 40
diagnostics 40
diets 40
dining 40
dle 40
dominance 40
doomed 40
dragonflies 40
encoded 40
escaping 40
examining 40
exposing 40
f-@@ 40
facilitate 40
filmmaker 40
filmmakers 40
freshwater 40
giants 40
glu@@ 40
grip 40
hacked 40
heartbeat 40
hygiene 40
ier 40
industrialized 40
infinity 40
ingenious 40
insecure 40
inspires 40
irrigation 40
ition 40
key@@ 40
kh 40
lamb 40
lessly 40
li 40
likewise 40
lize 40
ly-@@ 40
mathematically 40
me-@@ 40
memorable 40
metrics 40
monk 40
moons 40
mother@@ 40
motorcycle 40
mythology 40
navigation 40
negotiations 40
neuroscientist 40
occupation 40
one-third 40
paradise 40
penetrate 40
perpetual 40
phi@@ 40
pirate 40
ples 40
plots 40
pm 40
predictive 40
prescribe 40
prints 40
problem-solving 40
protesters 40
proves 40
read@@ 40
reconcile 40
rectangle 40
referring 40
refers 40
rehabilitation 40
respectful 40
restorative 40
ron 40
rub 40
sang 40
saves 40
servers 40
short@@ 40
snap 40
snow@@ 40
sole 40
sprawl 40
sque@@ 40
ste 40
stin@@ 40
strangely 40
submarine 40
subsequent 40
substitute 40
swarm 40
tab@@ 40
tan 40
therapeutic 40
troubled 40
unified 40
united 40
upright 40
yelling 40
zero-@@ 40
,500 39
1968 39
57 39
67 39
AC@@ 39
Anne 39
Bal@@ 39
Baltimore 39
Bhutan 39
Book 39
Brexit 39
Bridge 39
Bruce 39
Carl 39
Char@@ 39
Cl@@ 39
Coca-Cola 39
Cyrus 39
D-@@ 39
DR 39
Da@@ 39
Dan@@ 39
Every 39
FI@@ 39
From 39
Ga@@ 39
Hamlet 39
Hitler 39
Houston 39
Indus 39
Lee 39
Neanderthals 39
Ob@@ 39
PV 39
Phoenix 39
Pu@@ 39
S-@@ 39
Sophie 39
T-@@ 39
Third 39
Toronto 39
U.K 39
Up 39
Wilson 39
accomplishments 39
accumulated 39
adapting 39
addictive 39
advocacy 39
ae 39
agrees 39
ami 39
associations 39
assumes 39
auditory 39
bananas 39
bandwidth 39
bay 39
behaves 39
beta 39
bi 39
bicycles 39
binding 39
bionic 39
blo@@ 39
blogging 39
blu@@ 39
brakes 39
bulk 39
butterflies 39
by@@ 39
cafe 39
catches 39
centric 39
characterized 39
circuitry 39
clicking 39
collide 39
committing 39
compatible 39
comple@@ 39
contacted 39
counseling 39
cutting-edge 39
databases 39
decay 39
declined 39
defending 39
demanded 39
dock 39
dye 39
ech@@ 39
echo 39
echo@@ 39
effectiveness 39
eg@@ 39
eh 39
energetic 39
evolves 39
fairy 39
fearful 39
fingerprint 39
fingertips 39
foie 39
framed 39
free-@@ 39
furious 39
geometric 39
historians 39
hun@@ 39
hurricane 39
hyper-@@ 39
ight 39
ignoring 39
imbalance 39
incomes 39
intensely 39
interfere 39
invisibility 39
ken@@ 39
kie 39
lac@@ 39
lear@@ 39
leukemia 39
lig@@ 39
logist 39
longing 39
mac@@ 39
malnutrition 39
marched 39
med@@ 39
memorize 39
menstruation 39
methodology 39
mies 39
misunderstood 39
mortal 39
nanotechnology 39
negotiating 39
oid 39
onics 39
overlap 39
perpetrators 39
pine 39
pollutants 39
porn 39
predatory 39
presumably 39
quotes 39
rainbow 39
recognizable 39
regi@@ 39
rendered 39
rendering 39
rented 39
requirement 39
rigorous 39
rin@@ 39
rival 39
rubble 39
rude 39
scattered 39
sco@@ 39
sealed 39
seize 39
seizure 39
sha 39
sively 39
skepticism 39
speeding 39
squid 39
startling 39
stiff 39
strains 39
surprises 39
symmetries 39
sync 39
synthesize 39
therapists 39
toast 39
tourism 39
tract 39
tropics 39
unaware 39
universally 39
ura 39
ure@@ 39
uri@@ 39
vastly 39
volcanic 39
wa 39
wavelengths 39
wers 39
whistling 39
whites 39
womb 39
yeast 39
zy 39
1975 38
1993 38
3-D 38
Agency 38
Athens 38
Batman 38
Bitcoin 38
Conference 38
Cur@@ 38
Dean 38
Death 38
Dun@@ 38
E.@@ 38
Edinburgh 38
Enlightenment 38
Finland 38
Franklin 38
Fu@@ 38
Galapagos 38
Garden 38
Hill 38
ID@@ 38
Ice 38
Isaac 38
Jennifer 38
Johnny 38
Julian 38
LC 38
LEDs 38
Lewis 38
Listen 38
Model 38
Monkey 38
Natasha 38
Open 38
PR 38
Palestine 38
Paulo 38
Pur@@ 38
Rec@@ 38
S. 38
Social 38
Sol@@ 38
Starbucks 38
Turing 38
Whole 38
X-@@ 38
ab 38
absent 38
ace@@ 38
affection 38
afterward 38
airports 38
ancestry 38
apping 38
arrives 38
ashed 38
astronomer 38
astronomical 38
atmospheres 38
avatar 38
backward 38
ballet 38
basics 38
bble 38
bleed 38
blessing 38
boils 38
bouncing 38
bra 38
bulbs 38
call@@ 38
capit@@ 38
captures 38
carved 38
cel@@ 38
chambers 38
choir 38
cia 38
cin@@ 38
coded 38
collapses 38
collections 38
continuity 38
costume 38
cour@@ 38
critic 38
cult 38
dances 38
daylight 38
dence 38
dering 38
descriptions 38
dging 38
divisions 38
elec@@ 38
elling 38
emailed 38
emphasis 38
energies 38
enthusiastic 38
environmentally 38
ethanol 38
ette 38
fences 38
flaw 38
fting 38
ful@@ 38
gangs 38
ge-@@ 38
geek 38
genomics 38
ggle 38
happiest 38
hat@@ 38
heavens 38
igh@@ 38
ila 38
ille 38
inadequate 38
ination 38
inflammation 38
insi@@ 38
institute 38
invaded 38
inventory 38
journals 38
ku 38
laughs 38
legend 38
lid 38
limitation 38
lon@@ 38
mandate 38
meanings 38
migrated 38
mineral 38
mutually 38
old-fashioned 38
oma 38
oni@@ 38
operational 38
overcoming 38
pale 38
paperwork 38
passport 38
pedestrians 38
persistent 38
popping 38
por@@ 38
powerless 38
praise 38
presidents 38
presses 38
pulses 38
punished 38
quantitative 38
randomness 38
real@@ 38
recruiting 38
regulating 38
respects 38
rightly 38
ringing 38
ruins 38
scal@@ 38
scissors 38
screwed 38
scuba 38
secre@@ 38
sen 38
seven@@ 38
simplify 38
simplistic 38
singers 38
sketches 38
soci@@ 38
spin@@ 38
ssi@@ 38
stakeholders 38
statues 38
stein 38
strengthen 38
stretches 38
superpowers 38
surplus 38
swallowed 38
swap 38
switches 38
tablet 38
thirds 38
thoroughly 38
thoughtful 38
tragically 38
transcend 38
transp@@ 38
tting 38
turing 38
ty@@ 38
ultra-@@ 38
unfolding 38
upwards 38
uring 38
utter 38
vaccinated 38
var@@ 38
veins 38
volunteered 38
wax 38
white-@@ 38
witnesses 38
wonderfully 38
zi@@ 38
és 38
.5 37
.D. 37
125 37
250,000 37
Abed 37
African-Americans 37
Alexandria 37
Allen 37
Android 37
C.@@ 37
CA@@ 37
Carnegie 37
Commission 37
Harriet 37
Jobs 37
Kur@@ 37
LP 37
Mall 37
Minnesota 37
PS 37
Ph@@ 37
Poland 37
Really 37
Redwood 37
Rica 37
Roger 37
Romans 37
SK 37
Senegal 37
Tibet 37
UCLA 37
Universe 37
abuses 37
aesthetics 37
after@@ 37
aggression 37
algorithmic 37
alter@@ 37
analytical 37
angels 37
announcement 37
anthropology 37
aquatic 37
archi@@ 37
arian 37
ast 37
astro@@ 37
az@@ 37
backup 37
band@@ 37
bio-@@ 37
biosphere 37
biotechnology 37
bladder 37
blade 37
boil 37
brink 37
builder 37
bullets 37
bullying 37
cans 37
cascade 37
claiming 37
clapping 37
cles 37
colder 37
commercially 37
conductor 37
continually 37
conver@@ 37
corridors 37
costing 37
coun@@ 37
counselor 37
counterparts 37
crawling 37
criticized 37
curator 37
diamond 37
dice 37
dictator 37
disturbed 37
donations 37
drowning 37
elastic 37
elbow 37
enduring 37
ep 37
equator 37
equitable 37
fee 37
firstly 37
flock 37
flourishing 37
flown 37
fluctuations 37
fts 37
fundraising 37
fuse 37
gent 37
geological 37
god@@ 37
grabbing 37
harmed 37
holistic 37
hosting 37
identification 37
immortality 37
implants 37
implication 37
indoors 37
inhal@@ 37
inputs 37
interference 37
isolate 37
istic 37
itated 37
j 37
keen 37
ku@@ 37
limiting 37
literate 37
lock@@ 37
locomotion 37
masks 37
mayors 37
mbled 37
minate 37
mistaken 37
moderate 37
modules 37
monitored 37
nan@@ 37
nat@@ 37
nerdy 37
non-zero-sum 37
notation 37
nuclei 37
objec@@ 37
obscure 37
olive 37
oth 37
oun@@ 37
pillar 37
poisoning 37
poker 37
poop 37
portal 37
post-traumatic 37
prayers 37
preference 37
proposing 37
quicker 37
rain@@ 37
ranking 37
recordings 37
reflex 37
regrets 37
resort 37
scent 37
searches 37
seasonal 37
seriousness 37
sh-@@ 37
shallow 37
shar@@ 37
sighted 37
sights 37
silently 37
skeletons 37
small-scale 37
smiled 37
soils 37
solitary 37
spaghetti 37
storing 37
subsidies 37
suited 37
sunset 37
swear 37
sympathy 37
tasted 37
tec@@ 37
tempting 37
third-@@ 37
thor@@ 37
thorium 37
throws 37
tires 37
toughest 37
tunnels 37
usable 37
walkable 37
weir@@ 37
welcomed 37
welcoming 37
wheel@@ 37
-making 36
Bali 36
Brad 36
By 36
CERN 36
Camp 36
Cap@@ 36
Cas@@ 36
Club 36
Control 36
Cup 36
D.C. 36
Five 36
Guinea 36
Hal@@ 36
Hamilton 36
Helen 36
Irish 36
JM 36
Ka@@ 36
Katrina 36
Kin@@ 36
Ko@@ 36
Laden 36
Les@@ 36
Linux 36
Mac 36
Machine 36
Maryland 36
Mas@@ 36
Matthew 36
Na@@ 36
OECD 36
PET 36
Phil@@ 36
Rover 36
Sand@@ 36
TT 36
Take 36
Trek 36
Tunisia 36
Val@@ 36
aggre@@ 36
aiming 36
anatomical 36
announce 36
annoyed 36
anthropologist 36
antly 36
arm@@ 36
arrange 36
artery 36
athletic 36
attachment 36
biomedical 36
blacks 36
bombing 36
brac@@ 36
brand-new 36
brilliance 36
buys 36
cartoonist 36
carve 36
chefs 36
circumstance 36
compose 36
constructing 36
containers 36
crab 36
crows 36
dding 36
decom@@ 36
definitions 36
del 36
delighted 36
desirable 36
differentiate 36
disagreement 36
disp@@ 36
disparate 36
districts 36
diver@@ 36
dol@@ 36
dor 36
downloaded 36
ducks 36
eds 36
embarrassment 36
emits 36
emitting 36
emo@@ 36
encyclopedia 36
endlessly 36
eness 36
eradication 36
explorer 36
fan@@ 36
fifteen 36
fighters 36
finances 36
fla@@ 36
fol@@ 36
foot-@@ 36
forbid 36
forgetting 36
fragmented 36
freaking 36
fulfilled 36
fulness 36
gait 36
glands 36
guesses 36
harming 36
heavier 36
hive 36
homelessness 36
honeybees 36
hs 36
im 36
imaginations 36
imprisoned 36
inate 36
incremental 36
instinctively 36
invade 36
invites 36
jails 36
kins 36
lacking 36
lap@@ 36
leaning 36
lip 36
mammoth 36
mantra 36
manufacturer 36
mas 36
masculine 36
mbles 36
messaging 36
middle-aged 36
milit@@ 36
millennium 36
mind-@@ 36
modification 36
modular 36
monsoon 36
neglect 36
negotiation 36
nel 36
new@@ 36
niece 36
ninth 36
nor@@ 36
oids 36
outward 36
partisan 36
persuaded 36
pirates 36
pop-up 36
popped 36
printers 36
programmable 36
protocols 36
province 36
quar@@ 36
rally 36
receiver 36
recipes 36
rede@@ 36
relational 36
rip 36
rode 36
rowing 36
saturated 36
secrecy 36
ser 36
sewage 36
shepherd 36
shu@@ 36
si 36
six-year-old 36
socioeconomic 36
sonic 36
squared 36
start-ups 36
stically 36
storytellers 36
stubborn 36
sulfide 36
summary 36
superheroes 36
symptom 36
tended 36
thinner 36
threads 36
thu@@ 36
tivity 36
tization 36
tomatoes 36
top-down 36
tourist 36
treadmill 36
um-@@ 36
unsustainable 36
vibrate 36
vin@@ 36
volcano 36
wears 36
woven 36
ye 36
yl@@ 36
ö@@ 36
1-@@ 35
16th 35
1920s 35
39 35
450 35
77 35
78 35
Aaron 35
Ages 35
Ash@@ 35
Bat@@ 35
Brothers 35
CD 35
Chuck 35
DE@@ 35
Dead 35
Doctor 35
Don@@ 35
Er@@ 35
Even 35
Give 35
Gri@@ 35
Hebrew 35
Hello 35
Hurricane 35
I.@@ 35
Im@@ 35
Jeopardy 35
Jon 35
Jr 35
Kri@@ 35
Milo 35
Neil 35
Norden 35
Pat 35
Philip 35
Pic@@ 35
Pl@@ 35
Pope 35
R. 35
Sher@@ 35
Skype 35
Susan 35
TE@@ 35
Tr@@ 35
Ur@@ 35
Venice 35
Young 35
accomplishment 35
accumulating 35
adaptability 35
agile 35
ali 35
aling 35
apartheid 35
appetite 35
appointed 35
appointment 35
aria 35
arises 35
armies 35
artifact 35
asis 35
assist 35
atheist 35
atro@@ 35
atten@@ 35
ature 35
auditorium 35
bab@@ 35
bankers 35
bodily 35
bombed 35
branded 35
brightest 35
brutality 35
bumps 35
butterfly 35
buzz@@ 35
census 35
cho 35
chord 35
ck-@@ 35
cked 35
collaborator 35
companion 35
concerts 35
conscience 35
constitutional 35
controller 35
cratic 35
darkest 35
daunting 35
debates 35
deer 35
defeated 35
demographics 35
dev@@ 35
devastation 35
diary 35
dic 35
doubts 35
drift 35
drilling 35
duc@@ 35
edited 35
ems 35
envy 35
establishing 35
exclusion 35
exhausting 35
exile 35
export 35
fax 35
ffs 35
filming 35
fitted 35
foremost 35
fra@@ 35
fulfillment 35
gation 35
geology 35
ggy 35
givers 35
gle 35
globalized 35
glowing 35
grey 35
guiding 35
gym 35
ham@@ 35
hard@@ 35
harmless 35
heartbreak 35
heartbreaking 35
heel 35
hh 35
hip-hop 35
hobby 35
horn 35
house@@ 35
ideological 35
inadvertently 35
indicated 35
innate 35
insecurity 35
insert 35
integral 35
keeper 35
kilos 35
knot 35
len@@ 35
leopard 35
liberation 35
lightweight 35
log@@ 35
magically 35
mann 35
mat 35
maths 35
millimeters 35
minating 35
mind-wandering 35
ministers 35
mism 35
multitasking 35
multiverse 35
nectar 35
notebook 35
noted 35
orgasm 35
outdated 35
oxide 35
pH 35
perfectionism 35
persuasive 35
policymakers 35
powerfully 35
prizes 35
profiles 35
proving 35
quantify 35
rabies 35
raft 35
rail 35
ranks 35
render 35
resident 35
revelation 35
ripe 35
ropes 35
runner 35
rushing 35
scheduled 35
screen@@ 35
se-@@ 35
seeks 35
seven-@@ 35
shattered 35
shocks 35
shoots 35
shores 35
show@@ 35
sideways 35
snapshot 35
sneak 35
stag@@ 35
stock@@ 35
stunt 35
subset 35
suitable 35
supermassive 35
surf 35
sustainably 35
swept 35
t-shirt 35
tail@@ 35
takers 35
technologists 35
thers 35
til@@ 35
tionary 35
trade-offs 35
triple 35
tt@@ 35
un 35
undergo 35
valve 35
venom 35
vertically 35
warmth 35
waving 35
weaker 35
workplaces 35
zeroes 35
01 34
1973 34
2.0 34
56 34
61 34
Armstrong 34
Avenue 34
Bor@@ 34
Climate 34
Dylan 34
EU 34
Education 34
Ethic 34
Fortune 34
Girls 34
Glass 34
Gol@@ 34
Gr@@ 34
Guatemala 34
His 34
IV 34
Information 34
Ivan 34
Ken 34
Kiribati 34
Kosovo 34
Lama 34
Latino 34
Malawi 34
Marshall 34
Mos@@ 34
Navy 34
P.@@ 34
RL 34
SMS 34
ST 34
Sta@@ 34
Super 34
TEDTalk 34
TEDx 34
Taiwan 34
Tal@@ 34
Technology 34
Trans@@ 34
Troy 34
Turkish 34
Ukraine 34
Wales 34
Wol@@ 34
accidental 34
acks 34
actu@@ 34
adaptations 34
advised 34
aimed 34
akin 34
algebra 34
alignment 34
alle@@ 34
anchor 34
anda 34
angiogenesis 34
anthropologists 34
app@@ 34
ara 34
ared 34
aring 34
arose 34
aspirin 34
assign 34
assured 34
ation@@ 34
automobiles 34
avian 34
bac@@ 34
banjo 34
barrels 34
blaming 34
blanket 34
brain@@ 34
broadcasting 34
campfire 34
castle 34
casualties 34
cau@@ 34
ce-@@ 34
chalk 34
cited 34
clean@@ 34
climbers 34
clocks 34
coins 34
comb@@ 34
comedian 34
commercials 34
commonplace 34
communist 34
competence 34
complained 34
complexities 34
cone 34
confirm 34
conquered 34
contradictions 34
coolest 34
crafted 34
credibility 34
cubes 34
curved 34
customs 34
d-up 34
daring 34
degrade 34
demonstrations 34
dian 34
dis 34
disparities 34
dispos@@ 34
dragging 34
dull 34
eff@@ 34
emp@@ 34
ental 34
entertaining 34
erotic 34
estrogen 34
evi@@ 34
examined 34
explicit 34
extraction 34
ez 34
facade 34
featured 34
filed 34
five-year-old 34
forbidden 34
forehead 34
forensic 34
four-year-old 34
freedoms 34
friendships 34
galleries 34
gaming 34
gloves 34
gos 34
great-@@ 34
grind 34
gues 34
handing 34
handy 34
heart@@ 34
hies 34
hol@@ 34
horrifying 34
hurry 34
illa 34
immortal 34
impulses 34
incidents 34
inger 34
ington 34
installations 34
internationally 34
interrupt 34
investigations 34
investigative 34
kar@@ 34
ket 34
kicks 34
lander 34
landfill 34
learners 34
leisure 34
liberating 34
listener 34
lowered 34
maize 34
malls 34
marvelous 34
melted 34
membership 34
microwave 34
mill 34
miraculous 34
modern-day 34
monks 34
net@@ 34
omed 34
one-on-one 34
ong@@ 34
opponent 34
optics 34
ord 34
ore@@ 34
ori 34
outwards 34
overweight 34
ow 34
packaged 34
participatory 34
peanut 34
persuasion 34
pharmac@@ 34
photographing 34
pick@@ 34
pioneers 34
pneumonia 34
premature 34
preschool 34
primal 34
propelled 34
protections 34
prototyping 34
puri@@ 34
ranges 34
reactive 34
recommendations 34
reconnect 34
red-@@ 34
ref@@ 34
regarded 34
reinforce 34
reinforced 34
reinventing 34
relieved 34
restoration 34
revolutionize 34
ripples 34
scar 34
serial 34
serv@@ 34
sings 34
sleeve 34
socks 34
solves 34
sovereign 34
spikes 34
stan@@ 34
state-of-the-art 34
steroids 34
strictly 34
stry 34
sucked 34
sup@@ 34
supercomputer 34
sword 34
tac@@ 34
tearing 34
thickness 34
tides 34
tourists 34
translating 34
truc@@ 34
turbulence 34
typeface 34
ulating 34
ull 34
ums 34
unfinished 34
ures 34
urs 34
vague 34
veil 34
ventilation 34
visibility 34
weaknesses 34
weave 34
wind@@ 34
-hour 33
12-@@ 33
15-year-old 33
1992 33
27@@ 33
7.@@ 33
89 33
Allan 33
Amendment 33
Anyway 33
Bangalore 33
Bay@@ 33
Board 33
Bos@@ 33
COVID-19 33
Cro@@ 33
Dick 33
Dream 33
Enceladus 33
Federal 33
Girl 33
God@@ 33
HW 33
Index 33
Last 33
Maldives 33
Medicaid 33
Miguel 33
Mo 33
Mountains 33
Namibia 33
Nic@@ 33
Planet 33
Potter 33
Puerto 33
Reagan 33
Rob 33
Show 33
Siberia 33
Solar 33
Sputnik 33
Stop 33
Sy@@ 33
Wo@@ 33
abo@@ 33
abortion 33
adopting 33
adverse 33
agnostic 33
agreements 33
aha 33
aled 33
ally-@@ 33
alternate 33
anatom@@ 33
antidote 33
aper 33
apparatus 33
arly 33
assisted 33
automotive 33
bag@@ 33
beard 33
bed@@ 33
birth@@ 33
bitten 33
blin@@ 33
blindly 33
boson 33
bots 33
bypass 33
campaigning 33
capacities 33
celestial 33
cheer 33
chunks 33
clicked 33
clinically 33
clinicians 33
coaching 33
colon@@ 33
commentary 33
commute 33
compelled 33
crabs 33
crank 33
crashed 33
credited 33
cries 33
ction 33
curb 33
cy 33
deca@@ 33
dedicate 33
degradation 33
demo@@ 33
denti@@ 33
desperation 33
diff@@ 33
disadvantaged 33
doc@@ 33
dos 33
dos@@ 33
downstairs 33
dresses 33
edi@@ 33
efully 33
elect 33
empathize 33
encode 33
encrypted 33
energy-@@ 33
enforce 33
enhanced 33
erased 33
escal@@ 33
excellence 33
extremists 33
fMRI 33
figur@@ 33
finger@@ 33
flaws 33
fooled 33
ford 33
fungal 33
garment 33
geeks 33
genic 33
genital 33
ghts 33
grit 33
halluc@@ 33
handsome 33
haul 33
hedgehog 33
holders 33
humanities 33
humbling 33
hus@@ 33
ignorant 33
ima@@ 33
impacting 33
imperfect 33
induc@@ 33
inherit 33
inten@@ 33
interrupted 33
intimidating 33
investigated 33
itable 33
iteration 33
lan 33
lawsuit 33
leaned 33
legendary 33
liking 33
lobe 33
mass@@ 33
menstrual 33
merge 33
mini@@ 33
mustache 33
nationwide 33
ni 33
non 33
occasional 33
occasions 33
occupied 33
offense 33
offs 33
optimist 33
osis 33
overfishing 33
overload 33
partnered 33
patches 33
pedal 33
performances 33
personnel 33
pinpoint 33
plac@@ 33
popularity 33
provider 33
pumping 33
raging 33
rang 33
ranked 33
ration@@ 33
redemption 33
reimagine 33
reptiles 33
resemble 33
reserved 33
reviewed 33
robo@@ 33
salad 33
sav@@ 33
scored 33
semester 33
sensi@@ 33
slices 33
solvable 33
sorted 33
springs 33
starving 33
stresses 33
subjected 33
suc@@ 33
suffers 33
superhero 33
suspects 33
teamed 33
teddy 33
tel@@ 33
theoretically 33
threatens 33
timber 33
tiniest 33
tops 33
transformational 33
two-way 33
unconventional 33
uncovered 33
undergoing 33
valves 33
vegetation 33
vit@@ 33
wastewater 33
weaving 33
whip 33
1,100 32
110 32
12th 32
1969 32
1985 32
3,@@ 32
5.@@ 32
5th 32
62 32
9,000 32
@ 32
AT@@ 32
Administration 32
After 32
Austria 32
BBC 32
Bol@@ 32
CAR 32
CS@@ 32
Cameron 32
Channel 32
Computer 32
Dalai 32
Delta 32
Depression 32
Edison 32
Game 32
Harlem 32
Hor@@ 32
Idaho 32
Ja@@ 32
Jerry 32
Jessica 32
Justin 32
KA 32
Kyoto 32
MW 32
Madagascar 32
Make 32
Mission 32
Montreal 32
More 32
NL 32
Nicole 32
Night 32
Picasso 32
RH 32
SD 32
SD@@ 32
Samuel 32
Shar@@ 32
Shi@@ 32
TEDsters 32
Thursday 32
Toyota 32
Ts 32
Vinci 32
Water 32
West@@ 32
Yu@@ 32
Zi@@ 32
accumulation 32
acious 32
activation 32
addicts 32
admittedly 32
adolescent 32
agged 32
aids 32
angel 32
anticipation 32
ashing 32
aspire 32
astic 32
aviation 32
aya 32
bes 32
biotech 32
blood@@ 32
breasts 32
bru@@ 32
builders 32
bureaucracy 32
camp@@ 32
cargo 32
caste 32
cellphone 32
cer@@ 32
cereal 32
certificate 32
champagne 32
charities 32
childbirth 32
cla@@ 32
clarify 32
cler@@ 32
coalition 32
communicated 32
communicates 32
conditioned 32
confuse 32
connectome 32
consultant 32
cooled 32
crane 32
crucially 32
cures 32
decor@@ 32
defensive 32
delayed 32
denser 32
dependency 32
deposit 32
detention 32
devote 32
dismiss 32
dog@@ 32
dom 32
dragonfly 32
duction 32
elusive 32
embryos 32
empires 32
encing 32
enjoyable 32
eternity 32
extracted 32
fascination 32
fier 32
financing 32
fish@@ 32
flavors 32
fleet 32
fork 32
fridge 32
fs 32
gamma 32
gears 32
gens 32
gol@@ 32
governmental 32
graduating 32
graduation 32
greed 32
hardworking 32
headphones 32
high-resolution 32
ica 32
illiterate 32
impe@@ 32
improvise 32
ink@@ 32
insult 32
interrogation 32
investor 32
involvement 32
jealous 32
killings 32
larvae 32
left-@@ 32
leveraging 32
limestone 32
lings 32
litter 32
logies 32
manifestation 32
mass-@@ 32
mega@@ 32
minorities 32
mite 32
moder@@ 32
monitors 32
nation-state 32
northeast 32
nos@@ 32
numbered 32
nutritious 32
organizers 32
originated 32
ough 32
ounce 32
ound 32
ounded 32
our@@ 32
outlets 32
persistence 32
phases 32
pioneering 32
pit@@ 32
pits 32
plague 32
plaque 32
plugged 32
polluting 32
positioned 32
premium 32
princess 32
professions 32
provocative 32
psychotic 32
purchased 32
purity 32
qualify 32
queens 32
rationality 32
reacted 32
recon@@ 32
recovering 32
recruitment 32
reframe 32
refuge 32
replicated 32
representations 32
resonate 32
responders 32
road@@ 32
rug 32
ruined 32
ruler 32
sac@@ 32
saliva 32
sanctuary 32
schemes 32
scrap 32
sequ@@ 32
shook 32
similarity 32
sins 32
smelling 32
snail 32
soda 32
specialty 32
spit 32
sprin@@ 32
sses 32
stand-up 32
steep 32
stereo 32
stimulating 32
surrender 32
surveyed 32
swarms 32
tal 32
tha 32
tilt 32
titled 32
tized 32
transistor 32
two-year-old 32
unsafe 32
unthinkable 32
ush 32
usion 32
vet 32
vibration 32
violation 32
violently 32
voter 32
wallet 32
ware 32
wellness 32
who@@ 32
wood@@ 32
xes 32
zer 32
0th 31
10-year-old 31
101 31
10th 31
14-year-old 31
1988 31
360 31
AS@@ 31
Audience 31
BS 31
Bono 31
Bosnia 31
CDC 31
CP 31
Cli@@ 31
Corporation 31
DM 31
Desert 31
Easter 31
FO@@ 31
Fo@@ 31
Good@@ 31
Greg 31
Has@@ 31
Himalayas 31
Intel 31
Jackson 31
Johns 31
Juan 31
Ken@@ 31
Kle@@ 31
Large 31
Las 31
MG 31
NI@@ 31
Nan@@ 31
Neanderthal 31
Neptune 31
OS 31
Over 31
Pos@@ 31
RE@@ 31
Rap@@ 31
SO@@ 31
Safe@@ 31
Special 31
Stella 31
Stu@@ 31
São 31
Tasmanian 31
Tell 31
U.@@ 31
Wi-Fi 31
academia 31
accustomed 31
aches 31
aching 31
admission 31
advisor 31
affir@@ 31
aftermath 31
altar 31
an-American 31
ane@@ 31
animations 31
arche@@ 31
archives 31
art@@ 31
atom@@ 31
banker 31
bark 31
barren 31
bat@@ 31
bb@@ 31
begging 31
believer 31
benefited 31
bian 31
billion-dollar 31
biofuels 31
bloggers 31
bodied 31
bonding 31
brightness 31
browsing 31
calculator 31
care@@ 31
cathedral 31
chat@@ 31
cheer@@ 31
chemo 31
closes 31
comparisons 31
completing 31
condom 31
confess 31
confirmation 31
conquer 31
consulting 31
coping 31
craving 31
crea@@ 31
cruelty 31
cruise 31
crust 31
curtain 31
dal 31
dead@@ 31
decreases 31
degrading 31
demon@@ 31
desired 31
dig@@ 31
disproportionately 31
divers 31
driverless 31
drowned 31
enhancing 31
enrolled 31
evident 31
extracting 31
far-@@ 31
fellows 31
fer 31
fin 31
flash@@ 31
fonio 31
footsteps 31
for-@@ 31
freed 31
freshman 31
fried 31
gas@@ 31
gatherings 31
ght@@ 31
governing 31
harmon@@ 31
ho 31
hypertension 31
ial 31
ians 31
ice-@@ 31
icy 31
improbable 31
inappropriate 31
influenza 31
innocence 31
inspirational 31
intangible 31
internally 31
intersec@@ 31
interviewer 31
intrinsically 31
intuitions 31
irs 31
ith 31
ium 31
jargon 31
jets 31
juggling 31
kel 31
kets 31
knocking 31
lacked 31
lad@@ 31
law@@ 31
left-handed 31
lend 31
lian 31
liar 31
lifts 31
limitless 31
lized 31
lizing 31
locals 31
locking 31
loser 31
losers 31
measles 31
mechanically 31
metaphorical 31
meteor@@ 31
microorganisms 31
million-@@ 31
milliseconds 31
mind-blowing 31
misinformation 31
misses 31
mitigate 31
mom@@ 31
monopoly 31
motivating 31
mur@@ 31
navigating 31
needless 31
neglected 31
neurotransmitters 31
neutrons 31
offline 31
ole 31
one@@ 31
opt 31
osh 31
outdoors 31
overwhelmingly 31
packets 31
pap@@ 31
participated 31
passively 31
pathogen 31
peel 31
pepper 31
pes 31
phot@@ 31
pioneer 31
polluted 31
pots 31
pragmatic 31
professionally 31
progressively 31
protocell 31
puzzling 31
quic@@ 31
rabbi 31
rainwater 31
regarding 31
regulators 31
reluctant 31
ribs 31
ried 31
rounds 31
sands 31
scares 31
scroll 31
scru@@ 31
sel 31
seller 31
sentenced 31
separately 31
shirts 31
short-@@ 31
sidewalks 31
sinking 31
slipped 31
sloth 31
solemn 31
soli@@ 31
specimens 31
spins 31
sponsored 31
stacked 31
standpoint 31
sterile 31
stimulated 31
stimuli 31
straw 31
striving 31
subsequently 31
sufficiently 31
sulfur 31
sum@@ 31
suppliers 31
surrounds 31
survives 31
swam 31
sweating 31
tallest 31
telephones 31
territories 31
thyroid 31
ticking 31
toothbrush 31
tougher 31
trachoma 31
traps 31
tric 31
ult 31
undercover 31
unt 31
updated 31
upgrade 31
utilize 31
verse 31
vic@@ 31
vity 31
volatile 31
vulture 31
vy 31
wakes 31
wea@@ 31
wreck 31
xed 31
1.4 30
1986 30
70,000 30
8-@@ 30
Andy 30
Arts 30
BL 30
CG 30
CNN 30
CPU 30
Chap@@ 30
Cohen 30
Cross 30
Dre@@ 30
Duke 30
EEG 30
Europa 30
Fin@@ 30
Gary 30
Goog@@ 30
HS 30
IM 30
IP 30
Is@@ 30
Kal@@ 30
Lat@@ 30
Lawrence 30
Len@@ 30
Lev@@ 30
MM 30
Marcus 30
Mari@@ 30
Martian 30
Max 30
MoMA 30
Moscow 30
Nat@@ 30
Natural 30
Number 30
Oscar 30
Pin@@ 30
Portland 30
RG 30
Russell 30
Sam@@ 30
Scottish 30
Six@@ 30
Sorry 30
Str@@ 30
Uncle 30
Us 30
Utah 30
Van@@ 30
WK 30
Whit@@ 30
Windows 30
accordingly 30
acquisition 30
activating 30
adrenaline 30
advancing 30
aerial 30
af 30
aka 30
annually 30
arily 30
astonished 30
basking 30
beehives 30
behaved 30
bel 30
big-@@ 30
binds 30
births 30
blamed 30
bling 30
blur 30
bomb@@ 30
bonobos 30
boo@@ 30
bull 30
buyers 30
carbon-@@ 30
carers 30
casual 30
celebrities 30
centigrade 30
championship 30
charismatic 30
chatting 30
chew 30
clams 30
cloudy 30
cochlear 30
combustion 30
community-@@ 30
compulsive 30
continental 30
convergence 30
conversely 30
converting 30
courtroom 30
coworker 30
cracking 30
creatively 30
ddy 30
declare 30
delivers 30
destroys 30
diagnoses 30
diaspora 30
discrete 30
disrupted 30
dissolved 30
divorced 30
downs 30
dread 30
dressing 30
du 30
dumped 30
edible 30
ela 30
eline 30
embody 30
emitted 30
emperor 30
eng@@ 30
enterprises 30
eradicated 30
exchanges 30
excluded 30
expeditions 30
exploding 30
extremist 30
feasible 30
fertile 30
fertilizers 30
flush 30
focal 30
forfeiture 30
forty 30
forwards 30
frontiers 30
genitalia 30
gifted 30
gor@@ 30
grabs 30
gradual 30
halt 30
helicopters 30
hic@@ 30
high-risk 30
higher-@@ 30
homo@@ 30
hormonal 30
humiliation 30
ic-@@ 30
implies 30
imposing 30
inclined 30
inertia 30
infamous 30
ino@@ 30
intersections 30
intimately 30
ities 30
itude 30
judging 30
kno@@ 30
legitimacy 30
lengths 30
lish 30
locker 30
looting 30
lovers 30
mammography 30
manipulating 30
marble 30
marke@@ 30
marketplaces 30
mastered 30
maze 30
mber 30
mega-@@ 30
mel@@ 30
melts 30
met@@ 30
mic@@ 30
microscopes 30
min 30
missile 30
mist 30
misuse 30
month-old 30
monument 30
mos 30
nano-@@ 30
nationality 30
negatively 30
normal@@ 30
nutritional 30
oddly 30
open-@@ 30
outsiders 30
overlapping 30
p-@@ 30
parked 30
peek 30
performer 30
persecution 30
pioneered 30
plo@@ 30
ports 30
posting 30
practitioners 30
primordial 30
proceed 30
propag@@ 30
proudly 30
recipient 30
reli@@ 30
republic 30
rever@@ 30
reversed 30
reversing 30
revol@@ 30
rivals 30
row@@ 30
rung 30
salaries 30
seamlessly 30
segregation 30
self-assembly 30
sentient 30
shortcut 30
silenced 30
simulator 30
sive 30
spans 30
sta 30
stacks 30
stark 30
steak 30
strapped 30
stunned 30
subatomic 30
submersible 30
suspension 30
sustaining 30
telecommunications 30
tensions 30
textiles 30
thic@@ 30
thinker 30
til 30
tivi@@ 30
tless 30
tooth@@ 30
traction 30
traded 30
transfers 30
trick@@ 30
twisted 30
tz 30
ue 30
une 30
unlimited 30
valuing 30
vase 30
vest 30
virtuous 30
vividly 30
voltage 30
weeds 30
win-win 30
world-@@ 30
year@@ 30
yer 30
160 29
1800s 29
1900s 29
1940s 29
1982 29
1987 29
2000s 29
35,000 29
63 29
8.@@ 29
911 29
Ali 29
B.@@ 29
BCE 29
BJ 29
Bobby 29
Chan@@ 29
Collider 29
Coun@@ 29
DJ 29
Deaf 29
Digital 29
Dubai 29
Em@@ 29
Father 29
Futura 29
Gene 29
Hadron 29
Head 29
Holy 29
Hudson 29
IC@@ 29
Jill 29
Josh 29
Koreans 29
Latina 29
MBA 29
Maine 29
Mayor 29
Murray 29
NFL 29
Nazis 29
New@@ 29
Nollywood 29
Olymp@@ 29
Police 29
Portuguese 29
Rab@@ 29
Radio 29
Roc@@ 29
Ron 29
Rose 29
Rosetta 29
Saint 29
Solomon 29
Sometimes 29
Stre@@ 29
TKM 29
Team 29
Tru@@ 29
Twenty-@@ 29
UC@@ 29
Vs 29
WG 29
Walmart 29
Wednesday 29
Woo@@ 29
Xu 29
aboli@@ 29
aci@@ 29
acidification 29
acronym 29
aisle 29
ambassador 29
ambiguous 29
ambitions 29
amed 29
ancestral 29
ani 29
antenna 29
antidepressants 29
aser 29
awarded 29
bases 29
batch 29
battling 29
bel@@ 29
bell@@ 29
bells 29
bioluminescence 29
boredom 29
bronze 29
bursting 29
cabin 29
carrier 29
charcoal 29
chin 29
cit@@ 29
classi@@ 29
coaster 29
compensation 29
competitions 29
compos@@ 29
comprised 29
compromised 29
condemned 29
contemplate 29
conve@@ 29
conversion 29
cracy 29
creations 29
crun@@ 29
cultivated 29
customized 29
ddle 29
demons 29
disappointing 29
disappointment 29
discarded 29
displacement 29
dissolve 29
donating 29
doom 29
downhill 29
drifted 29
droughts 29
dwar@@ 29
earnings 29
ects 29
embarked 29
embryonic 29
encies 29
endure 29
enriched 29
exhilarating 29
exploiting 29
extroverts 29
fabrication 29
fishery 29
fixes 29
foam 29
fonts 29
fractions 29
front-@@ 29
fury 29
gating 29
generational 29
genesis 29
gland 29
glo@@ 29
hardwired 29
hottest 29
hy 29
immensely 29
imported 29
incorrect 29
indirectly 29
inquiry 29
insur@@ 29
intake 29
internship 29
jelly 29
ketchup 29
kidnapped 29
legi@@ 29
liberated 29
lithium 29
lou@@ 29
lure 29
marches 29
masculinity 29
mbers 29
microbe 29
mined 29
mini-@@ 29
misleading 29
mmm 29
mob 29
modeled 29
mosques 29
motivates 29
mping 29
murderer 29
newest 29
nie 29
nine-@@ 29
nings 29
nom@@ 29
nomadic 29
onia 29
orbital 29
ority 29
overdose 29
p.m. 29
par 29
payload 29
peer-to-peer 29
performs 29
perseverance 29
pest 29
petals 29
phytoplankton 29
piled 29
pitches 29
plat@@ 29
pollinators 29
portrayed 29
posing 29
prob@@ 29
projecting 29
proliferation 29
quoted 29
reco@@ 29
refu@@ 29
rejecting 29
reliably 29
relied 29
remix 29
reunited 29
revelations 29
roommate 29
s- 29
salty 29
sanitary 29
scape 29
scratching 29
seductive 29
self-worth 29
sentiment 29
servant 29
settlers 29
shareholders 29
shelters 29
sibling 29
slaughter 29
slot 29
sni@@ 29
som@@ 29
specialize 29
stal@@ 29
startup 29
sticker 29
stuffed 29
styles 29
subsurface 29
sucking 29
summed 29
sus 29
teeming 29
terrestrial 29
theft 29
three-year-old 29
throne 29
tire 29
toddler 29
toe 29
tory 29
treaties 29
tripled 29
trunks 29
tuning 29
turbulent 29
underestimated 29
unleash 29
unrelated 29
vaccination 29
vapor@@ 29
variability 29
vas@@ 29
virginity 29
virtues 29
visibly 29
wards 29
waterfall 29
wearable 29
web@@ 29
wer@@ 29
whilst 29
wil@@ 29
withdrawal 29
yn 29
zoning 29
1.6 28
1000 28
13th 28
1976 28
1979 28
26@@ 28
2D 28
3-@@ 28
73 28
79 28
AA 28
AO 28
AP@@ 28
Abu 28
Ah@@ 28
Amanda 28
Andes 28
Archimedes 28
Babbage 28
Barry 28
Bear 28
Beatles 28
Bon@@ 28
Bot@@ 28
Bou@@ 28
Broadway 28
C-@@ 28
CE 28
CH 28
Chin@@ 28
Clark 28
Convention 28
Corps 28
Danish 28
Darwinian 28
Doaa 28
Domitia 28
Evan 28
Fire 28
Food 28
Freud 28
Giant 28
Gogh 28
Grace 28
Gran@@ 28
Guardian 28
Hol@@ 28
IN@@ 28
Iraqi 28
Jamaica 28
Kentucky 28
Khmer 28
Kibera 28
Lego 28
Leo 28
M. 28
Mali 28
Mario 28
Morgan 28
Net 28
Nevada 28
Nothing 28
O.@@ 28
Oprah 28
Orwell 28
Point 28
Power 28
Report 28
Rs 28
Sebastian 28
Sor@@ 28
Spe@@ 28
Standard 28
Start 28
T. 28
TR 28
Ten 28
Teszler 28
Tree 28
Virgin 28
Vol@@ 28
Wide 28
accessing 28
acknowledging 28
advancement 28
advent 28
alizes 28
alties 28
altruistic 28
amplified 28
ania 28
announcing 28
aquaculture 28
ased 28
aspiration 28
attendance 28
attracting 28
ays 28
bait 28
baked 28
beast 28
beat@@ 28
begs 28
blinking 28
bluefin 28
boot 28
booth 28
carbonate 28
carriers 28
catalo@@ 28
cates 28
caution 28
cemeteries 28
cers 28
chap@@ 28
chemically 28
chiefs 28
chores 28
cians 28
cir@@ 28
cks 28
clash 28
clearer 28
collapsing 28
comets 28
comfortably 28
cones 28
conflicting 28
congratulations 28
consisted 28
constraint 28
consumes 28
contemplating 28
converts 28
convictions 28
cortical 28
dairy 28
danced 28
dangerously 28
dden 28
deadline 28
dentist 28
depleted 28
descent 28
diagrams 28
dictate 28
digestive 28
disclosure 28
discriminate 28
dissonance 28
distract 28
dity 28
domains 28
dow 28
drifting 28
dysfunction 28
echoes 28
eck 28
eclipse 28
empathetic 28
empirical 28
enlightened 28
erectus 28
ero 28
eter 28
eth@@ 28
evalu@@ 28
exchanged 28
exchanging 28
exploited 28
fascism 28
fe 28
feather 28
fic@@ 28
fir 28
forged 28
form@@ 28
forum 28
fur 28
gender-@@ 28
germs 28
goo@@ 28
grap@@ 28
graves 28
green@@ 28
gum 28
harnessing 28
harvested 28
hatch 28
haunted 28
havoc 28
highlights 28
homeland 28
hostage 28
housed 28
humidity 28
hundred-@@ 28
hydrothermal 28
ical 28
ie 28
implementing 28
impoverished 28
impress 28
incub@@ 28
indicating 28
infer 28
inflate 28
insignificant 28
intellectuals 28
inter-@@ 28
interpreted 28
ite@@ 28
ity-@@ 28
joins 28
kens 28
killers 28
lacks 28
league 28
legged 28
lockdown 28
long-distance 28
loudly 28
manipul@@ 28
marshmallow 28
mbo 28
mented 28
metadata 28
mills 28
mites 28
monuments 28
mucus 28
mustard 28
mystical 28
neo@@ 28
neurogenesis 28
nickname 28
nut 28
omes 28
ometer 28
oo 28
opaque 28
oting 28
ovarian 28
overly 28
palliative 28
payoff 28
phages 28
pigeons 28
plausible 28
popul@@ 28
porous 28
priests 28
probes 28
proportions 28
prote@@ 28
psychic 28
puzzled 28
quity 28
railroad 28
rat@@ 28
rebellion 28
rebels 28
rebuilt 28
reception 28
reconciliation 28
refine 28
remittances 28
removal 28
replication 28
restored 28
resume 28
revolving 28
ric 28
rocking 28
rotates 28
rotting 28
sacrifices 28
sca@@ 28
scandal 28
scen@@ 28
settling 28
sexting 28
sick@@ 28
sided 28
silos 28
sleeves 28
slows 28
smelled 28
smoothly 28
sof@@ 28
sourced 28
spades 28
spor@@ 28
stared 28
stereotype 28
stly 28
strengthening 28
substantially 28
synthesized 28
temper@@ 28
tible 28
tiveness 28
tize 28
tournament 28
tra 28
traced 28
tually 28
tum 28
tying 28
unbelievably 28
uncommon 28
unt@@ 28
upstairs 28
utopian 28
valleys 28
verbs 28
violated 28
violations 28
vul@@ 28
vulnerabilities 28
watt 28
whisper 28
woo 28
wool 28
world-class 28
worthless 28
writings 28
x-@@ 28
1,200 27
11@@ 27
15-@@ 27
24-hour 27
3rd 27
50th 27
600,000 27
Achilles 27
Alpha 27
An 27
Ancient 27
Arduino 27
Bab@@ 27
Baghdad 27
Barbie 27
Building 27
Charlotte 27
Circle 27
Cra@@ 27
DARPA 27
Darfur 27
Denver 27
Direc@@ 27
EDI 27
ER 27
Elec@@ 27
Emp@@ 27
Eur@@ 27
Fort 27
Fred 27
Gordon 27
Graham 27
Hay@@ 27
Heal@@ 27
Heart 27
Hei@@ 27
I. 27
IM@@ 27
IMF 27
Illinois 27
Ima@@ 27
Initiative 27
Judge 27
Juliet 27
KS 27
LB 27
MT 27
Magic 27
Major 27
Mind 27
Mul@@ 27
Nathan 27
Nation 27
Nicholas 27
Nik@@ 27
Not@@ 27
Pakistani 27
Panama 27
Penn 27
Pixar 27
Ram@@ 27
Res@@ 27
Sri 27
Styrofoam 27
T-shirt 27
Tha@@ 27
Too 27
Tre@@ 27
V-@@ 27
Victorian 27
Vietnamese 27
Voyager 27
Walker 27
Web@@ 27
Ze@@ 27
aa@@ 27
accelerator 27
achi@@ 27
all-time 27
ankle 27
annihil@@ 27
anomaly 27
arch 27
arithmetic 27
arousal 27
asses 27
assignments 27
assistants 27
augment 27
aversion 27
baggage 27
baker 27
bald 27
bathing 27
bedrock 27
beep 27
bends 27
bets 27
black-@@ 27
bolt 27
bounds 27
break@@ 27
brute 27
buffer 27
buzz 27
cac@@ 27
candles 27
caregiver 27
casually 27
cellulose 27
censored 27
charming 27
chased 27
cheated 27
chewing 27
clearing 27
clitoris 27
coating 27
comforting 27
complaints 27
concerning 27
confessed 27
confi@@ 27
conju@@ 27
contradic@@ 27
cords 27
crimin@@ 27
cross@@ 27
deceased 27
decreased 27
dedication 27
deed 27
defe@@ 27
defenses 27
dele@@ 27
demonstrating 27
deri@@ 27
desertification 27
deserved 27
desks 27
dict@@ 27
differential 27
diffusion 27
digestion 27
dilemmas 27
diplomatic 27
disadvantage 27
discre@@ 27
distributing 27
diver 27
dol 27
drastically 27
eigh@@ 27
electri@@ 27
elled 27
eman@@ 27
ement 27
endeavors 27
enforced 27
excerpt 27
experimenter 27
eye@@ 27
festivals 27
fications 27
finest 27
flap 27
footprints 27
foreground 27
fractal 27
fronts 27
gam@@ 27
gardening 27
geese 27
geniuses 27
genomic 27
geographically 27
gin@@ 27
goggles 27
gossip 27
gravit@@ 27
grazing 27
greeted 27
grou@@ 27
heart-@@ 27
heim 27
hertz 27
hes 27
highlighted 27
hike 27
hiking 27
hives 27
home-@@ 27
hoo@@ 27
hooks 27
hopelessness 27
horse@@ 27
hunted 27
hypo@@ 27
identifies 27
implementation 27
incoming 27
ineffective 27
inks 27
intellect 27
isms 27
itate 27
izations 27
jaws 27
je@@ 27
judicial 27
knives 27
launches 27
layered 27
lays 27
leaking 27
liars 27
life-threatening 27
lifelike 27
lization 27
lowering 27
loyal 27
manageable 27
manuscripts 27
marking 27
medicinal 27
mentioning 27
messing 27
metropolitan 27
mimics 27
miniature 27
mized 27
monarchy 27
mond 27
motto 27
multiplication 27
night@@ 27
nightmares 27
nonlethal 27
noses 27
nuns 27
obtain 27
oon 27
ophi@@ 27
opi@@ 27
opioid 27
orchestras 27
ories 27
outlet 27
pa 27
passionately 27
pathology 27
periphery 27
person@@ 27
pessimistic 27
pharmaceuticals 27
pigment 27
pon@@ 27
portray 27
pro 27
psyche 27
public-@@ 27
publishers 27
pun@@ 27
punched 27
purchases 27
quez 27
real-life 27
rear 27
rediscover 27
regimes 27
remedy 27
rene@@ 27
repeats 27
residual 27
resin 27
richness 27
risen 27
rocky 27
rooftop 27
safest 27
same-sex 27
sampling 27
scrutiny 27
seizures 27
seniors 27
separates 27
servants 27
sexism 27
shortest 27
signatures 27
skinny 27
slate 27
sophistication 27
sorting 27
spectr@@ 27
speculation 27
spines 27
starve 27
sten 27
stics 27
swamp 27
synonymous 27
tapirs 27
technicians 27
tel 27
th-century 27
tham 27
thanking 27
there@@ 27
three-quarters 27
thumb@@ 27
tify 27
titan 27
top-@@ 27
tore 27
tragedies 27
tribu@@ 27
tribute 27
turbines 27
tweak 27
typed 27
undocumented 27
unexplored 27
unnatural 27
uprising 27
upstream 27
varies 27
veri@@ 27
vine 27
visualizing 27
wanna 27
whichever 27
wildly 27
y-based 27
-related 26
0,000 26
00-@@ 26
14th 26
3.5 26
74 26
90-@@ 26
A.@@ 26
ADHD 26
Arabs 26
Asi@@ 26
Award 26
Bac@@ 26
Bach 26
Bec@@ 26
Before 26
Beyoncé 26
Brendan 26
Carol 26
Chief 26
Dark 26
Davis 26
Der@@ 26
Doc 26
Douglas 26
Dur@@ 26
Ella 26
Emperor 26
FGM 26
Ferguson 26
Flickr 26
Free 26
Friedman 26
Gal@@ 26
Hotel 26
Indiana 26
Ir@@ 26
Jacques 26
Jay 26
Jazeera 26
Jesse 26
Julia 26
Labs 26
Laptop 26
Lau@@ 26
Lon@@ 26
MA 26
Mahatma 26
Mama 26
Marx 26
Midwest 26
Missouri 26
NBA 26
Nancy 26
Noah 26
Once 26
Pandora 26
Plan@@ 26
Ple@@ 26
RO@@ 26
Rol@@ 26
Sciences 26
Sco@@ 26
Sen@@ 26
Senator 26
Sho@@ 26
Should 26
Think 26
Veronica 26
Vienna 26
Zuckerberg 26
activates 26
actuators 26
ader 26
admired 26
advancements 26
advise 26
advocating 26
air-@@ 26
alu@@ 26
amateurs 26
analytics 26
animate 26
anne 26
anonymously 26
antimatter 26
apathy 26
apper 26
ar-@@ 26
archaeological 26
archaeologists 26
arri@@ 26
artificially 26
assemb@@ 26
asser@@ 26
assimil@@ 26
atheists 26
awa@@ 26
bakery 26
balcony 26
bedside 26
beekeepers 26
bid 26
bioluminescent 26
blurry 26
bombsight 26
boomers 26
boos@@ 26
broadband 26
buck 26
buckets 26
bureaucratic 26
burnt 26
calorie 26
carrot 26
casts 26
catalog 26
cha 26
changer 26
cheapest 26
cheeks 26
chi 26
childcare 26
chooses 26
cite 26
coated 26
cognitively 26
collectors 26
commander 26
compensate 26
comprehend 26
compress 26
concentrating 26
conduc@@ 26
conventions 26
cores 26
costumes 26
crave 26
criticize 26
ct 26
dared 26
ddled 26
dealers 26
debated 26
debilitating 26
delightful 26
dengue 26
deni@@ 26
deployment 26
deposited 26
derive 26
descend 26
digitized 26
dil@@ 26
dilig@@ 26
diminished 26
dip 26
disbelief 26
dodo 26
dove 26
downstream 26
draft 26
dragon 26
dreadful 26
drug-resistant 26
dumping 26
e-cigarettes 26
earthquakes 26
elevation 26
eller 26
enrich 26
es-@@ 26
essays 26
evidence-based 26
exporting 26
fair@@ 26
farmed 26
fats 26
favorable 26
feat 26
fecal 26
fertilized 26
fine-@@ 26
fins 26
fiscal 26
fisherman 26
fission 26
five-year 26
flashes 26
foraging 26
formats 26
formerly 26
formidable 26
fragility 26
free@@ 26
frugal 26
gateway 26
gger 26
gies 26
glit@@ 26
gospel 26
grading 26
grappling 26
guerrillas 26
hamburger 26
hashtag 26
helix 26
hints 26
ile 26
ili@@ 26
illuminate 26
imitate 26
immoral 26
impressions 26
ind@@ 26
indul@@ 26
iner 26
inferior 26
informa@@ 26
initi@@ 26
injecting 26
instructor 26
interacts 26
interdependence 26
intersex 26
intr@@ 26
ious 26
irre@@ 26
ising 26
lah 26
lau@@ 26
lay@@ 26
leaked 26
learner 26
liability 26
locks 26
lyrics 26
magne@@ 26
mal 26
mangroves 26
marvel 26
mber@@ 26
messed 26
meter-@@ 26
minated 26
mock 26
modes 26
module 26
mortgage 26
mpy 26
neatly 26
neutron 26
non-profit 26
nostalgia 26
obey 26
ominous 26
one-to-one 26
onom@@ 26
oops 26
oppressed 26
optimized 26
orable 26
outliers 26
outraged 26
pandemics 26
pathetic 26
pel 26
pharmacy 26
photographic 26
pilgrimage 26
possession 26
post-conflict 26
postcards 26
preach 26
precursor 26
preliminary 26
prescriptions 26
processors 26
prophets 26
prosthetics 26
puppet 26
pyramids 26
reck@@ 26
reclaiming 26
recommendation 26
referendum 26
regeneration 26
rehearsal 26
removes 26
repertoire 26
resisting 26
restoring 26
resurrection 26
retrieve 26
revive 26
risked 26
risking 26
rotten 26
rulers 26
savvy 26
scaffolding 26
selectively 26
self-help 26
sexist 26
shaming 26
shootings 26
sizing 26
skyscrapers 26
slippery 26
snack 26
softly 26
sonar 26
spraying 26
squeezed 26
squir@@ 26
stay-at-home 26
stranded 26
stunts 26
suffo@@ 26
sunshine 26
superficial 26
supermarkets 26
surreal 26
sweep 26
swelling 26
synapse 26
synchron@@ 26
syringe 26
tailor 26
tailored 26
tapping 26
teammates 26
tease 26
tee@@ 26
testament 26
thir@@ 26
thou 26
tiest 26
tionists 26
titanium 26
tou@@ 26
trade-off 26
trajectories 26
transmitting 26
transporting 26
treatable 26
trending 26
troll 26
tweeted 26
ues 26
ula 26
ulture 26
ulu 26
une@@ 26
unrealistic 26
ural 26
ust 26
vali@@ 26
vertebrates 26
viewpoint 26
warran@@ 26
watch@@ 26
way@@ 26
weighing 26
white@@ 26
witnessing 26
wrinkles 26
xy 26
yell 26
yo@@ 26
á 26
ç@@ 26
,@@ 25
0-@@ 25
1,600 25
11,000 25
13-year-old 25
170 25
1965 25
1978 25
200@@ 25
4,@@ 25
5-@@ 25
81 25
A.I. 25
Ak@@ 25
Am 25
Andre@@ 25
Anthony 25
Austin 25
Best 25
Bond 25
Botswana 25
Bureau 25
Butler 25
CMU 25
Champ@@ 25
Cooper 25
DG 25
Disease 25
Dragon 25
Dy@@ 25
Eigh@@ 25
Eleanor 25
Everglades 25
FB 25
Forest 25
Fro@@ 25
Fur@@ 25
Galaxy 25
Games 25
Hillary 25
Hon@@ 25
Honduras 25
Hungarian 25
I-@@ 25
Icelandic 25
Jan@@ 25
Jean 25
Jean-@@ 25
Jimmy 25
Justine 25
Kay 25
Kha@@ 25
Kir@@ 25
Laura 25
Light 25
Lim@@ 25
Lor@@ 25
Milan 25
Millennium 25
Modern 25
Norse 25
Op@@ 25
Over@@ 25
Parker 25
Pepsi 25
Physi@@ 25
Pr@@ 25
RA 25
RD 25
RISD 25
Rachel 25
Reserve 25
Rice 25
Ronald 25
SE@@ 25
STEM 25
Sighs 25
Slow 25
Sure 25
Sustainable 25
Sw@@ 25
Taylor 25
Teddy 25
Terra 25
Today 25
Tourette 25
Truth 25
Tw@@ 25
US@@ 25
Ushahidi 25
VR 25
Village 25
Walter 25
War@@ 25
Well@@ 25
Whe@@ 25
Wisconsin 25
Without 25
Yoruba 25
Zambia 25
absorbing 25
absorbs 25
addict 25
adjustments 25
alleviate 25
alls 25
aments 25
ands 25
angular 25
anic 25
anonymity 25
ape@@ 25
apocalypse 25
arrogant 25
asing 25
aspiring 25
ass@@ 25
attributed 25
au 25
auction 25
audi@@ 25
author@@ 25
back-@@ 25
bedtime 25
belts 25
bers 25
bic 25
bie 25
bitch 25
blankets 25
bled 25
blobs 25
block@@ 25
blues 25
bookstore 25
branding 25
bred 25
buff@@ 25
built-in 25
business@@ 25
camping 25
cas@@ 25
cel 25
cephal@@ 25
chill 25
chim@@ 25
chlor@@ 25
choking 25
chron@@ 25
clas@@ 25
classification 25
cliffs 25
colonialism 25
colonization 25
communism 25
competed 25
compliance 25
compliment 25
composite 25
confrontation 25
conjunction 25
conserve 25
consist 25
contempt 25
corpus 25
correc@@ 25
correctness 25
correspon@@ 25
crater 25
crowd@@ 25
crux 25
crypto@@ 25
curing 25
curl 25
cybercriminals 25
cycling 25
dam@@ 25
dat@@ 25
ddling 25
dealer 25
deconstruc@@ 25
defenders 25
demonstrates 25
depict 25
der-@@ 25
desalination 25
detects 25
direc@@ 25
directing 25
discount 25
dormant 25
dou@@ 25
doub@@ 25
doubles 25
drastic 25
eb@@ 25
editorial 25
educator 25
eighty 25
elevate 25
eleven 25
emulate 25
encountering 25
encouragement 25
ender 25
endurance 25
entrenched 25
erian 25
estimation 25
euros 25
evoke 25
exacerb@@ 25
exaggeration 25
examination 25
exc@@ 25
excites 25
extra-@@ 25
fashionable 25
fearless 25
fel@@ 25
ffing 25
filtering 25
forage 25
formally 25
formations 25
fresh@@ 25
fru@@ 25
frustrations 25
generalize 25
geographical 25
geologists 25
gha@@ 25
grapes 25
grav@@ 25
gress 25
handled 25
hangs 25
healed 25
heats 25
hem 25
holidays 25
hollow 25
homicide 25
horribly 25
hostility 25
hull 25
humiliated 25
illegally 25
imaginable 25
immuno@@ 25
import 25
inations 25
inert 25
influencing 25
intellectually 25
interacted 25
interpreter 25
jan 25
jerk 25
jol@@ 25
jurisdiction 25
les@@ 25
librarians 25
lightbulb 25
lightbulbs 25
lineage 25
loading 25
lone 25
lower-@@ 25
manifestations 25
mas@@ 25
memorized 25
microphones 25
mid- 25
migraine 25
mimicking 25
minded 25
mot@@ 25
multiplying 25
nap 25
nation@@ 25
nec@@ 25
nerv@@ 25
nests 25
neutrality 25
nian 25
nies 25
notorious 25
nutrient 25
opping 25
oul@@ 25
outlook 25
pac@@ 25
pains 25
palace 25
palms 25
participant 25
ped@@ 25
pellets 25
pennies 25
pens 25
pension 25
pictured 25
pies 25
plea 25
pleasures 25
plotted 25
plumes 25
polarized 25
precipit@@ 25
pres@@ 25
prestigious 25
prince 25
privately 25
pronounced 25
propulsion 25
proxy 25
psychiatrists 25
psychologically 25
purchasing 25
questionable 25
rais@@ 25
randomized 25
rece@@ 25
regain 25
relentless 25
responsibly 25
river@@ 25
rounded 25
roy@@ 25
rubbing 25
runaway 25
sail@@ 25
sailed 25
sandwiches 25
sank 25
savanna 25
scre@@ 25
secured 25
sediment 25
seized 25
sentencing 25
shment 25
shortcuts 25
shre@@ 25
siege 25
sla@@ 25
slo@@ 25
smash 25
spelled 25
spills 25
splitting 25
spon@@ 25
sponge 25
stabilized 25
stamps 25
state-@@ 25
steadily 25
stellar 25
steri@@ 25
strips 25
succeeding 25
supplement 25
swell 25
synchrony 25
tablets 25
tag@@ 25
taped 25
tapped 25
tasked 25
technologically 25
tenderness 25
testi@@ 25
thri@@ 25
thumbs 25
tioning 25
toaster 25
toler@@ 25
transcendence 25
twe@@ 25
twilight 25
ulated 25
una 25
underlies 25
underrepresented 25
undo 25
unions 25
untie 25
unwanted 25
upbringing 25
ute 25
ution 25
vable 25
vantage 25
vian 25
visuals 25
von 25
weigh@@ 25
wetlands 25
whe@@ 25
woo@@ 25
wrapping 25
yawn 25
1957 24
21@@ 24
7,@@ 24
AC 24
AR 24
AS 24
AV 24
Afro@@ 24
Airport 24
Alright 24
Any@@ 24
Ara@@ 24
BMW 24
BP 24
Barbara 24
Better 24
Billy 24
Bla@@ 24
Boulder 24
Brussels 24
Carter 24
Cassini 24
Chad 24
Committee 24
Could 24
Daddy 24
Domin@@ 24
Donna 24
Expl@@ 24
FG 24
Feder@@ 24
G. 24
GC 24
Goliath 24
Gor@@ 24
Ground 24
HG 24
HIV-positive 24
Hel@@ 24
High@@ 24
Hun@@ 24
Impact 24
Innovation 24
Istanbul 24
Jac@@ 24
Jon@@ 24
Jose 24
Ker@@ 24
Ky@@ 24
LE@@ 24
Lar@@ 24
MZ 24
Matrix 24
Mic@@ 24
Milk 24
Mitchell 24
Mohammed 24
Niger 24
Nile 24
OCD 24
OO@@ 24
Octa@@ 24
PE@@ 24
Pearl 24
Poe 24
Princess 24
Psy@@ 24
R-@@ 24
Rebecca 24
Rico 24
Road 24
SA@@ 24
Sandy 24
Shan@@ 24
Shu@@ 24
Sk@@ 24
Sony 24
Sto@@ 24
Tele@@ 24
Twit@@ 24
Type 24
Venter 24
Viking 24
Vo@@ 24
Wal-Mart 24
Wat@@ 24
Wolfram 24
Zika 24
abstr@@ 24
accommod@@ 24
accounted 24
acked 24
actress 24
ada 24
adhesive 24
adhesives 24
adjusted 24
advertise 24
aga 24
agging 24
aims 24
aman@@ 24
ambient 24
aming 24
ampu@@ 24
analogies 24
anch@@ 24
anian 24
aping 24
apology 24
appalling 24
approve 24
as-@@ 24
assaulted 24
atri@@ 24
aura 24
automate 24
azz@@ 24
baking 24
bargain 24
bathe 24
bear@@ 24
benefiting 24
bigotry 24
bloom 24
bore 24
boreal 24
borrowing 24
bosses 24
bou@@ 24
brainstorming 24
brea@@ 24
brow@@ 24
bullshit 24
buzzing 24
cafeteria 24
calculators 24
calf 24
canoe 24
carpenter 24
cassava 24
causal 24
chant 24
cheaply 24
chronically 24
cious 24
circus 24
cleans 24
coil 24
color@@ 24
comma 24
complement 24
considerably 24
consult 24
contra@@ 24
contractions 24
corn@@ 24
corridor 24
cosmology 24
cough 24
courtyard 24
crafts 24
crammed 24
crappy 24
crates 24
crow@@ 24
cubicle 24
cus@@ 24
debating 24
deci@@ 24
decorated 24
defect 24
defy 24
detectable 24
dictators 24
differentiated 24
diffuse 24
disastrous 24
dispute 24
disrupting 24
dissent 24
doable 24
documentation 24
drug-@@ 24
dyslexia 24
ece 24
ect 24
eland 24
elu@@ 24
emergencies 24
endemic 24
enhances 24
enting 24
eping 24
epo@@ 24
esis 24
evaporate 24
exhibitions 24
expenses 24
explosive 24
extensions 24
extensively 24
favelas 24
filtered 24
firefighters 24
first-ever 24
fished 24
flipping 24
flour 24
fluent 24
fountain 24
fueling 24
ggles 24
grants 24
graphy 24
grasses 24
hands-on 24
handwriting 24
harassed 24
hazard 24
heightened 24
heterosexual 24
high-level 24
highest-@@ 24
holo@@ 24
hospitality 24
hubris 24
hymen 24
illustrated 24
imam 24
immersive 24
incapable 24
incorporated 24
incorporating 24
ine-@@ 24
inserted 24
insisting 24
installing 24
instrumental 24
interpreting 24
intertwined 24
intractable 24
investigator 24
involuntary 24
isirika 24
jams 24
jet@@ 24
justified 24
knit 24
knots 24
las@@ 24
lest 24
liber@@ 24
life-changing 24
lifestyles 24
ligh@@ 24
lobes 24
long-lasting 24
long@@ 24
los 24
malignant 24
mammalian 24
man-@@ 24
mandatory 24
mation 24
median 24
mentoring 24
merchants 24
merit 24
metabo@@ 24
micro 24
migrating 24
millennial 24
million-dollar 24
miners 24
misconception 24
mixes 24
mmed 24
mmy 24
monumental 24
mother-in-law 24
motherhood 24
nation-states 24
nausea 24
nine-year-old 24
nudge 24
obligations 24
observable 24
occupations 24
occupying 24
ond 24
oney 24
operators 24
opia 24
orchids 24
ordering 24
organ@@ 24
oscill@@ 24
oscope 24
osity 24
oss 24
ost 24
ounds 24
outstanding 24
oversight 24
owl 24
owning 24
pain@@ 24
painfully 24
palette 24
paused 24
pediatrician 24
peril 24
persisted 24
pests 24
pivotal 24
plasticity 24
playbook 24
polis 24
pollination 24
possess 24
pounding 24
ppy 24
precedent 24
predictor 24
probable 24
projector 24
proof@@ 24
prophecy 24
protesting 24
proximity 24
psych@@ 24
pub 24
publisher 24
pulmonary 24
puncture 24
py@@ 24
railway 24
ram 24
rationally 24
reckless 24
rein@@ 24
rejuven@@ 24
relating 24
reliability 24
renaissance 24
rer@@ 24
researched 24
reside 24
rewrite 24
rhythmic 24
ris 24
rob@@ 24
roller 24
rooftops 24
runway 24
sage 24
scaffold 24
scarf 24
scaven@@ 24
scri@@ 24
selecting 24
shaky 24
shoreline 24
sians 24
simulating 24
sk 24
skeptics 24
skirt 24
slam 24
small-@@ 24
sociologists 24
someplace 24
sore 24
sovereignty 24
specially 24
spectacle 24
sporting 24
stat@@ 24
stering 24
stimul@@ 24
stom@@ 24
stop@@ 24
strang@@ 24
stric@@ 24
subconscious 24
sue 24
sued 24
suite 24
supreme 24
swings 24
tagging 24
tain@@ 24
tasting 24
tational 24
tative 24
technician 24
template 24
tender 24
then-@@ 24
thermodynamics 24
thr@@ 24
tici@@ 24
tified 24
tigers 24
toxin 24
traders 24
traumatized 24
traveler 24
tutor 24
tweeting 24
twists 24
ty-five 24
tyranny 24
umbrella 24
underwear 24
underworld 24
unpack 24
untouched 24
vacant 24
vaccin@@ 24
van@@ 24
vegetarian 24
ventri@@ 24
verified 24
versatile 24
vir@@ 24
virtu@@ 24
wake-up 24
wat@@ 24
wealthier 24
wee@@ 24
whereby 24
whir@@ 24
whispered 24
wit@@ 24
wizards 24
wolf 24
yel@@ 24
zi 24
zodiac 24
zombie 24
è@@ 24
ía 24
,0@@ 23
1983 23
2019 23
20th-century 23
30@@ 23
40@@ 23
5,@@ 23
700,000 23
AIMS 23
Adri@@ 23
Agnes 23
Angel@@ 23
Ann 23
Area 23
Arkansas 23
Asperger 23
Ath@@ 23
Being 23
Bl@@ 23
Brad@@ 23
Bul@@ 23
CIA 23
CO 23
Carlos 23
Cho@@ 23
Christ@@ 23
Citiz@@ 23
Code 23
Congolese 23
Copernicus 23
Cos@@ 23
Cru@@ 23
Cuban 23
DIY 23
Des@@ 23
Economist 23
Everyone 23
Fel@@ 23
Festival 23
Forbes 23
Forum 23
Geneva 23
Genome 23
Glenn 23
Harold 23
Inuit 23
Isa@@ 23
Israelis 23
JD 23
Joan 23
K-@@ 23
Karl 23
Kat@@ 23
Le 23
Lucy 23
MDMA 23
Maya 23
Network 23
Neumann 23
Never 23
Next 23
Orchestra 23
Pat@@ 23
Patri@@ 23
Pierre 23
Progress 23
Quixote 23
Rouge 23
Rule 23
Rus@@ 23
SJ 23
SL 23
Save 23
Sc@@ 23
Scr@@ 23
Sim@@ 23
Six 23
Spock 23
Stra@@ 23
Sufi 23
Swahili 23
Sweeney 23
Tahrir 23
Tas@@ 23
Tech 23
Tech@@ 23
Tehran 23
Titus 23
Tran@@ 23
UNICEF 23
Vas@@ 23
WHO 23
Warcraft 23
Westerners 23
Wired 23
Xian 23
YR 23
^ 23
affluent 23
albeit 23
altering 23
amo@@ 23
announ@@ 23
antennas 23
applaud 23
applicable 23
ard@@ 23
asts 23
ational 23
atives 23
audacity 23
backbone 23
barefoot 23
bathrooms 23
bins 23
biodegradable 23
biop@@ 23
blades 23
blue-@@ 23
blunt 23
booms 23
bottom@@ 23
box@@ 23
bran@@ 23
branching 23
brushing 23
buds 23
bundle 23
businessman 23
buyer 23
cab 23
cam 23
cataly@@ 23
cautious 23
cave@@ 23
cavities 23
cello 23
circling 23
circulatory 23
circumference 23
cker 23
classify 23
climate-@@ 23
clones 23
clumps 23
coalitions 23
coff@@ 23
cofounded 23
collaborated 23
companions 23
compromising 23
conceivable 23
constellation 23
contraception 23
contractor 23
coordinates 23
correction 23
correlate 23
cost-@@ 23
coup 23
cradle 23
critique 23
crooked 23
cruci@@ 23
cumulative 23
currencies 23
cynical 23
dale 23
dan 23
data-driven 23
dation 23
daytime 23
dder 23
decreasing 23
defects 23
defen@@ 23
delta 23
delusion 23
descending 23
design@@ 23
detained 23
dict 23
differ@@ 23
differenti@@ 23
digitize 23
dignified 23
disciplinary 23
discretion 23
dismantle 23
distinguished 23
distractions 23
div@@ 23
domination 23
doodling 23
doorstep 23
dow@@ 23
downside 23
drip 23
droplet 23
duct 23
dunes 23
duties 23
egos 23
electrode 23
eled 23
elle 23
ells 23
ema@@ 23
embassy 23
embed 23
emphasized 23
empowers 23
enact 23
encourages 23
endo@@ 23
endured 23
entries 23
environmentalists 23
evolutionarily 23
exer@@ 23
exercising 23
exoplanets 23
exterior 23
extern@@ 23
extinctions 23
feder@@ 23
fertilization 23
firefly 23
flam@@ 23
fleeting 23
flowering 23
fly@@ 23
for-profit 23
freaked 23
fro@@ 23
fry 23
funders 23
futile 23
gan 23
gations 23
gel@@ 23
ght 23
gin 23
gir@@ 23
gle@@ 23
glove 23
glued 23
graceful 23
greatness 23
grinding 23
gyrus 23
hail 23
hap@@ 23
hates 23
hearted 23
hen@@ 23
here@@ 23
hologram 23
horizontally 23
hovering 23
hr@@ 23
hurdles 23
iPhones 23
identi@@ 23
ideologies 23
ill-@@ 23
illustrations 23
immersion 23
imminent 23
impatient 23
inbox 23
incidence 23
inconsistent 23
incubator 23
individuality 23
industri@@ 23
inheritance 23
initiate 23
inland 23
innovating 23
inocul@@ 23
interpersonal 23
intestinal 23
invading 23
invo@@ 23
isolating 23
itating 23
kable 23
kicking 23
lapse 23
lava 23
leftover 23
lesser 23
lexicon 23
live@@ 23
lling 23
lowing 23
lurking 23
male-@@ 23
marital 23
master@@ 23
maximizing 23
may@@ 23
mediated 23
mel 23
merging 23
mistrust 23
misunderstanding 23
mit 23
mole 23
mommy 23
mornings 23
morph@@ 23
motivational 23
motives 23
motor@@ 23
mountain@@ 23
mounting 23
mouth@@ 23
municipal 23
naming 23
nanometers 23
naïve 23
nee@@ 23
negativity 23
neurologist 23
nish 23
nonprofits 23
objectively 23
occurrence 23
offended 23
offenders 23
offset 23
oneself 23
originals 23
orphans 23
otic 23
out-@@ 23
packages 23
paints 23
paired 23
paper@@ 23
parade 23
paragraph 23
paranoid 23
partisanship 23
pas@@ 23
paved 23
pavement 23
peace@@ 23
philanthropic 23
pins 23
plantations 23
pluripotent 23
policeman 23
polling 23
pop@@ 23
porch 23
portra@@ 23
possessed 23
potassium 23
proactive 23
proceeded 23
psychotherapy 23
pumped 23
punk 23
purse 23
pursued 23
pus@@ 23
quad 23
quanti@@ 23
quarks 23
que@@ 23
queue 23
quieter 23
rampant 23
rati@@ 23
recreational 23
recurring 23
reflections 23
refrigeration 23
reign 23
reinforcing 23
relieve 23
reminding 23
renewed 23
renowned 23
replenish 23
replicating 23
requested 23
reservoir 23
reshape 23
reti@@ 23
revi@@ 23
riot 23
risk-taking 23
rob 23
rubbish 23
rugged 23
saltwater 23
scum 23
seekers 23
self-organizing 23
shareholder 23
shrunk 23
signi@@ 23
sincere 23
single-celled 23
sman 23
smar@@ 23
sniff 23
spectral 23
speculate 23
sper@@ 23
spirituality 23
spores 23
spotlight 23
spra@@ 23
stacking 23
staple 23
stomachs 23
stove 23
stumble 23
sub 23
supernatural 23
superstar 23
suppression 23
suspicion 23
swims 23
swo@@ 23
synesthesia 23
tactile 23
tain 23
tant 23
teaming 23
temp@@ 23
temperate 23
tempted 23
tentacles 23
tenure 23
testes 23
th-grade 23
thouse 23
ting@@ 23
tool@@ 23
tual 23
tucked 23
tunneling 23
tutoring 23
uncles 23
unexpectedly 23
unleashed 23
untold 23
uous 23
usi@@ 23
vari@@ 23
vascular 23
vation 23
vending 23
vendor 23
vens 23
vis@@ 23
volunteering 23
waist 23
waiter 23
warnings 23
wiser 23
wl 23
wondrous 23
yep 23
yl 23
zero-sum 23
ä@@ 23
&apos;am 22
10-year 22
12-year-old 22
18-@@ 22
1918 22
1967 22
1974 22
200-@@ 22
2100 22
70-@@ 22
9th 22
Aurora 22
Austrian 22
B-@@ 22
Baby 22
Bahamas 22
Brain 22
Bru@@ 22
By@@ 22
CAD 22
CL 22
Campaign 22
Change 22
Colombian 22
Dante 22
Diana 22
Dor@@ 22
Dou@@ 22
Drake 22
ESG 22
Economic 22
Eden 22
Emer@@ 22
Eri@@ 22
Everything 22
Excuse 22
Financial 22
Fle@@ 22
Florence 22
Ful@@ 22
G-@@ 22
GM 22
Government 22
Grandma 22
Haw@@ 22
Hil@@ 22
Homer 22
Honey 22
Hopkins 22
Il@@ 22
Imagine 22
Iranians 22
Laboratory 22
Lesters 22
Louisiana 22
Lower 22
Luke 22
Map 22
Med@@ 22
Men@@ 22
Mot@@ 22
Movember 22
NE@@ 22
Nope 22
Northwest 22
Off@@ 22
Ok@@ 22
Ooh 22
Oz 22
P. 22
PD 22
Pap@@ 22
Parks 22
Paul@@ 22
Pon@@ 22
Program 22
Py@@ 22
Qatar 22
RW 22
Robot 22
Ryan 22
Satan 22
Scratch 22
Siri 22
Slo@@ 22
Some@@ 22
Sound 22
Stanley 22
Survey 22
Temple 22
Thanksgiving 22
Theater 22
Tun@@ 22
Universal 22
VC 22
Valentine 22
Very 22
Wiki@@ 22
Wit@@ 22
Witness 22
Work 22
XY 22
Zipcar 22
achable 22
actic 22
administered 22
adorable 22
aerospace 22
alliance 22
altru@@ 22
amber 22
analogous 22
analyst 22
ancies 22
antennae 22
antibody 22
antidepressant 22
appe@@ 22
artworks 22
asp@@ 22
asphalt 22
autoimmune 22
avid 22
backing 22
battle@@ 22
beehive 22
beg 22
billboard 22
billboards 22
billionaire 22
biography 22
bios@@ 22
bleak 22
blue@@ 22
boiled 22
bomber 22
booming 22
breakup 22
brilliantly 22
bumping 22
bureau@@ 22
burger 22
busted 22
cade 22
caffeine 22
capillary 22
capitalists 22
captive 22
centr@@ 22
chanting 22
chariot 22
chee@@ 22
chu 22
cle@@ 22
cling 22
closure 22
cockroaches 22
collec@@ 22
collects 22
compost 22
concer@@ 22
condition@@ 22
considerable 22
constitutes 22
consu@@ 22
contributor 22
converge 22
cooks 22
coronavirus 22
counsel 22
cowboy 22
crack@@ 22
craters 22
crowdsourcing 22
crown 22
crystalline 22
cts 22
curtains 22
dads 22
dataset 22
dawned 22
decimal 22
deleted 22
delicacy 22
deposits 22
deprived 22
determin@@ 22
devoid 22
dge@@ 22
diagnosing 22
dim 22
dinners 22
diplomats 22
displace 22
disputes 22
doo 22
drown 22
drying 22
dubious 22
dysfunctional 22
eagle 22
ech 22
ection 22
edi 22
elimination 22
ello 22
embodiment 22
emul@@ 22
engages 22
enter@@ 22
eous 22
ev 22
evacu@@ 22
evaluated 22
evaluating 22
eves 22
excruciating 22
exert 22
exhaust 22
extracellular 22
fabricated 22
fallacy 22
fare 22
farmland 22
favors 22
feld 22
fiable 22
fif@@ 22
filing 22
financed 22
fit@@ 22
flag@@ 22
flapping 22
flashlight 22
flirting 22
forefront 22
frac@@ 22
fracture 22
fran@@ 22
gadgets 22
genus 22
geon 22
gery 22
gi 22
gon@@ 22
good-@@ 22
gorilla 22
grasslands 22
greedy 22
grow@@ 22
hack@@ 22
heli@@ 22
high@@ 22
hm 22
hopped 22
hubs 22
hunter 22
hurricanes 22
icial 22
ignite 22
illed 22
impactful 22
inating 22
indefinitely 22
inequalities 22
inflammatory 22
insulation 22
inte@@ 22
interdependent 22
interpretations 22
inti@@ 22
invaders 22
inwards 22
itty 22
janitor 22
jar@@ 22
joking 22
kilogram 22
kindly 22
kissing 22
knitting 22
ko@@ 22
laborers 22
lamp@@ 22
legislative 22
lesion 22
liberate 22
lightly 22
listing 22
liter 22
litigation 22
livelihoods 22
lun@@ 22
mania 22
mantis 22
marketers 22
match@@ 22
maxi@@ 22
mba 22
medal 22
meditate 22
metro 22
microns 22
mount 22
multicultural 22
mun@@ 22
muscular 22
mythical 22
nal 22
nanoscale 22
nationally 22
nerds 22
news@@ 22
nominated 22
not-@@ 22
noting 22
oiled 22
onboard 22
oper@@ 22
optimi@@ 22
ords 22
origin@@ 22
outreach 22
overs 22
oyster 22
para@@ 22
paraphrase 22
patented 22
patter@@ 22
peacefully 22
pearls 22
perceiving 22
percussion 22
perme@@ 22
petro@@ 22
pher@@ 22
photon 22
phy 22
pic 22
pickup 22
plank 22
plight 22
plywood 22
poisonous 22
poke 22
ponds 22
pores 22
portfolio 22
positioning 22
predominantly 22
prejudices 22
proportional 22
prospects 22
protagonist 22
proton 22
q 22
quad@@ 22
ques 22
ratios 22
realism 22
reductions 22
refer@@ 22
refrigerators 22
registration 22
reless 22
reprogram 22
repu@@ 22
reservations 22
reset 22
respec@@ 22
respectable 22
respecting 22
restless 22
revisit 22
rex 22
right-@@ 22
risk-@@ 22
rogue 22
rot@@ 22
routines 22
rover 22
runners 22
rup@@ 22
sampled 22
sauc@@ 22
secretary 22
seismic 22
seminal 22
sequest@@ 22
severity 22
shaman 22
ship@@ 22
shouted 22
skiing 22
skins 22
sliced 22
sneaker 22
some@@ 22
southwest 22
speculative 22
sped 22
spir@@ 22
stall 22
stre@@ 22
stripes 22
struc@@ 22
successive 22
sunrise 22
suppressed 22
surrogate 22
sushi 22
swollen 22
sympathetic 22
tailed 22
tapes 22
tat 22
tectonic 22
tely 22
tening 22
tents 22
tes@@ 22
textures 22
theaters 22
thicker 22
tices 22
till@@ 22
time-lapse 22
time@@ 22
timeless 22
tist 22
token 22
tos 22
tours 22
transferring 22
treasures 22
trouble@@ 22
tuition 22
tunas 22
turmoil 22
unfolded 22
unheard 22
uniforms 22
unlocked 22
unto 22
urgently 22
uss 22
validated 22
vector 22
vein 22
vels 22
veness 22
vide@@ 22
viewpoints 22
waf@@ 22
waits 22
warrant 22
whispering 22
wiel@@ 22
wildebeest 22
withdraw 22
wre@@ 22
xing 22
yearning 22
yo 22
yu@@ 22
&apos;mon 21
1,800 21
16-year-old 21
17,000 21
2025 21
4th 21
ABC 21
Allah 21
Alvin 21
Andr@@ 21
Ari@@ 21
Arnold 21
B. 21
BM 21
Back 21
Baker 21
Beck 21
Bir@@ 21
Bonica 21
Buffalo 21
CDs 21
Chapel 21
Creative 21
Cultural 21
Daedalus 21
Demo@@ 21
Di 21
Dorothy 21
Dr@@ 21
Drug 21
E.T. 21
Estonia 21
F. 21
Fac@@ 21
Fair 21
Fibonacci 21
Foods 21
G20 21
Gods 21
Happy 21
Harbor 21
Hawaiian 21
Hell 21
However 21
Hur@@ 21
Intelligence 21
Iowa 21
Joy 21
Julius 21
Karen 21
Kofi 21
Lakota 21
Linda 21
Mandarin 21
Melinda 21
Mis@@ 21
Mom@@ 21
NATO 21
NP 21
Nathaniel 21
Oumuamua 21
Palestinians 21
Pantheon 21
Pascal 21
Pentagon 21
Play@@ 21
Pop@@ 21
REM 21
Ras@@ 21
Ravi 21
Reed 21
Ren@@ 21
Rich 21
Rift 21
Rit@@ 21
Rock 21
Rwandan 21
Sally 21
Seven@@ 21
Shah 21
Sisyphus 21
Sli@@ 21
SpaceX 21
StoryCorps 21
TEDster 21
Tamiflu 21
Test 21
Those 21
Top 21
Trayvon 21
Tro@@ 21
Trojan 21
Twi@@ 21
VV 21
W. 21
XL 21
Ya@@ 21
Yan@@ 21
Yo 21
Yo@@ 21
Youth 21
abi@@ 21
acies 21
acking 21
adjusting 21
administrative 21
aerodynamic 21
ais@@ 21
allocate 21
amphi@@ 21
and-a-half 21
andro@@ 21
ank 21
anna 21
ao 21
api@@ 21
appers 21
arrogance 21
ary-@@ 21
asymmetry 21
atorial 21
attacker 21
aud@@ 21
aur 21
authorized 21
auto 21
autopilot 21
avoidance 21
ax 21
badge 21
bake 21
balances 21
ballroom 21
bankruptcy 21
battered 21
berries 21
betting 21
bio 21
bla 21
blood-@@ 21
blueprints 21
boundless 21
brake 21
breeze 21
bribes 21
bubbling 21
bullied 21
businesspeople 21
cali@@ 21
canals 21
cancerous 21
canni@@ 21
cavity 21
cease 21
cere@@ 21
cervical 21
character@@ 21
chil@@ 21
choke 21
civilized 21
cke@@ 21
ckets 21
clogged 21
clone 21
close-up 21
collaborations 21
color-@@ 21
commu@@ 21
composers 21
computer-@@ 21
conquest 21
consen@@ 21
considers 21
consultants 21
controllers 21
conversational 21
coordinating 21
courtship 21
crackers 21
crystal@@ 21
curiously 21
cutter 21
cyborg 21
data-@@ 21
decorative 21
defender 21
definitive 21
dences 21
densely 21
dep@@ 21
depend@@ 21
detective 21
deton@@ 21
dials 21
diminishing 21
dir@@ 21
disconnection 21
disgusted 21
dorm 21
dosing 21
draw@@ 21
dream@@ 21
dupli@@ 21
dynamically 21
efficiencies 21
eight-year-old 21
enclosure 21
endor@@ 21
enjoyment 21
entertain 21
entially 21
entr@@ 21
esa@@ 21
eses 21
eve 21
evenly 21
ew 21
experimented 21
eyebrows 21
eyewitness 21
faiths 21
fallout 21
fascist 21
feed@@ 21
fighter 21
flips 21
fluctu@@ 21
flute 21
flux 21
foolish 21
formulas 21
formulate 21
fty 21
fundamentals 21
funerals 21
futu@@ 21
gang@@ 21
genders 21
geo-@@ 21
geothermal 21
germ 21
ggers 21
gical 21
gon 21
graders 21
grandkids 21
grapple 21
gratification 21
green-@@ 21
greens 21
greet 21
grieving 21
groundbreaking 21
gul@@ 21
gur@@ 21
hallways 21
handheld 21
haptic 21
haw@@ 21
hazardous 21
hedge 21
hero@@ 21
hierarchical 21
high-energy 21
hn 21
hockey 21
hurdle 21
hustle 21
hypothe@@ 21
idealistic 21
illiteracy 21
ima 21
imprisonment 21
impunity 21
inated 21
incivility 21
inconvenient 21
inequity 21
infer@@ 21
infidelity 21
instantaneously 21
insufficient 21
insul@@ 21
insula 21
interplay 21
intestine 21
inward 21
ira 21
ises 21
itors 21
justi@@ 21
kening 21
kidnapping 21
kit@@ 21
kite 21
knob 21
ks@@ 21
lame 21
latent 21
legends 21
legisl@@ 21
liberties 21
licensed 21
lifesaving 21
lip@@ 21
listens 21
livelihood 21
loaf 21
logged 21
logs 21
loom 21
lords 21
los@@ 21
lousy 21
mainframe 21
malleable 21
malware 21
mammogram 21
maneuver 21
melodies 21
meritocracy 21
meta-@@ 21
metabolites 21
microbiome 21
mid 21
middle-@@ 21
midwife 21
miniaturization 21
mm 21
mmer 21
modernism 21
modifications 21
monastery 21
mou@@ 21
mutant 21
mutilated 21
myriad 21
nano 21
narcissistic 21
nett 21
networked 21
nomin@@ 21
nonviolence 21
noun 21
numer@@ 21
objectivity 21
oblivious 21
ody 21
once-@@ 21
onco@@ 21
one-way 21
oni 21
onian 21
ony@@ 21
open-minded 21
opioids 21
oppressive 21
ordin@@ 21
org 21
orial 21
osp@@ 21
oste@@ 21
oters 21
ouse 21
outset 21
ovaries 21
parity 21
part-time 21
patho@@ 21
pec@@ 21
peeling 21
pendulum 21
penetration 21
pep@@ 21
peripheral 21
perpetu@@ 21
pha@@ 21
phr@@ 21
ping-pong 21
pissed 21
pitched 21
plains 21
plantation 21
pledged 21
plentiful 21
politely 21
polymers 21
poo 21
porridge 21
powering 21
pra@@ 21
preacher 21
prehistoric 21
prevailing 21
problem-@@ 21
promotes 21
propagate 21
prophet 21
proposals 21
prostitutes 21
psychopath 21
publi@@ 21
quitting 21
raining 21
recep@@ 21
redesigned 21
redesigning 21
redundant 21
rehab 21
ren 21
renov@@ 21
repairing 21
repurposed 21
resisted 21
revolutionized 21
rhino@@ 21
ridiculously 21
rifle 21
rigged 21
ripple 21
rod 21
roll@@ 21
rough@@ 21
rumors 21
rupees 21
rus@@ 21
rying 21
ryp@@ 21
sar 21
scanners 21
scor@@ 21
screamed 21
segments 21
selfie 21
sermon 21
sew 21
sewing 21
shaft 21
shameful 21
shave 21
shines 21
shrinks 21
sies 21
sn@@ 21
snu@@ 21
softer 21
soluble 21
soy 21
space-@@ 21
spanning 21
spear@@ 21
specimen 21
speculated 21
spicy 21
spreadsheet 21
staged 21
stats 21
step-by-step 21
stereot@@ 21
stries 21
stun@@ 21
subordinates 21
suff@@ 21
suit@@ 21
supervisor 21
swi@@ 21
swinging 21
t-to-@@ 21
takeoff 21
taps 21
taxpayers 21
teamwork 21
tee 21
thanked 21
thankful 21
thermo@@ 21
thermostat 21
thousandth 21
thrill 21
thrilling 21
thylacine 21
tility 21
tionality 21
tman 21
toolkit 21
toxicity 21
trance 21
transnational 21
travelers 21
triump@@ 21
tt 21
tuous 21
typography 21
tz@@ 21
uncertainties 21
upper-@@ 21
vaccinate 21
variants 21
venues 21
vering 21
verses 21
vert 21
verted 21
vets 21
vial 21
violate 21
visitor 21
vitality 21
vitamins 21
vitro 21
vo 21
voic@@ 21
voluntarily 21
walker 21
wasps 21
wasteful 21
watering 21
webs 21
weights 21
well-meaning 21
wig 21
wrec@@ 21
ype 21
zation 21
zooming 21
-type 20
0.1 20
14,000 20
17-year-old 20
1929 20
1947 20
1949 20
1962 20
1972 20
1977 20
19th-century 20
2.3 20
24-@@ 20
365 20
4.5 20
7-@@ 20
750 20
7th 20
AT 20
Acumen 20
Adams 20
Aires 20
Archi@@ 20
Ay@@ 20
Bai 20
Basi@@ 20
Bio@@ 20
Bowl 20
Brilliant 20
Buenos 20
Burma 20
CAT 20
Caltech 20
Cat@@ 20
Christi@@ 20
Cleveland 20
Conservation 20
De 20
Dear 20
Democrat 20
Devil 20
Does 20
Dru@@ 20
Dublin 20
Décima 20
Ecuador 20
Eiffel 20
Embassy 20
Field 20
Finance 20
Fit@@ 20
Fr@@ 20
Frederick 20
Galen 20
Galois 20
Gate 20
Geor@@ 20
Gold 20
Greenpeace 20
Grey 20
Gy@@ 20
Halloween 20
Hindi 20
Hou@@ 20
Hungary 20
Interpassion 20
JK 20
JL 20
Jaws 20
Jeremy 20
Judaism 20
Kate 20
Kath@@ 20
Khal@@ 20
LM 20
Lanka 20
Legos 20
Lesterland 20
Lives 20
Loki 20
Lou@@ 20
Lucas 20
Lyn@@ 20
Maps 20
Matter 20
Melbourne 20
Miller 20
NIH 20
NO@@ 20
O-@@ 20
Orange 20
Papua 20
Peseshet 20
Plat@@ 20
Prison 20
Protocol 20
Proust 20
RP 20
Raisuddin 20
Roots 20
Sachs 20
Sandra 20
Scot@@ 20
Sean 20
Spencer 20
Su 20
Symphony 20
TEDGlobal 20
Tab@@ 20
Tay-Sachs 20
Terminator 20
Theresa 20
Tracy 20
Trinidad 20
Trust 20
Tubman 20
Tyler 20
UC 20
Ul@@ 20
Unit 20
Water@@ 20
Who@@ 20
Word 20
Wu@@ 20
Yay 20
Ye@@ 20
Years 20
Yellowstone 20
Zhen 20
a.m 20
abyss 20
abyte 20
accelerators 20
accompli@@ 20
adop@@ 20
adore 20
adventurous 20
advertisers 20
aeros@@ 20
affirmative 20
affirming 20
afforded 20
ag 20
ags 20
alarmed 20
allied 20
amplifying 20
amyloid 20
analyses 20
and-a-half-@@ 20
anecdote 20
anew 20
anguish 20
appeals 20
appointments 20
appro@@ 20
arities 20
arity 20
arr@@ 20
arsenal 20
assa@@ 20
associ@@ 20
aster@@ 20
asymmetric 20
at-@@ 20
attracts 20
audible 20
audition 20
autonomously 20
autopsy 20
autumn 20
awakening 20
backdrop 20
basin 20
beacon 20
beforehand 20
begged 20
besto@@ 20
betrayal 20
billionaires 20
biochemical 20
blan@@ 20
blended 20
blinded 20
blogger 20
blossom 20
bon 20
bonded 20
borne 20
bos@@ 20
bounces 20
bows 20
breath@@ 20
breathed 20
browse 20
brutally 20
bully 20
byp@@ 20
cardi@@ 20
cartoonists 20
carving 20
cent@@ 20
center@@ 20
ces@@ 20
checkers 20
cherish 20
child-@@ 20
child@@ 20
chir@@ 20
circulating 20
clerk 20
cleverly 20
cloned 20
collector 20
colonized 20
comfor@@ 20
comparative 20
complication 20
compu@@ 20
compul@@ 20
conductive 20
configurations 20
consistency 20
constellations 20
consul@@ 20
containment 20
contamination 20
contracting 20
convul@@ 20
coo@@ 20
correspondence 20
cot@@ 20
counteract 20
creatives 20
cred@@ 20
crews 20
crowdsource 20
curate 20
cursor 20
cus 20
customization 20
dash 20
dashboard 20
deal@@ 20
deco@@ 20
decoding 20
decou@@ 20
deep-sea 20
defendant 20
deficiency 20
deliveries 20
densities 20
detached 20
devise 20
diabetic 20
diapers 20
diesel 20
disc@@ 20
dislike 20
dispersed 20
disposable 20
disproportionate 20
distribu@@ 20
dium 20
dives 20
dividend 20
dn 20
dogma 20
domesticated 20
dominating 20
doorway 20
downward 20
draining 20
dreamt 20
dress@@ 20
drun@@ 20
dum@@ 20
ected 20
eda 20
elevators 20
embark 20
empha@@ 20
energized 20
ential 20
enz@@ 20
epit@@ 20
err@@ 20
escalate 20
esta 20
ethos 20
evenings 20
exceedingly 20
exceeds 20
exclude 20
exhale 20
expansive 20
exports 20
expresses 20
faithful 20
familiarity 20
fastest-growing 20
fellowship 20
femininity 20
fermentation 20
fiercely 20
fill@@ 20
fingerprints 20
fireworks 20
flick 20
floppy 20
folder 20
foragers 20
forecasting 20
foresight 20
forge 20
frontline 20
fuck 20
fucking 20
gambling 20
gar 20
gee 20
genre 20
grassland 20
grids 20
grips 20
grizzly 20
guarding 20
harnessed 20
headset 20
help@@ 20
hemoglobin 20
hide@@ 20
hides 20
highs 20
hilarious 20
hippie 20
holi@@ 20
hop@@ 20
horns 20
hosted 20
housework 20
hype 20
ibuprofen 20
idle 20
ility 20
illuminating 20
implicated 20
implicitly 20
impro@@ 20
inanimate 20
incentivize 20
indirect 20
individu@@ 20
inflated 20
inged 20
inity 20
insidious 20
insurmountable 20
intern 20
invariably 20
inventive 20
invitations 20
irregular 20
jars 20
jec@@ 20
ju 20
juveniles 20
keepers 20
kis 20
kling 20
knocks 20
knowledgeable 20
landmark 20
latitude 20
latter 20
lawsuits 20
leaps 20
lemon 20
lic@@ 20
lifeless 20
lifeline 20
liquids 20
lls 20
loosely 20
lot@@ 20
low-level 20
lowers 20
macro 20
manure 20
mar 20
marginal 20
marrying 20
meadow 20
memoir 20
memorizing 20
mercury 20
micros@@ 20
miti@@ 20
molten 20
momentous 20
monarchs 20
mony 20
morphology 20
moth 20
mutilation 20
mysti@@ 20
napkin 20
narcissism 20
negotiated 20
nesting 20
ninety-@@ 20
nonstop 20
nourished 20
objection 20
obse@@ 20
obsessive 20
obstruc@@ 20
old-@@ 20
on-screen 20
onion 20
onist 20
ophysi@@ 20
opper 20
organizer 20
osaurus 20
outsider 20
overboard 20
pacemaker 20
pajamas 20
parable 20
parti@@ 20
patchwork 20
pelvis 20
perpetrator 20
personalization 20
phic 20
phy@@ 20
physi@@ 20
pickle 20
pinnacle 20
pipelines 20
planner 20
plaques 20
pollute 20
positivity 20
possessions 20
pottery 20
power@@ 20
ppers 20
prece@@ 20
presidency 20
progressed 20
propeller 20
prosecuted 20
provision 20
pseu@@ 20
query 20
quoting 20
rab@@ 20
racially 20
reassure 20
reassuring 20
recap 20
redefined 20
ree 20
refin@@ 20
reg@@ 20
regre@@ 20
relay 20
rer 20
resourceful 20
retar@@ 20
retrospect 20
rist 20
rocked 20
rods 20
rovers 20
rudimentary 20
sailors 20
salvation 20
sane 20
science-@@ 20
sear@@ 20
self-expression 20
shri@@ 20
shuffle 20
skate@@ 20
skulls 20
slightest 20
smith 20
sms 20
sober 20
solidi@@ 20
specialization 20
spherical 20
spotting 20
stain 20
starch 20
stewardship 20
stickers 20
street@@ 20
stumbling 20
subscribe 20
superposition 20
supervi@@ 20
sweat@@ 20
swine 20
taker 20
tapir 20
tas 20
tas@@ 20
tch 20
tendencies 20
terabytes 20
tethered 20
tex@@ 20
thereafter 20
thered 20
therhood 20
thirst 20
thre@@ 20
thrift 20
tian 20
ticism 20
tious 20
topography 20
trafficked 20
trails 20
transgre@@ 20
transi@@ 20
transitions 20
triggering 20
turbine 20
twenty-@@ 20
twentysomethings 20
twisting 20
typo@@ 20
unarmed 20
unconsciously 20
unknowns 20
unpaid 20
unreliable 20
unstoppable 20
untreated 20
updating 20
ured 20
us-@@ 20
vac@@ 20
vacu@@ 20
vanished 20
veling 20
venue 20
villain 20
visc@@ 20
vodka 20
vomiting 20
waitress 20
waterfront 20
waterways 20
weirdly 20
well-intentioned 20
widening 20
widow 20
wild@@ 20
wishing 20
witch 20
wrestle 20
wrong@@ 20
x-ray 20
yelled 20
zen 20
án 20
ón 20
ā@@ 20
-shaped 19
1.8 19
105 19
1948 19
1964 19
1971 19
25th 19
28@@ 19
650 19
747 19
90,000 19
Aimee 19
Ale@@ 19
Alfred 19
Announcer 19
Ashley 19
Bad 19
Band-Aid 19
Bernie 19
Betty 19
Blan@@ 19
Bran@@ 19
Brother 19
Burning 19
C-section 19
Cab@@ 19
Carri@@ 19
Ci@@ 19
Cir@@ 19
Clar@@ 19
Coach 19
Colle@@ 19
Cou@@ 19
Curie 19
D.@@ 19
DA 19
DL 19
DVDs 19
Dic@@ 19
Discovery 19
District 19
Down 19
E-@@ 19
EB 19
EPA 19
ES@@ 19
Ell@@ 19
Energy 19
Eng@@ 19
Enri@@ 19
Eu@@ 19
Exxon 19
G.@@ 19
Gabriel 19
Gallery 19
Goldilocks 19
Goldman 19
HPV 19
Hai@@ 19
Hall@@ 19
Hampshire 19
Hannah 19
Helvetica 19
Honor 19
Huntington 19
IKEA 19
Ibrahim 19
Imp@@ 19
Isabel 19
Islamist 19
JB 19
Jamie 19
Jenny 19
Ji@@ 19
Jonas 19
Julie 19
Keep 19
Kel@@ 19
Klan 19
LOL 19
Lad@@ 19
Land 19
Lin@@ 19
Loc@@ 19
Lost 19
Lot@@ 19
Luc@@ 19
MP@@ 19
Malaysia 19
Mao 19
Mart@@ 19
McCain 19
Mercury 19
Michelle 19
Mister 19
Mogadishu 19
Morning 19
Morocco 19
Musk 19
NM 19
NYU 19
Nanopatch 19
Napoleon 19
Newtonian 19
Nine 19
Ninety-@@ 19
Nixon 19
Ny@@ 19
Out 19
PP 19
Page 19
Palo 19
Panbanisha 19
Patient 19
Photoshop 19
Plan 19
Poly@@ 19
Prochlorococcus 19
Pul@@ 19
Pyth@@ 19
Rajasthan 19
Red@@ 19
Rosie 19
Row 19
Schrödinger 19
Sergio 19
Sioux 19
Smo@@ 19
Stein@@ 19
Still 19
Stockholm 19
Sum@@ 19
T-shirts 19
Ten@@ 19
Theory 19
Ther@@ 19
Thom@@ 19
Tob@@ 19
Tus@@ 19
UN@@ 19
USC 19
Veter@@ 19
Whitopia 19
Wy@@ 19
Yahoo 19
Yves 19
Zoo 19
abruptly 19
accountants 19
ache 19
aded 19
administrators 19
admiration 19
age-old 19
agonizing 19
agreeable 19
agreeing 19
alcoholic 19
alliances 19
anyways 19
appli@@ 19
approximation 19
archaeology 19
arium 19
aspirational 19
assembling 19
at-risk 19
athle@@ 19
atrazine 19
autobiography 19
axons 19
baton 19
benchmark 19
betrayed 19
bic@@ 19
biomimicry 19
blooms 19
boardroom 19
bombarded 19
bothers 19
breathtaking 19
bribery 19
brief@@ 19
brushes 19
bunk 19
bushes 19
cache 19
cape 19
carbohydrates 19
cas 19
categor@@ 19
celebrates 19
cemetery 19
charitable 19
chrom@@ 19
circulate 19
clamation 19
clan 19
clari@@ 19
clear-@@ 19
clin@@ 19
clinging 19
closed-@@ 19
clou@@ 19
cocoa 19
cohort 19
coldest 19
colonize 19
communica@@ 19
complaint 19
compliant 19
composting 19
compression 19
conducive 19
confronting 19
connective 19
conquering 19
conspir@@ 19
constitute 19
consulted 19
contraceptives 19
contradictory 19
coronary 19
correcting 19
cos 19
cosmetic 19
counties 19
creed 19
crin@@ 19
crocodile 19
curated 19
dam 19
damages 19
day-@@ 19
ddles 19
decipher 19
decisive 19
declines 19
decoration 19
deduc@@ 19
delegation 19
demise 19
democratize 19
denominator 19
departure 19
depicted 19
descrip@@ 19
dictated 19
digi@@ 19
discharged 19
disclose 19
discouraged 19
disguise 19
distor@@ 19
divergence 19
divergent 19
divi@@ 19
doc 19
domino 19
donkey 19
downsides 19
dra 19
dual 19
dwell 19
e-like 19
eco-@@ 19
ectomy 19
ees 19
el-@@ 19
eldest 19
elegance 19
emailing 19
end-@@ 19
enlightenment 19
enroll 19
erial 19
exhibits 19
expects 19
explodes 19
explores 19
exquisitely 19
extr@@ 19
extre@@ 19
eyebrow 19
eyesight 19
faded 19
faith-based 19
far-fetched 19
faraway 19
faulty 19
favored 19
feats 19
fermented 19
fers 19
fetal 19
feu@@ 19
fir@@ 19
fists 19
floats 19
font 19
force@@ 19
foreigners 19
forestry 19
fortunes 19
fostering 19
fourteen 19
frantically 19
fries 19
frivolous 19
fund@@ 19
fundamentalism 19
gamble 19
gastro@@ 19
generalized 19
genitals 19
gill 19
giraffe 19
glacial 19
greener 19
gridlock 19
gruesome 19
handler 19
harm@@ 19
hay 19
heal@@ 19
hectares 19
hemispheres 19
heroism 19
hical 19
high-rise 19
horizons 19
hose 19
humpback 19
hyp@@ 19
hyperbolic 19
ias 19
illumination 19
immer@@ 19
immerse 19
impending 19
incompatible 19
indifferent 19
indign@@ 19
inen 19
iner@@ 19
initiated 19
inorganic 19
intercourse 19
intermediate 19
introspection 19
iter@@ 19
itor 19
ivory 19
jack 19
jungles 19
ket@@ 19
kitchens 19
kles 19
knuc@@ 19
landfills 19
langu@@ 19
lateral 19
leather@@ 19
legislators 19
leveraged 19
life-saving 19
light-years 19
limbic 19
ling@@ 19
long-standing 19
loud@@ 19
low-tech 19
lus@@ 19
lymph 19
makeshift 19
manually 19
margin@@ 19
marketed 19
massage 19
maturity 19
mediocre 19
megacity 19
megawatts 19
memo 19
memor@@ 19
mess@@ 19
metics 19
microman@@ 19
misconceptions 19
mix@@ 19
mobilized 19
modernity 19
moist 19
mortar 19
movable 19
multiplayer 19
murders 19
mussels 19
nal@@ 19
nam@@ 19
nap@@ 19
narrator 19
nationalist 19
nephew 19
nes 19
nicer 19
northwest 19
not-so-@@ 19
notable 19
notices 19
nourish 19
ode 19
olds 19
onal 19
onally 19
ope 19
opp@@ 19
optimizing 19
orient 19
oro@@ 19
osa 19
osphere 19
oth@@ 19
ound@@ 19
outfit 19
outing 19
outputs 19
outskirts 19
outsource 19
outsourcing 19
overlook 19
ox 19
packet 19
palin@@ 19
pancreas 19
pardon 19
parole 19
pasta 19
pasted 19
pastor 19
patrol 19
peanuts 19
penny 19
per-@@ 19
perfec@@ 19
persists 19
pesticide 19
phosph@@ 19
piracy 19
pis@@ 19
pist@@ 19
pledge 19
plotting 19
poaching 19
poin@@ 19
pork 19
positives 19
pou@@ 19
predictability 19
probabilities 19
proceeds 19
progressing 19
pron@@ 19
protested 19
protocells 19
proverbial 19
provinces 19
provoke 19
psychedelic 19
psychosis 19
publicity 19
puppy 19
pups 19
qualitative 19
ranch 19
rash 19
raz@@ 19
reacts 19
reasoned 19
reckon 19
reconc@@ 19
recreating 19
recreation 19
recruits 19
rectangles 19
recyclable 19
redefining 19
refra@@ 19
remake 19
remedi@@ 19
remnants 19
repaired 19
resembles 19
resigned 19
restriction 19
retention 19
retinal 19
riddle 19
ridicule 19
rier 19
righteous 19
roaring 19
roughness 19
round@@ 19
rous 19
sabbatical 19
safeguard 19
sap 19
sar@@ 19
schizophrenic 19
scholarships 19
scratched 19
screams 19
sculpt 19
sculptor 19
self-awareness 19
self-confidence 19
setbacks 19
shockingly 19
shorthand 19
shrine 19
side-by-side 19
simultaneous 19
ski@@ 19
slim 19
small@@ 19
smashed 19
smashing 19
snat@@ 19
snor@@ 19
socket 19
sofa 19
sorrow 19
soul@@ 19
spam 19
span@@ 19
sparks 19
sponges 19
spoon 19
spouses 19
spun 19
ssa 19
stabili@@ 19
stabilizing 19
stent 19
stling 19
subsi@@ 19
substitu@@ 19
summers 19
swa@@ 19
sweater 19
swiftly 19
swimmer 19
syllab@@ 19
symmetric 19
synchronized 19
t-based 19
tainment 19
takeaway 19
tasty 19
tat@@ 19
tate 19
teen@@ 19
teenth 19
tempo 19
tera 19
terror@@ 19
thic 19
timely 19
titude 19
toolbox 19
toothpaste 19
transcendent 19
tray 19
tribology 19
trophy 19
trustworthiness 19
twentieth 19
type@@ 19
uch 19
ulates 19
ull@@ 19
unchanged 19
undermining 19
undoubtedly 19
uplifting 19
urban@@ 19
urbanism 19
uts 19
vag@@ 19
vain 19
valuation 19
variant 19
vertebrate 19
vesti@@ 19
victories 19
vigor@@ 19
vor 19
wagon 19
wai@@ 19
was@@ 19
wetsuit 19
whiskey 19
whistles 19
wicked 19
wiki 19
wildest 19
wish@@ 19
witches 19
workings 19
-and-a-half 18
-of-@@ 18
-scale 18
0.2 18
13.@@ 18
23@@ 18
3,500 18
46@@ 18
9.@@ 18
AL@@ 18
ASL 18
Actor 18
Alliance 18
Alto 18
Anas 18
Anonymous 18
Antonio 18
Austen 18
Aw@@ 18
Babylon 18
Balkans 18
Barcelona 18
Bertha 18
Bloo@@ 18
Brow@@ 18
CAPTCHA 18
CE@@ 18
Cambodian 18
Cameroon 18
Century 18
Cer@@ 18
Cloud 18
Communist 18
Cyn@@ 18
D.C 18
Data 18
Del@@ 18
Descartes 18
Earth-@@ 18
Ele@@ 18
Eli@@ 18
Elliot 18
Erica 18
Ethiopian 18
Euro@@ 18
Family 18
Fields 18
Foreign 18
Fort@@ 18
Fra@@ 18
Fuller 18
Gallup 18
Gam@@ 18
Geiger 18
Geoffrey 18
Georgetown 18
Gwen 18
H5N1 18
HAL 18
HC 18
HR 18
HT 18
Han 18
Harvey 18
Hope 18
Hum@@ 18
Hyderabad 18
Hyper@@ 18
I.T. 18
ICU 18
IDEO 18
Independence 18
Ivy 18
Jennie 18
Jer@@ 18
Johannesburg 18
KT 18
Kanzi 18
Kol@@ 18
LIGO 18
Ladies 18
Law@@ 18
Left 18
Lei@@ 18
MD 18
ME@@ 18
ML 18
Malcolm 18
Master 18
Mau@@ 18
McC@@ 18
McGowan 18
Medicare 18
Mellon 18
Memorial 18
Moderator 18
Monro@@ 18
Most 18
Mozambique 18
Musu 18
Nokia 18
On@@ 18
Only 18
Osama 18
PISA 18
PJ 18
Persian 18
Pluto 18
Port 18
RNG 18
RSW 18
Rand 18
Real 18
Rock@@ 18
Romeo 18
SDG 18
SF 18
SRK 18
Samantha 18
Seoul 18
Services 18
Sheila 18
Shel@@ 18
Shenzhen 18
Small 18
Snow 18
Som@@ 18
Something 18
Studio 18
Sul@@ 18
Superman 18
Susie 18
Syrians 18
T.@@ 18
TC 18
TEDTalks 18
Tai@@ 18
Tar@@ 18
Thucydides 18
Tomorrow 18
Twin 18
UA 18
USB 18
Underground 18
Uranus 18
VCs 18
Vel@@ 18
Velcro 18
Virtual 18
Vision 18
Vladimir 18
Von 18
WW@@ 18
Wel@@ 18
Wizard 18
You@@ 18
Ze 18
aba 18
aboard 18
academy 18
accusations 18
acho@@ 18
adage 18
admir@@ 18
ado@@ 18
affili@@ 18
aggregates 18
agility 18
agle 18
agony 18
ail 18
ald 18
alk@@ 18
alleged 18
allegedly 18
amidst 18
amputation 18
amusement 18
analysts 18
aorta 18
aph@@ 18
approximate 18
aqu@@ 18
architectures 18
argues 18
astonishingly 18
atch 18
attain 18
aus 18
averages 18
backstage 18
balconies 18
banging 18
barbecue 18
bathtub 18
bbling 18
bby 18
bels 18
biblical 18
biking 18
biom@@ 18
biomolecules 18
biopsy 18
birch 18
bird@@ 18
birthplace 18
bisexual 18
bonuses 18
bothering 18
brass 18
breastfeeding 18
byproduct 18
bystander 18
cancel 18
cancer@@ 18
captivity 18
carbs 18
cardio@@ 18
carni@@ 18
cathe@@ 18
ceremonies 18
chal@@ 18
charm 18
chemo@@ 18
chick 18
chicks 18
chronic@@ 18
cism 18
city-@@ 18
clam@@ 18
cleaners 18
clusive 18
coccus 18
cod 18
coercion 18
coli 18
college-@@ 18
colossal 18
combines 18
commemor@@ 18
compositions 18
comprehension 18
con 18
concussions 18
connectedness 18
consol@@ 18
contraction 18
copy@@ 18
counterfe@@ 18
crac@@ 18
crazi@@ 18
crossroads 18
crowd-@@ 18
cryptography 18
curvature 18
cushi@@ 18
custody 18
custom@@ 18
cyberspace 18
day@@ 18
defin@@ 18
democratized 18
denying 18
deter@@ 18
deterior@@ 18
devotion 18
dexterity 18
dilute 18
din 18
dine 18
dings 18
discharge 18
disease-@@ 18
disturbance 18
disturbances 18
dled 18
doctrine 18
dolls 18
drained 18
drains 18
drilled 18
dropout 18
dune 18
edition 18
ef@@ 18
ell-@@ 18
emphasizes 18
enclosed 18
eni@@ 18
ensla@@ 18
ensured 18
entitlement 18
ephemeral 18
escapes 18
ety 18
excite 18
exhal@@ 18
explanatory 18
extrapolate 18
eye-@@ 18
fact-@@ 18
faction 18
fading 18
farm@@ 18
fes@@ 18
fidelity 18
fil@@ 18
filaments 18
finely 18
finishes 18
firefighter 18
flan@@ 18
flat-@@ 18
forcibly 18
forging 18
formulated 18
foundational 18
frauds 18
fraught 18
frees 18
fu 18
furnace 18
gauge 18
gecko 18
generative 18
generators 18
geneticist 18
geopolitical 18
gible 18
gist 18
goose 18
graft 18
grandson 18
great-great-@@ 18
groundwater 18
guarantees 18
hai 18
hairy 18
hating 18
haunting 18
herbs 18
hman 18
homage 18
hospice 18
humbled 18
hummingbird 18
hunch 18
i-@@ 18
ice@@ 18
ician 18
idealism 18
iles 18
imperfections 18
inary 18
incar@@ 18
inde@@ 18
industrialization 18
inflection 18
infused 18
inhibit 18
injustices 18
insecurities 18
interconnectedness 18
intergalactic 18
interrupting 18
interruptions 18
intru@@ 18
itch@@ 18
ject 18
jiha@@ 18
joy@@ 18
ke-@@ 18
kest 18
kid@@ 18
kisses 18
km 18
know-how 18
labeling 18
lain 18
lam 18
lamps 18
land-@@ 18
lars 18
laun@@ 18
lawns 18
lead@@ 18
lef@@ 18
livable 18
localized 18
loos@@ 18
lord 18
maid 18
majors 18
mangrove 18
mble@@ 18
melancho@@ 18
mentary 18
menting 18
menus 18
metri@@ 18
mildly 18
milli@@ 18
mindless 18
mini 18
minim@@ 18
misguided 18
mismatch 18
missiles 18
mission@@ 18
monolithic 18
mound 18
muff@@ 18
multiple@@ 18
mut@@ 18
nanoparticle 18
nanos@@ 18
nativi@@ 18
naturalist 18
navi@@ 18
necks 18
neurologic 18
never-ending 18
nex@@ 18
ninety 18
nonverbal 18
notoriously 18
nutshell 18
offend 18
oke 18
oks 18
oped 18
open-ended 18
oph@@ 18
ophy@@ 18
optimization 18
oranges 18
orn 18
otes 18
overestimate 18
parachu@@ 18
paradigms 18
parag@@ 18
paranoia 18
pati@@ 18
patron@@ 18
pearl 18
perimeter 18
permafrost 18
permits 18
petroleum 18
pheromones 18
philanthropists 18
piloted 18
placenta 18
plant-based 18
playwright 18
pli@@ 18
plural 18
poisoned 18
pollin@@ 18
pollinate 18
pollu@@ 18
portions 18
pple 18
preoccupied 18
prestige 18
prevail 18
priced 18
produc@@ 18
progeria 18
prohi@@ 18
prolific 18
prolonged 18
pronounce 18
prop@@ 18
protec@@ 18
psychopaths 18
pupils 18
puppets 18
quarter-@@ 18
quot 18
rack 18
radios 18
ramp 18
rav@@ 18
redundancy 18
refusing 18
regards 18
reinforces 18
relentlessly 18
remission 18
remot@@ 18
residence 18
residue 18
restricting 18
rethinking 18
reusable 18
rhinos 18
rim 18
robes 18
rum 18
rumor 18
ry-@@ 18
résumé 18
sails 18
san 18
sation 18
scattering 18
screws 18
scrip@@ 18
seas@@ 18
secrete 18
seldom 18
self-assemble 18
self-defense 18
semen 18
separ@@ 18
serpent 18
sex-@@ 18
shades 18
shattering 18
shop@@ 18
shorten 18
shutter 18
shutting 18
silks 18
simplification 18
sinister 18
sity 18
skating 18
sket@@ 18
skewed 18
skyline 18
slipping 18
smu@@ 18
solar-powered 18
soundscape 18
spati@@ 18
sponsors 18
spur@@ 18
ssing 18
stab 18
stair@@ 18
stant 18
starlight 18
statisticians 18
stered 18
stir 18
stitch 18
straigh@@ 18
striatum 18
stride 18
sturdy 18
subtrac@@ 18
suicides 18
suns 18
superbugs 18
superhuman 18
superintelligent 18
symbo@@ 18
symbolism 18
syste@@ 18
tangled 18
tap@@ 18
techno@@ 18
tedious 18
teeny 18
testable 18
testify 18
theorist 18
ther-in-law 18
thorough 18
thought-@@ 18
thrived 18
tial 18
tinkering 18
tling 18
toddlers 18
tofu 18
tomb 18
touch@@ 18
towels 18
transplanted 18
trenches 18
tun@@ 18
twit@@ 18
typewriter 18
uk 18
unbearable 18
unbeknownst 18
unch 18
uncontroll@@ 18
uneasy 18
unites 18
unproductive 18
unreasonable 18
ure-@@ 18
uru 18
uted 18
utilitarian 18
utilized 18
vacations 18
vampire 18
vanish 18
verbally 18
vicinity 18
vis 18
vocational 18
wary 18
washes 18
wasp 18
watershed 18
weakened 18
wealthiest 18
weapon@@ 18
webcam 18
whack 18
whistle-blowers 18
whole@@ 18
wide-@@ 18
wield 18
willingly 18
wirelessly 18
wisely 18
wling 18
woolly 18
world-changing 18
xen@@ 18
yers 18
zers 18
zil@@ 18
zz 18
,000-dollar 17
02 17
1,300 17
120,000 17
16,000 17
1917 17
1940 17
1954 17
1956 17
1963 17
1966 17
2040 17
30-year 17
45,000 17
99.@@ 17
ATM 17
Adi@@ 17
Affairs 17
Agbogbloshie 17
Auth@@ 17
Az@@ 17
BMI 17
BO 17
Barri@@ 17
Belgium 17
Bertie 17
Billie 17
Bird 17
Boeing 17
Boys 17
Bryan 17
Buddhism 17
Capitol 17
Casey 17
Chechnya 17
Chee@@ 17
Churchill 17
Cla@@ 17
Commandments 17
Commons 17
Cornell 17
Creek 17
Da 17
Dec@@ 17
Declaration 17
Dev@@ 17
Dha@@ 17
Director 17
Dod@@ 17
Dreyfus 17
ECT 17
ES 17
Earth-like 17
Effect 17
Elvish 17
Emmanuel 17
Environmental 17
Es@@ 17
Esther 17
Eun-Sook 17
Ever 17
F-@@ 17
Face 17
Farmer 17
Fili@@ 17
Fridays 17
Fukushima 17
Future 17
Googled 17
Gothic 17
Guard 17
HI@@ 17
HP 17
Harris 17
Haz@@ 17
Heritage 17
Hillis 17
Hispanic 17
Hom@@ 17
Huh 17
Hussein 17
IP@@ 17
Ian 17
Ig 17
Iris 17
J.@@ 17
Jackie 17
Jew 17
Joey 17
Juana 17
Jurassic 17
Kabul 17
Kickstarter 17
Knight 17
LGBTQ 17
LinkedIn 17
List 17
Lore@@ 17
Louisville 17
Lucius 17
M-@@ 17
M.@@ 17
Mahmoud 17
McKin@@ 17
Mermaid 17
Migration 17
Monster 17
Mubarak 17
NPR 17
NR 17
NY@@ 17
Negro 17
Net@@ 17
Nigerians 17
Noor 17
OPEC 17
Omar 17
Operations 17
Ox@@ 17
Poli@@ 17
Protestant 17
Pun@@ 17
Queens 17
Randolph 17
Rasputin 17
Resi@@ 17
Review 17
Rockefeller 17
Romo 17
Rosling 17
Salt 17
Samaritan 17
Search 17
Sec@@ 17
Sergey 17
Sister 17
Sky@@ 17
Snapchat 17
Southwest 17
Stirling 17
Stuart 17
Sub-Saharan 17
Sus@@ 17
TEDWomen 17
TN@@ 17
TR@@ 17
Tiger 17
Ton@@ 17
Towers 17
UNESCO 17
Up@@ 17
Uruguay 17
Vermeer 17
Vic@@ 17
Warner 17
Was 17
Watch 17
Weibo 17
WhatsApp 17
While 17
Whitney 17
Yorkers 17
abalone 17
abs 17
accessibility 17
accountant 17
acknowledgment 17
acutely 17
adequately 17
admitting 17
advertisement 17
airborne 17
aked 17
ales 17
alienated 17
aly@@ 17
amne@@ 17
ample 17
ander 17
anie 17
anthropomorphi@@ 17
antiangiogenic 17
anticipating 17
antiretroviral 17
anyhow 17
aped 17
apo@@ 17
appealed 17
appearances 17
appreh@@ 17
aquarium 17
aquifer 17
argu@@ 17
arized 17
ark 17
arma@@ 17
arrests 17
ashi@@ 17
asted 17
atin 17
aton 17
attendant 17
attentive 17
atures 17
aurus 17
auto-@@ 17
autobiographical 17
avatars 17
awa 17
axe 17
aye 17
bacon 17
baff@@ 17
banner 17
barb@@ 17
barbershop 17
bathed 17
beads 17
bean 17
beasts 17
believers 17
ben@@ 17
best-selling 17
bet@@ 17
bilingual 17
biomaterials 17
bir@@ 17
black-and-white 17
blinds 17
bliss 17
bombers 17
bombings 17
boxing 17
bras 17
breaker 17
breathes 17
breaths 17
breeds 17
bridging 17
burn@@ 17
byproducts 17
café 17
calves 17
campuses 17
canal 17
carcino@@ 17
carriage 17
carts 17
catcher 17
caus@@ 17
cellphones 17
ception 17
change@@ 17
chatter 17
che 17
chie 17
chl@@ 17
chords 17
cian 17
circled 17
claps 17
claw 17
clever@@ 17
climax 17
clockwise 17
cloning 17
cockpit 17
coexist 17
coincidentally 17
collateral 17
colliding 17
commandment 17
comment@@ 17
commonality 17
computations 17
concei@@ 17
condem@@ 17
confer@@ 17
congressional 17
consolation 17
constituency 17
consumerism 17
contentious 17
contracted 17
cooper@@ 17
corrections 17
corrup@@ 17
cow@@ 17
cozy 17
crat 17
creep 17
crest 17
crisp 17
cry@@ 17
cture 17
cultivating 17
curls 17
cut@@ 17
d-like 17
d-out 17
darling 17
daycare 17
dean 17
deb@@ 17
debts 17
defeating 17
degeneration 17
degenerative 17
democratization 17
demos 17
dened 17
deo 17
detrimental 17
dichotomy 17
diminish 17
diplomat 17
directive 17
disadvantages 17
dismal 17
disper@@ 17
dispose 17
disrespect 17
distort 17
dit@@ 17
diversify 17
doll 17
drawdown 17
dria 17
droplets 17
duce 17
dummy 17
dun@@ 17
dur@@ 17
dwarf 17
dwelling 17
e-based 17
e-commerce 17
ecologist 17
electromag@@ 17
elope 17
enberg 17
entirety 17
eras 17
erup@@ 17
eruption 17
esoteric 17
esses 17
ester 17
estimating 17
esty 17
ethically 17
etine 17
etiquette 17
etry 17
eureka 17
exaggerated 17
exempli@@ 17
expelled 17
expenditure 17
experiential 17
exposures 17
extrac@@ 17
extrovert 17
fabricate 17
fabrics 17
factual 17
fantasies 17
fear@@ 17
feces 17
fertilize 17
ffer 17
ffy 17
fist 17
flood@@ 17
flowed 17
follicles 17
formative 17
frameworks 17
freezes 17
froze 17
func@@ 17
gal 17
gays 17
gement 17
geneticists 17
gents 17
ggling 17
ghosts 17
gic 17
glide 17
granddaughter 17
grape 17
greeting 17
ground@@ 17
guerrilla 17
gus@@ 17
hal 17
hallucination 17
handic@@ 17
handouts 17
har 17
harms 17
hea@@ 17
hedon@@ 17
hes@@ 17
hesitate 17
hmm 17
holographic 17
homosexuality 17
hoo 17
hoodie 17
hoop 17
hour@@ 17
hugging 17
humanist 17
humanoid 17
humbly 17
hump 17
hundredth 17
hunter-gatherer 17
hypothalamus 17
hysteria 17
hysterical 17
hyth@@ 17
[...]
