的 476273
， 401206
。 264588
我 138581
我们 119877
是 109878
在 103655
了 92922
你 68059
&quot; 60366
一个 52866
和 47351
有 43143
他们 42895
这 41562
就 32209
都 30932
会 30639
人 30276
？ 30018
它 29568
这个 29237
可以 28987
也 28634
他 27612
这些 26166
） 25263
（ 25191
中 24685
- 23854
不 23615
上 23016
到 22641
： 22296
对 20724
但 20543
让 19913
说 19902
做 18986
很 18557
就是 18456
被 18245
如果 17829
因为 17312
而 17038
来 16485
能 16474
没有 16277
把 16115
、 15880
所以 15463
她 14972
去 14566
当 14412
但是 14296
问题 14230
想 13893
什么 13843
知道 13832
并 13810
自己 13797
现在 13793
这样 13624
要 13031
从 13021
它们 12957
更 12655
需要 12432
将 12348
里 12277
不是 12174
你们 12000
开始 11653
那 11626
可能 11376
这是 11219
一些 11036
时 11002
着 10930
与 10509
给 10315
为 10312
笑声 10206
用 10152
看到 10048
人们 10001
时候 9871
非常 9770
还 9715
然后 9678
像 9668
好 9639
个 9605
那些 9451
世界 9430
, 9268
多 9105
地 9081
一种 8968
已经 8908
这种 8631
工作 8568
最 8453
年 8339
所 8325
所有 8266
很多 8021
呢 7814
东西 7743
认为 7612
过 7590
们 7574
发现 7509
或者 7386
事情 7184
如何 7119
一样 6916
发生 6897
吗 6877
研究 6543
孩子 6538
不同 6459
通过 6422
那么 6422
· 6377
生活 6240
还有 6172
. 6158
能够 6155
下 6100
这里 6092
重要 5996
改变 5952
时间 5915
国家 5870
美国 5863
或 5840
方式 5798
看 5782
地方 5775
告诉 5705
而且 5694
以及 5664
其他 5638
得 5634
新 5612
人类 5567
-- 5523
大家 5510
并且 5490
掌声 5448
为什么 5377
于 5338
后 5326
不会 5273
事 5272
又 5251
使用 5178
进行 5103
故事 5081
只是 5045
以 4942
关于 4898
应该 4838
任何 4819
吧 4808
成为 4742
出 4700
一起 4690
觉得 4610
大 4551
比 4425
甚至 4412
那个 4412
正在 4410
必须 4405
不能 4394
帮助 4311
希望 4305
来说 4300
还是 4279
对于 4241
设计 4241
跟 4203
因此 4185
得到 4178
再 4139
数据 4125
方法 4120
一下 4111
技术 4081
只 4064
真的 4062
社会 4053
每个 3965
信息 3956
为了 3893
想要 3886
% 3884
起来 3862
其中 3833
作为 3829
公司 3825
前 3816
使 3806
存在 3800
影响 3799
向 3792
系统 3778
每 3767
！ 3740
今天 3729
大脑 3693
一直 3667
喜欢 3658
之后 3644
谢谢 3604
却 3591
这么 3591
情况 3578
同时 3548
完全 3525
一 3519
了解 3497
真正 3473
决定 3465
小 3449
另 3442
找到 3404
最后 3383
来自 3379
那里 3374
两个 3361
选择 3360
问 3358
一点 3344
怎么 3340
当然 3338
生命 3297
( 3295
由 3276
创造 3273
实际上 3270
想法 3263
只有 3261
也许 3260
) 3235
变得 3206
城市 3185
相信 3185
产生 3170
事实上 3149
过程 3138
女性 3129
过去 3129
感觉 3127
发展 3113
结果 3092
其实 3088
一次 3067
有些 3065
未来 3047
比如 3042
许多 3040
无法 3010
之前 3008
才 3006
理解 2970
没 2968
地球 2962
意识 2956
同样 2949
出现 2926
拥有 2922
一切 2920
简单 2914
整个 2888
组织 2872
提供 2857
原因 2856
出来 2816
解决 2815
想象 2796
可 2791
项目 2786
者 2785
当时 2781
看看 2761
能力 2720
之间 2716
于是 2676
环境 2663
如此 2649
而是 2625
学习 2611
其 2592
朋友 2570
经历 2567
例子 2562
岁 2551
照片 2521
的话 2516
是否 2477
内 2465
一位 2464
她们 2457
身体 2452
听 2445
变成 2429
音乐 2429
思考 2415
感到 2414
经济 2413
细胞 2399
月 2397
行为 2396
； 2385
声音 2379
成功 2379
健康 2378
谁 2373
全球 2360
意味着 2356
更好 2334
政府 2315
学生 2308
10 2306
叫 2299
展示 2275
动物 2255
《 2243
》 2243
科学 2217
带来 2207
20 2201
有人 2186
是因为 2177
教育 2174
机会 2172
学校 2157
写 2151
不过 2136
怎样 2132
尝试 2125
非洲 2102
建立 2100
生物 2095
成 2091
走 2084
最终 2080
历史 2077
部分 2076
运动 2075
之一 2074
目标 2069
利用 2068
有趣 2059
巨大 2058
获得 2054
性 2053
社区 2046
网络 2035
食物 2013
完成 2007
我会 2005
治疗 2000
接受 1983
带 1979
高 1979
文化 1973
我要 1972
进入 1972
关系 1969
然而 1961
那样 1959
更加 1954
一天 1949
多少 1928
语言 1921
科技 1919
正 1915
医生 1913
安全 1910
包括 1904
回到 1896
或是 1889
一件 1884
之 1883
讲 1883
爱 1881
该 1880
继续 1875
空间 1873
点 1871
几个 1866
方面 1862
几乎 1860
变化 1860
机器人 1854
1 1848
家庭 1843
实验 1840
特别 1840
看起来 1840
笑 1840
答案 1838
: 1829
疾病 1819
分享 1815
实现 1810
意义 1806
宇宙 1793
曾 1793
确实 1791
做出 1781
控制 1781
做到 1776
一定 1767
活动 1763
一部分 1759
个人 1758
计划 1757
数字 1755
首先 1752
叫做 1743
努力 1736
保护 1735
听到 1730
演讲 1730
太 1724
小时 1721
每天 1716
等 1714
参与 1710
才能 1709
请 1707
制造 1704
起 1702
超过 1701
事实 1697
机器 1697
基因 1691
站 1682
中国 1680
科学家 1677
即使 1675
复杂 1672
视频 1672
钱 1670
容易 1663
联系 1663
总是 1661
电脑 1661
力量 1656
政治 1654
第一个 1645
挑战 1639
世纪 1636
像是 1635
重新 1627
－ 1627
讨论 1621
别人 1620
不断 1616
解释 1615
领域 1611
仅仅 1609
合作 1607
意思 1606
水 1605
啊 1603
工具 1603
曾经 1599
最好 1599
一名 1595
各种 1593
另外 1592
大约 1587
最大 1583
病人 1583
导致 1578
准备 1576
则 1575
建筑 1574
通常 1573
电影 1572
? 1568
吃 1562
住 1551
大多数 1549
不要 1544
大概 1537
支持 1533
关注 1532
里面 1528
3 1525
2 1522
唯一 1522
虽然 1515
花 1512
寻找 1509
这一 1509
地区 1508
自然 1505
认识 1503
不@@ 1501
模式 1497
观点 1497
大量 1490
结构 1487
第一次 1475
形成 1472
有关 1470
主要 1469
尽管 1469
母亲 1467
观察 1467
艺术 1466
处理 1464
5 1462
将会 1462
持续 1461
拿 1458
鼓掌 1452
产品 1447
想到 1444
代表 1443
游戏 1442
中心 1435
直到 1435
正是 1432
身上 1432
现实 1429
价值 1428
一@@ 1425
不再 1424
作品 1424
反应 1424
不仅仅 1423
有着 1421
仍然 1418
家 1409
用来 1409
接下来 1408
三个 1406
观众 1405
结束 1401
制作 1399
十分 1399
作用 1397
不仅 1396
印度 1395
类似 1395
考虑 1390
注意 1387
30 1383
明白 1381
其它 1372
事物 1369
感受 1367
所有人 1360
父母 1360
一张 1358
死亡 1357
男人 1357
大部分 1356
最近 1350
区域 1346
药物 1345
找 1338
真实 1335
团队 1334
战争 1330
离开 1329
或许 1327
很大 1322
大学 1315
理论 1314
海洋 1308
行动 1308
越来越 1308
大@@ 1305
记得 1302
市场 1299
时代 1296
一条 1295
自我 1282
能量 1281
放在 1280
女孩 1279
女人 1278
模型 1276
那时 1271
名字 1270
自由 1269
令人 1267
达到 1267
正确 1266
买 1265
直接 1262
服务 1259
病毒 1257
父亲 1256
造成 1253
年代 1251
那种 1248
例如 1244
足够 1243
哪里 1241
比较 1241
生产 1241
这件 1241
50 1238
速度 1238
一年 1237
目前 1237
减少 1235
随着 1233
人口 1232
看着 1232
有点 1231
增加 1230
面对 1228
已 1218
只要 1217
移动 1217
以前 1214
死 1212
错误 1211
资源 1206
受到 1205
知识 1204
具有 1200
在于 1200
显示 1200
媒体 1197
表现 1197
增长 1196
内容 1195
愿意 1193
要求 1190
记录 1188
概念 1187
间 1185
机构 1181
失去 1180
小@@ 1177
基本 1174
谈论 1168
传统 1167
回答 1167
长 1167
坐在 1165
经常 1165
建造 1163
实验室 1161
有效 1160
如 1158
永远 1158
到底 1157
图片 1155
试图 1154
几年 1153
来到 1153
而言 1151
不到 1149
手机 1149
充满 1148
范围 1146
TED 1144
至少 1144
其他人 1137
测试 1137
看见 1132
证明 1132
车 1132
保持 1128
100 1127
办法 1124
人生 1119
上面 1117
数量 1117
探索 1115
交流 1113
儿童 1113
4 1111
进化 1111
全世界 1110
这项 1109
下来 1105
医疗 1100
材料 1098
本身 1097
不想 1095
15 1093
分子 1087
一场 1084
提出 1084
危险 1083
只能 1083
汽车 1083
一只 1082
一项 1080
根本 1080
书 1079
设备 1079
后来 1077
位置 1075
担心 1068
某些 1064
现象 1064
DNA 1063
发明 1063
癌症 1063
如今 1061
年轻 1060
不管 1059
根据 1059
快 1058
物种 1057
形式 1056
面临 1055
越 1049
种 1043
遇到 1043
词 1041
使得 1039
称为 1038
突然 1038
样子 1036
很快 1034
有时 1034
英国 1031
体验 1030
好像 1030
预测 1030
角度 1029
严重 1028
每年 1026
投资 1025
的确 1019
程度 1017
应用 1015
这张 1014
不得不 1013
伟大 1013
创新 1013
先 1012
时刻 1012
接着 1011
事件 1009
风险 1008
定义 1006
加入 1004
些 998
明显 998
植物 998
周围 993
由于 993
任务 990
美元 989
他人 986
老师 986
能源 986
肯定 982
功能 981
医院 981
男性 981
天 978
共同 977
困难 977
即 976
压力 975
恐惧 969
光 965
各位 965
数学 961
6 958
尤其 957
描述 957
相关 956
计算机 950
梦想 949
画 948
参加 947
快乐 946
关键 943
状态 943
除了 942
完美 941
强大 940
清楚 938
年前 937
基础 934
欧洲 932
妈妈 931
手 930
相当 930
正常 929
非 928
患者 927
确定 927
似乎 926
方向 926
组成 926
连接 923
细菌 922
眼睛 918
开 914
网站 912
基于 907
当地 905
分析 904
法律 902
40 901
传播 901
糟糕 899
提高 898
♫ 895
此 895
角色 895
信号 894
黑人 894
一旦 892
表达 892
假设 888
等等 888
房间 887
化 885
某个 883
物质 882
来看 881
记忆 880
帮 879
纽约 878
收集 875
图 873
宗教 870
这儿 870
路 868
训练 867
基本上 863
头 863
下面 861
管理 861
需求 861
刚刚 859
因素 855
用于 855
哦 854
无论 854
民主 852
及 851
多么 850
痛苦 849
精神 848
是从 847
进 847
相同 846
从而 845
是不是 845
还要 844
有个 841
自身 841
说明 841
难 839
失败 838
到达 837
生存 835
经过 835
计算 835
... 834
调查 834
企业 833
一家 832
受 832
开发 832
人@@ 830
专家 828
艺术家 827
以后 826
互联网 825
奇怪 825
实际 823
接触 822
处于 820
正如 820
消失 820
哪 819
我能 818
表明 818
12 817
不用 816
且 816
么 812
它会 812
同事 811
仍 810
话 810
两种 808
打 808
提到 808
目的 807
鱼 806
人员 805
暴力 805
标准 805
一段 804
对此 804
效果 803
图像 802
对话 802
手术 801
想想 800
8 799
某种 798
权利 797
颜色 797
房子 795
一般 794
从来 790
便 790
所说 790
可是 789
彼此 789
第一 789
&apos; 787
情绪 785
这次 785
有@@ 784
出生 783
软件 783
威胁 781
有时候 781
万 779
飞机 778
允许 777
处 775
快速 775
拍摄 775
比如说 775
政策 774
美丽 772
运用 772
害怕 770
一半 769
中@@ 768
亿 767
地图 766
分钟 765
号 765
指 765
星球 765
聪明 765
全部 764
特定 764
值得 763
7 760
思想 760
...... 759
名 757
婴儿 757
当中 756
什么样 755
时期 755
危机 753
您 753
真是 753
运作 753
经验 752
人民 749
回来 749
玩 749
不错 748
一群 747
年轻人 747
建议 747
性别 747
打开 747
式 746
群体 746
土地 745
属于 745
进步 745
绝对 744
之中 742
新闻 740
话题 740
空气 739
多@@ 738
成长 738
去年 736
平等 736
神奇 736
证据 735
规则 733
区 732
电话 732
那儿 732
非常感谢 732
需 730
监狱 729
阶段 728
一份 727
会议 727
显然 727
称之为 725
每次 723
确保 722
降低 722
错 721
吸引 720
低 719
森林 718
并非 715
情感 715
嗯 713
一系列 710
公民 710
上@@ 709
学 709
感染 709
60 708
商业 707
气候 707
身份 707
25 705
上帝 705
妇女 705
讲述 705
学到 704
行星 704
中间 700
太阳 699
水平 699
可怕 698
见 698
拍 697
可能性 696
同 696
家人 695
类 695
花费 695
停止 694
总统 694
线 694
至 694
视觉 694
本书 693
幸运 692
表面 692
很难 691
物体 691
美好 691
掉 690
国际 689
小孩 689
远 688
我@@ 687
现代 687
特殊 686
之@@ 684
介绍 684
思维 683
神经 682
保证 681
以为 679
女儿 679
放 679
无@@ 678
收入 676
教 676
转变 676
「 675
」 675
学会 675
生长 675
80 674
信任 674
结合 674
针对 674
儿子 673
跑 673
再次 672
投入 672
相反 672
社交 672
斯 671
读 671
关心 670
内部 669
道德 669
包含 667
长大 666
阅读 666
因 665
形状 664
距离 664
种族 663
别的 662
拉 662
创作 661
所谓 660
收到 659
负责 658
体系 656
质量 656
测量 655
绿色 654
达 654
先生 653
这@@ 653
过来 652
仅 650
大小 650
行业 650
第二个 649
说话 648
表演 647
人群 644
普通 644
从未 643
动作 643
道 642
刚 641
家里 639
晚上 639
程序 639
子 638
记住 638
权力 637
心 636
智慧 636
一步 635
移民 635
水@@ 634
变 633
责任 633
常常 630
哪些 629
看待 629
回 628
度 628
引起 628
外 627
约 627
逐渐 627
阻止 627
听说 626
少 625
表示 625
认知 625
邀请 625
不幸 623
公共 622
承认 622
日 622
离 621
第二 621
身边 621
运行 620
四个 619
警察 618
条件 617
疯狂 617
取得 616
米 615
9 614
以来 614
力 614
飞行 613
早期 612
伤害 611
一生 610
下降 609
会@@ 609
相似 609
积极 607
鼓励 607
高@@ 606
接近 605
物理 605
状况 605
三@@ 604
见到 604
倍 603
很棒 603
惊讶 603
检测 603
世界各地 602
十年 602
条 602
限制 602
依然 601
在座 601
怎么样 601
气候变化 600
70 598
不够 598
出去 597
重复 596
比赛 595
避免 595
一块 594
工程师 594
90 593
互动 593
差不多 593
兴奋 591
微生物 591
石油 591
相比 589
神经元 589
11 588
电子 588
试验 588
成本 587
火星 587
独立 587
次 586
英里 585
开放 584
方案 584
幸福 583
多年 582
拯救 582
教授 581
冲突 580
地@@ 580
穿 580
克 578
应对 578
西方 578
发出 575
惊人 575
发表 574
呼吸 574
算法 574
资金 574
留下 573
克里斯 572
声 572
感兴趣 571
量 571
往往 570
领导 570
同意 568
加 567
感 567
革命 567
法 566
诊断 566
面前 566
下去 565
位于 565
破坏 565
背景 565
回家 564
这位 564
特 563
红色 562
任何人 561
大型 561
平均 561
电视 561
太阳能 560
装置 560
二氧化碳 559
就要 559
放弃 559
蛋白质 559
解决方案 559
贫穷 559
数 558
白人 558
释放 558
居住 557
18 555
有没有 555
改善 553
终于 553
长期 551
互相 550
人会 550
成员 550
稳定 550
． 550
人工智能 549
刚才 549
太空 549
理由 549
上升 548
下@@ 548
兴趣 548
看上去 548
给予 548
规模 548
位 547
真 547
行 547
差异 546
享受 545
疫苗 545
妻子 544
英尺 544
获取 543
坐 541
网上 541
障碍 540
平台 539
这场 539
之外 538
假如 538
办公室 538
员工 538
完 538
本质 536
相互 536
背后 536
皮肤 534
报告 533
按 533
一边 532
对待 532
病 532
等待 532
粒子 532
元素 531
年龄 531
特征 531
男孩 531
所在 530
拉@@ 530
拒绝 530
有意思 530
生 530
德 529
感谢 529
连 529
器 528
温度 527
英语 526
做些 525
活 525
自@@ 525
记者 525
两年 524
门 524
相对 523
无 522
公开 521
塑料 521
没错 521
熟悉 521
道路 520
可@@ 519
称 519
靠 519
中有 518
四@@ 518
狗 518
看法 518
物 517
自 517
某 516
注意力 515
不可思议 514
文明 513
药 513
蓝色 513
这会 513
屏幕 512
恢复 512
打算 512
那天 512
CA 511
愤怒 511
碳 511
秘密 511
设计师 511
适应 511
提醒 510
核心 509
燃料 508
信仰 507
英雄 507
P@@ 506
卖 506
两@@ 505
满足 505
细节 504
创建 503
型 503
文章 503
本 503
选举 503
不好 502
一片 501
分 501
挺 501
卡 500
走进 500
工程 499
公园 498
也就是说 497
和平 497
很少 497
S@@ 496
女士 496
穿过 496
A 495
体内 495
心脏 495
星系 495
人体 494
原则 494
R@@ 493
博物馆 493
平衡 493
球 493
出@@ 492
垃圾 492
谈 492
B@@ 491
制度 491
腿 491
价格 490
率 490
究竟 490
最初 489
检查 489
职业 488
好处 487
新@@ 487
全新 486
难民 486
得以 485
肌肉 485
财富 485
马上 483
层面 482
类型 482
专业 481
化学 481
原理 481
展现 481
心理 481
迅速 480
这点 480
传递 479
循环 479
态度 479
有用 479
那@@ 479
之所以 478
模拟 478
沟通 478
谈谈 478
用户 477
贡献 477
马@@ 477
令 476
日本 476
贫困 476
从事 475
仔细 475
干 475
课程 475
高兴 475
将要 474
采用 474
H@@ 473
爆炸 473
试着 473
器官 472
带到 472
感知 472
报道 472
机 472
坚持 471
很小 471
放到 471
s 470
公平 470
占 470
段 470
结论 470
独特 469
较 469
创意 468
必要 468
200 467
公众 467
利益 467
剩下 466
卡@@ 466
技能 466
一句 465
专注 465
成就 465
后面 464
富有 464
将来 464
找出 464
纸 464
血液 464
一段时间 463
以上 463
银行 463
习惯 462
症状 462
著名 462
免费 461
别 461
棒 461
谷歌 461
交谈 460
体 460
工厂 460
• 458
广告 458
怀疑 458
组合 457
附近 457
一台 456
即便 456
旅行 456
识别 456
超级 456
今年 455
区别 455
理念 455
反对 454
寻求 453
树 453
竞争 453
G@@ 452
卫星 452
气体 452
个体 451
提升 451
更大 451
真相 451
自动 451
要么 451
早上 450
文字 449
智能 449
衣服 449
观念 449
食品 449
举个 448
准确 448
医学 448
左右 448
重大 448
农业 447
攻击 447
策略 447
肿瘤 447
主题 446
件 446
作 446
内心 446
忘记 446
星期 446
期间 446
利 444
完整 444
机制 443
近 443
集中 443
十@@ 442
斯@@ 442
团体 441
往 441
期待 440
深入 440
对方 439
送 439
L@@ 438
大规模 438
心@@ 438
没什么 438
三 437
坏 437
旅程 437
约翰 437
购买 437
偏见 436
常见 436
秒 436
交易 435
成千上万 435
搜索 435
杂志 435
维持 435
丈夫 434
后果 434
案例 434
武器 434
/ 433
16 433
具体 433
船 433
&#91; 432
睡眠 432
M@@ 431
人物 431
好奇 431
成果 431
黑暗 431
&#93; 430
T@@ 430
军队 430
尊重 430
照顾 430
脆弱 430
说法 430
面 430
高度 429
倾向 428
全国 428
如同 428
i 427
左边 427
恒星 427
比例 427
理想 427
飞 427
D@@ 426
一座 426
开心 426
或者说 426
21 425
主意 425
多样性 425
语 425
一部 424
判断 424
回应 424
激励 424
刺激 423
各个 423
掌握 423
还会 423
2000 422
哪个 421
州 421
加上 420
建设 420
创造力 419
场景 419
培养 419
执行 419
进来 419
主义 418
取决于 418
极端 418
缺乏 418
动力 417
尔 417
强烈 417
当@@ 417
拿到 417
操作 417
老鼠 417
马 417
慢慢 416
生物学 416
不停 415
伦敦 415
加@@ 415
天@@ 415
德国 415
美 415
说服 415
家伙 414
爸爸 414
追求 414
丰富 413
前@@ 413
法国 413
对象 412
工业 412
弄 412
艾滋病 412
要是 412
重点 412
C@@ 411
墙 411
实在 411
旋转 411
部门 411
a 410
为何 410
早 410
19 409
没@@ 409
却是 408
啦 408
构成 408
谈话 408
边 408
患有 407
渴望 407
穿着 407
而已 407
艰难 407
人性 406
亿美元 406
消息 406
难以 406
引发 405
犯罪 405
脸 405
调整 405
广泛 404
旁边 404
阿@@ 404
女 403
懂 403
斗争 403
过@@ 403
即将 402
噢 402
涉及 402
领袖 402
农民 401
古老 401
小小的 401
相当于 401
穆斯林 401
隐藏 401
难以置信 401
博士 400
外面 400
污染 400
途径 400
为此 399
市 399
既 399
漂亮 399
选 399
聚集 397
17 396
右边 396
演奏 396
呈现 395
复制 395
不可 394
未 394
猜 394
14 393
光@@ 393
发 393
解决问题 393
依赖 392
做法 392
动 392
同一个 392
围绕 392
技巧 392
一本 391
倾听 391
共享 391
到处 391
原子 391
受害者 391
跳 391
前面 390
排放 390
来源 390
猫 390
舞台 390
节目 390
值 389
发@@ 389
大众 389
24 388
o 388
人数 388
以下 388
修复 388
字 388
开@@ 388
有所 388
简直 388
老 388
鸟 388
1000 387
场 387
万@@ 386
对抗 386
投票 386
种类 386
适合 386
一代 385
事业 385
待 385
来@@ 385
500 384
承诺 384
消耗 384
若 384
青少年 384
望远镜 383
西@@ 383
各种各样 382
客户 382
手段 382
推动 382
普遍 382
版本 382
谈到 382
采取 382
原始 381
变@@ 381
打电话 381
文件 381
除非 381
不久 380
变革 380
合适 380
居民 380
电池 380
转移 380
B 379
优秀 379
依靠 379
比@@ 379
用@@ 379
地点 378
成@@ 378
我来 378
画面 378
一致 377
混乱 377
神 377
辩论 377
五年 376
从中 376
反 376
按照 376
彻底 375
昆虫 375
看过 375
s@@ 374
明确 373
紧张 373
赋予 373
走向 373
超越 373
p@@ 372
单词 372
热情 372
风 372
之类 371
很长 371
无论是 371
蚂蚁 371
倒 370
处在 370
进展 370
一套 369
图书馆 369
培训 369
好消息 369
构建 369
死去 369
达成 369
b@@ 368
典型 368
想起 368
打@@ 368
某种程度 368
疟疾 368
诞生 368
全 367
字母 367
作家 366
几@@ 366
提 366
改革 366
流行 366
片 366
生态系统 366
诗 366
一面 365
总 365
要说 365
趋势 365
轨道 365
F@@ 364
便宜 364
得出 364
祖先 364
能否 364
路上 364
阿富汗 364
麻烦 364
K@@ 363
e 363
安德森 363
建 363
当作 363
扫描 363
最高 363
浪费 363
现场 363
长@@ 363
长时间 363
他会 362
致力于 362
设想 362
资料 362
邻居 362
重建 362
赢得 361
全@@ 360
样本 360
派 360
深刻 360
练习 360
观看 360
逻辑 360
部 360
入 359
几天 359
有限 359
了不起 358
五@@ 358
指出 358
久 357
内@@ 357
决策 357
原来 357
意见 357
期望 357
蚊子 357
遭受 357
顺便 357
促进 356
发布 356
启发 356
塔 356
律师 356
恐龙 356
期 356
没法 356
热 356
看不到 356
脚 356
蜜蜂 356
部落 356
名叫 355
极其 355
矛盾 355
放大 354
灾难 354
m@@ 353
价值观 353
地位 353
大自然 353
现有 353
看来 353
管 353
地面 352
报纸 352
进一步 352
队 352
随后 352
黑洞 352
基因组 351
板 351
视角 351
评估 351
一点点 350
喝 350
块 350
外@@ 350
张 350
忽略 350
打破 350
消费者 350
衡量 350
高中 350
13 349
成立 349
最佳 349
潜力 349
分@@ 347
带给 347
海@@ 347
可行 346
层 346
开车 346
固定 345
巴西 345
手@@ 345
以至于 344
教会 344
自闭症 344
街道 344
t@@ 343
密码 343
研发 343
从@@ 342
前进 342
旧 342
上去 341
做好 341
装 341
进去 341
y 340
化石 340
合理 340
播放 340
教堂 340
付出 339
几十年 339
制定 339
半 339
士兵 339
我用 339
天空 338
微小 338
效率 338
盒子 338
覆盖 338
评论 338
邮件 338
N@@ 337
焦虑 337
物品 337
随机 337
c@@ 336
援助 336
标记 336
灵感 336
疼痛 336
呆 335
支付 335
灭绝 335
老@@ 335
量子 335
安@@ 334
怎么办 334
治愈 334
种植 334
符合 334
先@@ 333
冒险 333
改造 333
边缘 333
集体 333
零 333
i@@ 332
一篇 332
两 332
五个 332
光线 332
肯尼亚 332
一遍 331
兄弟 331
奇妙 331
小组 331
小说 331
强调 331
效应 331
金 331
金钱 331
18@@ 330
同@@ 330
好@@ 330
对@@ 330
漫画 330
行走 330
适用 330
不了 329
人士 329
合成 329
强 329
正@@ 329
穷人 329
编辑 329
输入 329
运动员 329
重 329
优势 328
潜在 328
私人 328
结婚 328
尽可能 327
擅长 327
震惊 327
2@@ 326
加速 326
印象 326
奇迹 326
基础设施 325
庞大 325
打印 325
灵魂 325
特@@ 325
三年 324
恩 324
联合国 324
陌生人 324
饼干 324
一周 323
上学 323
第三个 323
而@@ 323
以@@ 322
发挥 322
奖励 322
实施 322
E@@ 321
台 321
损失 321
体现 320
吸收 320
城 320
教室 320
流 320
算 320
网 320
两者 319
作出 319
工人 319
意外 319
毕竟 319
沮丧 319
热爱 319
致命 319
课 319
重要性 319
一颗 318
理性 318
短 318
美妙 318
预防 318
一辆 317
公正 317
消除 317
激动 317
直觉 317
重@@ 317
便是 316
头@@ 316
精确 316
视为 316
转 316
公里 315
博客 315
名为 315
土壤 315
整体 315
灯 315
玩具 315
; 314
发展中国家 314
寿命 314
改进 314
村庄 314
糖 314
自行车 314
驱动 314
300 313
与此同时 313
代价 313
关联 313
取代 313
哪儿 313
回收 313
无限 313
标签 313
河 313
电力 313
费用 313
重视 313
之内 312
哇 312
实践 312
展开 312
总结 312
难道 312
额外 312
黑猩猩 312
A@@ 311
乐观 311
分布 311
存活 311
格 311
陷入 311
难题 311
建筑师 310
当今 310
爆发 310
追踪 310
保留 309
半@@ 309
反馈 309
地说 309
扩大 309
标志 309
相机 309
良好 309
C 308
万人 308
保存 308
同性恋 308
大气 308
头发 308
心脏病 308
本来 308
立刻 308
D 307
d@@ 307
一幅 307
山 307
毒品 307
毫无 307
氧气 307
】 306
农场 306
手指 306
教师 306
时@@ 306
每当 306
西 306
伊拉克 305
回去 305
太@@ 305
面积 305
【 304
勇气 304
发射 304
度过 304
想像 304
沙漠 304
这时 304
领导者 304
000 303
估计 303
品牌 303
白@@ 303
T 302
加拿大 302
摆脱 302
过度 302
克服 301
创伤 301
埃及 301
岛 301
月球 301
火 301
特性 301
单@@ 300
口 300
波@@ 300
演示 300
高效 300
二 299
企业家 299
影响力 299
悲伤 299
道理 299
采访 299
只会 298
尽 298
应当 298
搞 298
无数 298
每@@ 298
活着 298
猴子 298
黑@@ 298
六@@ 297
反映 297
嘿 297
就算 297
措施 297
消费 297
认同 297
认真 297
儿 296
变暖 296
圈 296
生成 296
角落 296
驾驶 296
一组 295
大象 295
年里 295
应 295
可爱 294
图表 294
如@@ 294
杀死 294
症 294
群 294
脑 294
这条 294
二@@ 293
产业 293
同情 293
清晰 293
白色 293
能@@ 293
自杀 293
h@@ 292
专门 292
单位 292
感情 292
火箭 292
牌 292
电 292
这份 292
防止 292
塑造 291
状 291
造 291
阳光 291
an 290
不论 290
争论 290
婚姻 290
得@@ 290
流动 290
激发 290
自信 290
以此 289
克@@ 289
启动 289
开展 289
抓住 289
抗生素 289
曲线 289
生@@ 289
罗@@ 289
血管 289
％ 289
低@@ 288
南非 288
取 288
点子 288
神秘 288
论文 288
做成 287
咖啡 287
演员 287
转@@ 287
送到 287
去世 286
有点像 286
爱情 286
规律 286
质疑 286
非常简单 286
万美元 285
带有 285
再@@ 284
分离 284
利@@ 284
多种 284
巴@@ 284
昂贵 284
洛杉矶 284
第 284
第三 284
这片 284
靠近 284
以色列 283
抑郁 283
来讲 283
正义 283
组 283
代码 282
到来 282
干细胞 282
瞬间 282
苹果 282
E 281
X 281
哈@@ 281
波 281
走出 281
不必 280
肉 280
说道 280
信 279
学者 279
安排 279
机械 279
模仿 279
气 279
电@@ 279
仪器 278
前往 278
包 278
承担 278
日常 278
桥 278
相@@ 278
这方面 278
伴随 277
多数 277
手臂 277
指数 277
爱因斯坦 277
诊所 277
做过 276
商品 276
基金 276
室 276
尼 276
日常生活 276
禁止 276
舞蹈 276
讨厌 276
严肃 275
云 275
再也 275
多个 275
活跃 275
节奏 275
y@@ 274
传感器 274
信念 274
夏天 274
提取 274
沿着 274
玩耍 274
色 274
这句 274
0 273
剂 273
国 273
影片 273
换句话说 273
摧毁 273
礼物 273
里@@ 273
! 272
k@@ 272
一层 272
作者 272
千@@ 272
华盛顿 272
引导 272
形象 272
换 272
显著 272
疗法 272
预期 272
400 271
w@@ 271
勇敢 271
同一 271
孤独 271
差别 271
曼 271
混合 271
至今 271
交通 270
俄罗斯 270
反而 270
学院 270
小型 270
当下 270
惊奇 270
掌控 270
片段 270
现状 270
翻译 270
至关重要 270
身 270
这部 270
远离 270
─ 269
受伤 269
多次 269
性@@ 269
愿望 269
极大 269
气@@ 269
着手 269
给出 269
W@@ 268
e@@ 268
g@@ 268
各地 268
家长 268
护士 268
指导 268
澳大利亚 268
真@@ 268
规定 268
赢 268
停 267
分配 267
员 267
唱 267
基金会 267
庆祝 267
风@@ 267
加州 266
想象力 266
成分 266
文 266
景象 266
级 266
要@@ 266
面包 266
J@@ 265
举 265
学家 265
正好 265
满 265
种子 265
藏 265
这座 265
金@@ 265
鸟类 265
黑 265
伊@@ 264
商店 264
圣@@ 264
头脑 264
幻灯片 264
录像 264
袭击 264
讽刺 264
词汇 264
饮食 264
1@@ 263
出版 263
地下 263
德@@ 263
志愿者 263
最@@ 263
纳 263
统计 263
编码 263
l@@ 262
书籍 262
对比 262
打造 262
第二天 262
经济学家 262
规划 262
远远 262
一根 261
厨房 261
增强 261
奴隶 261
尔@@ 261
扮演 261
洞 261
缺陷 261
跨越 261
亚 260
体会 260
储存 260
全球化 260
古@@ 260
四 260
屋顶 260
日子 260
频率 260
Facebook 259
另一方面 259
看出 259
石头 259
那一刻 259
之下 258
假 258
几周 258
大卫 258
尼@@ 258
权 258
死亡率 258
玻璃 258
着迷 258
神@@ 258
转化 258
他@@ 257
否则 257
够 257
宣传 257
得知 257
所知 257
承受 257
更为 257
某人 257
美@@ 257
黄色 257
业 256
原本 256
差距 256
营养 256
融合 256
in@@ 255
不少 255
动机 255
单一 255
后@@ 255
听众 255
在线 255
墨西哥 255
少数 255
忽视 255
林 255
欢迎 255
表情 255
象征 255
跟踪 255
雕塑 255
公@@ 254
其@@ 254
图案 254
愚蠢 254
成绩 254
挣扎 254
皮 254
精彩 254
运转 254
金属 254
销售 254
亚洲 253
以便 253
区分 253
探讨 253
携带 253
法案 253
相 253
说出 253
V@@ 252
世上 252
份 252
先进 252
发起 252
呀 252
尼日利亚 252
师 252
意大利 252
懂得 252
无聊 252
民众 252
35 251
只@@ 251
喜爱 251
回报 251
海 251
爬 251
珊瑚 251
生意 251
自从 251
3@@ 250
噪音 250
宣布 250
布 250
心里 250
树木 250
椅子 250
舒服 250
询问 250
身处 250
3D 249
史 249
科 249
中学 248
和@@ 248
好好 248
安装 248
敌人 248
敏感 248
框架 248
短信 248
红 248
腐败 248
不止 247
不行 247
交换 247
反@@ 247
大陆 247
数@@ 247
染色体 247
清洁 247
照 247
犯 247
罗 247
赚 247
跟着 247
er 246
亚马逊 246
依旧 246
关闭 246
好事 246
气味 246
法庭 246
点@@ 246
物理学家 246
由此 246
繁荣 246
遥远 246
预算 246
一个月 245
出色 245
原@@ 245
合法 245
含有 245
命运 245
崩溃 245
怀孕 245
想着 245
花@@ 245
见证 245
45 244
一所 244
从没 244
以外 244
传达 244
写作 244
出于 244
受@@ 244
哺乳动物 244
折磨 244
未知 244
海水 244
餐厅 244
er@@ 243
众多 243
同情心 243
埃 243
教学 243
既然 243
每周 243
申请 243
看不见 243
稍微 243
首次 243
不知 242
之上 242
国会 242
欣赏 242
版 242
繁殖 242
融入 242
角 242
转换 242
鱼类 242
es 241
两倍 241
人权 241
奥@@ 241
异常 241
空中 241
胜利 241
两次 240
别@@ 240
形态 240
战斗 240
戴 240
拿出 240
毕业 240
科@@ 240
纳@@ 240
躺 240
n@@ 239
争议 239
全球性 239
姆 239
家@@ 239
情形 239
搬 239
火@@ 239
眼 239
阻碍 239
非凡 239
饥饿 239
O@@ 238
地上 238
太多 238
整合 238
本@@ 238
燃烧 238
猪 238
百万 238
统治 238
象 238
转向 238
门@@ 238
领导人 238
150 237
免疫 237
只不过 237
坚信 237
家族 237
将近 237
小心 237
房屋 237
查看 237
环保 237
珊瑚礁 237
资本 237
车@@ 237
一员 236
不像 236
为@@ 236
实时 236
延伸 236
法@@ 236
牺牲 236
穿越 236
证实 236
遭遇 236
雄性 236
f@@ 235
一间 235
亿人 235
伴侣 235
八@@ 235
各自 235
哭 235
坐下 235
拥抱 235
最新 235
白 235
皮@@ 235
队伍 235
人工 234
全都 234
困扰 234
成年人 234
手中 234
生理 234
红@@ 234
起@@ 234
t 233
恐怖 233
普@@ 233
极度 233
概率 233
激情 233
留在 233
突破 233
试 233
这幅 233
专利 232
促使 232
名@@ 232
告知 232
扩展 232
液体 232
深 232
玩家 232
现今 232
精力 232
缺少 232
风格 232
主义者 231
可靠 231
所@@ 231
提@@ 231
朝 231
河流 231
生气 231
祖母 231
绝望 231
血 231
贴 231
资助 231
隐私 231
难@@ 231
飞@@ 231
en 230
参与者 230
委员会 230
影像 230
摄影 230
放进 230
杀 230
此外 230
步骤 230
看作 230
研究者 230
紧密 230
这有 230
三分之一 229
三种 229
乐器 229
仪式 229
哲学 229
小时候 229
接收 229
撞 229
构造 229
界 229
确信 229
系 229
75 228
含义 228
惩罚 228
渐渐 228
设置 228
体@@ 227
双@@ 227
品 227
四年 227
差 227
干净 227
建筑物 227
最早 227
服用 227
特点 227
百@@ 227
维@@ 227
药品 227
超@@ 227
几率 226
分裂 226
命名 226
成熟 226
放@@ 226
显得 226
认可 226
论 226
骨头 226
en@@ 225
下一代 225
信心 225
具备 225
利润 225
失望 225
安静 225
定位 225
忙 225
扩张 225
数百万 225
符号 225
老人 225
老板 225
读者 225
那位 225
页 225
ing 224
♪ 224
七@@ 224
冰@@ 224
底部 224
引用 224
感官 224
新型 224
替代 224
枪 224
歧视 224
点击 224
眼前 224
碰到 224
算是 224
聆听 224
设施 224
贸易 224
一会儿 223
亚@@ 223
去过 223
口@@ 223
句子 223
本地 223
民族 223
法官 223
目前为止 223
确认 223
编程 223
罗马 223
血@@ 223
连@@ 223
透明 223
重量 223
顿 223
不去 222
不安 222
伤 222
欢呼 222
洞穴 222
游泳 222
诗人 222
顺利 222
顾客 222
鲨鱼 222
--- 221
伊朗 221
制 221
天气 221
幅 221
并不知道 221
当前 221
描绘 221
桌子 221
监控 221
被迫 221
遵循 221
伊 220
太阳系 220
已知 220
布@@ 220
护理 220
生态 220
跨 220
金融 220
黑色 220
场所 219
娱乐 219
明天 219
歌 219
牛 219
睡 219
自豪 219
Google 218
内在 218
我花 218
担忧 218
海底 218
物理学 218
纳米 218
般的 218
诗歌 218
部位 218
a@@ 217
一把 217
亿年 217
伙伴 217
冰川 217
南部 217
各 217
女@@ 217
已有 217
年间 217
店 217
总会 217
旧金山 217
比起 217
深度 217
磅 217
轻松 217
边界 217
迪 217
飞行器 217
夫 216
家乡 216
推进 216
无比 216
用到 216
等于 216
街上 216
这类 216
连续 216
充分 215
分类 215
在我看来 215
小女孩 215
开启 215
很酷 215
油 215
碰撞 215
纤维 215
联合 215
运输 215
事儿 214
合@@ 214
国王 214
最为 214
有机 214
温室 214
街头 214
免疫系统 213
厕所 213
后代 213
塔@@ 213
山@@ 213
岩石 213
抗议 213
昨天 213
课堂 213
调@@ 213
足以 213
出发 212
创立 212
大多 212
大气层 212
太棒了 212
始终 212
尴尬 212
广场 212
更@@ 212
森 212
火车 212
联盟 212
观测 212
请求 212
负担 212
酶 212
一首 211
化学物质 211
可见 211
巴黎 211
接 211
推广 211
时光 211
显而易见 211
极 211
热@@ 211
爱@@ 211
聊天 211
表 211
越@@ 211
遗传 211
单独 210
南 210
及其 210
密度 210
微笑 210
缓慢 210
进程 210
I@@ 209
冰 209
味道 209
心理学家 209
患 209
教@@ 209
无关 209
消灭 209
重力 209
一堆 208
一方面 208
干预 208
形 208
心中 208
排 208
死@@ 208
水中 208
沙@@ 208
睡觉 208
费 208
起源 208
阿拉伯 208
雇佣 208
伊斯兰 207
反复 207
反射 207
悲剧 207
方便 207
约会 207
货币 207
贷款 207
辐射 207
集 207
魅力 207
临床 206
企鹅 206
何时 206
协调 206
回顾 206
形容 206
挂 206
来源于 206
极@@ 206
盯 206
美金 206
赚钱 206
22 205
国内 205
图@@ 205
好奇心 205
宝宝 205
尺寸 205
心灵 205
成像 205
抑郁症 205
显微镜 205
机场 205
空@@ 205
落 205
镜头 205
4@@ 204
一支 204
前所未有 204
动态 204
外部 204
大胆 204
当成 204
探测 204
整整 204
文@@ 204
有力 204
监管 204
目睹 204
虚拟 204
行@@ 204
袋 204
这边 204
鼻子 204
I 203
el@@ 203
r@@ 203
不太 203
供 203
哲学家 203
很@@ 203
想@@ 203
梦 203
生物学家 203
缩小 203
萨@@ 203
资本主义 203
身@@ 203
达@@ 203
逃离 203
GDP 202
一刻 202
发送 202
困境 202
扔 202
排@@ 202
数据库 202
整@@ 202
楼 202
水下 202
流@@ 202
海豚 202
演出 202
负面 202
at@@ 201
一同 201
主@@ 201
乐队 201
人才 201
会想 201
停下来 201
几分钟 201
分别 201
分开 201
力@@ 201
大会 201
大笑 201
推特 201
一类 200
事是 200
众人 200
协议 200
墙上 200
工资 200
巴基斯坦 200
心理学 200
打击 200
海岸 200
第一件 200
组装 200
绕 200
贝@@ 200
23 199
举办 199
交给 199
作@@ 199
发光 199
地理 199
失@@ 199
干@@ 199
幻想 199
引擎 199
机遇 199
根 199
流程 199
罪犯 199
2010 198
保障 198
其次 198
卡车 198
基 198
对应 198
恐怖主义 198
抱 198
被@@ 198
讲故事 198
设定 198
这才 198
on 197
不足 197
从来不 197
全面 197
占据 197
尸体 197
工 197
捕捉 197
直@@ 197
耳朵 197
随时 197
n 196
争取 196
交@@ 196
北部 196
向前 196
安 196
干扰 196
序列 196
收获 196
数学家 196
生病 196
空 196
自然界 196
街区 196
达尔文 196
上来 195
体制 195
六个 195
写下 195
动@@ 195
博拉 195
想一想 195
救 195
植入 195
笑话 195
绝大多数 195
讲话 195
陆地 195
黑客 195
2015 194
乐趣 194
以往 194
千万 194
大楼 194
指令 194
模糊 194
毫无疑问 194
碎片 194
舒适 194
裔 194
西班牙 194
说@@ 194
谢谢你们 194
那边 194
酒 194
隔离 194
与其 193
使命 193
公寓 193
动画 193
座 193
慈善 193
所处 193
抽象 193
支撑 193
日@@ 193
正面 193
聚会 193
草 193
评价 193
这块 193
in 192
做@@ 192
回@@ 192
放入 192
明@@ 192
机@@ 192
沉默 192
源于 192
第一步 192
绘制 192
脑海中 192
走@@ 192
走上 192
中东 191
主流 191
事故 191
人造 191
仿佛 191
变为 191
定律 191
展览 191
布朗 191
年@@ 191
方 191
格@@ 191
猜测 191
男子 191
相应 191
祈祷 191
2008 190
不让 190
入@@ 190
分解 190
和谐 190
团结 190
学@@ 190
定 190
帕@@ 190
政客 190
有害 190
欲望 190
花园 190
这段 190
音 190
骨 190
一小部分 189
下午 189
克斯 189
叙利亚 189
在场 189
声@@ 189
天才 189
奖 189
小孩子 189
工作者 189
带领 189
慢 189
抱歉 189
挖掘 189
正式 189
移植 189
童年 189
第一@@ 189
蛋白 189
资产 189
高级 189
亲密 188
可不是 188
市长 188
患上 188
感激 188
投资者 188
激进 188
访问 188
鞋 188
前提 187
困惑 187
国@@ 187
基地 187
官员 187
审视 187
巧克力 187
手里 187
抓 187
法则 187
深深 187
立即 187
莫@@ 187
虫 187
过于 187
音乐家 187
鱼@@ 187
ar@@ 186
代 186
兹 186
外界 186
字体 186
忘 186
教练 186
星 186
段时间 186
气球 186
没人 186
独自 186
相连 186
笔 186
脑@@ 186
舞 186
街 186
非@@ 186
o@@ 185
z@@ 185
分成 185
女士们 185
审查 185
客 185
教导 185
比尔 185
窗户 185
脑部 185
芯片 185
R 184
v@@ 184
一头 184
人人 184
供应 184
保@@ 184
双手 184
受欢迎 184
完善 184
恶心 184
成人 184
扩散 184
排列 184
无处不在 184
烟 184
癌细胞 184
看似 184
竟然 184
虐待 184
走路 184
鸡 184
3000 183
于@@ 183
发育 183
含量 183
听见 183
回复 183
在家 183
暴露 183
波士顿 183
注入 183
牙齿 183
短暂 183
神圣 183
精英 183
芝加哥 183
词语 183
遭到 183
部件 183
非法 183
5000 182
专@@ 182
乡村 182
分散 182
北极 182
合 182
埃@@ 182
家中 182
开来 182
成年 182
注 182
真理 182
绘画 182
脱离 182
设立 182
路线 182
&amp; 181
S 181
it@@ 181
一路 181
上班 181
主动 181
乐 181
医疗保健 181
协作 181
发现自己 181
司机 181
妹妹 181
娜 181
对称 181
推出 181
数字化 181
激活 181
线索 181
聚焦 181
脸上 181
进@@ 181
u@@ 180
地震 180
尊严 180
就让 180
摄像机 180
无论如何 180
架 180
比喻 180
清理 180
考试 180
色彩 180
起到 180
身为 180
选项 180
遇见 180
采集 180
食 180
600 179
付 179
公布 179
制成 179
四处 179
愉快 179
抱怨 179
接到 179
更新 179
毁灭 179
脂肪 179
醒来 179
钢琴 179
27 178
al@@ 178
乔治 178
五 178
从不 178
冒 178
哪怕 178
塞@@ 178
强迫 178
想过 178
抑制 178
抵抗 178
杰出 178
注射 178
菜 178
过滤 178
链 178
阿 178
黄金 178
99 177
‧ 177
举行 177
书@@ 177
体重 177
存储 177
很多年 177
按钮 177
推@@ 177
早晨 177
简化 177
糖尿病 177
解读 177
警告 177
还@@ 177
通@@ 177
铁@@ 177
链接 177
2009 176
U@@ 176
与众不同 176
东@@ 176
亮 176
你好 176
依赖于 176
呼吁 176
在@@ 176
弹 176
当做 176
据 176
接@@ 176
监视 176
看@@ 176
经济学 176
膨胀 176
详细 176
误解 176
轨迹 176
透过 176
面部 176
万个 175
产物 175
任意 175
刀 175
回忆 175
夜晚 175
大麻 175
常规 175
幻觉 175
引入 175
摄影师 175
暗 175
未@@ 175
此时 175
界限 175
纯粹 175
网页 175
被称作 175
遗憾 175
an@@ 174
劳动力 174
南@@ 174
叶 174
多久 174
大声 174
抛弃 174
拜访 174
探测器 174
派对 174
浏览 174
满意 174
瑞典 174
男 174
经营 174
般 174
非洲人 174
伯@@ 173
卫生 173
反抗 173
嗨 173
地表 173
有幸 173
游行 173
激光 173
脑袋 173
试试 173
质 173
退休 173
遍布 173
一个@@ 172
中央 172
亦 172
代替 172
六个月 172
口袋 172
战略 172
捐赠 172
时尚 172
普 172
最小 172
标题 172
激素 172
职业生涯 172
龙 172
一代人 171
下载 171
冷@@ 171
分数 171
基@@ 171
天然 171
天生 171
实体 171
帝国 171
年纪 171
我家 171
指标 171
歌曲 171
炸弹 171
肺 171
英文 171
跳舞 171
鼓舞 171
传@@ 170
借助 170
减轻 170
加强 170
外星人 170
小镇 170
工作人员 170
更是 170
案件 170
清单 170
满@@ 170
熊 170
种种 170
维 170
蝙蝠 170
解放 170
诚实 170
走过 170
酒店 170
面@@ 170
鲸鱼 170
两位 169
乐@@ 169
保罗 169
做点 169
关 169
单纯 169
强@@ 169
智力 169
深@@ 169
独@@ 169
粮食 169
肤色 169
视 169
路@@ 169
银河系 169
青年 169
一切都是 168
不如 168
农村 168
制@@ 168
协助 168
囚犯 168
奇@@ 168
政治家 168
无人机 168
时常 168
有益 168
欺骗 168
深处 168
激烈 168
监禁 168
福利 168
竞选 168
羊 168
超出 168
风暴 168
on@@ 167
u 167
一分钟 167
势力 167
北@@ 167
另一边 167
在乎 167
地带 167
帮忙 167
幸存者 167
搭建 167
本能 167
界面 167
真菌 167
眼@@ 167
素 167
返回 167
酷 167
集团 167
韩国 167
马克 167
Ch@@ 166
劳动 166
包容 166
圣经 166
富裕 166
巴 166
常 166
张图 166
念 166
情景 166
揭示 166
文学 166
无知 166
理查德 166
疫情 166
祖父 166
科学研究 166
经典 166
见过 166
路径 166
镜子 166
随意 166
雷@@ 166
丝 165
为例 165
事@@ 165
保守 165
倒@@ 165
勒 165
司法 165
土@@ 165
天堂 165
奇 165
姐妹 165
干什么 165
强奸 165
总@@ 165
数目 165
理 165
瓦 165
留给 165
研究所 165
终结 165
轻@@ 165
这家 165
2007 164
严格 164
友好 164
各国 164
否认 164
周 164
子@@ 164
情@@ 164
残疾 164
油@@ 164
眼镜 164
确切 164
纽约时报 164
蒂 164
调 164
邪恶 164
26 163
偶然 163
厉害 163
坐@@ 163
恰恰 163
意愿 163
戏剧 163
提议 163
放松 163
术语 163
栖息地 163
案 163
灵活 163
特质 163
狮子 163
美分 163
见@@ 163
解释一下 163
远@@ 163
骄傲 163
亲爱 162
优雅 162
匹配 162
尚未 162
局 162
希 162
怎么回事 162
意 162
权威 162
树@@ 162
登 162
结尾 162
自主 162
谋杀 162
轮 162
近@@ 162
随便 162
雌性 162
亲@@ 161
亿@@ 161
今晚 161
你@@ 161
副作用 161
南极 161
哪@@ 161
在世界上 161
好比 161
字典 161
怎样才能 161
战胜 161
收益 161
海报 161
由@@ 161
维护 161
罕见 161
言论 161
读书 161
超 161
道@@ 161
长度 161
一道 160
交配 160
休息 160
兰 160
再生 160
厚 160
参观 160
发作 160
哥哥 160
塞 160
好玩 160
恐怖分子 160
房 160
有意识 160
样 160
然 160
生产力 160
相互作用 160
神经系统 160
结@@ 160
运营 160
音符 160
页面 160
顺序 160
验证 160
5@@ 159
不该 159
依据 159
可持续性 159
家园 159
市民 159
弄清楚 159
损伤 159
有史以来 159
温暖 159
演化 159
装@@ 159
那年 159
骑 159
d 158
共同点 158
出售 158
受益 158
吃惊 158
康复 158
惊喜 158
抵达 158
排除 158
有过 158
步行 158
永久 158
相处 158
称作 158
米@@ 158
翅膀 158
脑海 158
艾@@ 158
视野 158
这台 158
随 158
7@@ 157
G 157
h 157
k 157
主导 157
学科 157
宽 157
小行星 157
平@@ 157
平常 157
撞击 157
族 157
早就 157
明 157
木@@ 157
用途 157
短期 157
群岛 157
翻 157
议会 157
诸如 157
那条 157
随之 157
高速 157
CEO 156
el 156
不可避免 156
主 156
从根本上 156
入侵 156
午餐 156
嘴 156
天赋 156
床上 156
有名 156
活力 156
疯 156
索 156
肢体 156
荷兰 156
解答 156
革新 156
项 156
两周 155
产 155
创造性 155
命 155
幽默 155
最快 155
极限 155
沙 155
深海 155
画@@ 155
肥胖 155
蔬菜 155
融化 155
西班牙语 155
见面 155
视力 155
轮椅 155
边境 155
上网 154
上述 154
传输 154
作物 154
假装 154
分辨 154
医师 154
双方 154
吉@@ 154
喜剧 154
声明 154
奥巴马 154
宇航员 154
开玩笑 154
意图 154
扭曲 154
添加 154
石 154
精神疾病 154
艺术品 154
谎言 154
那次 154
闻 154
﹐ 154
HIV 153
us 153
丧失 153
九@@ 153
北美 153
卢旺达 153
好莱坞 153
平 153
折叠 153
操控 153
放下 153
新鲜 153
海滩 153
灯光 153
研究生 153
鲁@@ 153
黄@@ 153
~ 152
业务 152
丢 152
交互 152
例外 152
几次 152
博@@ 152
受过 152
吨 152
听过 152
库 152
我刚 152
整理 152
晚餐 152
此@@ 152
水资源 152
流感 152
漫长 152
生日 152
省 152
耐心 152
苏@@ 152
贫民窟 152
车辆 152
YouTube 151
一对 151
三维 151
任 151
假@@ 151
分歧 151
复杂性 151
录音 151
推测 151
无需 151
杀害 151
根源 151
玛 151
端 151
第二@@ 151
荣幸 151
诺 151
赛 151
问问 151
震动 151
飞船 151
AI 150
亚当 150
伊斯兰教 150
作业 150
保护区 150
写道 150
取@@ 150
唱片 150
夸张 150
截然不同 150
核武器 150
游 150
盒 150
神话 150
统一 150
费@@ 150
非政府 150
保险 149
全是 149
变异 149
周边 149
导师 149
工作室 149
床 149
摄像头 149
方块 149
暂停 149
检验 149
球@@ 149
目光 149
积累 149
试想 149
这样一来 149
通信 149
首歌 149
8@@ 148
一架 148
准则 148
同步 148
同理 148
底特律 148
拍照 148
收缩 148
斯特 148
旁 148
有助于 148
某种意义 148
比特 148
热量 148
疑问 148
痛 148
联邦 148
药@@ 148
蛋糕 148
迷人 148
适当 148
al 147
iPhone 147
两天 147
事实证明 147
创业 147
办 147
发达国家 147
听@@ 147
太平洋 147
带上 147
操纵 147
最有 147
消化 147
深远 147
现实生活 147
瓦@@ 147
第一位 147
第二次 147
蜘蛛 147
讲讲 147
造@@ 147
部队 147
阴影 147
书写 146
人均 146
前景 146
发电 146
发行 146
只用 146
同学 146
失明 146
媒介 146
带@@ 146
捕鱼 146
暂时 146
毛@@ 146
硅谷 146
票 146
突变 146
精子 146
翻@@ 146
落@@ 146
财务 146
超市 146
逮捕 146
针 146
6@@ 145
一小 145
万年 145
传到 145
传染 145
似的 145
信@@ 145
候选人 145
偶尔 145
刚好 145
匿名 145
厂 145
响 145
天体 145
学术 145
尽量 145
排放量 145
普通人 145
最多 145
浪漫 145
犹太人 145
玛丽 145
等到 145
箱子 145
纸@@ 145
罗斯 145
通道 145
采取行动 145
频繁 145
Chris 144
le@@ 144
万年前 144
具 144
协会 144
句 144
各@@ 144
咨询 144
姐姐 144
巨型 144
微型 144
情 144
所能 144
投@@ 144
水果 144
水源 144
病例 144
箱 144
航行 144
调节 144
跳@@ 144
迪@@ 144
通讯 144
遵守 144
钥匙 144
错过 144
领导力 144
or@@ 143
一无所知 143
不确定性 143
个性 143
令人兴奋 143
充斥 143
包围 143
及时 143
发声 143
吸引力 143
哈 143
姿势 143
心态 143
怪 143
损害 143
更糟 143
焦点 143
班 143
短@@ 143
管@@ 143
经理 143
维度 143
缺失 143
触摸 143
轴 143
通往 143
65 142
O 142
Y@@ 142
re@@ 142
一共 142
乐意 142
修改 142
单 142
卡路里 142
厌恶 142
吸@@ 142
周末 142
土耳其 142
头上 142
对手 142
底 142
打交道 142
提问 142
星星 142
水面 142
活@@ 142
渠道 142
源 142
牛奶 142
眼中 142
破@@ 142
色情 142
蛋 142
过时 142
迹象 142
2012 141
P 141
一模一样 141
人为 141
仇恨 141
公式 141
初期 141
南方 141
即兴 141
取出 141
善于 141
在意 141
多样化 141
套 141
居然 141
工@@ 141
平面 141
总之 141
或@@ 141
战士 141
查 141
潜能 141
特权 141
狼 141
电子游戏 141
男@@ 141
纽约市 141
美国@@ 141
莱@@ 141
要素 141
账户 141
迫使 141
颗 141
高科技 141
上方 140
产出 140
切@@ 140
包@@ 140
古代 140
地板 140
头部 140
廉价 140
开头 140
弯曲 140
持 140
探险 140
款 140
游@@ 140
潜水 140
玉米 140
萨 140
骨骼 140
et@@ 139
关乎 139
内战 139
凌晨 139
危害 139
原型 139
嘛 139
大海 139
层次 139
开关 139
成百上千 139
抗争 139
景观 139
望 139
永恒 139
海地 139
电流 139
硬件 139
索@@ 139
规范 139
记 139
通 139
随@@ 139
雷 139
魔术 139
St@@ 138
il@@ 138
三倍 138
不同于 138
今日 138
冬天 138
冷 138
包装 138
可怜 138
吃@@ 138
哈佛 138
处境 138
客观 138
战 138
打印机 138
撒谎 138
放置 138
无家可归 138
智能手机 138
最具 138
桥梁 138
汤姆 138
漂浮 138
演变 138
生于 138
电视节目 138
百分之 138
社群 138
蔓延 138
足 138
除此之外 138
2011 137
95 137
ed 137
is 137
th@@ 137
一封 137
一百@@ 137
主人 137
奋斗 137
奶奶 137
孤立 137
宝贵 137
希腊 137
性质 137
托 137
挽救 137
推 137
早已 137
服 137
朝着 137
构想 137
林@@ 137
没能 137
清醒 137
笔记本电脑 137
网@@ 137
车祸 137
轻易 137
阴道 137
不算 136
二十年 136
从小 136
体积 136
供@@ 136
做事 136
兄弟姐妹 136
列 136
到@@ 136
剂量 136
剥夺 136
在内 136
地址 136
坏事 136
大西洋 136
并未 136
应@@ 136
托马斯 136
挑选 136
无线 136
来临 136
演讲者 136
直线 136
称呼 136
聚在一起 136
节 136
蛇 136
詹姆斯 136
购物 136
身后 136
重塑 136
金字塔 136
鞋子 136
下次 135
两件事 135
原 135
原料 135
受损 135
培育 135
奇特 135
延长 135
很多很多 135
手上 135
指@@ 135
搜寻 135
收@@ 135
术 135
残酷 135
消极 135
登上 135
移 135
聊 135
脑中 135
记@@ 135
起初 135
轻 135
这颗 135
酒吧 135
集合 135
非裔 135
顶端 135
顾问 135
飓风 135
高速公路 135
麦@@ 135
32 134
不愿 134
乳腺癌 134
传说 134
全身 134
共@@ 134
冲@@ 134
冲击 134
副 134
地铁 134
宪法 134
异@@ 134
总共 134
批评 134
核能 134
梅@@ 134
清@@ 134
生育 134
立@@ 134
管道 134
结局 134
综合 134
言@@ 134
酸 134
音频 134
食用 134
NASA 133
三天 133
个性化 133
临时 133
代@@ 133
优先 133
伤口 133
军事 133
冲 133
多人 133
室内 133
性格 133
暗示 133
最低 133
步 133
每秒 133
气泡 133
病@@ 133
监测 133
看成 133
竞赛 133
蓝 133
追寻 133
防@@ 133
难民营 133
非常复杂 133
19@@ 132
M 132
Y 132
使用者 132
八个 132
六年 132
共识 132
加快 132
古 132
叫@@ 132
向上 132
圆 132
广阔 132
我试 132
所用 132
次数 132
毛 132
沉浸 132
海平面 132
紫外线 132
经 132
运算 132
2005 131
j@@ 131
人际关系 131
俱乐部 131
停@@ 131
再说 131
凯@@ 131
十亿 131
压 131
叔叔 131
叙述 131
周期 131
品种 131
女子 131
始于 131
当代 131
快@@ 131
愿景 131
晚 131
枪支 131
核@@ 131
欧盟 131
比方说 131
求 131
湖 131
硬币 131
视@@ 131
这时候 131
这首 131
800 130
H 130
ar 130
ch@@ 130
不论是 130
九个 130
从前 130
党派 130
决心 130
医学院 130
发掘 130
同伴 130
商 130
复@@ 130
外科医生 130
寻常 130
导演 130
屋 130
带回 130
弦 130
强度 130
很感兴趣 130
把手 130
更少 130
有利 130
有太多 130
格斯 130
没关系 130
环绕 130
画家 130
目的地 130
简 130
锻炼 130
问@@ 130
魔法 130
ol@@ 129
x 129
为止 129
乘客 129
俩 129
六 129
兰@@ 129
养 129
切 129
受体 129
就@@ 129
尾巴 129
市中心 129
恶化 129
托@@ 129
报 129
旅途 129
暗物质 129
有毒 129
棕色 129
熟知 129
环节 129
瑞士 129
第一天 129
自动化 129
苏联 129
荒谬 129
通用 129
马丁 129
一点儿 128
七个 128
人有 128
修@@ 128
做个 128
光明 128
初@@ 128
命令 128
回归 128
圆@@ 128
大师 128
工业革命 128
并非如此 128
底下 128
思路 128
抗 128
抚养 128
报@@ 128
持有 128
村子 128
泰@@ 128
独一无二 128
珍贵 128
理所当然 128
石@@ 128
级别 128
虚假 128
表格 128
西部 128
解 128
诸如此类 128
财产 128
追溯到 128
青春期 128
预计 128
鼠 128
2016 127
GPS 127
ia 127
一款 127
上瘾 127
世 127
了@@ 127
优化 127
修 127
养@@ 127
军 127
几何 127
刚@@ 127
啤酒 127
回想 127
天然气 127
女孩子 127
好几个 127
对付 127
局限 127
建成 127
拿走 127
横@@ 127
洛@@ 127
物@@ 127
瘫痪 127
皆 127
立场 127
草@@ 127
装备 127
说起 127
颗粒 127
ic@@ 126
ie 126
ri@@ 126
乘 126
二战 126
五岁 126
传染病 126
向@@ 126
呃 126
团 126
声称 126
存 126
平静 126
引领 126
微@@ 126
战场 126
新生 126
曼哈顿 126
猜想 126
盐 126
盖 126
种族歧视 126
秩序 126
编@@ 126
转变成 126
首席 126
ad@@ 125
am@@ 125
一副 125
乌干达 125
产量 125
人来 125
伦 125
侵犯 125
味 125
善良 125
图形 125
帽子 125
引力 125
必然 125
情境 125
想想看 125
批准 125
找寻 125
接种 125
救援 125
时机 125
滥用 125
灯泡 125
牙 125
碰 125
粉丝 125
细@@ 125
胡@@ 125
脸书 125
膜 125
船上 125
说实话 125
陌生 125
除 125
额 125
首@@ 125
鼠标 125
2014 124
700 124
Z@@ 124
一百年 124
一门 124
个@@ 124
仪 124
关节 124
加密 124
合作伙伴 124
对不起 124
延续 124
心情 124
指责 124
提前 124
搜集 124
杯 124
校园 124
死刑 124
测序 124
烹饪 124
环 124
疑惑 124
盖@@ 124
福@@ 124
精神病 124
补充 124
诺@@ 124
起点 124
选民 124
键 124
长远 124
阐述 124
降落 124
X光 123
com 123
万物 123
上传 123
不适 123
何处 123
供给 123
修建 123
利亚 123
北 123
发给 123
大街 123
天文学家 123
太好了 123
头顶 123
威@@ 123
实行 123
山脉 123
捕捞 123
月份 123
瓶 123
盘 123
肠道 123
苍蝇 123
茶 123
议题 123
踏上 123
这使 123
这样的话 123
首都 123
120 122
4000 122
is@@ 122
主张 122
众所周知 122
众笑 122
低于 122
共鸣 122
化@@ 122
化合物 122
千 122
卷 122
压@@ 122
名单 122
垂直 122
埃塞俄比亚 122
好人 122
子宫 122
官方 122
属性 122
强有力 122
推荐 122
教训 122
极为 122
架构 122
毁 122
牧师 122
老年人 122
衰老 122
装饰 122
配@@ 122
问道 122
28 121
st@@ 121
三角形 121
不敢 121
不然 121
中来 121
之旅 121
二十世纪 121
元 121
出口 121
分支 121
史蒂夫 121
商人 121
啥 121
场合 121
当年 121
总体 121
拉丁美洲 121
无视 121
更进一步 121
杜@@ 121
查尔斯 121
泡沫 121
痕迹 121
美味 121
野生动物 121
零件 121
顶部 121
不曾 120
之地 120
低收入 120
加纳 120
吃掉 120
品质 120
哭泣 120
奥 120
少@@ 120
就是说 120
开源 120
强壮 120
微妙 120
捕获 120
支持者 120
有权 120
档案 120
欧@@ 120
火山 120
白天 120
紧急 120
纹身 120
膝盖 120
营销 120
语@@ 120
降到 120
雨 120
2006 119
ab@@ 119
一大 119
一股 119
中期 119
买@@ 119
停下 119
军@@ 119
前行 119
化疗 119
古希腊 119
吃饭 119
基督教 119
常@@ 119
库@@ 119
开采 119
当初 119
提及 119
易@@ 119
更长 119
查@@ 119
理@@ 119
知觉 119
羞耻 119
船@@ 119
花粉 119
解决办法 119
这部分 119
那会 119
防御 119
颠覆 119
鲨 119
250 118
9@@ 118
ra@@ 118
主持人 118
丽 118
公斤 118
劳@@ 118
包裹 118
卖@@ 118
可用 118
台上 118
坏消息 118
大致 118
小学 118
屋子里 118
巨@@ 118
币 118
年来 118
废物 118
微软 118
性行为 118
排名 118
新兴 118
服装 118
棘手 118
此刻 118
流行病 118
玩@@ 118
琳 118
秀 118
系列 118
细 118
考@@ 118
英寸 118
荷尔蒙 118
许可 118
贵 118
赫@@ 118
走廊 118
迁移 118
金枪鱼 118
驱使 118
17@@ 117
as 117
一百万 117
七 117
介入 117
初 117
厘米 117
唱歌 117
四种 117
因子 117
坚定 117
封面 117
屋子 117
崛起 117
带入 117
弹性 117
所见 117
指挥 117
指示 117
数年 117
核 117
氧 117
浓度 117
男士 117
皮层 117
简短 117
美国政府 117
而来 117
至于 117
苦@@ 117
荧光 117
行驶 117
证 117
赛@@ 117
跟随 117
转化成 117
辅助 117
遍 117
雪 117
or 116
the 116
三分之二 116
不但 116
不怎么 116
再生能源 116
右 116
壳 116
安置 116
带走 116
录制 116
慷慨 116
挪威 116
探究 116
潮 116
照@@ 116
用作 116
直至 116
着陆 116
移除 116
精@@ 116
组成部分 116
缓解 116
背@@ 116
胚胎 116
言 116
讲@@ 116
转动 116
这太 116
选@@ 116
难过 116
2013 115
911 115
le 115
一大堆 115
一页 115
不光 115
主角 115
义务 115
价 115
体型 115
共有 115
华@@ 115
卓越 115
卧室 115
吓 115
听听 115
喔 115
因@@ 115
担任 115
提示 115
收 115
断 115
果 115
果蝇 115
清除 115
特朗普 115
生物体 115
目 115
紧 115
经济体 115
绝不 115
罪 115
蓝@@ 115
蚊帐 115
议员 115
输出 115
进而 115
部长 115
雨水 115
震撼 115
om@@ 114
一杯 114
七年 114
上下 114
不在乎 114
亲自 114
从此 114
但@@ 114
住房 114
冠军 114
印刷 114
反应堆 114
外表 114
多元 114
奶酪 114
好多 114
它@@ 114
小男孩 114
就业 114
广播 114
应用程序 114
张@@ 114
弱 114
征服 114
得不到 114
感@@ 114
手工 114
揭露 114
旋律 114
无线电 114
明星 114
案子 114
棉花 114
理智 114
病菌 114
破 114
紧@@ 114
组建 114
老实 114
自私 114
视网膜 114
语音 114
车里 114
过后 114
远程 114
违反 114
长达 114
麦克 114
＂ 114
K 113
一番 113
不变 113
主管 113
人能 113
公路 113
养育 113
加热 113
参考 113
变量 113
四岁 113
回事 113
安慰 113
希@@ 113
引@@ 113
弟弟 113
排序 113
教给 113
断@@ 113
普及 113
更具 113
更高 113
有种 113
束缚 113
此类 113
毫米 113
注册 113
洗 113
演说 113
点儿 113
种族主义 113
纪录 113
统计数据 113
罗伯特 113
美洲 113
诉讼 113
那段 113
顶 113
2050 112
36 112
id@@ 112
一千@@ 112
一瞬间 112
一艘 112
三次 112
不仅如此 112
不起 112
举起 112
乱 112
仍旧 112
促成 112
升 112
名声 112
屠杀 112
强化 112
息息相关 112
恶劣 112
抗@@ 112
折纸 112
搭 112
施@@ 112
早餐 112
曲子 112
残忍 112
电子@@ 112
电线 112
直径 112
短片 112
维基百科 112
综合症 112
置于 112
聚@@ 112
肚子 112
肝脏 112
船只 112
荣誉 112
莉 112
讯息 112
该@@ 112
郊区 112
音@@ 112
题 112
鲸 112
麦克风 112
三十年 111
传送 111
借口 111
停车场 111
党 111
回头 111
因而 111
妈 111
威尔 111
季节 111
学位 111
定@@ 111
实用 111
审判 111
家具 111
岛上 111
彗星 111
忍受 111
指控 111
有机体 111
水母 111
照明 111
礼貌 111
突出 111
细微 111
肩膀 111
蒙@@ 111
解@@ 111
触发 111
边@@ 111
遗产 111
错觉 111
镜 111
阶层 111
领@@ 111
飞行员 111
一处 110
人脑 110
余@@ 110
债务 110
列@@ 110
创始人 110
升级 110
同等 110
呈 110
妥协 110
宗教信仰 110
宣称 110
封闭 110
就此 110
拼写 110
搞清楚 110
故意 110
春天 110
替换 110
有钱 110
王 110
球员 110
留 110
病症 110
种群 110
篇 110
线条 110
考验 110
艾 110
苦难 110
萤火虫 110
试@@ 110
运送 110
速 110
遗忘 110
长久 110
高达 110
es@@ 109
上百万 109
两条 109
主观 109
举手 109
令人震惊 109
偷@@ 109
关@@ 109
制造商 109
剧本 109
剧院 109
吸烟 109
响应 109
年内 109
总和 109
恐慌 109
排斥 109
旅游 109
无助 109
无形 109
桶 109
此时此刻 109
电路 109
神经科学 109
繁衍 109
臂 109
薄 109
虾 109
衣 109
贝尔 109
辨别 109
这能 109
阿拉伯语 109
餐馆 109
饥荒 109
･ 109
1960 108
2001 108
2004 108
29 108
Sh@@ 108
Twitter 108
假肢 108
偏@@ 108
停留 108
充足 108
关爱 108
冰层 108
几种 108
分为 108
列表 108
刚果 108
创办 108
加工 108
卡片 108
如下 108
左@@ 108
心想 108
恐怕 108
我读 108
招@@ 108
捕食者 108
数码 108
明智 108
来回 108
毒@@ 108
法语 108
洛 108
烧@@ 108
直播 108
磁场 108
种@@ 108
算@@ 108
线路 108
职位 108
肉眼 108
节省 108
英@@ 108
虚构 108
转换成 108
飞过 108
食@@ 108
高质量 108
m 107
ro@@ 107
亿美金 107
单元 107
压缩 107
可不 107
同行 107
寒冷 107
巨人 107
拿@@ 107
政权 107
无人 107
无疑 107
时会 107
月亮 107
海啸 107
烟@@ 107
电极 107
空白 107
立 107
立法 107
绝@@ 107
美的 107
羽毛 107
股票 107
脚@@ 107
足球 107
迈克尔 107
这套 107
送给 107
造就 107
霍@@ 107
20@@ 106
33 106
F 106
g 106
x@@ 106
两只 106
中风 106
举动 106
事务 106
云@@ 106
人道主义 106
令人惊叹 106
伦理 106
伸出 106
出错 106
医药 106
升高 106
古怪 106
吓人 106
吹@@ 106
商场 106
喜悦 106
喷@@ 106
嘲笑 106
土 106
多岁 106
实@@ 106
尽力 106
左 106
恩@@ 106
患病 106
愉悦 106
慢性 106
文献 106
暗@@ 106
棒极了 106
棒球 106
求@@ 106
波长 106
电子邮件 106
病情 106
第二种 106
线@@ 106
绿 106
蒂@@ 106
被动 106
词@@ 106
谈@@ 106
运 106
非暴力 106
鸿沟 106
2003 105
ac@@ 105
as@@ 105
一方 105
一笔 105
不禁 105
不管怎样 105
乔@@ 105
产@@ 105
侵入 105
去@@ 105
地去 105
大门 105
尊敬 105
已@@ 105
干旱 105
强制 105
感应 105
招募 105
挑战性 105
授权 105
支出 105
明年 105
星@@ 105
条@@ 105
核聚变 105
灰色 105
登陆 105
盲人 105
直观 105
税 105
耳@@ 105
脚步 105
论点 105
跑步 105
量子力学 105
问到 105
隧道 105
预@@ 105
man 104
上次 104
上课 104
临床试验 104
丹 104
乌@@ 104
伦@@ 104
冥想 104
冰箱 104
刚刚开始 104
刺 104
加以 104
厨师 104
反思 104
向下 104
周@@ 104
四分之一 104
土星 104
在外 104
夜 104
实质 104
尽@@ 104
尽管如此 104
废弃 104
彼得 104
意@@ 104
感动 104
持久 104
撒哈拉 104
本人 104
武装 104
毕业生 104
水里 104
洗@@ 104
瓶子 104
画画 104
痴迷 104
签署 104
脑子里 104
设法 104
诱惑 104
读@@ 104
课题 104
谈判 104
这笔 104
追@@ 104
问过 104
顶@@ 104
风景 104
CRISPR 103
ot@@ 103
乔 103
关掉 103
养殖 103
写出 103
剧 103
堆 103
多余 103
太大 103
孔 103
尽快 103
并不需要 103
弄@@ 103
打败 103
时空 103
注定 103
激动人心 103
爱尔兰 103
牛@@ 103
猎物 103
画作 103
直升机 103
肉@@ 103
虫子 103
补@@ 103
讲座 103
起诉 103
连接起来 103
野生 103
量化 103
铁 103
阶级 103
难度 103
雕像 103
饮料 103
首要 103
高于 103
85 102
un@@ 102
ur@@ 102
世界银行 102
亚历山大 102
低估 102
冲动 102
划分 102
反正 102
发音 102
右@@ 102
后悔 102
大厅 102
大屠杀 102
女生 102
孩童 102
定制 102
岛屿 102
干燥 102
录 102
总的来说 102
意味 102
数十年 102
星际 102
最先 102
最棒 102
有色人种 102
服务器 102
松@@ 102
楼梯 102
海藻 102
淹没 102
漏洞 102
煤炭 102
玩游戏 102
离@@ 102
第一种 102
等级 102
经济@@ 102
绳子 102
脖子 102
脱@@ 102
装满 102
见解 102
设 102
退化 102
那场 102
邦 102
雇员 102
鸡蛋 102
三明治 101
不好意思 101
二十@@ 101
亿个 101
令人@@ 101
侵蚀 101
兔子 101
创@@ 101
十个 101
占领 101
反过来 101
大人 101
尤 101
层@@ 101
当天 101
恰好 101
拖 101
旨在 101
明亮 101
曲 101
更快 101
曼@@ 101
替 101
残疾人 101
洪水 101
海里 101
科研 101
纪录片 101
羞辱 101
肯 101
至@@ 101
要花 101
角度看 101
负 101
起床 101
配对 101
酒精 101
陷阱 101
10@@ 100
N 100
li@@ 100
三件 100
下方 100
交通工具 100
亨利 100
人格 100
传 100
体育 100
坚强 100
坦白 100
失业 100
姑娘 100
嫉妒 100
少量 100
尺度 100
局面 100
帐篷 100
帕特 100
心碎 100
恰当 100
意识形态 100
指向 100
振动 100
换@@ 100
接纳 100
改@@ 100
每月 100
沙发 100
泥土 100
涂鸦 100
火灾 100
甲烷 100
目@@ 100
码 100
紫色 100
约束 100
群@@ 100
背 100
艾伦 100
草原 100
行不通 100
辆 100
运气 100
逃避 100
雪@@ 100
骆驼 100
骨@@ 100
鼓 100
1500 99
1990 99
ag@@ 99
ha@@ 99
一行 99
人性化 99
倾斜 99
划@@ 99
卢@@ 99
叙事 99
堂 99
夜@@ 99
对立 99
尖叫 99
崭新 99
性感 99
性能 99
收藏 99
数千 99
有意 99
末 99
树上 99
歌手 99
步@@ 99
水分 99
深层 99
犯错 99
现存 99
现金 99
留@@ 99
等同于 99
终身 99
绿@@ 99
股 99
色@@ 99
蚁 99
角@@ 99
运@@ 99
迷@@ 99
雨林 99
顶尖 99
42 98
ap@@ 98
一眼 98
世界观 98
乳房 98
以南 98
优点 98
使@@ 98
修正 98
储备 98
光谱 98
创造者 98
发言 98
听觉 98
喊 98
四周 98
因特网 98
在生活中 98
城市化 98
多于 98
富人 98
巧妙 98
所学 98
抉择 98
抗体 98
摄入 98
摄氏度 98
无意 98
树林 98
没用 98
灌输 98
犯人 98
终点 98
综合征 98
职责 98
联想 98
节点 98
诠释 98
迎接 98
近期 98
道歉 98
避开 98
队员 98
阿根廷 98
鲁 98
ul@@ 97
ut@@ 97
乘坐 97
人中 97
保健 97
出自 97
加利福尼亚 97
千年 97
千禧 97
半个 97
原住民 97
取消 97
喝@@ 97
圈子 97
墙壁 97
多巴胺 97
容器 97
帮@@ 97
并@@ 97
弹@@ 97
户 97
料 97
榜样 97
母@@ 97
泡泡 97
瑞@@ 97
监督 97
简@@ 97
粗@@ 97
精准 97
经@@ 97
编 97
群众 97
苏格兰 97
获胜 97
解开 97
触及 97
谨慎 97
逃跑 97
锁 97
青蛙 97
预言 97
48 96
ey 96
不满 96
乱@@ 96
人行道 96
伯 96
八年 96
几千年 96
区块 96
印@@ 96
叶子 96
国民 96
多元化 96
头盔 96
官 96
应付 96
度@@ 96
康@@ 96
恶@@ 96
护@@ 96
标@@ 96
民@@ 96
源自 96
灰@@ 96
电梯 96
病原体 96
眼神 96
穿@@ 96
组@@ 96
编织 96
舞者 96
虚拟现实 96
解剖 96
言语 96
访谈 96
还给 96
退出 96
重组 96
面对面 96
1980 95
David 95
amp 95
and@@ 95
em@@ 95
上演 95
交叉 95
像素 95
双 95
双胞胎 95
叫作 95
善@@ 95
士 95
密集 95
封 95
干嘛 95
平民 95
当地人 95
很久以前 95
意志 95
指引 95
智商 95
根@@ 95
歌唱 95
法院 95
浮现 95
祖父母 95
种族隔离 95
第一批 95
绝 95
罢了 95
而成 95
脊髓 95
自愿 95
谱 95
连结 95
饼 95
马拉松 95
16@@ 94
l 94
东部 94
丽@@ 94
五分钟 94
交通@@ 94
亲人 94
伤@@ 94
位数 94
佩@@ 94
养活 94
压迫 94
发挥作用 94
另一端 94
圣战 94
地狱 94
垫 94
城镇 94
夫妇 94
好看 94
实 94
容纳 94
察觉 94
岗位 94
布鲁克林 94
建@@ 94
开端 94
意想不到 94
摩@@ 94
最大化 94
有点儿 94
杯子 94
桑@@ 94
注重 94
淡水 94
温@@ 94
爱人 94
犹太 94
用以 94
真空 94
短缺 94
科幻小说 94
管理局 94
绑 94
落后 94
薪水 94
蘑菇 94
裂缝 94
说真的 94
货 94
货物 94
键盘 94
镇 94
阴@@ 94
院 94
雇主 94
John 93
and 93
中产阶级 93
中是 93
付钱 93
信件 93
先前 93
全职 93
共 93
几 93
勒@@ 93
北京 93
可惜 93
后期 93
吹 93
哥伦比亚 93
喂 93
图书 93
大脑皮层 93
女孩儿 93
往@@ 93
心跳 93
性爱 93
数十亿 93
新陈代谢 93
无人驾驶 93
杀手 93
每隔 93
毫不 93
牛顿 93
特人 93
病患 93
皮质 93
盖茨 93
盲目 93
知晓 93
碎 93
笔@@ 93
第三@@ 93
纠正 93
罐 93
老化 93
脉冲 93
营 93
葬礼 93
血压 93
觅食 93
设计者 93
退@@ 93
逃脱 93
麻醉 93
L 92
RNA 92
ig@@ 92
与否 92
丛林 92
东 92
中世纪 92
乌托邦 92
亲戚 92
例 92
储蓄 92
前额 92
印 92
启示 92
增@@ 92
大学生 92
太过 92
头条 92
字@@ 92
孙子 92
射击 92
尼亚 92
幼儿园 92
形@@ 92
挖 92
撰写 92
放慢 92
散 92
散@@ 92
族群 92
某@@ 92
校长 92
毒 92
水泥 92
泄露 92
海上 92
混凝土 92
瑞 92
男女 92
癫痫 92
百个 92
相遇 92
看做 92
祖国 92
第@@ 92
类别 92
绝大部分 92
耶稣 92
肺部 92
英格兰 92
诸多 92
这比 92
选手 92
选票 92
酱 92
陪 92
隐喻 92
食物链 92
An@@ 91
im@@ 91
r 91
to 91
一个个 91
一栋 91
一辈子 91
丢失 91
享有 91
供应链 91
冷却 91
删除 91
北方 91
十 91
去掉 91
史@@ 91
坏人 91
堡 91
复苏 91
客人 91
属 91
工程学 91
巧合 91
手势 91
投 91
推特上 91
推理 91
搞笑 91
摇滚 91
救助 91
朝鲜 91
模块 91
测 91
渔业 91
温和 91
灵长类 91
点燃 91
父 91
玛@@ 91
画出 91
白宫 91
盘@@ 91
研制 91
秃鹫 91
突触 91
第二点 91
胳膊 91
茨 91
菲@@ 91
赫拉 91
输 91
选出 91
钢@@ 91
马路 91
2017 90
am 90
ay 90
os@@ 90
世代 90
两件 90
乘以 90
保守派 90
偷 90
兵 90
几百年 90
即@@ 90
友善 90
商@@ 90
夏威夷 90
多样 90
子女 90
富 90
工业化 90
并用 90
微不足道 90
心理健康 90
总量 90
感恩 90
成效 90
敞开 90
早@@ 90
是非 90
有效率 90
木 90
杰@@ 90
柯@@ 90
横跨 90
次@@ 90
正当 90
波动 90
浮@@ 90
海盗 90
爱上 90
狂热 90
用水 90
着@@ 90
知@@ 90
私@@ 90
程序员 90
简称 90
粪便 90
累积 90
继承 90
而后 90
职 90
艾滋病毒 90
节@@ 90
表@@ 90
触 90
足@@ 90
踩 90
轻微 90
这栋 90
量@@ 90
长得 90
陈述 90
雨@@ 90
零@@ 90
香烟 90
鬼 90
默@@ 90
齐@@ 90
MIT 89
ic 89
一整天 89
万美金 89
交 89
借 89
其余 89
分泌 89
助理 89
卡尔 89
另一半 89
吉他 89
圆形 89
填满 89
墨水 89
外国 89
大于 89
婚礼 89
实力 89
宠物 89
平凡 89
应有 89
微 89
性欲 89
总部 89
惊@@ 89
抽@@ 89
拿来 89
敲 89
杀@@ 89
松 89
柏林 89
桌上 89
检察官 89
注视 89
海马 89
液 89
滑板 89
玩笑 89
直 89
相结合 89
真心 89
研究员 89
线性 89
花钱 89
莎 89
谷 89
费城 89
越过 89
过渡 89
野外 89
长寿 89
青@@ 89
骨架 89
令人激动 88
便会 88
兴起 88
内向 88
写@@ 88
制药 88
单个 88
博 88
去除 88
地下室 88
奴役 88
好了吗 88
孤单 88
居 88
山顶 88
开创 88
总有 88
情节 88
扎 88
散步 88
无力 88
最难 88
月经 88
木头 88
极具 88
根除 88
比率 88
沙子 88
流逝 88
爱德华 88
现 88
班@@ 88
生涯 88
眼光 88
秒钟 88
编写 88
胰岛素 88
脑子 88
脑细胞 88
自然而然 88
获益 88
讲台 88
请@@ 88
贩卖 88
路程 88
车子 88
辅导 88
逐步 88
配合 88
醒 88
Paul 87
V 87
os 87
丹麦 87
事先 87
何种 87
兆 87
全人类 87
公共卫生 87
分娩 87
否定 87
墨西哥湾 87
子弹 87
封@@ 87
帽 87
德里克 87
思@@ 87
想出 87
新加坡 87
施加 87
日益 87
易 87
汉堡 87
污染物 87
汽油 87
海外 87
海洋生物 87
游客 87
滑@@ 87
环@@ 87
登@@ 87
看清 87
稍 87
第二件 87
简洁 87
篇文章 87
纠结 87
莫 87
谜题 87
足迹 87
迁徙 87
远处 87
适应性 87
钟 87
静止 87
飞跃 87
骚扰 87
魔力 87
Mar@@ 86
ed@@ 86
ra 86
一批 86
丁 86
上周 86
与@@ 86
两人 86
中部 86
亲近 86
会为 86
低成本 86
农@@ 86
前后 86
即时 86
历程 86
压抑 86
双眼 86
可笑 86
合同 86
容忍 86
富@@ 86
将@@ 86
尖@@ 86
差@@ 86
底层 86
引进 86
忠诚 86
扎@@ 86
报酬 86
提交 86
无辜 86
汤 86
沃@@ 86
活在 86
混 86
玩乐 86
男生 86
留言 86
病房 86
直面 86
短短 86
碰巧 86
禁忌 86
章 86
粘@@ 86
纪念 86
经费 86
结 86
脚下 86
节约 86
衣@@ 86
认出 86
话语 86
贯穿 86
走到 86
躲 86
轮@@ 86
过多 86
逼 86
铁路 86
领先 86
饮用水 86
麦 86
b 85
一万@@ 85
中文 85
互@@ 85
亲 85
催产素 85
共和党 85
出名 85
分割 85
削弱 85
剩余 85
千米 85
发达 85
另一只 85
叫声 85
名人 85
吸入 85
地被 85
天花 85
头骨 85
客厅 85
寄生虫 85
对称性 85
寻@@ 85
将军 85
巴勒斯坦 85
年长 85
影子 85
很漂亮 85
心智 85
恰恰相反 85
战@@ 85
找@@ 85
换成 85
授予 85
数以千计 85
新奇 85
方@@ 85
智利 85
更深 85
木星 85
本土 85
沙滩 85
没人会 85
法规 85
测验 85
爱好者 85
生来 85
睡@@ 85
破解 85
硬@@ 85
碱基 85
肖像 85
自发 85
花朵 85
诺贝尔奖 85
贴@@ 85
赞同 85
跳动 85
适宜 85
部署 85
铅笔 85
题目 85
风能 85
高血压 85
+ 84
2030 84
31 84
BG 84
J 84
X@@ 84
ine 84
ir@@ 84
三岁 84
不可@@ 84
不见 84
世@@ 84
主宰 84
乐高 84
五十 84
佛@@ 84
偏好 84
八 84
减缓 84
分辨率 84
切实 84
切断 84
前线 84
加贝 84
图画 84
土著 84
圣 84
外星 84
大片 84
天使 84
头痛 84
夺走 84
导航 84
射 84
尼克 84
尾@@ 84
工作岗位 84
形势 84
影 84
快要 84
急@@ 84
我该 84
手腕 84
新生儿 84
无意识 84
更能 84
杀虫剂 84
柔软 84
欧 84
泄漏 84
流失 84
滚@@ 84
演 84
看一看 84
矮 84
砍伐 84
秘诀 84
穿梭 84
类@@ 84
缩短 84
肾脏 84
脑震荡 84
范畴 84
蜻蜓 84
行人 84
被困 84
观@@ 84
触动 84
认定 84
说谎 84
赶@@ 84
那片 84
高尔夫球 84
一会 83
万亿美元 83
不同寻常 83
冰岛 83
参@@ 83
吉姆 83
吞噬 83
大大 83
奖学金 83
奴隶制 83
如果说 83
孕育 83
容量 83
小事 83
德里 83
戏 83
所作所为 83
扫描仪 83
支@@ 83
故障 83
新西兰 83
日期 83
是否是 83
晶体管 83
朝@@ 83
模样 83
每人 83
没想到 83
涵盖 83
源头 83
火焰 83
特斯拉 83
王国 83
知名 83
离婚 83
糟 83
紧紧 83
脏 83
自由主义 83
莎士比亚 83
菌 83
藏@@ 83
被忽视 83
记载 83
谷物 83
财政 83
越大 83
追逐 83
隐形 83
面向 83
面试 83
香蕉 83
1.5 82
34 82
DB 82
ay@@ 82
et 82
不足以 82
与生俱来 82
两点 82
什 82
从那时起 82
侧 82
倡议 82
光子 82
养分 82
吉 82
品@@ 82
坦桑尼亚 82
多亏 82
多大 82
尺 82
归功于 82
忧虑 82
怪异 82
恐怖袭击 82
恨 82
戴@@ 82
手稿 82
提起 82
插@@ 82
摆在 82
文本 82
最坏 82
期@@ 82
未曾 82
条约 82
活动家 82
烟草 82
爷爷 82
物件 82
瓦尔 82
电视剧 82
盘子 82
瞧 82
第一条 82
策划 82
缺点 82
翻译成 82
起飞 82
身高 82
载@@ 82
透 82
针@@ 82
雅@@ 82
频道 82
2020 81
Car@@ 81
ers 81
od@@ 81
一圈 81
一英里 81
不用说 81
两组 81
严峻 81
亚特兰大 81
仿真 81
休@@ 81
传承 81
依@@ 81
做饭 81
停车 81
全美 81
六岁 81
切割 81
创业者 81
刺@@ 81
原子核 81
可悲 81
名词 81
地形 81
坟墓 81
大幅 81
少年 81
尖 81
必需 81
忽然 81
怪物 81
才华 81
拖@@ 81
杰克 81
清真寺 81
烧 81
独裁 81
知 81
礼拜 81
维尔 81
罪行 81
聊聊 81
肮脏 81
能为 81
致@@ 81
艰苦 81
若@@ 81
英国人 81
蜂 81
蟑螂 81
负责人 81
车上 81
软@@ 81
载 81
这本 81
这门 81
饱受 81
骗 81
2002 80
37 80
Al@@ 80
au@@ 80
f 80
z 80
三点 80
人种 80
估算 80
假定 80
免@@ 80
列出 80
化学反应 80
化学家 80
华尔街 80
发生变化 80
召集 80
告@@ 80
咬 80
嘴里 80
国外 80
地平线 80
塔利班 80
天文 80
夫妻 80
女权主义者 80
威廉 80
密切 80
局限于 80
引出 80
弗兰克 80
总理 80
恶魔 80
悖论 80
所有权 80
手册 80
手法 80
扔掉 80
批判 80
拍@@ 80
指望 80
探寻 80
推断 80
推移 80
摩托车 80
摩擦 80
政党 80
村 80
氨基酸 80
没事 80
治 80
治理 80
海域 80
渔民 80
灵@@ 80
照料 80
猩猩 80
生动 80
用处 80
癌 80
破碎 80
第三点 80
索马里 80
耐@@ 80
艺术作品 80
著 80
藻类 80
资格 80
赞美 80
轮子 80
进化论 80
闻到 80
阿波罗 80
降@@ 80
陪伴 80
飞翔 80
2018 79
55 79
W 79
oo@@ 79
sh@@ 79
上海 79
不必要 79
不远 79
专辑 79
举例来说 79
侮辱 79
倾@@ 79
共事 79
制品 79
加剧 79
动物园 79
助@@ 79
变换 79
名称 79
听力 79
大城市 79
姥 79
容 79
小提琴 79
山上 79
布什 79
常用 79
戈尔 79
手表 79
打断 79
支配 79
敬畏 79
有利于 79
李@@ 79
标识 79
树枝 79
核磁共振 79
步伐 79
每种 79
河@@ 79
洛克 79
浮游生物 79
清 79
灯@@ 79
狂@@ 79
畏惧 79
百分之一 79
盈利 79
磁@@ 79
程 79
自行 79
航空 79
蒸汽 79
觉 79
评判 79
谢@@ 79
质@@ 79
起源于 79
辛@@ 79
过量 79
还好 79
迷失 79
送@@ 79
非常容易 79
面孔 79
音调 79
1950 78
72 78
The 78
T恤 78
ad 78
oc@@ 78
p 78
一侧 78
一度 78
不住 78
丝@@ 78
两边 78
代谢 78
会面 78
传奇 78
作弊 78
动词 78
千个 78
含@@ 78
周五 78
多重 78
夜空 78
大选 78
开口 78
归 78
彩色 78
必@@ 78
恋爱 78
户外 78
拉里 78
拥挤 78
搞@@ 78
搬@@ 78
改 78
时不时 78
毒素 78
水域 78
海浪 78
现代化 78
琼斯 78
生产总值 78
电网 78
盟友 78
破产 78
筛选 78
粘 78
耗费 78
表述 78
西雅图 78
证书 78
语法 78
谜团 78
贵@@ 78
赞助 78
跑@@ 78
软 78
这群 78
锁定 78
限于 78
险 78
1970 77
47 77
6000 77
BF 77
Sp@@ 77
son 77
一下子 77
一辆车 77
主席 77
买卖 77
亚里士多德 77
仓库 77
令人吃惊 77
佛罗里达 77
假说 77
偏远 77
充电 77
公交车 77
别忘了 77
前方 77
动手 77
十万 77
升起 77
历史学家 77
史无前例 77
四天 77
基督徒 77
填@@ 77
境地 77
处方 77
孕妇 77
守@@ 77
安娜 77
定期 77
度假 77
座椅 77
开设 77
悲惨 77
愿 77
打赌 77
抬头 77
拓展 77
损坏 77
推翻 77
暴@@ 77
有创造力 77
束 77
查理 77
样品 77
毁掉 77
每日 77
气温 77
流入 77
潜意识 77
激起 77
热带 77
照射 77
爵士 77
牙@@ 77
特区 77
王子 77
益处 77
羞愧 77
视线 77
触觉 77
计 77
超新星 77
转型 77
透@@ 77
速率 77
重叠 77
钉 77
铺 77
随之而来 77
雄@@ 77
集会 77
顺@@ 77
首 77
2.5 76
ak@@ 76
op@@ 76
一丝 76
三角 76
不妨 76
业@@ 76
也门 76
众 76
入口 76
制造业 76
升@@ 76
占用 76
印度人 76
合并 76
名言 76
商业模式 76
喂养 76
嗅觉 76
地毯 76
坑 76
填充 76
夫人 76
孟买 76
安全性 76
完@@ 76
定罪 76
实实在在 76
家庭成员 76
师@@ 76
平方 76
开支 76
弥补 76
归@@ 76
归属感 76
怕 76
我敢 76
报导 76
抵御 76
插入 76
握 76
摸 76
教科书 76
旗帜 76
早些时候 76
服从 76
木材 76
机能 76
温柔 76
湾 76
电视台 76
砸 76
管子 76
警方 76
资讯 76
辩护 76
迈出 76
逃@@ 76
途中 76
酒@@ 76
附@@ 76
雷达 76
雾 76
露 76
音乐会 76
130 75
1999 75
= 75
c 75
og@@ 75
七岁 75
不利 75
两张 75
二进制 75
今后 75
住所 75
光学 75
分化 75
原谅 75
发动 75
变形 75
可卡因 75
叶@@ 75
哈佛大学 75
哥 75
唱@@ 75
回路 75
坚固 75
填补 75
大厦 75
天花板 75
宝@@ 75
密@@ 75
常态 75
平均值 75
废墟 75
怀特 75
把握 75
抽搐 75
提倡 75
旧@@ 75
曼德拉 75
村民 75
树懒 75
校@@ 75
毁灭性 75
氢 75
沉@@ 75
测@@ 75
涂@@ 75
版权 75
真诚 75
硬 75
第一年 75
第三种 75
精细 75
耗尽 75
胎儿 75
蒸发 75
蓝图 75
许许多多 75
请举手 75
读取 75
谴责 75
质子 75
过分 75
这要 75
递给 75
间接 75
阿尔@@ 75
飘@@ 75
ah 74
qu@@ 74
一倍 74
一对一 74
三十 74
三十@@ 74
伙计 74
伤心 74
伸@@ 74
信用卡 74
光速 74
公元前 74
共和国 74
关键在于 74
农作物 74
刀@@ 74
削减 74
剩 74
助手 74
势 74
历@@ 74
县 74
发短信 74
取而代之 74
口音 74
各处 74
含 74
回馈 74
坎@@ 74
埋 74
培养皿 74
壮观 74
宣扬 74
宿主 74
对面 74
影@@ 74
悲痛 74
戈@@ 74
折@@ 74
捕捉到 74
探@@ 74
撒 74
支架 74
效益 74
斯坦福 74
杂@@ 74
标 74
概括 74
正要 74
母 74
氢气 74
汉 74
洗手 74
深深地 74
热衷于 74
爱好 74
猜猜 74
王@@ 74
生命体 74
真是太 74
砖 74
稍@@ 74
第五 74
耳机 74
耶 74
联结 74
误导 74
负@@ 74
越南 74
路边 74
躲避 74
透露 74
门口 74
降临 74
需@@ 74
预料 74
颤抖 74
鸟儿 74
麻痹 74
鼓舞人心 74
1.@@ 73
38 73
ell 73
ou@@ 73
ter 73
ub@@ 73
一是 73
下雨 73
习俗 73
健康状况 73
充满活力 73
内心深处 73
减 73
几秒钟 73
包容性 73
史上 73
喜好 73
围栏 73
国际@@ 73
坚硬 73
天文学 73
妮 73
容@@ 73
峡谷 73
巴士 73
平时 73
怜悯 73
抗拒 73
挤 73
换个 73
排队 73
插 73
数值 73
新世界 73
景 73
板块 73
板球 73
果@@ 73
歌@@ 73
残@@ 73
每晚 73
汤@@ 73
沉重 73
浅@@ 73
烦恼 73
照相机 73
百分之@@ 73
百分比 73
眼里 73
等@@ 73
等式 73
累 73
终极 73
考察 73
耻辱 73
联邦政府 73
肥皂 73
舌头 73
英亩 73
著作 73
裤子 73
解剖学 73
说服力 73
读过 73
转折点 73
边上 73
银行家 73
降 73
雄 73
一阵 72
不太好 72
丑陋 72
两样 72
习惯于 72
人家 72
位@@ 72
信徒 72
倡导 72
值得注意 72
充分利用 72
充实 72
光合作用 72
免受 72
净 72
剪@@ 72
劳工 72
化学@@ 72
卵 72
发明家 72
台阶 72
围@@ 72
圣诞节 72
增大 72
大事 72
威 72
就行了 72
尽头 72
差点 72
座位 72
当选 72
悬崖 72
扫@@ 72
抬起 72
据说 72
收音机 72
旗 72
星体 72
未能 72
杆 72
枪@@ 72
歌剧 72
氏 72
民主党 72
求助 72
海拔 72
滑雪 72
照亮 72
牠 72
瑜伽 72
电视机 72
男孩子 72
疼 72
相对论 72
矩阵 72
立马 72
管理员 72
粗糙 72
绝妙 72
群落 72
老兵 72
职场 72
肉类 72
背叛 72
胸@@ 72
自然选择 72
血糖 72
补贴 72
被捕 72
观 72
走动 72
走来 72
起步 72
越来越少 72
迷 72
逆转 72
闪烁 72
间@@ 72
随处可见 72
顶级 72
麦当劳 72
齐 72
96 71
LED 71
av@@ 71
aw@@ 71
é 71
一千 71
万亿 71
不出 71
专业人士 71
世界@@ 71
两分钟 71
关怀 71
减@@ 71
半小时 71
单单 71
厌倦 71
友谊 71
发动机 71
后者 71
周年 71
大地 71
大洲 71
宣言 71
小东西 71
屁股 71
幸存 71
幸福感 71
当今世界 71
彻底改变 71
很强 71
拜托 71
指定 71
挺@@ 71
搞定 71
摇@@ 71
显现 71
极了 71
根本无法 71
橡胶 71
欺诈 71
此事 71
殖民 71
汗 71
没收 71
泡 71
泥@@ 71
涂 71
消亡 71
液态 71
滑 71
热带雨林 71
犹太教 71
独裁者 71
瑟 71
甘@@ 71
确诊 71
磁铁 71
神经网络 71
福 71
签名 71
管制 71
精灵 71
经受 71
考虑一下 71
肯尼迪 71
苦 71
草地 71
表层 71
计@@ 71
议程 71
诸位 71
责任感 71
账号 71
输@@ 71
迄今为止 71
选择性 71
通向 71
通知 71
革命性 71
顶峰 71
风力 71
骨髓 71
高出 71
鳄鱼 71
麻木 71
麻省理工学院 71
1998 70
98 70
ch 70
两岁 70
举例 70
书中 70
乳@@ 70
人力 70
人类学家 70
代表性 70
佛 70
假期 70
关押 70
几位 70
凭 70
出租车 70
击中 70
刻 70
前来 70
剧@@ 70
十岁 70
只好 70
各类 70
嘴巴 70
图标 70
圆圈 70
壮大 70
复活 70
外观 70
多达 70
宁 70
宝贝 70
导向 70
尤@@ 70
嵌入 70
布满 70
底@@ 70
开会 70
微博 70
扭转 70
承载 70
推销 70
摆 70
操作系统 70
放射性 70
斯坦 70
斯诺 70
更强 70
最高法院 70
林肯 70
柜 70
柱 70
歌声 70
步入 70
永不 70
浏览器 70
海面 70
淡@@ 70
灾难性 70
牢房 70
特技 70
特有 70
猛@@ 70
玩意儿 70
真实性 70
神经细胞 70
穆@@ 70
穷 70
窗口 70
笔记本 70
签 70
类比 70
精神分裂症 70
细小 70
美德 70
联@@ 70
胶 70
腐烂 70
致死 70
苏丹 70
营地 70
蜂巢 70
蜂蜜 70
行程 70
要点 70
论坛 70
近距离 70
这事 70
采@@ 70
阿瑟 70
露@@ 70
非营利 70
领 70
高层 70
高温 70
高等教育 70
鸟@@ 70
龙@@ 70
2500 69
44 69
EM 69
eg@@ 69
il 69
us@@ 69
一人 69
一双 69
一声 69
一百 69
之处 69
从那以后 69
众@@ 69
优美 69
何@@ 69
便@@ 69
修女 69
先知 69
共存 69
出门 69
动脉 69
华丽 69
印第安人 69
口号 69
古巴 69
囊 69
图中 69
外交 69
外来 69
太太 69
好笑 69
婚@@ 69
宏观 69
寂静 69
封信 69
射@@ 69
小于 69
平行 69
并不一定 69
幻@@ 69
弄清 69
弱点 69
折 69
抛@@ 69
抽烟 69
拼@@ 69
救赎 69
新颖 69
杀人 69
杂货店 69
标本 69
每一件 69
池 69
灰 69
献给 69
破坏性 69
破裂 69
示@@ 69
离子 69
素材 69
组件 69
绑架 69
脱 69
船长 69
莱 69
譬如 69
走神 69
越是 69
过得 69
配 69
镜片 69
阻挡 69
雕刻 69
馆 69
香@@ 69
高潮 69
魔@@ 69
at 68
um@@ 68
一幕 68
一棵 68
三位 68
三周 68
临@@ 68
主持 68
乌鸦 68
争@@ 68
亲身 68
仿生 68
传给 68
体温 68
便利 68
借@@ 68
借鉴 68
偏差 68
像@@ 68
公立学校 68
列举 68
十倍 68
十分之一 68
占@@ 68
反驳 68
另一面 68
号码 68
呈现出 68
喜@@ 68
噩梦 68
固有 68
基石 68
境内 68
士@@ 68
备@@ 68
外婆 68
太小 68
失控 68
奉献 68
奏效 68
安妮 68
审讯 68
尾 68
左侧 68
常识 68
广 68
广@@ 68
应激 68
弯@@ 68
急剧 68
总能 68
想得到 68
憎恨 68
挣 68
捐款 68
搞砸 68
撒@@ 68
敢 68
斯科特 68
无尽 68
曾@@ 68
未经 68
权衡 68
条款 68
极好 68
某处 68
根深蒂固 68
模特 68
橄榄球 68
欢乐 68
此处 68
氮 68
汀 68
洋@@ 68
流体 68
流量 68
消防员 68
深层次 68
混@@ 68
潮流 68
现如今 68
电台 68
痛@@ 68
真实世界 68
砰 68
祷告 68
章节 68
第四 68
粉 68
系@@ 68
约@@ 68
肥胖症 68
营@@ 68
董事会 68
西非 68
说唱 68
跟@@ 68
跨过 68
迈克 68
近乎 68
这辆 68
进食 68
闪@@ 68
预见 68
香 68
驱逐 68
魔鬼 68
鲍勃 68
黑帮 68
Ad@@ 67
ah@@ 67
ent@@ 67
it 67
上涨 67
不堪 67
主体 67
买下 67
保释金 67
冒犯 67
冷战 67
几百万 67
凯特 67
击败 67
刷 67
副@@ 67
原先 67
变性 67
叛逆 67
口味 67
可视化 67
合作者 67
喝彩 67
国家@@ 67
场地 67
基本@@ 67
墓地 67
天线 67
奇异 67
奇怪的是 67
女神 67
宏大 67
宝石 67
幼@@ 67
弹奏 67
待遇 67
思 67
感应器 67
我称 67
执行官 67
掩盖 67
摆@@ 67
数月 67
无害 67
无神论者 67
显@@ 67
有生之年 67
杀掉 67
漫@@ 67
牛津 67
牵@@ 67
生殖器 67
睡着 67
睾丸 67
稿 67
立体 67
笔记 67
第四个 67
纯 67
继续前进 67
老年 67
肺结核 67
自由@@ 67
获利 67
萧条 67
蜡烛 67
警察局 67
计算器 67
计算机@@ 67
认证 67
谈及 67
贪婪 67
转身 67
较大 67
配偶 67
野@@ 67
钻@@ 67
闭@@ 67
霍华德 67
非洲大陆 67
餐 67
黎巴嫩 67
43 66
46 66
Le@@ 66
ass@@ 66
ow@@ 66
一口气 66
一端 66
一顿 66
万名 66
不久前 66
不良 66
世界卫生组织 66
业余 66
之心 66
从未见过 66
价钱 66
作曲家 66
儿@@ 66
光源 66
公主 66
冷静 66
刑事 66
刻@@ 66
前沿 66
剑桥 66
医疗系统 66
压制 66
双腿 66
发觉 66
后续 66
哥本哈根 66
哪种 66
国旗 66
失调 66
好友 66
好转 66
尔斯 66
展 66
展@@ 66
岁月 66
崇拜 66
州长 66
布鲁诺 66
帕 66
庇护 66
微弱 66
心率 66
怪兽 66
我见 66
抑或 66
拼 66
指纹 66
捕食 66
摩 66
支 66
整天 66
方程 66
最少 66
有所不同 66
服务@@ 66
权@@ 66
标注 66
橙色 66
毒性 66
氛围 66
水流 66
活性 66
流通 66
海豹 66
渗透 66
渺小 66
灭 66
灵 66
烟雾 66
然@@ 66
片@@ 66
现@@ 66
球体 66
甜 66
电子设备 66
画廊 66
瘦 66
看电视 66
秋天 66
空调 66
章鱼 66
管理者 66
管用 66
粉色 66
系统性 66
细致 66
终@@ 66
统计学 66
肯@@ 66
胃 66
背上 66
腔 66
菲 66
蒙 66
虚拟世界 66
认@@ 66
话@@ 66
课@@ 66
车道 66
辛苦 66
述 66
迷惑 66
逃 66
遗传学 66
配方 66
重现 66
重生 66
针头 66
难以@@ 66
非常高兴 66
非盈利 66
饿 66
麻省理工 66
黏液 66
ec@@ 65
org 65
不受 65
两者之间 65
乐于 65
会以 65
住宅 65
使人 65
傻 65
公海 65
兼 65
再见 65
出乎意料 65
击@@ 65
剑 65
剥削 65
午夜 65
午饭 65
卡通 65
卵子 65
参数 65
友 65
同一时间 65
名义 65
善意 65
均 65
墙@@ 65
增长率 65
处理器 65
存@@ 65
孤儿院 65
宇宙飞船 65
安慰剂 65
完全相同 65
小小 65
尘 65
居@@ 65
幕 65
弗@@ 65
往前 65
微观 65
思索 65
感冒 65
感谢您 65
执法 65
投影 65
无关紧要 65
无声 65
无能为力 65
条例 65
柬埔寨 65
泰国 65
浅 65
漫步 65
特例 65
甚 65
电缆 65
福特 65
科学@@ 65
移@@ 65
管理@@ 65
糖果 65
纸张 65
聚合物 65
胡子 65
脊髓灰质炎 65
自由派 65
评级 65
踢 65
较@@ 65
违法 65
追随 65
遮@@ 65
闲@@ 65
韦@@ 65
马达 65
鸡@@ 65
Anderson 64
IBM 64
ir 64
一口 64
个人@@ 64
丹@@ 64
丹尼尔 64
为生 64
二维 64
交往 64
令人振奋 64
依照 64
克林顿 64
利比亚 64
割@@ 64
协同 64
南极洲 64
原有 64
后院 64
呼气 64
唤醒 64
坦诚 64
处@@ 64
大洋 64
天性 64
太高 64
对照 64
尿@@ 64
市@@ 64
式@@ 64
怀着 64
惊叹 64
打动 64
扼杀 64
抵制 64
指南 64
挡住 64
携手 64
摒弃 64
文档 64
旅馆 64
是@@ 64
月@@ 64
欲@@ 64
没见 64
洗衣机 64
流向 64
热门 64
狩猎 64
用药 64
眼球 64
社 64
科学界 64
税收 64
空间站 64
突@@ 64
窗 64
窗外 64
笼子 64
缩写 64
罚款 64
美食 64
胸部 64
致敬 64
虚@@ 64
衰退 64
装有 64
观众们 64
评@@ 64
谈一谈 64
象@@ 64
贝 64
迎来 64
遥控器 64
阴茎 64
颇 64
高峰 64
默认 64
97 63
DVD 63
Q 63
ant@@ 63
iz@@ 63
一连串 63
上空 63
下班 63
义 63
之多 63
亮@@ 63
人去 63
亿吨 63
伯格 63
信赖 63
做爱 63
充满希望 63
内疚 63
农 63
冰淇淋 63
减排 63
凭借 63
切除 63
剧场 63
博士学位 63
原油 63
吊@@ 63
同胞 63
咱们 63
四点 63
图上 63
外出 63
外形 63
奔跑 63
女王 63
委内瑞拉 63
安全感 63
客@@ 63
宽容 63
尘埃 63
庆幸 63
废除 63
建立联系 63
彩票 63
心血管 63
我想 63
打扰 63
找回 63
抹 63
捷径 63
握手 63
晚期 63
有罪 63
朱@@ 63
柏拉图 63
格林 63
正方形 63
残障 63
波浪 63
流传 63
混合物 63
港口 63
漂@@ 63
物资 63
狗@@ 63
甲 63
画布 63
百分之九十 63
盐@@ 63
短时间 63
矿物 63
社团 63
稍后 63
筹款 63
紧接着 63
纳粹 63
肥料 63
脸部 63
致 63
艾米 63
节能 63
荣耀 63
葡萄 63
袋子 63
裤 63
视作 63
视而不见 63
觉醒 63
警官 63
记忆力 63
贝多芬 63
质数 63
远比 63
远远不够 63
迫切 63
钻石 63
错@@ 63
闹 63
阿姨 63
顺着 63
预知 63
魔术师 63
0@@ 62
1984 62
1994 62
KB 62
ent 62
ib@@ 62
ion 62
一课 62
东京 62
举@@ 62
九年 62
书上 62
二者 62
任@@ 62
伴 62
假想 62
偏离 62
光亮 62
再也不会 62
冒@@ 62
写信 62
军人 62
冰冷 62
减弱 62
出行 62
剧烈 62
可信 62
史密斯 62
右侧 62
哈勃 62
响起 62
土豆 62
在读 62
埃隆 62
塞拉利昂 62
外向 62
外壳 62
大道 62
头衔 62
奖项 62
安全带 62
害虫 62
寄 62
弗 62
彩@@ 62
急 62
性别歧视 62
总而言之 62
我妈 62
所要 62
手套 62
抓@@ 62
抛 62
报警 62
拜 62
改良 62
数以百万计 62
晶体 62
暴行 62
本性 62
次方 62
毛病 62
毫无意义 62
永@@ 62
淀粉 62
淘汰 62
澄清 62
电动 62
电能 62
百 62
真主 62
磁共振 62
磷 62
社会@@ 62
纳入 62
终 62
缩@@ 62
老年痴呆症 62
联邦调查局 62
荒唐 62
药片 62
葡萄糖 62
血统 62
补助 62
败@@ 62
赤道 62
超人 62
进口 62
那张 62
降落伞 62
非正式 62
靠着 62
颜料 62
驾驶员 62
52 61
64 61
Ma@@ 61
一次性 61
不公 61
不复存在 61
义肢 61
九岁 61
五十年 61
五千 61
人用 61
你家 61
侧@@ 61
信条 61
凯文 61
出新 61
切换 61
创作者 61
叠 61
可口可乐 61
后退 61
吸毒 61
商业@@ 61
善 61
固体 61
娅 61
实习 61
家门 61
寄@@ 61
尼安德 61
广大 61
开销 61
念头 61
感性 61
房@@ 61
扣 61
扬 61
找个 61
抵消 61
挂@@ 61
指着 61
揭开 61
支柱 61
效 61
散布 61
旁白 61
时钟 61
服役 61
机率 61
杠杆 61
构思 61
标准化 61
样式 61
格子 61
桌 61
桌面 61
毁坏 61
民 61
民权运动 61
气氛 61
活生生 61
混淆 61
滑稽 61
电击 61
电源 61
看吧 61
碗 61
秘鲁 61
租 61
第一点 61
答应 61
箭头 61
网络@@ 61
脸@@ 61
被判 61
转基因 61
辉煌 61
辍学 61
进度 61
进攻 61
违背 61
通过观察 61
避孕 61
金星 61
锅 61
隐@@ 61
隔@@ 61
震@@ 61
面团 61
鼓@@ 61
鼻@@ 61
1995 60
54 60
Br@@ 60
ISIS 60
U 60
ang@@ 60
ker 60
一枚 60
一词 60
不太@@ 60
世间 60
事上 60
五种 60
产卵 60
仅仅只是 60
何方 60
停滞 60
决定性 60
划 60
刮@@ 60
功@@ 60
势@@ 60
勾@@ 60
匮乏 60
区@@ 60
卖掉 60
发酵 60
吐 60
商业化 60
四倍 60
国度 60
在此之前 60
地步 60
备受 60
复兴 60
失效 60
失落 60
奖金 60
奥秘 60
孟加拉国 60
学过 60
守 60
害 60
导@@ 60
少于 60
届 60
屋里 60
山羊 60
建筑学 60
开拓 60
异 60
当有 60
彩 60
得来 60
德克萨斯州 60
我以 60
投射 60
拆除 60
招聘 60
描写 60
救护车 60
新一代 60
昨晚 60
标志性 60
梦@@ 60
欧洲人 60
正常人 60
每件事 60
毛发 60
洗澡 60
活得 60
海吉 60
滚动 60
澳洲 60
牲畜 60
犹豫 60
狗狗 60
生物@@ 60
略@@ 60
疲劳 60
百年 60
直到现在 60
研究成果 60
祖@@ 60
第四@@ 60
简历 60
简易 60
米尔 60
粒 60
累@@ 60
纪念碑 60
考 60
而战 60
耳 60
耳蜗 60
耶@@ 60
背包 60
胖 60
胶@@ 60
艘 60
茶@@ 60
赶 60
辨识 60
透明度 60
造型 60
钱@@ 60
铜@@ 60
长久以来 60
闻名 60
霉菌 60
露出 60
韧性 60
饲料 60
香港 60
～ 60
Be@@ 59
Se@@ 59
X射线 59
ip@@ 59
ot 59
世人 59
丢掉 59
中等 59
人心 59
会谈 59
传来 59
作画 59
借此 59
做梦 59
再有 59
出身 59
单身 59
卖淫 59
占有 59
卷@@ 59
双向 59
双重 59
叠加 59
吓@@ 59
吸 59
周遭 59
固@@ 59
地域 59
垂@@ 59
堆积 59
失败者 59
女权主义 59
姆@@ 59
小伙子 59
带动 59
席卷 59
广义 59
座@@ 59
愈合 59
慢@@ 59
或多或少 59
截肢 59
拨@@ 59
拼图 59
推行 59
敌意 59
数百@@ 59
斗@@ 59
新药 59
暴力行为 59
最深 59
最长 59
标语 59
校 59
每位 59
沙丘 59
治疗师 59
津巴布韦 59
海伦 59
深信 59
灌溉 59
点亮 59
烂 59
熵 59
爪子 59
特色 59
狂 59
生殖 59
生活@@ 59
用品 59
留下来 59
略 59
看护 59
积木 59
空洞 59
竞争对手 59
糖分 59
红酒 59
线上 59
统治者 59
网格 59
翻转 59
胜@@ 59
胜过 59
脊椎 59
自恋 59
航天器 59
菲律宾 59
薄膜 59
蛛丝 59
衍生 59
规矩 59
诉说 59
谋@@ 59
跳跃 59
车库 59
软骨 59
过山车 59
还原 59
遗址 59
重返 59
闪光 59
除去 59
难受 59
集@@ 59
静@@ 59
饲养 59
鸽子 59
140 58
3.@@ 58
350 58
In@@ 58
Jo@@ 58
PTSD 58
de 58
iv@@ 58
一两个 58
一小块 58
一般来说 58
一首歌 58
上个世纪 58
上时 58
不得 58
中断 58
举报 58
书本 58
云层 58
亚伯拉罕 58
人类文明 58
介于 58
余生 58
佛教 58
修理 58
公共交通 58
出席 58
初衷 58
功夫 58
动荡 58
勉强 58
厅 58
反击 58
发放 58
变老 58
地球表面 58
地质 58
夏@@ 58
外科 58
奥运会 58
嫁给 58
家务 58
察觉到 58
寺庙 58
小屋 58
岩 58
并不认为 58
得分 58
德国人 58
慈善机构 58
扎克 58
抗药性 58
拇指 58
拖延 58
教育@@ 58
最能 58
期刊 58
栅栏 58
欢@@ 58
毋庸置疑 58
汇报 58
泥 58
派@@ 58
涌现 58
游说 58
激@@ 58
灰尘 58
甘地 58
甜@@ 58
用心 58
用过 58
皇家 58
看得见 58
稍稍 58
糖@@ 58
终止 58
绳索 58
脚趾 58
艰巨 58
节拍 58
范@@ 58
荡 58
葡萄牙 58
虔诚 58
蝴蝶 58
见识 58
观众席 58
论@@ 58
译注 58
诗@@ 58
调研 58
距 58
跨国 58
速@@ 58
酸@@ 58
鉴于 58
长方形 58
靠@@ 58
领土 58
饭 58
马修 58
黄 58
PM 57
一体 57
一到 57
两到 57
中立 57
串 57
享用 57
付给 57
会员 57
伤痛 57
体育@@ 57
信不信 57
光照 57
公元 57
内罗毕 57
冷冻 57
减速 57
初级 57
医学@@ 57
协定 57
卫生@@ 57
原创 57
及@@ 57
反之 57
取得成功 57
呼@@ 57
哥斯达黎加 57
噬菌体 57
团结起来 57
坦白说 57
城@@ 57
声波 57
天上 57
射线 57
尔特 57
尚 57
工艺 57
年底 57
废料 57
建筑@@ 57
当局 57
征@@ 57
德尔 57
戏剧性 57
打个比方 57
扰乱 57
招 57
捍卫 57
提案 57
摇摆 57
摩尔 57
改变现状 57
敢于 57
散播 57
有天 57
望@@ 57
极少 57
歌词 57
死者 57
每分钟 57
每时每刻 57
沃 57
沿 57
消@@ 57
演唱 57
瀑布 57
瓦解 57
生计 57
电邮 57
留意 57
疲惫 57
目击者 57
相似之处 57
省@@ 57
祝福 57
第一代 57
红杉 57
纯@@ 57
纸质 57
罩 57
置 57
羊@@ 57
耕种 57
莫扎特 57
营养不良 57
葡萄酒 57
螺旋 57
裙子 57
诅咒 57
谈起 57
贝拉 57
贾@@ 57
输送 57
过滤器 57
追溯 57
野蛮 57
铜 57
长长的 57
队友 57
雅典 57
非常低 57
餐@@ 57
高昂 57
鬼@@ 57
鸭子 57
10000 56
1996 56
68 56
900 56
92 56
ep@@ 56
ik@@ 56
of 56
um 56
一则 56
一瓶 56
万吨 56
不上 56
不介意 56
丝毫 56
乐谱 56
乘@@ 56
九 56
争吵 56
亲身经历 56
从何而来 56
仔细观察 56
会用 56
信奉 56
信用 56
借用 56
全息 56
八岁 56
共同努力 56
关上 56
出路 56
即可 56
历经 56
原材料 56
变小 56
召唤 56
台@@ 56
号召 56
各式各样 56
同类 56
向往 56
周日 56
品尝 56
喉咙 56
嘈杂 56
围着 56
坡 56
壁 56
复原 56
复发 56
外太空 56
大到 56
奶牛 56
学费 56
实例 56
导弹 56
局部 56
展出 56
左派 56
市场营销 56
布莱恩 56
年度 56
微粒 56
态 56
急需 56
性生活 56
成型 56
拉各斯 56
捕 56
排出 56
推文 56
摄取 56
摔倒 56
播 56
擦 56
方程式 56
无情 56
无趣 56
更换 56
柱子 56
栋 56
树叶 56
棉@@ 56
森@@ 56
欲 56
殖民地 56
母语 56
泵 56
海军 56
海岸线 56
涌入 56
深受 56
溶解 56
演变成 56
漫画家 56
潜入 56
爆@@ 56
爬@@ 56
牛仔裤 56
狭隘 56
环境保护 56
瓦特 56
界线 56
疯子 56
禁@@ 56
空气质量 56
童@@ 56
笑@@ 56
第一张 56
筹集 56
终将 56
绝佳 56
考古学家 56
肌 56
自我意识 56
自给自足 56
艇 56
芬@@ 56
警@@ 56
证人 56
评分 56
貘 56
贿赂 56
赖以生存 56
赫 56
跳伞 56
躯体 56
转而 56
追 56
遗@@ 56
都市 56
金融@@ 56
闪电 56
限度 56
隆@@ 56
面具 56
首领 56
骑@@ 56
骗局 56
1997 55
DH 55
_ 55
ob@@ 55
one 55
一看 55
上个月 55
不同之处 55
不太可能 55
丢弃 55
争辩 55
交织 55
传授 55
作战 55
保持沉默 55
做手术 55
公认 55
共生 55
击 55
制服 55
加利福尼亚州 55
劳 55
升温 55
华 55
卫生间 55
变动 55
右手 55
各不相同 55
吓坏 55
吞@@ 55
哮喘 55
唤起 55
场@@ 55
夜里 55
失踪 55
女朋友 55
季 55
宁愿 55
家庭暴力 55
寄给 55
小儿麻痹症 55
小朋友 55
尖锐 55
尿液 55
建模 55
开办 55
往常 55
忍不住 55
思绪 55
悬浮 55
戈 55
扭动 55
技术@@ 55
技术人员 55
护照 55
授粉 55
掌@@ 55
掠夺 55
控制@@ 55
放射 55
放进去 55
效力 55
救@@ 55
数百个 55
新奥尔良 55
方方面面 55
暴乱 55
最差 55
权益 55
极端主义 55
树立 55
汇集 55
流动性 55
清洗 55
温 55
湿地 55
演@@ 55
灌@@ 55
火星车 55
牌子 55
玩意 55
珠宝 55
生命周期 55
画像 55
盲@@ 55
相片 55
瞄准 55
碳@@ 55
磨@@ 55
科学技术 55
稳@@ 55
站立 55
第三方 55
精密 55
纽约州 55
绕@@ 55
绝不会 55
罐子 55
菲利普 55
行得通 55
行政 55
袭 55
记录下来 55
论证 55
设@@ 55
诱人 55
说不定 55
诺曼 55
谋生 55
负面影响 55
费曼 55
赞 55
超能力 55
轰@@ 55
这篇 55
里克 55
附着 55
隔 55
预先 55
预示 55
飞天 55
高压 55
鹅 55
14@@ 54
180 54
Jim 54
Re@@ 54
Richard 54
Z 54
ing@@ 54
io 54
ud@@ 54
一个点 54
一封信 54
一束 54
一棵树 54
久@@ 54
之大 54
二十 54
亲吻 54
今@@ 54
仰望 54
伊丽莎白 54
会长 54
修补 54
健全 54
入手 54
共产主义 54
兹@@ 54
初始 54
制定者 54
化身 54
医@@ 54
号@@ 54
周六 54
回避 54
圈@@ 54
坏@@ 54
塞尔 54
夜间 54
大吃一惊 54
奥地利 54
好吃 54
孤儿 54
学业 54
安全@@ 54
富含 54
就业机会 54
尼古丁 54
尼斯 54
局势 54
工程@@ 54
市区 54
平板 54
并发症 54
幻肢 54
店里 54
德州 54
怀有 54
性取向 54
悬@@ 54
手掌 54
报复 54
拔@@ 54
拜@@ 54
拼命 54
振奋人心 54
搬到 54
撕裂 54
放心 54
政 54
政府部门 54
教徒 54
散发 54
断裂 54
景色 54
智 54
服刑 54
村里 54
杰夫 54
枪击 54
核电站 54
汇聚 54
汉@@ 54
池塘 54
泛@@ 54
泽@@ 54
浴室 54
海湾 54
海量 54
清晨 54
渴求 54
湖泊 54
源泉 54
灵活性 54
烂@@ 54
猜@@ 54
生死 54
瘾君子 54
眼泪 54
礼@@ 54
社会性 54
穿透 54
站@@ 54
紊乱 54
红线 54
结果表明 54
绕过 54
继续下去 54
绳 54
自家 54
节日 54
芬 54
衬衫 54
讨论一下 54
谈过 54
责怪 54
路德 54
车站 54
轰炸 54
过世 54
邮箱 54
鉴定 54
隔绝 54
雇用 54
高风险 54
鹿 54
齿 54
49 53
88 53
Ar@@ 53
OK 53
Uber 53
da 53
uc@@ 53
w 53
一提 53
一时 53
一晚 53
一滴 53
一秒钟 53
上台 53
不可或缺 53
不难 53
乐团 53
事后 53
井@@ 53
什@@ 53
伸展 53
供应商 53
保密 53
倒塌 53
倒退 53
偏向 53
做不了 53
偶数 53
光滑 53
兵@@ 53
其一 53
内存 53
冲浪 53
冷漠 53
冻@@ 53
刊登 53
判决 53
利比里亚 53
刹车 53
刻板 53
功能性 53
加仑 53
加深 53
劲 53
印记 53
口中 53
咖啡馆 53
咬@@ 53
地想 53
地里 53
坐标 53
婚 53
孙女 53
少女 53
尼泊尔 53
尿 53
度量 53
急诊室 53
总有一天 53
恰@@ 53
惯例 53
感同身受 53
打扮 53
抛开 53
拉丁 53
按下 53
挑 53
挡 53
探险家 53
攀爬 53
政@@ 53
教义 53
数个 53
斯特@@ 53
新闻报道 53
无用 53
无穷 53
既有 53
日复一日 53
曝光 53
服@@ 53
本应 53
棵 53
欢呼声 53
止@@ 53
武力 53
民族主义 53
水准 53
水质 53
沃尔玛 53
注射器 53
浓缩 53
浸@@ 53
潜水器 53
烤 53
犬 53
献@@ 53
琴 53
田 53
百分之百 53
空气污染 53
筒 53
纵@@ 53
纹 53
肺癌 53
舒@@ 53
艺术@@ 53
艾瑞克 53
融资 53
行事 53
袜子 53
解脱 53
许多年 53
走近 53
超大 53
身材 53
返@@ 53
迫害 53
逃逸 53
逊 53
避难所 53
重心 53
钢铁 53
钱包 53
银@@ 53
问题所在 53
雅 53
面纱 53
音量 53
驾驭 53
0.@@ 52
87 52
all@@ 52
ley 52
yn@@ 52
・ 52
一线 52
三条 52
不为人知 52
不感兴趣 52
互联 52
仁慈 52
仅@@ 52
保卫 52
信息技术 52
先锋 52
八十年代 52
八字胡 52
再用 52
冰山 52
凑@@ 52
创 52
别处 52
办公 52
十足 52
半数 52
协商 52
单细胞 52
发电厂 52
呼 52
四肢 52
埃里克 52
境界 52
多一点 52
多得多 52
天主教 52
孔@@ 52
宝 52
害羞 52
小规模 52
尼尔 52
山谷 52
幼虫 52
异议 52
得益于 52
总数 52
惧怕 52
惹 52
我本 52
扮演着 52
抗抑郁 52
抢@@ 52
挤压 52
接口 52
推向 52
敌 52
斜@@ 52
无法控制 52
易于 52
晚宴 52
曲@@ 52
水管 52
沉迷于 52
波兰 52
洒 52
洗手间 52
浪费时间 52
海洛因 52
海龟 52
消逝 52
潜艇 52
热烈 52
特效 52
犯下 52
现成 52
珍惜 52
班级 52
番茄酱 52
疏远 52
神庙 52
突尼斯 52
立方体 52
精神@@ 52
纷纷 52
练 52
经前 52
罗斯福 52
美学 52
老虎 52
联网 52
自然资源 52
舞@@ 52
落下 52
蜣螂 52
许 52
译者 52
误差 52
请问 52
豪@@ 52
负担得起 52
赞成 52
跨@@ 52
身旁 52
轮廓 52
运到 52
造出 52
里斯 52
金额 52
阳性 52
阵营 52
餐桌 52
鲍@@ 52
7000 51
86 51
Co@@ 51
Tom 51
gt 51
iPad 51
一大群 51
一家人 51
一月 51
一条线 51
世界级 51
争夺 51
伏 51
供电 51
依 51
侵害 51
元件 51
先驱 51
克隆 51
入狱 51
全身心 51
净化 51
函数 51
切片 51
初步 51
加沙 51
医保 51
十九世纪 51
博弈 51
卡特 51
去往 51
叉 51
发誓 51
叛@@ 51
史诗 51
同性 51
听从 51
吸取 51
周围环境 51
命@@ 51
和解 51
四十年 51
大学毕业 51
太快 51
奥林匹克 51
好坏 51
娜塔莎 51
对外 51
工会 51
己 51
布料 51
平均寿命 51
年初 51
年级 51
幸运地 51
废@@ 51
延迟 51
廷 51
开发者 51
张力 51
心怀 51
忙碌 51
怒 51
性工作者 51
恋 51
悲观 51
慈悲 51
抢 51
抱负 51
抽 51
按@@ 51
挫折 51
振奋 51
排泄物 51
摆动 51
摔跤 51
支离破碎 51
收费 51
效@@ 51
数据@@ 51
更难 51
本该 51
杀戮 51
杰作 51
板@@ 51
楼@@ 51
气概 51
沸腾 51
治@@ 51
法学院 51
活下去 51
流血 51
潜@@ 51
熟 51
狄@@ 51
球队 51
琢磨 51
生化 51
电脑@@ 51
百科全书 51
盛@@ 51
目录 51
相互@@ 51
碰@@ 51
社会学家 51
稀有 51
端粒 51
笨 51
精心 51
纸片 51
维多利亚 51
罪恶 51
翻倍 51
翼 51
肝 51
股东 51
能比 51
脑电波 51
航@@ 51
草图 51
草坪 51
莎拉 51
菜单 51
角落里 51
说些 51
谦卑 51
责备 51
账单 51
赞扬 51
走开 51
跟上 51
踏@@ 51
辞职 51
边缘化 51
过往 51
远不止 51
退 51
造福 51
遗体 51
遗迹 51
郡 51
金融危机 51
钞票 51
钻 51
铭记 51
阿拉斯加 51
附加 51
降解 51
陪审团 51
集成 51
雇 51
雌 51
饮用 51
马斯克 51
骗子 51
41 50
51 50
CD 50
FDA 50
age 50
一千年 50
一排 50
下车 50
不清 50
专心 50
世纪末 50
中年 50
为主 50
久远 50
乡下 50
买单 50
五天 50
些许 50
人口@@ 50
人想 50
休 50
传导 50
修正案 50
债 50
充@@ 50
光芒 50
入睡 50
公共@@ 50
关节炎 50
典范 50
内涵 50
写成 50
几百个 50
刻意 50
去向 50
参议院 50
双臂 50
受试者 50
另@@ 50
可乐 50
哥伦布 50
售卖 50
团@@ 50
城里 50
堆@@ 50
境 50
处决 50
奥斯卡 50
宏伟 50
定居 50
实物 50
对策 50
小到 50
展现出 50
带回家 50
干涉 50
平和 50
幸好 50
应急 50
废水 50
开普勒 50
弱势 50
强暴 50
必不可少 50
志愿 50
恐吓 50
恶 50
成品 50
战后 50
战役 50
所作 50
披萨 50
抱@@ 50
抽取 50
持@@ 50
指甲 50
搭档 50
教书 50
斯坦福大学 50
普尔 50
最让人 50
朗@@ 50
极小 50
查询 50
格尔 50
殆尽 50
汇@@ 50
汲取 50
没人能 50
没想 50
沼泽 50
浪 50
淡化 50
深渊 50
焚烧 50
煤 50
熟练 50
片断 50
理应 50
电影院 50
相邻 50
碎@@ 50
禽流感 50
积@@ 50
竞争力 50
竞争者 50
精美 50
结果显示 50
给@@ 50
缘 50
耗@@ 50
耶路撒冷 50
能源消耗 50
脂 50
范例 50
莱斯特 50
读完 50
谦逊 50
贫民区 50
起义 50
越发 50
较为 50
遇上 50
遍及 50
邻里 50
都@@ 50
重新@@ 50
阴谋 50
阻力 50
］ 50
# 49
59 49
67 49
8000 49
94 49
Mat@@ 49
ard 49
if@@ 49
ly 49
ton 49
一团 49
一团糟 49
一整套 49
七十年代 49
不动 49
不定 49
不起作用 49
两百万 49
主人公 49
举措 49
习 49
乳腺 49
付费 49
会议室 49
信息@@ 49
候@@ 49
假象 49
偷走 49
全体 49
全国性 49
六十年代 49
写给 49
决@@ 49
准 49
几百@@ 49
力气 49
加勒比海 49
务@@ 49
动员 49
十多年 49
半岛 49
南美 49
历史性 49
发型 49
喝酒 49
囚禁 49
国际象棋 49
地中海 49
地向 49
坦@@ 49
堂@@ 49
壁画 49
大国 49
大奖 49
大火 49
夹@@ 49
好似 49
孟加拉 49
实地 49
宽恕 49
尔德 49
尽全力 49
年复一年 49
建了 49
开着 49
开罗 49
开除 49
弯 49
必定 49
性交 49
怪@@ 49
我爱你 49
所在地 49
据@@ 49
提名 49
搜索引擎 49
摇晃 49
星盘 49
暴力事件 49
最最 49
未必 49
某天 49
样@@ 49
框 49
民间 49
气息 49
汁 49
流域 49
港 49
演讲时 49
炎 49
炎热 49
熟@@ 49
犯@@ 49
痛恨 49
相近 49
着眼于 49
神经学家 49
第二条 49
简而言之 49
粉@@ 49
素@@ 49
纳税人 49
而生 49
联络 49
至上 49
航空@@ 49
舱 49
苏 49
萎缩 49
蠕虫 49
衣物 49
语气 49
说来 49
赛车 49
起因 49
载荷 49
迈@@ 49
迟到 49
配置 49
面貌 49
音乐厅 49
预料到 49
首个 49
高空 49
鸣@@ 49
［ 49
1989 48
2.@@ 48
En@@ 48
Instagram 48
Q@@ 48
ev@@ 48
iPod 48
ian 48
ta 48
一秒 48
一米 48
一致性 48
一阵子 48
三到 48
东方 48
中子 48
之情 48
乐观主义 48
书里 48
他用 48
传染性 48
侧面 48
保姆 48
做生意 48
偶像 48
光纤 48
克莱@@ 48
公约 48
共和党人 48
共性 48
兽医 48
凉 48
北极熊 48
匠 48
医用 48
十二 48
发病 48
取悦 48
只想 48
叮咬 48
吐@@ 48
告 48
喀@@ 48
四次 48
困 48
国会议员 48
地雷 48
垄断 48
埋葬 48
堵塞 48
多长时间 48
大不了 48
太久 48
失误 48
头疼 48
夹 48
好得多 48
字符 48
字节 48
室外 48
家庭@@ 48
寒@@ 48
小岛 48
尽情 48
布局 48
常说 48
年幼 48
庄稼 48
应得 48
底线 48
建构 48
建起 48
开放式 48
引人注目 48
强力 48
录取 48
征兆 48
心扉 48
忘掉 48
思想家 48
性命 48
打字 48
扬@@ 48
投放 48
捡 48
换言之 48
控制权 48
摄影机 48
摸索 48
收购 48
攻克 48
映射 48
晚@@ 48
本世纪 48
杂耍 48
正因如此 48
毅力 48
比利 48
汽车@@ 48
海绵 48
深奥 48
温哥华 48
湿 48
烤箱 48
煮 48
片子 48
猴 48
球鞋 48
生产率 48
甲@@ 48
电信号 48
登记 48
盗@@ 48
知情 48
突破性 48
竟 48
等候 48
篝火 48
篮球 48
纽 48
纽带 48
组织者 48
结核病 48
维生素 48
缺@@ 48
美观 48
老龄化 48
聚 48
肠 48
背部 48
背面 48
腰 48
自我@@ 48
自然@@ 48
苹果公司 48
莉莉 48
获@@ 48
蕴含 48
解码 48
计算机科学 48
贵族 48
赶紧 48
越高 48
转过身 48
轻轻 48
迈阿密 48
这辈子 48
进到 48
迷思 48
逐@@ 48
避@@ 48
那才 48
部@@ 48
重申 48
长出 48
阐明 48
防 48
阿姆斯特丹 48
集中营 48
韵律 48
骑士 48
高中生 48
魔 48
1900 47
93 47
Am@@ 47
George 47
SK 47
ace 47
ast@@ 47
ow 47
ure 47
一串 47
一千个 47
一岁 47
一旁 47
丁@@ 47
上层 47
世俗 47
东非 47
两大 47
严谨 47
临近 47
主权 47
乡@@ 47
亲眼 47
人要 47
仿制 47
传粉 47
余下 47
佩戴 47
停顿 47
兰花 47
共用 47
册 47
军官 47
农田 47
加大 47
加速器 47
动摇 47
努@@ 47
医护人员 47
十五年 47
十几岁 47
喂食 47
坚@@ 47
塑料袋 47
夏季 47
大面积 47
太阳光 47
女友 47
字面 47
完完全全 47
宽@@ 47
小狗 47
展品 47
峰值 47
巢 47
左手 47
幕后 47
干脆 47
开辟 47
强子 47
彩虹 47
待@@ 47
徘徊 47
微积分 47
忍@@ 47
忙于 47
快感 47
情报 47
想不到 47
戴上 47
打个 47
抽出 47
捏 47
捕@@ 47
据估计 47
播出 47
收养 47
攻@@ 47
放映 47
政治@@ 47
文艺复兴 47
族人 47
时速 47
暴风雨 47
服饰 47
本杰明 47
极高 47
查克 47
梅 47
楼房 47
毫无@@ 47
泪水 47
漩涡 47
潮湿 47
爬行 47
父@@ 47
牙医 47
牛肉 47
环形 47
玻璃@@ 47
电器 47
电影@@ 47
病毒感染 47
痢疾 47
登录 47
百分之八十 47
皮质醇 47
相比之下 47
相符 47
矿@@ 47
研究院 47
碳水化合物 47
示范 47
稳定性 47
竭尽全力 47
紧迫 47
红外线 47
绩效 47
维修 47
胜 47
航 47
花上 47
薪资 47
虎@@ 47
虚弱 47
血清素 47
街@@ 47
要花费 47
解雇 47
言论自由 47
谢 47
贬低 47
赢家 47
超乎 47
跳过 47
迈向 47
迫不及待 47
适@@ 47
选中 47
通话 47
那好 47
酋长 47
酮 47
长相 47
门前 47
门槛 47
问卷 47
除@@ 47
难得 47
雏形 47
静 47
静态 47
领地 47
马桶 47
黑白 47
黛@@ 47
56 46
58 46
66 46
At@@ 46
Bill 46
CT 46
DJ 46
JC 46
Mc@@ 46
Pl@@ 46
SW 46
Ted 46
ation 46
ha 46
he@@ 46
sp@@ 46
​ 46
一夜 46
一扇 46
上市 46
不知所措 46
不经意 46
丑闻 46
专栏 46
严@@ 46
义@@ 46
书呆子 46
事关 46
交响乐 46
人类学 46
优@@ 46
会花 46
会计 46
传遍 46
伪装 46
侄女 46
俄@@ 46
倒下 46
催化剂 46
儿时 46
冒出来 46
出轨 46
别说 46
到位 46
化学成分 46
半径 46
印尼 46
召开 46
吻 46
圣保罗 46
场面 46
埋@@ 46
天呐 46
奈@@ 46
奎@@ 46
套@@ 46
威力 46
安全套 46
审@@ 46
宾@@ 46
对准 46
尚@@ 46
尝 46
左撇子 46
布置 46
庇护所 46
异性恋 46
彼此之间 46
往后 46
很久 46
很早 46
德语 46
所指 46
报社 46
拆 46
捕猎 46
推迟 46
掷 46
摩尔定律 46
撕@@ 46
改成 46
故乡 46
数以万计 46
数学@@ 46
数据分析 46
文物 46
斯蒂芬尼 46
无与伦比 46
无可@@ 46
无所谓 46
无效 46
智@@ 46
替代品 46
果树 46
某件事 46
树脂 46
档 46
棍子 46
概@@ 46
欠 46
欧元 46
死后 46
殴打 46
毒害 46
氯@@ 46
污@@ 46
法律@@ 46
泰勒 46
洞@@ 46
海边 46
激增 46
炸@@ 46
烧掉 46
猎@@ 46
猎鹰 46
猪@@ 46
玛利亚 46
生产商 46
用力 46
用法 46
痊愈 46
登月 46
研讨会 46
礼 46
祝 46
神殿 46
神父 46
种族灭绝 46
穷@@ 46
竹子 46
箭 46
署 46
肺@@ 46
脱欧 46
腐@@ 46
自然环境 46
艾滋 46
营养@@ 46
薄@@ 46
西藏 46
解析 46
谜 46
贾 46
赛鲁士 46
蹦@@ 46
轮胎 46
轻而易举 46
这间 46
远古 46
远见 46
违@@ 46
迷宫 46
送入 46
那有 46
那样的话 46
都行 46
酗酒 46
重症 46
铅 46
问世 46
院子 46
难忘 46
预想 46
预约 46
颅骨 46
领养 46
频@@ 46
食谱 46
高中毕业 46
鱼群 46
---- 45
1945 45
Me@@ 45
Th@@ 45
Youtube 45
ana 45
ell@@ 45
ina 45
ma 45
― 45
一堵 45
不已 45
不来 45
不能@@ 45
不至于 45
两千 45
为期 45
争执 45
五分之一 45
人均收入 45
人时 45
人脸 45
众神 45
会变 45
会场 45
伽利略 45
便捷 45
俗 45
保险@@ 45
倘若 45
公交 45
六月 45
兴@@ 45
冯 45
凝聚 45
几十亿 45
几点 45
分发 45
十分钟 45
半年 45
华氏度 45
卖出 45
反向 45
可控 45
史蒂芬 45
告别 45
呐喊 45
商家 45
国界 45
国籍 45
图景 45
圣诞 45
在历史上 45
均衡 45
坦 45
型@@ 45
城市@@ 45
增多 45
声响 45
夏 45
外套 45
大使 45
天真 45
夸@@ 45
夸大 45
好几年 45
实话 45
导 45
局限性 45
层楼 45
屏障 45
展望 45
年时 45
广告@@ 45
弓 45
张开 45
弱势群体 45
很糟 45
得出结论 45
思想@@ 45
意料 45
所得 45
手术室 45
批判性 45
拉丁语 45
拷贝 45
掠 45
搭配 45
操@@ 45
攀岩 45
改写 45
故@@ 45
教皇 45
数量级 45
於 45
昏迷 45
春@@ 45
显示器 45
暗喻 45
更多地 45
最强 45
有位 45
朗 45
村落 45
柏@@ 45
查找 45
桑 45
每条 45
毫秒 45
永久性 45
永生 45
法国人 45
流浪 45
液态水 45
游泳池 45
滚 45
满是 45
漏 45
灭亡 45
牢固 45
狭窄 45
玫瑰 45
电子产品 45
电荷 45
电话号码 45
百分之五十 45
百分之十 45
盛行 45
直立 45
矿物质 45
神经@@ 45
稳固 45
穿行 45
童 45
第三次 45
第二年 45
约旦 45
纽@@ 45
终生 45
老年痴呆 45
考量 45
肆虐 45
胆@@ 45
能用 45
航班 45
菌丝 45
营造 45
衰竭 45
触碰 45
警示 45
订@@ 45
订阅 45
识 45
课本 45
谢天谢地 45
谦虚 45
财@@ 45
赌 45
赤@@ 45
起伏 45
越来越快 45
转到 45
转过 45
运动@@ 45
这层 45
这组 45
这话 45
迪斯尼 45
造影 45
那晚 45
采纳 45
野心 45
金子 45
银河 45
闲置 45
阶梯 45
阿里 45
难怪 45
霍乱 45
顶层 45
顿@@ 45
马车 45
鼻 45
1991 44
Ab@@ 44
Em@@ 44
Linux 44
NB 44
Netflix 44
Par@@ 44
Steve 44
ity 44
三角洲 44
下定决心 44
不易 44
不知情 44
不谈 44
丑 44
东欧 44
两名 44
丧生 44
之快 44
乏味 44
乡 44
从未有过 44
以防 44
伍@@ 44
伏@@ 44
优质 44
作出反应 44
俄亥俄州 44
保持联系 44
保险公司 44
信封 44
债券 44
偏爱 44
偷偷 44
元@@ 44
光是 44
克勒斯 44
免于 44
冰块 44
几小时 44
凡 44
分心 44
创新者 44
务 44
半夜 44
原子弹 44
变大 44
叠@@ 44
右派 44
喝咖啡 44
坚韧 44
基层 44
堕胎 44
塔西 44
增 44
壁虎 44
大家庭 44
大猩猩 44
太晚 44
奢侈 44
奥斯@@ 44
室友 44
对撞机 44
峰 44
巢穴 44
工作@@ 44
工匠 44
己@@ 44
巴厘岛 44
帮派 44
平流层 44
店@@ 44
废弃物 44
延@@ 44
归类 44
律@@ 44
怎么着 44
悲@@ 44
惨@@ 44
我成 44
戴着 44
手语 44
才@@ 44
扎根 44
扔进 44
托尼 44
执政 44
拉斯 44
拽 44
挫败 44
掌管 44
接管 44
摩西 44
收回 44
敏捷 44
教学@@ 44
新闻@@ 44
方向盘 44
普里 44
暴动 44
有何 44
有所作为 44
木板 44
末期 44
机关 44
来得 44
栖息 44
格式 44
棍 44
椅 44
此后 44
残暴 44
民意调查 44
沿@@ 44
洋葱 44
浪潮 44
涨 44
溜@@ 44
煤@@ 44
熊@@ 44
片刻 44
特意 44
生命危险 44
痒 44
相关性 44
真人 44
着火 44
移居 44
税@@ 44
窒息 44
端@@ 44
算出 44
类固醇 44
约翰逊 44
纵观 44
置身于 44
老婆 44
老爸 44
耐克 44
育@@ 44
能以 44
自然灾害 44
自问 44
船员 44
艰辛 44
花生 44
莱特 44
菜园 44
蒂姆 44
蓬勃发展 44
行进 44
表皮 44
西亚 44
规模化 44
解放出来 44
计数 44
诱因 44
貌似 44
赶到 44
超声波 44
踏入 44
迷恋 44
逆转录 44
避孕套 44
邮@@ 44
配备 44
酸奶 44
钩 44
链条 44
降雨 44
难以想象 44
非同寻常 44
鞋@@ 44
顿悟 44
领悟 44
风险投资 44
驾车 44
鲜花 44
麻@@ 44
.. 43
1968 43
76 43
83 43
91 43
Dan 43
De@@ 43
GK 43
MA@@ 43
RM 43
Robert 43
TK 43
ew@@ 43
ick 43
id 43
ug@@ 43
一号 43
一夜之间 43
一粒 43
不丹 43
不带 43
不起眼 43
不道德 43
业绩 43
东南亚 43
中东地区 43
举止 43
之力 43
之际 43
乔纳森 43
书店 43
亚瑟 43
仍会 43
付款 43
代理 43
休假 43
似 43
但愿 43
体外 43
余 43
傲慢 43
先天 43
全程 43
兽 43
准@@ 43
出人意料 43
初创 43
制片人 43
印度尼西亚 43
卷入 43
厚@@ 43
参照 43
发明者 43
变性人 43
古典 43
另一组 43
台词 43
右翼 43
同感 43
向外 43
启迪 43
哈里 43
器械 43
四分之三 43
回声 43
坠入 43
墨@@ 43
壁垒 43
大不相同 43
大大的 43
夫@@ 43
奥克 43
奶 43
姿态 43
婚外情 43
存活率 43
学期 43
学术界 43
安德烈 43
完好 43
官僚 43
宜居 43
审核 43
家属 43
密切相关 43
小麦 43
屏 43
巧 43
年老 43
归根结底 43
性骚扰 43
情愿 43
我画 43
扇 43
承@@ 43
抓狂 43
挺身而出 43
撞@@ 43
敏锐 43
数学模型 43
旁@@ 43
旗子 43
日语 43
景@@ 43
更让人 43
本科 43
杰 43
枯燥 43
树干 43
汉密尔顿 43
污水 43
沙特阿拉伯 43
沼泽地 43
涌 43
渔场 43
游动 43
漆黑 43
火花 43
点钟 43
牡蛎 43
猎人 43
瑟@@ 43
甲虫 43
白血病 43
百万@@ 43
百分之二十 43
皇后 43
知识产权 43
硅 43
神经学 43
科技@@ 43
稀缺 43
穆罕默德 43
第一份 43
第一台 43
籍 43
精通 43
维基 43
育儿 43
胃@@ 43
胆固醇 43
能活 43
膝 43
自称 43
良@@ 43
英国@@ 43
莉@@ 43
落到 43
葬 43
虽 43
螃蟹 43
观察者 43
触@@ 43
讲解 43
诗意 43
该死 43
请来 43
跑道 43
载体 43
连在一起 43
迫切需要 43
迷茫 43
追随者 43
退伍军人 43
逆@@ 43
遵从 43
铀 43
银 43
长成 43
长者 43
闹@@ 43
阳@@ 43
限 43
陨石 43
零下 43
颠倒 43
飞到 43
飞速 43
首相 43
马特 43
马里 43
鲜@@ 43
麦迪逊 43
110 42
160 42
3.5 42
360 42
Gr@@ 42
Wal@@ 42
ak 42
ef@@ 42
hi 42
lt 42
ov@@ 42
ry 42
ve 42
一百个 42
三大 42
三维空间 42
下沉 42
不应 42
专业知识 42
中心@@ 42
乃至 42
云彩 42
互助 42
亮度 42
会上 42
伯克利 42
佩奇 42
俄国 42
光年 42
军方 42
出乎 42
分形 42
刑 42
初次 42
制止 42
制造者 42
剪刀 42
力度 42
劫@@ 42
危@@ 42
友@@ 42
反面 42
口语 42
可兰经 42
可见光 42
呼叫 42
咀嚼 42
和平@@ 42
器材 42
图里 42
城区 42
城堡 42
外科手术 42
多地 42
够@@ 42
大米 42
失 42
头巾 42
夺@@ 42
奔@@ 42
子孙 42
学着 42
审美 42
宫 42
宾 42
尖端 42
州政府 42
市郊 42
幕@@ 42
平均水平 42
开阔 42
很近 42
得主 42
心思 42
忙@@ 42
急救 42
惊恐 42
愈发 42
感到恐惧 42
抢劫 42
挤@@ 42
捐 42
捐献 42
捐赠者 42
换取 42
掌权 42
控制器 42
提炼 42
携带者 42
摄像 42
摔@@ 42
擦@@ 42
收取 42
教条 42
敲@@ 42
斑 42
斗 42
方形 42
旅@@ 42
晋升 42
普通@@ 42
有的是 42
木偶 42
枚 42
梯子 42
检@@ 42
模拟器 42
母乳 42
水位 42
水龙头 42
沥青 42
泡@@ 42
液@@ 42
深夜 42
湖@@ 42
满怀 42
漫画书 42
灾 42
炎症 42
爆 42
状物 42
率@@ 42
环境@@ 42
环球 42
瓶颈 42
生机 42
用尽 42
电场 42
疯@@ 42
监听 42
相关联 42
相爱 42
看重 42
矿 42
社会变革 42
祈求 42
稀@@ 42
空地 42
第二次世界大战 42
篇章 42
精致 42
紫@@ 42
经济衰退 42
缩减 42
罪@@ 42
罪魁祸首 42
美军 42
考古 42
耐药性 42
肌@@ 42
肺炎 42
肾上腺素 42
胜出 42
荒@@ 42
菌落 42
薪 42
蛋@@ 42
蛮 42
蝙蝠侠 42
螺旋桨 42
街角 42
规@@ 42
触角 42
警惕 42
认罪 42
论者 42
词是 42
谋 42
谷@@ 42
货架 42
路面 42
跳出 42
迎@@ 42
进出 42
远方 42
迹 42
遥控 42
重构 42
金色 42
链@@ 42
长官 42
间隔 42
隆 42
隐秘 42
霍金 42
非常明显 42
音乐@@ 42
顶上 42
顽固 42
馆长 42
香味 42
香水 42
骂 42
高尔夫 42
鲜明 42
鳍 42
黑板 42
SETI 41
end@@ 41
ore 41
ter@@ 41
一个多 41
万能 41
不敢相信 41
不管怎么 41
与世隔绝 41
专用 41
个人化 41
个案 41
串@@ 41
乌克兰 41
乎 41
也好 41
习以为常 41
产生共鸣 41
亲切 41
人工@@ 41
人死于 41
以内 41
伯特 41
似@@ 41
侵略 41
充气 41
关键点 41
减肥 41
出发点 41
分校 41
切开 41
刷牙 41
刺猬 41
前途 41
办@@ 41
办到 41
功课 41
劳作 41
勇士 41
十分@@ 41
危及 41
即便如此 41
厚度 41
参议员 41
反恐 41
受邀 41
可疑 41
可言 41
各个方面 41
合法化 41
启蒙 41
哈哈 41
喜 41
园@@ 41
坠落 41
域 41
塑@@ 41
塞进 41
大喊 41
太难 41
妓女 41
妨碍 41
姓名 41
威尼斯 41
字眼 41
宁静 41
守卫 41
完全正确 41
完美主义 41
害@@ 41
对照组 41
封锁 41
尔顿 41
岩洞 41
岸 41
崇高 41
希特勒 41
希腊人 41
当事人 41
很想 41
心底 41
怀抱 41
性关系 41
惊异 41
感谢上帝 41
截@@ 41
手头 41
拍下 41
挖@@ 41
探访 41
摆弄 41
攀登 41
改动 41
效仿 41
数千年 41
斯基 41
新书 41
日记 41
时间段 41
有待 41
有所@@ 41
服药 41
机械@@ 41
构架 41
格伦 41
植被 41
止 41
残骸 41
气流 41
汇款 41
法西斯主义 41
流感病毒 41
滋养 41
濒危 41
热点 41
照看 41
牙买加 41
牢 41
狼@@ 41
猎杀 41
珍视 41
生态学 41
用手 41
百万美元 41
相乘 41
相较 41
真切 41
短语 41
砍@@ 41
硅@@ 41
福音 41
科索沃 41
租@@ 41
称@@ 41
空虚 41
空隙 41
穿戴 41
笑容 41
第二步 41
答 41
答复 41
粉碎 41
红树林 41
纤维素 41
结晶 41
维京 41
缺 41
罗宾 41
置@@ 41
职@@ 41
联 41
胯部 41
胰腺癌 41
胶囊 41
脊椎动物 41
脏@@ 41
脱节 41
腹泻 41
芬兰 41
花掉 41
虫@@ 41
蜗牛 41
血流 41
表演者 41
被告 41
西红柿 41
诡异 41
资@@ 41
赞@@ 41
赶上 41
起身 41
跃@@ 41
转发 41
辣@@ 41
辨认 41
达拉斯 41
追赶 41
逆境 41
透明化 41
通货膨胀 41
造访 41
那本书 41
铺@@ 41
错失 41
长期以来 41
闪亮 41
闻@@ 41
陶@@ 41
障碍物 41
顺从 41
食堂 41
骨折 41
53 40
57 40
CO@@ 40
Cl@@ 40
Wikipedia 40
ill 40
ke 40
上午 40
不合理 40
不计其数 40
专制 40
两侧 40
丹尼 40
之久 40
之初 40
互相@@ 40
五倍 40
亲眼目睹 40
人文 40
付诸行动 40
代数 40
伊朗人 40
休闲 40
伞 40
传教士 40
低下 40
体育馆 40
做起 40
充当 40
先是 40
共处 40
写过 40
几十@@ 40
几张 40
几百万年 40
凶@@ 40
出柜 40
出版社 40
分工 40
刑@@ 40
别无选择 40
加油站 40
加重 40
动力学 40
十月 40
千万@@ 40
半球 40
卓@@ 40
发电机 40
取样 40
受精 40
古兰经 40
可不可以 40
可行性 40
叹为观止 40
各州 40
各行各业 40
各项 40
吉尔 40
名片 40
后方 40
呕吐 40
周一 40
哈姆雷特 40
哩 40
唔 40
喷射 40
团结一致 40
圆柱 40
坍塌 40
塞内加尔 40
大幅度 40
失业率 40
夸克 40
奇数 40
奥克兰 40
好几@@ 40
好象 40
字母表 40
官@@ 40
实现目标 40
宽度 40
射杀 40
小球 40
就行 40
尸@@ 40
层级 40
帕特里克 40
幼稚 40
开枪 40
引 40
往返 40
微米 40
忧郁 40
快点 40
总监 40
恶意 40
我先 40
打招呼 40
打猎 40
执@@ 40
把戏 40
拍手 40
拍打 40
拥护 40
拦截 40
按时 40
握@@ 40
摸@@ 40
支援 40
支票 40
收拾 40
放学 40
敌@@ 40
新泽西州 40
日历 40
时才 40
更有意义 40
更近 40
本国 40
染料 40
栏 40
核弹 40
格言 40
模@@ 40
比作 40
民主化 40
沿海 40
注@@ 40
洋 40
洋流 40
浪@@ 40
消融 40
点头 40
熄灭 40
状@@ 40
獾 40
珠 40
电路板 40
男朋友 40
界定 40
疏@@ 40
瘤 40
知之甚少 40
石油@@ 40
示 40
神灵 40
积极分子 40
突发 40
窝 40
竞技场 40
签@@ 40
算术 40
纠缠 40
约瑟夫 40
缘故 40
翁 40
肿 40
胎 40
胜任 40
腺 40
腾@@ 40
膀胱 40
自大 40
艺 40
苏珊 40
荷@@ 40
莎@@ 40
蚁穴 40
蜂群 40
行者 40
表亲 40
西伯利亚 40
计划生育 40
讯 40
记下 40
识字 40
诊 40
读到 40
谚语 40
路过 40
跳进 40
运河 40
这根 40
连接体 40
透镜 40
那块 40
那座 40
里根 40
钍 40
错综复杂 40
镇@@ 40
阐释 40
阳台 40
阴蒂 40
阻@@ 40
阻断 40
陆@@ 40
陈旧 40
饭@@ 40
饱@@ 40
马尔代夫 40
高管 40
黏@@ 40
默 40
00@@ 39
1800 39
1975 39
39 39
4.@@ 39
71 39
82 39
84 39
JA 39
PV 39
RS 39
Thomas 39
Tr@@ 39
Wh@@ 39
mer 39
ust@@ 39
wh@@ 39
一万 39
一个半 39
一个男孩 39
一趟 39
三分钟 39
不准 39
不朽 39
两面 39
个州 39
中毒 39
之手 39
乌贼 39
乙醇 39
九月 39
五万 39
人口数量 39
人造卫星 39
人间 39
介@@ 39
付@@ 39
仙@@ 39
优步 39
住@@ 39
体检 39
假新闻 39
偏执 39
具@@ 39
具体来说 39
养成 39
再度 39
冰山一角 39
冲破 39
准确性 39
切成 39
列车 39
利用@@ 39
前列腺癌 39
前去 39
剪辑 39
十一月 39
千万别 39
南美洲 39
参军 39
合格 39
同性恋者 39
同龄人 39
后台 39
否 39
咖啡厅 39
嘴@@ 39
嘴唇 39
器@@ 39
圆点 39
地盘 39
外围 39
外行星 39
大峡谷 39
大赛 39
大都 39
太少 39
头绪 39
奖赏 39
好极了 39
存放 39
安定 39
小姐 39
就象 39
属@@ 39
州@@ 39
左上角 39
巧@@ 39
布拉 39
平原 39
平方英尺 39
平稳 39
幻象 39
废品 39
开发@@ 39
弃 39
张纸 39
弹簧 39
徒 39
循环系统 39
志@@ 39
怪人 39
息 39
悲哀 39
情侣 39
成因 39
成群 39
战术 39
扣@@ 39
扯 39
技艺 39
抓取 39
投身 39
拉伸 39
拥有者 39
按键 39
挑@@ 39
挠 39
振@@ 39
捐助 39
探 39
推崇 39
攻读 39
数十@@ 39
文化背景 39
日志 39
有色 39
杏仁核 39
条纹 39
极地 39
架子 39
格外 39
格雷 39
梁 39
正向 39
正视 39
民权 39
汗@@ 39
泛滥 39
洞察 39
流离失所 39
流行病学 39
测试@@ 39
浓@@ 39
游荡 39
湿@@ 39
滴@@ 39
灵光 39
焦虑症 39
照相 39
牛仔 39
犯罪率 39
环绕着 39
现代人 39
甜甜 39
生产@@ 39
甲状腺 39
的@@ 39
省下 39
看得 39
砖块 39
硫化氢 39
碟 39
磨 39
称赞 39
窄 39
笛子 39
笨重 39
精髓 39
纳米比亚 39
纸巾 39
织@@ 39
经济危机 39
给我发 39
维亚 39
维系 39
网民 39
耗时 39
肠@@ 39
股@@ 39
胸 39
脊 39
舍 39
艾斯克 39
菜@@ 39
蓝鲸 39
蝾螈 39
行为@@ 39
衰落 39
裂 39
观赏 39
试试看 39
说完 39
诸@@ 39
诺顿 39
调动 39
货车 39
贫瘠 39
购物中心 39
超级计算机 39
趋@@ 39
路易斯 39
身体健康 39
辞@@ 39
这些年来 39
这名 39
这头 39
这段话 39
连线 39
适应能力 39
酷@@ 39
酸化 39
重获 39
铃 39
销 39
销量 39
锁@@ 39
镇上 39
镇压 39
间隙 39
陈@@ 39
集群 39
零售商 39
风筝 39
飞越 39
驻 39
高尚 39
鸡肉 39
麦片 39
1993 38
Bar@@ 38
CA@@ 38
El@@ 38
Har@@ 38
IT 38
Joel 38
Mon@@ 38
Peter 38
ack 38
are 38
art 38
eb@@ 38
est 38
ive 38
ne@@ 38
ym@@ 38
一无所有 38
一步步 38
万分 38
万种 38
三百万 38
下台 38
下滑 38
下落 38
不对劲 38
世界末日 38
两难 38
严厉 38
临床实验 38
主任 38
丽莎 38
乐曲 38
事例 38
价格@@ 38
企图 38
伤疤 38
伪造 38
健@@ 38
充实感 38
兆瓦 38
光波 38
克里@@ 38
克里斯托弗 38
入学 38
关注点 38
其为 38
冰盖 38
决策者 38
冻结 38
凯 38
出狱 38
分解成 38
券 38
前一天 38
加州大学 38
动人 38
勤@@ 38
匈牙利 38
医 38
十字路口 38
千万美元 38
协@@ 38
卫生保健 38
印度河 38
却说 38
历史@@ 38
原地 38
友情 38
反响 38
口技 38
向着 38
咨询师 38
咳嗽 38
哈利 38
喜剧演员 38
嘉@@ 38
土卫六 38
圣诞老人 38
坦克 38
塑料@@ 38
塔拉 38
壁@@ 38
复合 38
多一些 38
多伦多 38
大腿 38
失聪 38
奥威尔 38
奶@@ 38
好运 38
娱乐@@ 38
孕@@ 38
存款 38
季@@ 38
守护 38
实质性 38
实验者 38
尤为 38
屈@@ 38
屏蔽 38
屑 38
履行 38
山峰 38
岸边 38
巩固 38
带我去 38
平权 38
序 38
废 38
弗斯 38
弗洛伊德 38
强硬 38
快餐 38
急性 38
恒@@ 38
恰巧 38
想念 38
成就感 38
成瘾 38
我俩 38
我国 38
打碎 38
把@@ 38
报名 38
拆@@ 38
拆开 38
拉比 38
拥护者 38
持续性 38
捷@@ 38
控 38
揭晓 38
放出 38
数百万年 38
整 38
无条件 38
易懂 38
晚饭 38
更多人 38
最受 38
最底层 38
朝向 38
本领 38
权势 38
材质 38
果实 38
某一 38
染 38
标示 38
格局 38
案@@ 38
植@@ 38
槽 38
此地 38
毒液 38
毕生 38
气管 38
氢@@ 38
氦 38
沃森 38
河里 38
油漆 38
活儿 38
活到 38
浩瀚 38
滴 38
潜伏 38
炫耀 38
烦 38
牌@@ 38
牙刷 38
特洛伊 38
理疗 38
琐碎 38
瓜@@ 38
生产者 38
生物科技 38
疗效 38
疗程 38
百万年 38
皇帝 38
皮革 38
盲 38
知识分子 38
码头 38
离去 38
稀释 38
窃取 38
竞技 38
粗鲁 38
纷@@ 38
纸上 38
网状 38
老式 38
老旧 38
耗 38
脱落 38
腹部 38
自传 38
航天飞机 38
蓝光 38
蕾 38
蠢@@ 38
表达方式 38
装载 38
西海岸 38
警 38
警报 38
证@@ 38
评论家 38
试点 38
读写 38
调和 38
贾丝婷 38
起舞 38
超重 38
辛 38
过敏 38
近来 38
迪士尼 38
迷因 38
退学 38
道夫 38
邻居们 38
重拾 38
降温 38
随时随地 38
隔壁 38
雌@@ 38
零售 38
须 38
颠覆性 38
飞快 38
麽 38
1200 37
78 37
Bl@@ 37
II 37
James 37
MRI 37
Michael 37
Rob@@ 37
ai 37
all 37
art@@ 37
ate 37
ber@@ 37
ica 37
ist@@ 37
oun@@ 37
quot 37
up@@ 37
一亿 37
一成不变 37
下周 37
下潜 37
不便 37
世界纪录 37
丙@@ 37
个人信息 37
丽贝卡 37
九十年代 37
买不起 37
二十几岁 37
二月 37
云端 37
亚利桑那州 37
人体@@ 37
人际 37
任何事物 37
体液 37
便于 37
保 37
倭 37
催生 37
傻@@ 37
全力 37
公共场合 37
公开@@ 37
冬季 37
净@@ 37
减小 37
减慢 37
凝视 37
几千个 37
凶手 37
凸@@ 37
出版商 37
分手 37
列为 37
剥@@ 37
募集 37
匹兹堡 37
十五 37
单调 37
卫@@ 37
原生 37
反感 37
发病率 37
受够了 37
只花 37
可塑性 37
味@@ 37
哥@@ 37
哥白尼 37
唾液 37
坚守 37
塑料瓶 37
填写 37
外国人 37
多万 37
太远 37
奴 37
姓 37
定理 37
宣告 37
寨 37
对错 37
小家伙 37
小米 37
小船 37
小路 37
就会 37
局@@ 37
峰会 37
市场@@ 37
常数 37
常理 37
康 37
弓@@ 37
往下 37
徒步 37
心理@@ 37
怀@@ 37
态@@ 37
性暴力 37
恐惧症 37
悬挂 37
我常 37
戒指 37
战火 37
手机@@ 37
扑@@ 37
打架 37
扪心自问 37
扯@@ 37
抹@@ 37
指挥官 37
挥舞 37
挨饿 37
推动力 37
撒哈拉沙漠 37
改编 37
敬@@ 37
文化@@ 37
斯密 37
斯汀 37
无休止 37
无时无刻 37
无穷无尽 37
无线电波 37
时所 37
时段 37
晒 37
晶石 37
最酷 37
末端 37
本意 37
机密 37
柔性 37
检测器 37
检视 37
水池 37
法令 37
波斯尼亚 37
洁净 37
测绘 37
浮动 37
消退 37
演唱会 37
炉 37
烤@@ 37
独有 37
甩@@ 37
田@@ 37
电视@@ 37
畅销 37
疗养院 37
瘟疫 37
登革热 37
百分之三十 37
盆 37
监@@ 37
省钱 37
真有 37
睿智 37
私刑 37
科学知识 37
稀少 37
程式 37
站点 37
签订 37
糊涂 37
系统地 37
红利 37
绅士 37
结实 37
缠绕 37
缺口 37
罗西 37
美国国家安全局 37
老天 37
职员 37
胶带 37
腿@@ 37
自主权 37
自如 37
自学 37
自尊 37
舍@@ 37
花园里 37
英 37
茅@@ 37
莫斯科 37
莱斯 37
获 37
落实 37
藻 37
虎 37
裸体 37
解救 37
解除 37
警卫 37
讲个 37
讲完 37
证词 37
识@@ 37
试管 37
该国 37
诱导 37
象征性 37
贝壳 37
质问 37
走入 37
路途 37
身影 37
软弱 37
轿车 37
迁@@ 37
迈进 37
送上 37
适应环境 37
逆向 37
逝去 37
那会儿 37
邻国 37
醉 37
里头 37
重重 37
钟@@ 37
镜像 37
间谍 37
陷 37
隔阂 37
雷斯 37
非得 37
颁发 37
饭店 37
骑车 37
高估 37
高大 37
高山 37
鲜活 37
0000 36
1100 36
1992 36
61 36
62 36
AR@@ 36
CO2 36
Pr@@ 36
Sc@@ 36
az@@ 36
berg 36
der 36
dy 36
ka 36
ne 36
℃ 36
一盘 36
三者 36
上千 36
上线 36
下山 36
不在意 36
不知不觉 36
丘 36
东海岸 36
两半 36
丧@@ 36
丰@@ 36
乙@@ 36
书面 36
二世 36
二十一 36
五次 36
五百 36
交汇 36
亿万富翁 36
仍@@ 36
从头开始 36
他来 36
令人不安 36
任职 36
会见 36
体细胞 36
修饰 36
假若 36
偏 36
偏头痛 36
偏远地区 36
关键时刻 36
兼@@ 36
内心世界 36
再现 36
写字 36
农场主 36
农夫 36
几千 36
凡@@ 36
出院 36
分隔 36
前者 36
加拿大人 36
加油 36
勤 36
医疗机构 36
南亚 36
厌烦 36
发出声音 36
口罩 36
吃药 36
合约 36
唐纳德 36
商务 36
图象 36
地理@@ 36
城墙 36
堵 36
多出 36
多功能 36
多名 36
多钱 36
大得多 36
天后 36
天天 36
失眠 36
学说 36
宁@@ 36
定价 36
宣@@ 36
富兰克林 36
小点 36
就够 36
崩塌 36
左脑 36
巨头 36
巨星 36
巴尔的摩 36
帆 36
开个 36
往来 36
律 36
心存 36
忍 36
快到 36
怀 36
性侵 36
恶性循环 36
悉尼 36
感染率 36
愿@@ 36
戏@@ 36
所想 36
打包 36
打扫 36
打来 36
投资人 36
指尖 36
挥@@ 36
捐给 36
掀起 36
握住 36
摩擦力 36
放开 36
故 36
效用 36
数十亿年 36
数字@@ 36
斑@@ 36
斯蒂芬 36
新泽西 36
旁观者 36
日落 36
时髦 36
星巴克 36
星球大战 36
星空 36
更久 36
最令 36
朝上 36
机智 36
村@@ 36
林冠 36
格陵兰岛 36
桨 36
棚 36
横向 36
气压 36
汉斯 36
泪@@ 36
流浪汉 36
流过 36
深入研究 36
深呼吸 36
深陷 36
清洁工 36
潮汐 36
灭@@ 36
灵敏 36
爱心 36
爱是 36
爱河 36
独处 36
独自一人 36
瓣 36
电脑游戏 36
疑 36
疑@@ 36
的确如此 36
相伴 36
真想 36
石块 36
研究@@ 36
社交圈 36
祭司 36
福德 36
离不开 36
移动电话 36
米开朗基罗 36
米歇尔 36
糟透了 36
紧密联系 36
繁忙 36
纯洁 36
纹理 36
继而 36
耳边 36
肩@@ 36
胶片 36
脾气 36
自行车道 36
花瓶 36
草根 36
荒野 36
蒙特利尔 36
虽说 36
蛙 36
融@@ 36
螨 36
蟹 36
表象 36
西方人 36
订 36
认清 36
许可证 36
词典 36
译 36
试一试 36
调控 36
贫@@ 36
贫困线 36
贴纸 36
走遍 36
起码 36
趣 36
跑步机 36
转折 36
软件@@ 36
达芬奇 36
迪伦 36
退一步 36
退回 36
送往 36
道具 36
遭 36
那首 36
配件 36
醉@@ 36
里约热内卢 36
重回 36
野 36
银行@@ 36
锡@@ 36
长袍 36
长话短说 36
阿拉 36
阿曼 36
露天 36
面板 36
预见到 36
领导层 36
馅饼 36
驻@@ 36
高水平 36
鸡尾酒 36
鸭 36
麻疹 36
黎明 36
齿轮 36
龟 36
1600 35
190@@ 35
77 35
Abed 35
CS@@ 35
IS@@ 35
JH 35
ST 35
Skype 35
Ver@@ 35
ard@@ 35
ce 35
ess 35
ff@@ 35
ks 35
re 35
sa 35
ue 35
一年级 35
一期 35
一艘船 35
一集 35
七千 35
上诉 35
不切实际 35
不小 35
不怕 35
不断@@ 35
不时 35
两段 35
中西部 35
之歌 35
之路 35
买来 35
争端 35
五十万 35
五百万 35
井 35
交朋友 35
仁爱 35
从业者 35
价@@ 35
伐木 35
低效 35
低音 35
侦探 35
俗@@ 35
保有 35
倒闭 35
儿童@@ 35
充满热情 35
关键问题 35
几条 35
出血 35
分给 35
划圈 35
利他主义 35
制约 35
刷@@ 35
前列腺 35
副产品 35
加拉帕戈斯 35
劳拉 35
化为 35
北半球 35
北卡罗来纳州 35
升华 35
发邮件 35
取笑 35
口头 35
台湾 35
右脑 35
司@@ 35
合唱团 35
同僚 35
向导 35
周期表 35
呼喊 35
品味 35
喇叭 35
喷发 35
四十 35
回响 35
回首 35
困住 35
围 35
坐落 35
垃圾桶 35
增生 35
声誉 35
处女 35
大体上 35
大叫 35
大程度 35
奏 35
妙 35
宇宙学 35
安宁 35
安心 35
密 35
密西西比 35
富足 35
寒 35
小丑 35
小心翼翼 35
居住地 35
屏住 35
巅峰 35
巡逻 35
左翼 35
巨变 35
干活 35
年龄段 35
幽默感 35
开发商 35
开普敦 35
弗朗西斯 35
强迫症 35
彼此间 35
很差 35
志 35
怒火 35
恻隐之心 35
愧疚 35
懒 35
我举 35
战神 35
截止 35
房地产 35
所爱 35
手写 35
投身于 35
抗击 35
抗议者 35
抬高 35
拉斯维加斯 35
拉近 35
拘留 35
拥@@ 35
拼接 35
挚爱 35
挣钱 35
挥之不去 35
捣@@ 35
数不清 35
数十亿美元 35
数千@@ 35
斯坦@@ 35
族裔 35
日程 35
时装 35
昂@@ 35
明信片 35
晕@@ 35
最美 35
最远 35
有次 35
有远见 35
杂音 35
来信 35
板子 35
极力 35
根基 35
植物@@ 35
模 35
欺负 35
此次 35
母体 35
每天晚上 35
泽 35
浴@@ 35
深知 35
混蛋 35
游走 35
满意度 35
漏@@ 35
潜水员 35
潮@@ 35
炮 35
燃料电池 35
牢@@ 35
犀牛 35
狡猾 35
玛格丽特 35
珠穆朗玛峰 35
球场 35
生命力 35
生态圈 35
田地 35
电池板 35
疑虑 35
皱纹 35
相像 35
着实 35
示威 35
福祉 35
秀@@ 35
空闲 35
竞@@ 35
管辖 35
精巧 35
繁多 35
细胞@@ 35
经由 35
结冰 35
编剧 35
缝 35
翠@@ 35
肥皂剧 35
脂肪酸 35
臭名昭著 35
航天 35
节食 35
花蜜 35
英勇 35
获得者 35
蕴藏 35
虎鲸 35
蠢 35
血腥 35
表面积 35
袖子 35
裂@@ 35
装在 35
西欧 35
言辞 35
议@@ 35
访 35
诉求 35
赌注 35
超自然 35
趟 35
跌 35
跨国公司 35
近年来 35
这艘 35
迷你 35
选举权 35
逗号 35
酵母 35
野兽 35
镜@@ 35
长城 35
阵@@ 35
阿基米德 35
隔开 35
零食 35
非常少 35
顾虑 35
频 35
驱@@ 35
.... 34
15000 34
15@@ 34
1973 34
1982 34
1986 34
2.0 34
Airbnb 34
CAR 34
Cal@@ 34
Mary 34
Mo@@ 34
Pete 34
Sch@@ 34
ake 34
ash 34
co 34
ham 34
im 34
一席之地 34
一株 34
一流 34
一章 34
上司 34
不吃 34
不爽 34
不许 34
专长 34
两块 34
中性 34
丰田 34
之谜 34
争斗 34
产妇 34
人生@@ 34
从零开始 34
令@@ 34
以致于 34
仪@@ 34
会先 34
会试 34
传递信息 34
伽@@ 34
住院 34
体能 34
体面 34
保佑 34
保安 34
保护@@ 34
保持@@ 34
俯瞰 34
倒计时 34
停车位 34
僵尸 34
全景 34
公共场所 34
公共服务 34
内置 34
内陆 34
农产品 34
准时 34
几句 34
几百 34
凸显 34
凹@@ 34
刊 34
列入 34
创新性 34
剔除 34
动量 34
北边 34
十天 34
华盛顿州 34
卡拉 34
印刷@@ 34
原始数据 34
原教旨主义 34
发了 34
发自内心 34
古典音乐 34
另一侧 34
可观 34
右手边 34
司 34
同盟 34
味觉 34
呵呵 34
咸@@ 34
商学院 34
嗒 34
囊@@ 34
四轴 34
回过头来 34
园 34
固执 34
地下水 34
培@@ 34
基里巴斯 34
塔斯 34
境况 34
备 34
大使馆 34
太酷 34
头像 34
奔 34
套装 34
子孙后代 34
字幕 34
孙 34
宇宙空间 34
安保 34
安卓 34
安德鲁 34
定向 34
家用 34
家谱 34
宿 34
富豪 34
尼古拉斯 34
尽早 34
屈服 34
屋@@ 34
岩@@ 34
工业@@ 34
市场经济 34
帆船 34
年头 34
建筑材料 34
开场 34
异性 34
弗里奇 34
录@@ 34
心理医生 34
念@@ 34
总在 34
总裁 34
感到高兴 34
感受器 34
慰藉 34
所有者 34
执着 34
承担责任 34
技术性 34
拐@@ 34
捡起 34
掩饰 34
搭@@ 34
摇 34
救世主 34
救济 34
数亿 34
方言 34
方达 34
旅行者 34
无线网络 34
无须 34
时至今日 34
更为重要 34
有件事 34
木薯 34
机体 34
杂 34
标出 34
桥@@ 34
棋盘 34
正轨 34
气质 34
河水 34
沾 34
波斯 34
泪 34
洞察力 34
派出 34
渔@@ 34
渡@@ 34
满足感 34
澡 34
激怒 34
濒临 34
热能 34
煤矿 34
燃油 34
爱丁堡 34
爵士乐 34
牧场 34
环顾四周 34
珊瑚虫 34
珍珠 34
班卓琴 34
瑕疵 34
甚么 34
生产线 34
生肖 34
用户界面 34
用语 34
电报 34
痛心 34
盔甲 34
目击 34
看守 34
眨眼 34
着想 34
睡眠不足 34
矿井 34
砖@@ 34
空前 34
笨拙 34
粉末 34
粗略 34
素质 34
索菲 34
紧急情况 34
约书亚 34
级@@ 34
纯净 34
组织@@ 34
终究 34
维奇 34
缅甸 34
编排 34
缸 34
罹患 34
羊毛 34
美国国会 34
耀眼 34
聊@@ 34
肉体 34
肋骨 34
股市 34
背着 34
胶原蛋白 34
脑电图 34
腔@@ 34
臀部 34
自上而下 34
自觉 34
舞会 34
航线 34
艺术节 34
草莓 34
荣@@ 34
萨拉 34
蜂箱 34
被遗弃 34
计算能力 34
试一下 34
语境 34
误@@ 34
说到底 34
豆@@ 34
财政@@ 34
赚取 34
走来走去 34
跌倒 34
车厢 34
辆车 34
达赖喇嘛 34
过高 34
迎合 34
逃出 34
逃走 34
逊@@ 34
造出来 34
邻近 34
里程碑 34
金属@@ 34
金斯 34
钟爱 34
钢 34
问起 34
阴暗 34
阵 34
障 34
难看 34
霜 34
青春 34
面罩 34
音响 34
香肠 34
马达加斯加 34
鲑鱼 34
鲜为人知 34
450 33
6.@@ 33
63 33
AS@@ 33
Alex 33
Emma 33
Eric 33
Op@@ 33
PET 33
RH 33
Sk@@ 33
TM 33
ach@@ 33
enn@@ 33
est@@ 33
ez 33
for 33
ics 33
na 33
oll@@ 33
一块儿 33
一队 33
万有引力 33
上游 33
下个 33
世界地图 33
中国政府 33
中美洲 33
临界点 33
之道 33
乌云 33
乔布斯 33
云朵 33
交易所 33
京都 33
亮光 33
亲手 33
人工合成 33
令人担忧 33
仿@@ 33
伍 33
会令 33
保住 33
信贷 33
候选 33
债@@ 33
偶 33
僵硬 33
全力以赴 33
公投 33
共同之处 33
关联性 33
内脏 33
冠状病毒 33
冲向 33
冻 33
凌@@ 33
减半 33
几千@@ 33
出头 33
刺穿 33
前任 33
勇于 33
医治 33
十年间 33
千人 33
午@@ 33
南半球 33
南边 33
卡塔尔 33
卫生巾 33
印度教 33
印度洋 33
又@@ 33
双赢 33
反弹 33
口气 33
句号 33
另一头 33
叫醒 33
可再生 33
可视 33
吸管 33
呆@@ 33
哺乳类 33
喂饱 33
喷洒 33
回过 33
团聚 33
困@@ 33
围墙 33
圣地亚哥 33
地看 33
坚决 33
坚持不懈 33
堕落 33
多动症 33
大拇指 33
大笔 33
天敌 33
太阳@@ 33
失常 33
女巫 33
妮@@ 33
娶 33
孵化 33
官司 33
寄生 33
对折 33
尊@@ 33
小子 33
小额 33
尘@@ 33
山区 33
巴比伦 33
布尔 33
布拉德 33
幅度 33
干涸 33
平方英里 33
幽灵 33
床@@ 33
建设性 33
引人入胜 33
归还 33
当地政府 33
当场 33
很深 33
怀念 33
急切 33
急速 33
感触 33
慈善事业 33
戏剧化 33
成见 33
房车 33
手动 33
手提电脑 33
手枪 33
打仗 33
打着 33
托姆 33
执照 33
投向 33
拥堵 33
拼凑 33
挑剔 33
挑衅 33
捉@@ 33
据我所知 33
授课 33
掉下来 33
搬进 33
摩天大楼 33
数百年 33
整齐 33
旗@@ 33
日渐 33
时报 33
时时刻刻 33
更改 33
有序 33
来过 33
杯@@ 33
欠@@ 33
正值 33
正直 33
毒药 33
水量 33
油画 33
波多黎各 33
深思 33
深蓝 33
滤@@ 33
濒临灭绝 33
火柴 33
珍妮 33
班加罗尔 33
理发店 33
甚@@ 33
生出 33
番茄 33
登山者 33
相差 33
看病 33
眼下 33
瞩目 33
砍 33
破译 33
确@@ 33
磁性 33
社会关系 33
神经递质 33
私有 33
科尔 33
积极参与 33
程@@ 33
空军 33
等等等等 33
粒@@ 33
精华 33
精神分裂 33
红细胞 33
纸板 33
经纪人 33
结构性 33
缓和 33
罗马帝国 33
美化 33
羞耻感 33
翻天覆地 33
聘请 33
聚到 33
股票市场 33
肢 33
胸前 33
腹@@ 33
芥末 33
若干 33
苦恼 33
苦苦 33
菲尔德 33
萨克斯 33
蒙古 33
蜜@@ 33
血液循环 33
行李 33
补 33
裸露 33
规 33
讲述者 33
诚然 33
误会 33
读出 33
谣言 33
败 33
货@@ 33
贴近 33
起草 33
跨度 33
踪迹 33
车库里 33
转弯 33
轻视 33
辞去 33
辨@@ 33
过早 33
这就是说 33
这所 33
迫在眉睫 33
逃亡 33
选定 33
里程 33
铃声 33
销毁 33
长颈鹿 33
阅读障碍 33
阿拉伯人 33
限@@ 33
限制性 33
险@@ 33
隐蔽 33
集中精力 33
驱动器 33
驾照 33
高处 33
高端 33
鸦片 33
0.5 32
1979 32
1985 32
1987 32
1988 32
74 32
89 32
Alpha 32
Danny 32
Kar@@ 32
Pat@@ 32
Sa@@ 32
TED@@ 32
TEDx 32
af@@ 32
ill@@ 32
一扇门 32
一手 32
一说 32
一路上 32
一轮 32
七月 32
三千 32
上千年 32
下巴 32
不及 32
不当 32
不规则 32
专业@@ 32
两项 32
之物 32
乐园 32
买家 32
乱七八糟 32
二元 32
五十年代 32
交响乐团 32
亨@@ 32
以此类推 32
以致 32
伊甸园 32
众生 32
优越 32
低头 32
低谷 32
体力 32
侍@@ 32
侦测 32
侵略性 32
克拉克 32
免 32
兔 32
入侵者 32
六种 32
关进 32
具体@@ 32
养家糊口 32
兼职 32
兽@@ 32
再来 32
冠 32
冰雪 32
况 32
凝@@ 32
几代人 32
击打 32
刚出生 32
判@@ 32
判定 32
剧作家 32
力所能及 32
加倍 32
助 32
勇@@ 32
化肥 32
北非 32
医学界 32
千名 32
卵巢 32
原则上 32
变好 32
右下角 32
各异 32
各方 32
后座 32
呼应 32
咖啡店 32
响@@ 32
唯@@ 32
喊@@ 32
喷出 32
回溯 32
国安局 32
国防 32
国际化 32
地貌 32
均@@ 32
声带 32
多种多样 32
多难 32
太慢 32
夭折 32
奉@@ 32
威尔士 32
学徒 32
完工 32
完蛋 32
宗 32
宗@@ 32
宝藏 32
实验性 32
宫殿 32
家政 32
小群 32
小鼠 32
尾声 32
州立大学 32
干得 32
干过 32
平滑 32
年份 32
开到 32
弃@@ 32
引向 32
弗吉尼亚 32
彼@@ 32
待会儿 32
微波 32
德克萨斯 32
德斯 32
心电图 32
患@@ 32
情人 32
意象 32
感染者 32
憧憬 32
懒惰 32
扑 32
打分 32
扔@@ 32
承包商 32
拼车 32
拿破仑 32
按摩 32
掌 32
播种 32
擅长于 32
数以 32
整年 32
无人@@ 32
无数次 32
无罪 32
时间推移 32
普遍性 32
有益于 32
朝圣 32
本科生 32
朱利安 32
机理 32
机翼 32
构@@ 32
枪杀 32
某种原因 32
柜台 32
核战争 32
根部 32
格林@@ 32
梅琳 32
欺凌 32
止步 32
正以 32
武@@ 32
每件 32
毯子 32
气象 32
沙拉 32
波特 32
流泪 32
流淌 32
流畅 32
淡 32
渐@@ 32
溜 32
炒 32
炼@@ 32
烧毁 32
热衷 32
煎熬 32
熟练@@ 32
燃@@ 32
爱情故事 32
爱滋病 32
独木舟 32
玛丽亚 32
玩儿 32
现代@@ 32
理会 32
生物医学 32
病变 32
百分之四十 32
百分点 32
益 32
盐水 32
相撞 32
真实情况 32
眼睁睁 32
短短的 32
硕士学位 32
硫 32
硬盘 32
磨损 32
社会化 32
社会科学 32
神经外科 32
神经纤维 32
福克斯 32
离奇 32
离家 32
第三世界 32
第二阶段 32
筛查 32
米洛 32
类动物 32
约定 32
纳米技术 32
维斯 32
缺水 32
网球 32
罪名 32
耐用 32
耶鲁 32
肿胀 32
腰@@ 32
自下而上 32
臭氧层 32
至此 32
茶壶 32
蒙特 32
薄薄的 32
蚊 32
装配 32
西蒙 32
认 32
读懂 32
课上 32
谢丽尔 32
谱@@ 32
质地 32
贫富差距 32
贴片 32
资深 32
赞比亚 32
趋向于 32
车轮 32
辈 32
辣 32
这周 32
连锁 32
迷航 32
退后 32
退缩 32
选取 32
逼迫 32
那件事 32
邻@@ 32
配有 32
采购 32
针对性 32
铅@@ 32
问及 32
队长 32
阿司匹林 32
陈词滥调 32
隐瞒 32
隐身 32
难堪 32
音高 32
颁布 32
餐桌上 32
驱动力 32
骚乱 32
骤@@ 32
鸣 32
麦克@@ 32
黑夜 32
125 31
13@@ 31
4.5 31
AM 31
Ac@@ 31
Al 31
Alice 31
Ev@@ 31
For@@ 31
Futura 31
MA 31
Mor@@ 31
ara 31
ash@@ 31
ela 31
em 31
ith 31
oh 31
uk@@ 31
ut 31
一两年 31
一再 31
一次次 31
一点一点 31
一百万个 31
一级 31
上天 31
上将 31
上百 31
不列颠 31
不大可能 31
不符 31
不通 31
世界性 31
丝绸 31
两端 31
个人电脑 31
个别 31
丰厚 31
为的是 31
之神 31
二是 31
五月 31
交替 31
交错 31
人力资源 31
以免 31
住在一起 31
何 31
佛罗里达州 31
作证 31
便携 31
保护措施 31
倡导者 31
倾倒 31
做时 31
偶@@ 31
偷窃 31
兆@@ 31
光束 31
克罗@@ 31
全民 31
公益 31
养蜂人 31
写信给 31
写诗 31
冠@@ 31
减去 31
几十个 31
凯蒂 31
分组 31
初中 31
利率 31
功劳 31
功效 31
动植物 31
化妆 31
十二@@ 31
卑@@ 31
危地马拉 31
参与度 31
发送到 31
受苦 31
变态 31
口腔 31
古人 31
可靠性 31
吸食 31
咒语 31
哥伦比亚大学 31
嗅 31
国土 31
国际性 31
地基 31
地站 31
坚持下去 31
垃圾堆 31
城市规划 31
基本粒子 31
增进 31
处死 31
大力 31
大桥 31
大相径庭 31
大豆 31
太空船 31
契约 31
奠定 31
好多年 31
委托 31
季度 31
实验@@ 31
客气 31
小区 31
尽我所能 31
尿布 31
川@@ 31
左手边 31
已然 31
席 31
平均@@ 31
平均年龄 31
建筑设计 31
弊 31
弥@@ 31
弱@@ 31
弹劾 31
强健 31
强加 31
强势 31
归属 31
得体 31
德拉 31
心理疾病 31
必需品 31
忘@@ 31
忘却 31
忠于 31
总人口 31
慢性病 31
我出 31
手持 31
才刚 31
技 31
抑@@ 31
抬@@ 31
拳 31
接手 31
掩@@ 31
插座 31
搞错 31
摄@@ 31
摔 31
撑@@ 31
放手 31
数以百计 31
数周 31
数额 31
文盲 31
无所畏惧 31
无穷的 31
昏@@ 31
星座 31
普遍存在 31
最穷 31
服务生 31
木炭 31
杂交 31
条件反射 31
来往 31
极少数 31
极有 31
枪声 31
枯竭 31
某事 31
查阅 31
柴@@ 31
校车 31
株 31
核反应堆 31
根本原因 31
根本性 31
模棱两可 31
次序 31
欣慰 31
此前 31
死于 31
殖民主义 31
毁@@ 31
毒瘾 31
比较@@ 31
毫不@@ 31
民主@@ 31
沉睡 31
河边 31
治好 31
波特兰 31
洪@@ 31
流经 31
海峡 31
消防 31
深思熟虑 31
混沌 31
源源不断 31
溪流 31
烟囱 31
热水 31
爪 31
爸 31
物流 31
特兹勒 31
特别之处 31
犬@@ 31
独立@@ 31
狭小 31
狱警 31
猛烈 31
猫咪 31
猫头鹰 31
猿类 31
瓣膜 31
瓶@@ 31
电动汽车 31
男孩儿 31
畅@@ 31
病因 31
症候群 31
痛楚 31
盖瑞 31
看不出 31
睡衣 31
瞄准器 31
矿工 31
码@@ 31
硬化症 31
碰上 31
离职 31
稳 31
笑脸 31
笨蛋 31
简陋 31
算了 31
篮子 31
精度 31
纪念@@ 31
纺织品 31
经期 31
绒 31
统@@ 31
缝合 31
罚 31
美景 31
美满 31
翻车鱼 31
耐 31
胡萝卜 31
能干 31
脆 31
脑膜炎 31
脱水 31
自省 31
臭 31
色素 31
获得成功 31
薇诺娜 31
薪酬 31
表达@@ 31
解题 31
订单 31
认真思考 31
让你在 31
训练有素 31
论述 31
试用 31
账 31
购 31
贸易@@ 31
赶出 31
蹲 31
身体状况 31
轮回 31
达到目标 31
过剩 31
迪拜 31
送回 31
适应力 31
透彻 31
途@@ 31
造物主 31
重重@@ 31
钓鱼 31
铝 31
银行业 31
锋利 31
锯@@ 31
长距离 31
队@@ 31
雨季 31
露营 31
面上 31
革@@ 31
靴 31
顽强 31
风车 31
饰 31
高地 31
鹰 31
黄蜂 31
龄 31
／ 31
1969 30
73 30
79 30
BBC 30
Ber@@ 30
CNN 30
Ed 30
Gl@@ 30
Han@@ 30
IP@@ 30
La 30
TE@@ 30
ann@@ 30
de@@ 30
eBay 30
ence 30
go 30
ind@@ 30
ler 30
per 30
一万年 30
一例 30
上床 30
上映 30
下游 30
不可知论 30
世界杯 30
丘@@ 30
东北部 30
两国 30
严酷 30
丧命 30
个头 30
临界 30
买得起 30
事项 30
二号 30
交出 30
交易@@ 30
交集 30
人则 30
付诸实践 30
仿生学 30
伐@@ 30
传单 30
传统@@ 30
传记 30
低廉 30
体味 30
体育场 30
佬 30
信誉 30
停滞不前 30
停电 30
傻子 30
先例 30
八千 30
公共资源 30
公顷 30
兰德 30
其间 30
内外 30
军事@@ 30
农业@@ 30
决 30
分布图 30
分布式 30
分析@@ 30
分离出来 30
利斯 30
劝说 30
动用 30
劳动@@ 30
北美洲 30
千种 30
千里 30
双脚 30
反对者 30
反常 30
发烧 30
发电站 30
发问 30
变体 30
另一回事 30
同位素 30
听懂 30
启发性 30
吸烟者 30
吻合 30
和弦 30
哈尔 30
响声 30
哪来 30
售 30
唯有 30
商界 30
商量 30
四十@@ 30
回信 30
因果关系 30
围棋 30
图纸 30
圣母 30
在世 30
地是 30
地问 30
均匀 30
基因组学 30
堆肥 30
堤 30
增长速度 30
外语 30
多种不同 30
大体 30
大理石 30
天地 30
头号 30
奖@@ 30
好听 30
孢子 30
季节性 30
孤@@ 30
学习者 30
学区 30
安东尼 30
宗旨 30
宪章 30
宽广 30
小步 30
小鱼 30
少见 30
尺@@ 30
岂 30
工作效率 30
工作量 30
巨石 30
差劲 30
市旗 30
布道 30
布里@@ 30
希拉里 30
带宽 30
平方公里 30
年收入 30
并不@@ 30
幽@@ 30
庙宇 30
府 30
庞@@ 30
开门 30
强行 30
当人 30
形体 30
很久很久 30
心声 30
心愿 30
恐@@ 30
恐怖组织 30
情报@@ 30
情报机构 30
意志力 30
感叹 30
慈善家 30
戒@@ 30
戳 30
房租 30
所属 30
打嗝 30
扩@@ 30
扭@@ 30
技@@ 30
抵押 30
拓宽 30
拨款 30
挨着 30
捕杀 30
捞 30
掏出 30
控@@ 30
提过 30
援手 30
搜@@ 30
摆放 30
撑 30
收割 30
放眼 30
放飞 30
敬 30
整套 30
斯顿 30
无从 30
无畏 30
日光 30
早上好 30
星期五 30
晕 30
暗中 30
曙光 30
最糟 30
有多@@ 30
末@@ 30
末日 30
本拉登 30
机械化 30
杆菌 30
来试 30
极其重要 30
枝 30
枯@@ 30
染色 30
树冠 30
样貌 30
棺材 30
模范 30
横 30
欧文 30
水上 30
水泵 30
沃尔@@ 30
没听说过 30
泰迪熊 30
海王星 30
涉足 30
渲染 30
炸 30
烦躁 30
烧烤 30
焦 30
照着 30
爱迪生 30
牛排 30
物理@@ 30
牵涉到 30
特工 30
特拉 30
犯罪现场 30
犯错误 30
玉米@@ 30
现行 30
珍@@ 30
理想化 30
生态环境 30
生理@@ 30
用光 30
电信 30
电灯 30
疤痕 30
症@@ 30
痴呆 30
百万分之一 30
百分之五 30
益@@ 30
监护 30
相互影响 30
相匹配 30
相识 30
眉毛 30
看好 30
砂眼 30
破旧 30
磅重 30
磷@@ 30
祝贺 30
票@@ 30
科技进步 30
穹顶 30
第一阶段 30
笼罩 30
答@@ 30
类人 30
粉刷 30
粘土 30
素养 30
红外 30
纪@@ 30
纳闷 30
细胞核 30
细胞膜 30
绘图 30
统计数字 30
维也纳 30
维拉 30
老朋友 30
而出 30
职业@@ 30
聚光灯 30
肽 30
脉 30
脑损伤 30
舌 30
舌@@ 30
航空公司 30
艾迪 30
芝士 30
花销 30
范式 30
获取信息 30
薯片 30
虚无 30
蛇@@ 30
补偿 30
西北部 30
览 30
解密 30
解药 30
记号 30
诱发 30
诱饵 30
负荷 30
质感 30
资 30
赐予 30
赖@@ 30
起始 30
身着 30
轨 30
辩 30
运输@@ 30
这趟 30
远距离 30
迷幻 30
逼真 30
遗漏 30
那份 30
那头 30
那幅 30
那辆 30
那颗 30
邻 30
采取措施 30
长滩 30
闭上眼睛 30
闭嘴 30
阻塞 30
阿尔 30
随心所欲 30
隐性 30
集市 30
青霉素 30
静脉 30
面包@@ 30
面对现实 30
顺 30
预警 30
颇具 30
风向 30
骨骼肌 30
鼓掌声 30
鼠@@ 30
170 29
AT@@ 29
Ap@@ 29
Bra@@ 29
COVID 29
Con@@ 29
ES 29
Ed@@ 29
Is@@ 29
LGBT 29
PS 29
Pre@@ 29
SA 29
Susan 29
ala 29
di@@ 29
do 29
ich@@ 29
ner 29
of@@ 29
ok@@ 29
ol 29
ran@@ 29
ros@@ 29
se 29
一身 29
万一 29
三年级 29
下意识 29
不解 29
不靠 29
丛@@ 29
东亚 29
两极分化 29
严重性 29
个数 29
丸 29
为数不多 29
二手 29
交通拥堵 29
享@@ 29
仁@@ 29
从头到尾 29
件@@ 29
休斯顿 29
会到 29
会带 29
传媒 29
伸手 29
住宿 29
作响 29
作坊 29
例@@ 29
俄勒冈州 29
俄语 29
保护性 29
值@@ 29
做好事 29
做得好 29
健身 29
催@@ 29
全家 29
六分之一 29
关键因素 29
典 29
再也不能 29
冷酷 29
准确度 29
凝结 29
凝聚力 29
几十亿年 29
凭着 29
别提 29
前端 29
剖腹产 29
剧情 29
剪 29
割礼 29
劣 29
劫持 29
勤奋 29
医疗保险 29
协调@@ 29
南加州 29
卡罗 29
印第安 29
卸@@ 29
历 29
厚厚的 29
反倒 29
反刍 29
反省 29
发展@@ 29
取名 29
取舍 29
口哨声 29
古罗马 29
右上角 29
同一天 29
后天 29
吵@@ 29
吸气 29
命题 29
哇@@ 29
哭@@ 29
商标 29
啊哈 29
喘 29
喝水 29
嘻哈 29
噪声 29
囊括 29
回报率 29
园艺 29
圣地 29
在此期间 29
地为 29
地产 29
地质学家 29
坚实 29
垮 29
基因工程 29
基因突变 29
塑造成 29
复仇 29
复制品 29
外交@@ 29
多项 29
大为 29
大夫 29
大家伙 29
大错特错 29
天里 29
太低 29
奢侈品 29
奥斯汀 29
娃 29
学龄前 29
宿舍 29
寡@@ 29
小姑娘 29
尤里 29
展望未来 29
山丘 29
川 29
巡@@ 29
工具箱 29
左下角 29
差错 29
巴赫 29
广袤 29
庭 29
康涅狄格州 29
开业 29
开出 29
异教 29
异类 29
引力波 29
很远 29
後 29
徒劳 29
得病 29
心爱 29
心理治疗 29
忠实 29
快捷 29
怀旧 29
怒@@ 29
惊艳 29
想来 29
愈 29
感受一下 29
慢下来 29
懒@@ 29
戏服 29
我选 29
房里 29
所写 29
手下 29
才行 29
批 29
批@@ 29
投给 29
投诉 29
折腾 29
护 29
抵抗力 29
拉开 29
拨 29
排练 29
搭乘 29
摊 29
操作@@ 29
政变 29
政界 29
断层 29
斯图尔特 29
新建 29
新闻业 29
施 29
施压 29
旅客 29
昆@@ 29
星光 29
映@@ 29
普林斯顿 29
暴力犯罪 29
最小化 29
最爱 29
有钱人 29
服务员 29
枢纽 29
架@@ 29
染@@ 29
栽种 29
桃 29
模板 29
横渡 29
正规 29
正试图 29
死因 29
每一项 29
每张 29
毛巾 29
气象@@ 29
汇总 29
油墨 29
沿岸 29
洛夫 29
津 29
洪都拉斯 29
洲 29
派遣 29
流出 29
消费@@ 29
涡轮 29
演绎 29
潜水服 29
潜水艇 29
灿烂 29
烦@@ 29
烦人 29
热忱 29
热气球 29
热线 29
爬行动物 29
牧羊人 29
犹如 29
猛 29
珀 29
生态@@ 29
生物圈 29
用不着 29
用餐 29
甩 29
甲板 29
电压 29
留着 29
百分百 29
百姓 29
监察 29
盖住 29
盗版 29
盲点 29
直升飞机 29
相隔 29
着重 29
石膏 29
砍掉 29
硕士 29
磁 29
神秘感 29
离世 29
称其为 29
童话 29
第三件 29
筑@@ 29
筹@@ 29
管理层 29
米兰 29
糖蛋白 29
系统@@ 29
紧凑 29
纪念日 29
纳尔逊 29
纵向 29
纺织 29
线虫 29
继 29
缝@@ 29
缠 29
缺乏@@ 29
缺席 29
罐@@ 29
网络连接 29
罗杰 29
罢工 29
耕作 29
耶鲁大学 29
聚合 29
肝@@ 29
脑后 29
脸谱 29
腐蚀 29
膜@@ 29
自转 29
芬奇 29
药房 29
药方 29
葛@@ 29
蚁后 29
行贿 29
衡量标准 29
裹 29
褶皱 29
西兰花 29
要用 29
触手可及 29
詹@@ 29
警钟 29
订购 29
让@@ 29
许仙 29
许多许多 29
诉 29
诚@@ 29
语言学家 29
语调 29
贤淑 29
资源@@ 29
赛跑 29
走访 29
走走 29
践踏 29
辛迪 29
辞 29
这回 29
这天 29
途 29
通风 29
遗传信息 29
遗传学家 29
郊外 29
郭 29
醒过来 29
采 29
重复性 29
钛 29
锅@@ 29
锥 29
长到 29
长生不老 29
门外 29
闭 29
阿凡 29
阿拉巴马 29
附 29
难懂 29
非理性 29
非零 29
面世 29
音效 29
预兆 29
额叶 29
飙升 29
飞往 29
首选 29
马可 29
马戏团 29
高密度 29
魂@@ 29
龙虾 29
.@@ 28
1.2 28
1965 28
7.@@ 28
Andrew 28
Ben@@ 28
Bi@@ 28
Bruno 28
Domitia 28
Fre@@ 28
Ge@@ 28
Gen@@ 28
Gu@@ 28
Her@@ 28
JM 28
Ke@@ 28
Min@@ 28
My@@ 28
NI@@ 28
Ne@@ 28
PC 28
Pal@@ 28
Ph@@ 28
Sal@@ 28
Tw@@ 28
WG 28
William 28
by 28
old 28
om 28
ong 28
oug@@ 28
ro 28
一分钱 28
一千亿 28
一顶 28
万维网 28
上级 28
上车 28
下水道 28
不下 28
不信 28
不怎么样 28
不见得 28
不间断 28
专 28
丛林中 28
两党 28
两颗 28
个例 28
中午 28
中国@@ 28
丽萨 28
之夜 28
乌 28
书名 28
予 28
交通运输 28
亮点 28
人世 28
人手 28
人称 28
人身@@ 28
亿万 28
令人信服 28
仰@@ 28
伊始 28
伊尔 28
伪装成 28
佐治亚州 28
侵扰 28
侵袭 28
信息处理 28
候 28
傻瓜 28
充分@@ 28
光盘 28
克尔 28
克莱 28
公共政策 28
六十 28
关键所在 28
关门 28
再举 28
农药 28
几件事 28
分担 28
刑事@@ 28
利息 28
到此为止 28
刻画 28
前期 28
剑@@ 28
剖析 28
副本 28
力学 28
助者 28
势头 28
包装@@ 28
化学品 28
匹@@ 28
千分之一 28
卡内基 28
卵@@ 28
厌 28
原话 28
发展趋势 28
变迁 28
可口 28
叹@@ 28
各大 28
吼 28
咖啡杯 28
哈拉 28
哎 28
喉 28
喜马拉雅山 28
喝茶 28
喷 28
嘘 28
嘲讽 28
嚼 28
四位 28
四条 28
圆顶 28
在职 28
地下@@ 28
地理位置 28
地用 28
坚果 28
坛 28
基本概念 28
堵墙 28
填 28
壮@@ 28
备用 28
复数 28
外交官 28
外层 28
大白鲨 28
夫斯 28
夹克 28
女性化 28
好些 28
妻 28
娃娃 28
嫁接 28
孕 28
存钱 28
学历 28
学员 28
安东尼奥 28
安德@@ 28
完后 28
完毕 28
宣誓 28
寓言 28
对焦 28
对立面 28
小人 28
少数几个 28
尔曼 28
局长 28
峰顶 28
巨大@@ 28
已婚 28
巴克 28
巴勒斯坦人 28
巴拿马 28
布兰@@ 28
布鲁斯 28
带进 28
席@@ 28
帽衫 28
广告牌 28
庆典 28
延展 28
开花 28
引爆 28
引诱 28
恋@@ 28
恨@@ 28
恭喜 28
想成 28
戒烟 28
手肘 28
批评家 28
承 28
披露 28
担@@ 28
指明 28
排成 28
控制中心 28
提供者 28
搏斗 28
搜查 28
搬走 28
搬运 28
摇篮 28
摩擦学 28
撕开 28
播@@ 28
敌对 28
教材 28
敢肯定 28
数以亿计 28
数位 28
新闻媒体 28
新鲜事 28
无名 28
无国界 28
无法解释 28
无能 28
日出 28
早年 28
时间表 28
星期天 28
显示屏 28
普查 28
智者 28
有形 28
期盼 28
机票 28
杆子 28
来不及 28
来时 28
杰西 28
树根 28
根植 28
框@@ 28
梅尔 28
橄榄油 28
母乳喂养 28
毕加索 28
毛骨悚然 28
民主党人 28
沃伦 28
沉积 28
活体 28
浑身 28
浮游植物 28
海军陆战队 28
海胆 28
海运 28
游击队 28
滋@@ 28
漫游 28
灌木 28
炮@@ 28
热泉 28
爱丽丝 28
爽 28
版@@ 28
牢牢 28
特尔 28
狠狠 28
球菌 28
甚至于 28
生理学 28
用纸 28
界@@ 28
病床 28
病毒@@ 28
病痛 28
白痴 28
相等 28
看不懂 28
真得 28
矫正 28
研@@ 28
碱基对 28
示意图 28
离心机 28
私下 28
私营 28
科幻 28
积 28
究@@ 28
窍门 28
竹@@ 28
第一组 28
策 28
简要 28
管家 28
粗暴 28
粥 28
系数 28
素食 28
索尔 28
繁@@ 28
红灯 28
纪念馆 28
纳州 28
纽扣 28
经验丰富 28
统计学家 28
编译 28
编辑器 28
编造 28
缝隙 28
罚单 28
美国黑人 28
羡慕 28
肥沃 28
肩上 28
肾上腺 28
胎盘 28
胸腔 28
胺 28
脊柱 28
脸颊 28
自然科学 28
致使 28
航海 28
花些 28
英镑 28
草药 28
荡@@ 28
荧幕 28
药丸 28
营养物质 28
萨满 28
蜂鸟 28
行径 28
裁@@ 28
要不然 28
视图 28
计算@@ 28
讲过 28
话筒 28
话语权 28
该是 28
请教 28
谈论着 28
谬误 28
费洛蒙 28
赋权 28
赚@@ 28
赠@@ 28
走运 28
赶快 28
超前 28
超棒 28
趋于 28
踢@@ 28
轮到 28
辱 28
迁 28
运动鞋 28
近亲 28
返 28
这下 28
这为 28
这条线 28
远景 28
迪亚 28
退役 28
选用 28
递@@ 28
逗 28
通勤 28
通电话 28
通路 28
道德@@ 28
遗骸 28
避难 28
那台 28
那层 28
邪@@ 28
郁金香 28
重达 28
铸造 28
销售额 28
阁楼 28
防护 28
防治 28
陆续 28
陡峭 28
陷入困境 28
霸@@ 28
预估 28
预定 28
颗@@ 28
食品@@ 28
首位 28
骑行 28
高峰期 28
高度@@ 28
黑桃 28
齐心协力 28
｢ 28
｣ 28
0.1 27
1300 27
1976 27
1978 27
2100 27
@ 27
ACE 27
Arduino 27
Aut@@ 27
ED 27
FBI 27
FO@@ 27
Fl@@ 27
Flickr 27
He@@ 27
JR 27
Jack 27
Jane 27
Nat@@ 27
Sam@@ 27
Sha@@ 27
TKM 27
Wi@@ 27
Windows 27
ani 27
ant 27
au 27
ek 27
ett@@ 27
op 27
our 27
ss@@ 27
一万个 27
一切顺利 27
一刻起 27
一大批 27
一桶 27
一百万年 27
一瞬 27
万条 27
三号 27
不单 27
不单单是 27
不大 27
不平 27
不足为奇 27
两份 27
两层 27
两百@@ 27
两类 27
个人经历 27
中会 27
临终 27
举出 27
之分 27
之春 27
乌尔 27
乔丹 27
习@@ 27
亚原子 27
交通系统 27
人道 27
仅凭 27
仅此而已 27
他家 27
代谢物 27
任命 27
低温 27
低级 27
体育运动 27
何在 27
作曲 27
你会 27
使劲 27
保育 27
信托 27
俯@@ 27
俱@@ 27
偷偷地 27
光辉 27
八十 27
六周 27
关键@@ 27
兼容 27
冥@@ 27
冷藏 27
几分 27
几英里 27
凡人 27
凭@@ 27
出海 27
切口 27
划过 27
创造@@ 27
到场 27
到头来 27
前人 27
前排 27
加在一起 27
加速度 27
劳伦斯 27
勃@@ 27
包袱 27
医疗卫生 27
十分困难 27
单子 27
卖家 27
博士生 27
卡住 27
历史记录 27
历时 27
厌@@ 27
原子@@ 27
反反复复 27
发言权 27
受害人 27
古埃及 27
句@@ 27
叫喊 27
史前 27
合体 27
吉米 27
同志 27
听证会 27
周期性 27
呼吸道 27
呼唤 27
商机 27
喀麦隆 27
四千 27
四月 27
圈子里 27
在政治上 27
在经济上 27
地质学 27
坐飞机 27
块钱 27
垃圾@@ 27
基督 27
境遇 27
多变 27
大战 27
大批 27
大都会 27
女同性恋 27
妄@@ 27
媲美 27
嬉戏 27
学得 27
安全局 27
定量 27
宜家 27
实习生 27
实地考察 27
宴会 27
寄养 27
寄钱 27
密歇根 27
富饶 27
尊 27
小孩儿 27
小巧 27
小猫 27
尘土 27
就读 27
尸 27
层层 27
屡@@ 27
山坡 27
嵌 27
巨 27
巴格达 27
巴特 27
布鲁克斯 27
常人 27
并存 27
库尔特 27
庞然大物 27
庭院 27
建筑业 27
开发新 27
张贴 27
归纳 27
征求 27
很傻 27
心脏@@ 27
性交易 27
恒定 27
恩斯 27
情人节 27
惊呆 27
惠@@ 27
想方设法 27
意粉 27
慢动作 27
成功率 27
成天 27
战乱 27
手脚 27
打倒 27
投票权 27
拘@@ 27
捐献者 27
捧 27
接待 27
接收器 27
推论 27
推送 27
摄影@@ 27
放射@@ 27
散射 27
散落 27
敦促 27
数百 27
文化遗产 27
斑块 27
断言 27
新人 27
新英格兰 27
旋 27
旋@@ 27
无礼 27
无私 27
早衰 27
时分 27
晓得 27
普斯 27
暂且 27
暖@@ 27
更重 27
最优 27
最深处 27
有机物 27
期限 27
杂乱 27
李 27
杰克逊 27
杰斐逊 27
极为重要 27
枪击案 27
架飞机 27
柱@@ 27
桩 27
梦想成真 27
梭@@ 27
梯@@ 27
正是如此 27
死囚 27
比尔盖茨 27
民事 27
气愤 27
氧@@ 27
沙粒 27
沟 27
治安 27
泰 27
洁 27
洗脑 27
洛基 27
流利 27
流放 27
涅 27
混在 27
添@@ 27
温室效应 27
游乐场 27
游历 27
潜 27
灾害 27
炭 27
热闹 27
焦@@ 27
独白 27
狱中 27
猛犸 27
猿 27
玛雅 27
玩偶 27
珍 27
琐事 27
瓜 27
申@@ 27
瘾 27
百老汇 27
皇 27
皇@@ 27
盆@@ 27
盘旋 27
直视 27
看望 27
眠 27
着陆器 27
社会学 27
祸 27
禁令 27
科学实验 27
科技领域 27
窗帘 27
端的 27
笔下 27
第一眼 27
第三天 27
第四种 27
算不上 27
米拉 27
粮食@@ 27
精妙 27
精简 27
糖类 27
红光 27
纷争 27
终点线 27
经文 27
结识 27
统计@@ 27
维利 27
缕 27
缩 27
网络攻击 27
罗塞塔 27
美感 27
羞@@ 27
羽@@ 27
老兄 27
耕地 27
耳聋 27
耸@@ 27
肠胃 27
肤浅 27
肩 27
肿块 27
背负 27
背道而驰 27
胖@@ 27
脑力 27
自负 27
臭@@ 27
芭蕾 27
花点 27
药剂 27
莫奈 27
获奖 27
蓝鳍 27
藤@@ 27
虚幻 27
蜡 27
蜷缩 27
蝌蚪 27
螳螂 27
衔接 27
街边 27
表扬 27
袖手旁观 27
装着 27
装进 27
西斯 27
西边 27
要来 27
访客 27
话说回来 27
说辞 27
贝克 27
责 27
贴切 27
赤脚 27
走私 27
趁 27
越多 27
身心 27
轮流 27
输送到 27
过错 27
迈 27
近几年 27
这人 27
这支 27
远大 27
连续性 27
追捕 27
退休金 27
逆 27
道格拉斯 27
遥不可及 27
遭@@ 27
部份 27
重新组合 27
重演 27
金币 27
钙 27
锤子 27
门上 27
阵列 27
隔间 27
雄心勃勃 27
雪橇 27
青睐 27
须@@ 27
饱和 27
饿死 27
马拉维 27
驾@@ 27
高强度 27
高清 27
鲸@@ 27
黄油 27
鼓动 27
1400 26
1957 26
1983 26
25000 26
Bu@@ 26
DA 26
LHC 26
Mad@@ 26
Mal@@ 26
Mike 26
OS 26
Per@@ 26
Ros@@ 26
TR 26
Ushahidi 26
WK 26
ang 26
ath@@ 26
ge 26
ick@@ 26
net 26
off 26
our@@ 26
ox@@ 26
v 26
一一 26
一列 26
一向 26
一帮 26
一幢 26
一新 26
一日 26
一桩 26
一段话 26
一盒 26
万次 26
三人 26
三月 26
上边 26
下个月 26
下跌 26
不比 26
不由自主 26
不自在 26
不问 26
丛 26
两家 26
中叶 26
中枢 26
丹佛 26
主导地位 26
主演 26
主页 26
举报者 26
乌龟 26
乍@@ 26
买到 26
事务所 26
事要 26
二手@@ 26
五到 26
交到 26
产品@@ 26
亲眼看到 26
人住 26
他俩 26
任期 26
伦理道德 26
估量 26
住处 26
何不 26
保释 26
俯视 26
倍@@ 26
假体 26
假货 26
偏僻 26
储藏 26
儿女 26
兄 26
全场 26
八年级 26
公 26
六千 26
关系网 26
内核 26
内科医生 26
冰原 26
准确率 26
几秒 26
凯拉 26
出奇 26
凿@@ 26
分界线 26
分量 26
别误会 26
前所未见 26
剥离 26
副业 26
劣势 26
勾勒 26
化解 26
十八 26
十字架 26
千真万确 26
卡洛斯 26
卡车司机 26
卫报 26
卫星@@ 26
印刷机 26
卵巢癌 26
历史博物馆 26
厨@@ 26
双语 26
发出信号 26
发散 26
发生@@ 26
发疯 26
发育@@ 26
各个领域 26
合伙人 26
合法性 26
后排 26
后背 26
呜 26
周长 26
唐纳 26
喷泉 26
器官移植 26
四处@@ 26
回忆录 26
回忆起 26
困在 26
固态 26
地外 26
地球@@ 26
坑@@ 26
坠@@ 26
垫子 26
埃尔@@ 26
堆叠 26
塞尔维亚 26
壮丽 26
壮举 26
备份 26
大巴 26
太贵 26
太近 26
头颅 26
契合 26
奥林匹克运动会 26
如此一来 26
妄想 26
姿 26
嫌疑人 26
字面上 26
学习@@ 26
学术研究 26
安逸 26
完全@@ 26
宏@@ 26
密封 26
导电 26
尼亚@@ 26
尼尔森 26
山姆 26
巡演 26
巫术 26
已久 26
市政 26
市政府 26
帝王 26
平坦 26
平庸 26
幼崽 26
广为人知 26
店员 26
开创性 26
弄错 26
弗里 26
归咎于 26
往回 26
径直 26
很难说 26
心血 26
志向 26
思考问题 26
总算 26
恶作剧 26
悄悄 26
惊吓 26
惊慌 26
惨剧 26
惭愧 26
惯性 26
想不出 26
慈悲心 26
成名 26
我想@@ 26
战略性 26
所示 26
所称 26
扇门 26
手铐 26
才智 26
扑克 26
投入使用 26
投掷 26
抨击 26
担保 26
担当 26
拉丁文 26
拳头 26
挡@@ 26
捉 26
据此 26
排行榜 26
控制力 26
推断出 26
措辞 26
摇滚乐 26
播报 26
攀@@ 26
攀升 26
收成 26
攻击性 26
放任 26
教过 26
数千个 26
敲击 26
敲门 26
文凭 26
文学作品 26
斑点 26
料@@ 26
无法@@ 26
无法忍受 26
日后 26
旺盛 26
显 26
晚些时候 26
暑假 26
曲解 26
有效性 26
有水 26
末尾 26
朱丽叶 26
杀伤性 26
杜 26
条路 26
来来回回 26
来电 26
某项 26
格雷@@ 26
梦寐以求 26
楼下 26
正统 26
步态 26
步枪 26
残 26
残留 26
水分子 26
水晶 26
沉入 26
沉思 26
沉积物 26
河道 26
法医 26
活泼 26
测出 26
浓 26
浮 26
浴缸 26
涂成 26
消费品 26
涨@@ 26
深感 26
清晰度 26
渡渡 26
渣 26
游戏规则 26
游过 26
滑动 26
潘@@ 26
潘多拉 26
火车站 26
烫 26
煽动 26
爱沙尼亚 26
牛津大学 26
牧@@ 26
猎豹 26
猖獗 26
猫@@ 26
玄@@ 26
环游世界 26
玻色子 26
珠@@ 26
班上 26
球场上 26
理发师 26
瓶盖 26
生殖@@ 26
生物量 26
电动车 26
电脑屏幕 26
男女平等 26
男子汉 26
留心 26
番 26
瘦@@ 26
白板 26
百万富翁 26
百分之七十 26
百分之二 26
直达 26
相互竞争 26
相互连接 26
相加 26
真话 26
眠@@ 26
眼看 26
着装 26
知不知道 26
磁带 26
磨难 26
礁石 26
社会主义 26
离谱 26
私密 26
种姓 26
种族问题 26
科目 26
积极@@ 26
移到 26
空缺 26
窜 26
竖起 26
竭尽所能 26
第一名 26
第四次 26
答对 26
答道 26
筹备 26
筹集资金 26
简单化 26
粗 26
粘合 26
糊 26
索取 26
索要 26
纳米级 26
练@@ 26
细胞分裂 26
经济效益 26
网址 26
罗斯@@ 26
置换 26
美籍 26
老妇人 26
职能 26
聪明才智 26
胆 26
背井离乡 26
能带 26
腿部 26
膝@@ 26
艺术创作 26
芙 26
芭蕾舞 26
菲尔 26
菲尼克斯 26
落入 26
著@@ 26
薯条 26
虾@@ 26
蛮@@ 26
蜥蜴 26
血细胞 26
袖@@ 26
装上 26
裙 26
要学 26
解决之道 26
讣文 26
认得 26
让步 26
许@@ 26
许诺 26
论据 26
词来 26
请愿书 26
诺贝尔 26
谎 26
貌 26
贪腐 26
费力 26
赞叹 26
越久 26
越少 26
足足 26
踢球 26
身份证 26
转为 26
辣椒 26
辩@@ 26
迪克 26
迷信 26
迷路 26
选择权 26
道格 26
遗失 26
里会 26
重复使用 26
锂 26
长着 26
长短 26
闭上 26
防守 26
阿什 26
阿拉巴马州 26
附带 26
限定 26
除以 26
除掉 26
陷@@ 26
雪花 26
雾@@ 26
霾 26
预测出 26
领舞 26
题材 26
额头 26
飘 26
香料 26
马拉 26
验 26
验@@ 26
骰子 26
高危 26
高等 26
高跟鞋 26
魔兽 26
鳕鱼 26
黑莓 26
01 25
1.3 25
1930 25
1940 25
1974 25
8.@@ 25
Bo@@ 25
Bri@@ 25
Frank 25
Inter@@ 25
Isirika 25
K党 25
MBA 25
MDMA 25
MO 25
MZ 25
Me 25
NBA 25
NGO 25
Romo 25
Tre@@ 25
Vi@@ 25
ach 25
app@@ 25
ba 25
bert 25
ock 25
ost@@ 25
sc@@ 25
sch@@ 25
uck@@ 25
一回 25
一堂课 25
一带 25
一步@@ 25
一氧化氮 25
一罐 25
一节 25
一角 25
三名 25
三角@@ 25
上用 25
上部 25
下手 25
不佳 25
不尽相同 25
不得@@ 25
不明 25
不相@@ 25
不负责任 25
不顾 25
不高 25
专业技能 25
专员 25
两千万 25
两性 25
严格@@ 25
中央处理器 25
中微子 25
丰富多彩 25
临 25
事态 25
人口密度 25
人民@@ 25
人质 25
人问 25
仅限于 25
介质 25
从业 25
从小到大 25
付出代价 25
份子 25
伟人 25
传统意义 25
伤亡 25
低沉 25
佐@@ 25
何为 25
侄子 25
來 25
例证 25
修剪 25
倍感 25
偿还 25
儿科医生 25
全麦 25
八百万 25
公共汽车 25
公民权利 25
共通 25
典@@ 25
典礼 25
养老院 25
写入 25
冰冻 25
决不 25
决赛 25
减低 25
几件 25
几只 25
凤凰 25
凯利 25
凯西 25
击球 25
分崩离析 25
分流 25
判 25
前兆 25
剧团 25
加勒比 25
动物@@ 25
勒斯 25
北欧 25
十分相似 25
半个世纪 25
半前 25
半导体 25
半月 25
单向 25
卡西尼 25
卧@@ 25
双性恋 25
反物质 25
发布会 25
发抖 25
发泄 25
发芽 25
受孕 25
台下 25
叶片 25
向前走 25
吞 25
吞下 25
告诫 25
周游世界 25
呼声 25
咖啡因 25
哈维 25
哼 25
唱诗班 25
喉@@ 25
困难重重 25
国际货币基金组织 25
图灵 25
圣人 25
地区性 25
地铁站 25
场上 25
坏掉 25
埃德 25
埃莉诺 25
填埋场 25
墙面 25
外交政策 25
外衣 25
多媒体 25
大帝 25
夺去 25
夺取 25
奔波 25
奶油 25
始@@ 25
嫁 25
存储@@ 25
孙@@ 25
学生会 25
安抚 25
安迪 25
宫@@ 25
家庭作业 25
宾夕法尼亚州 25
宾馆 25
宿@@ 25
小孔 25
小宝宝 25
就会@@ 25
巨额 25
差一点 25
巴斯 25
巴贝奇 25
布兰登 25
布洛克 25
帅 25
希伯来语 25
帝 25
幅照片 25
并肩 25
幼儿 25
广播公司 25
床边 25
店铺 25
开明 25
弗林特 25
弹钢琴 25
归来 25
当权者 25
往事 25
征收 25
很慢 25
很穷 25
很重 25
微量 25
心痛 25
心目 25
思考者 25
怨恨 25
恢复过来 25
恼火 25
想些 25
意大利人 25
意料之外 25
成堆 25
我活 25
所幸 25
打磨 25
扭 25
扶@@ 25
扶持 25
投票@@ 25
抗原 25
抗衡 25
折扣 25
担负 25
招式 25
拢 25
拨打 25
持续增长 25
指南针 25
挪@@ 25
换掉 25
推进器 25
插图 25
援 25
搜 25
放上 25
敏感度 25
数万 25
整条 25
料到 25
斯里兰卡 25
新娘 25
新德里 25
施展 25
施工 25
无偿 25
无非 25
既@@ 25
旷@@ 25
星期六 25
景点 25
暖 25
暴 25
暴龙 25
曲折 25
更广 25
有望 25
朝鲜人 25
木匠 25
来得及 25
极佳 25
某样 25
柜子 25
栩栩如生 25
梵高 25
楚 25
橘 25
欢笑 25
欧洲@@ 25
歇斯底里 25
死亡威胁 25
氢原子 25
氧化@@ 25
汇 25
沉 25
沙特 25
油污 25
沿用 25
法定 25
津贴 25
浮出 25
海狮 25
消毒 25
深蓝色 25
渡河 25
游戏机 25
溶@@ 25
滋味 25
漆 25
演奏者 25
激动不已 25
灰烬 25
灰质 25
烈 25
热力学 25
热带地区 25
照护 25
燃煤 25
爱尔@@ 25
牢记 25
犯罪@@ 25
犹@@ 25
犹他州 25
环境因素 25
现代主义 25
现实主义 25
理想主义 25
理论家 25
理财 25
瓦斯 25
生子 25
田纳西州 25
电波 25
电费 25
男女@@ 25
畅销书 25
留住 25
病态 25
痉挛 25
白细胞 25
百分之六十 25
盆地 25
益生菌 25
监护室 25
盖子 25
盖尔 25
真棒 25
眼科 25
瞧瞧 25
破灭 25
确确实实 25
社工 25
禁锢 25
福布斯 25
离岸 25
科夫 25
空气@@ 25
窃听 25
竖 25
第一句 25
第一本 25
第三步 25
第三阶段 25
第九 25
第五个 25
第六@@ 25
笼 25
等会儿 25
管理人员 25
米格尔 25
粮 25
精湛 25
精疲力竭 25
精神病院 25
纬度 25
纸条 25
终端 25
继@@ 25
维他命 25
绿灯 25
缓冲 25
网络安全 25
罗伊 25
美人鱼 25
聋哑人 25
聪明人 25
肃@@ 25
肥 25
胃里 25
胞外基质 25
能耗 25
脂@@ 25
脉搏 25
脑干 25
脱口秀 25
脸庞 25
腹 25
腾 25
自来水 25
自相矛盾 25
苍@@ 25
苛刻 25
若干年 25
英国政府 25
菌@@ 25
萨里 25
落地 25
蓄@@ 25
蔑视 25
薛定谔 25
藉由 25
蝎子 25
行使 25
表示@@ 25
裁判 25
褐色 25
要紧 25
詹妮弗 25
誓言 25
警车 25
计算机程序 25
认出来 25
讲课 25
评 25
译@@ 25
试镜 25
详尽 25
调情 25
调解 25
豆 25
豹 25
贝索 25
负债 25
赌博 25
赫兹 25
起重机 25
超凡 25
路标 25
转录 25
辅@@ 25
这么久 25
这棵树 25
这群人 25
这行 25
远超过 25
连接@@ 25
迟 25
迟缓 25
退伍 25
逛 25
遇 25
遍地 25
遗传基因 25
郁@@ 25
采样 25
重担 25
钉子 25
钻进 25
银色 25
闪闪发光 25
闭合 25
阿兰 25
阿奇 25
雌性激素 25
雕 25
零部件 25
非常适合 25
靴子 25
靶@@ 25
项链 25
顾@@ 25
颂@@ 25
领取 25
领悟到 25
飘浮 25
食品安全 25
食者 25
香槟 25
马歇尔 25
骇人 25
高音 25
鱼儿 25
鸭@@ 25
麻 25
鼬 25
5.@@ 24
747 24
9000 24
AIMS 24
AL@@ 24
Daniel 24
ESG 24
FB 24
Fa@@ 24
Fer@@ 24
Free 24
GC 24
Hel@@ 24
MS 24
OL@@ 24
SARS 24
SB 24
SS 24
Scott 24
Sl@@ 24
ect@@ 24
ice 24
me 24
oth@@ 24
sen 24
ster 24
well 24
ya 24
za 24
〉 24
一切都在 24
一波 24
一笑 24
三百@@ 24
下水 24
不全是 24
不容 24
不说 24
世界大战 24
东北 24
丢下 24
两座 24
中央@@ 24
中层 24
举着 24
之声 24
之美 24
乳 24
事迹 24
互惠 24
交通事故 24
产假 24
仍能 24
代代相传 24
代名词 24
代言 24
伍德 24
众议院 24
会儿 24
会因 24
伟业 24
低落 24
作用力 24
佳@@ 24
使用@@ 24
使用量 24
使者 24
侠 24
便携式 24
促@@ 24
保守主义 24
保持平衡 24
信中 24
修道院 24
倒数 24
值得@@ 24
做会 24
做错 24
停住 24
僧侣 24
克拉@@ 24
免疫力 24
全局 24
全然 24
全能 24
八月 24
关键词 24
兴奋不已 24
内有 24
内膜 24
军团 24
冬 24
冰面 24
凭空 24
分销 24
划船 24
制裁 24
功率 24
匀@@ 24
千美元 24
半钟 24
博览会 24
卡门 24
卧底 24
厄瓜多尔 24
压根 24
参选 24
反应器 24
发来 24
受众 24
口器 24
另一@@ 24
另一方 24
可知 24
司法@@ 24
各有 24
合理化 24
同龄 24
听取 24
启蒙运动 24
吵 24
吸尘器 24
吸血鬼 24
吹口哨 24
告密者 24
呜@@ 24
呼吸系统 24
哎呀 24
哥们 24
售@@ 24
售价 24
商讨 24
喘息 24
嘶@@ 24
因果 24
国务卿 24
图像@@ 24
图示 24
图雷 24
地壳 24
坠毁 24
坦率 24
垫@@ 24
埋藏 24
基底 24
基本定律 24
壮 24
处方药 24
外力 24
外墙 24
多方面 24
大提琴 24
大都市 24
天王星 24
头条新闻 24
夺 24
奈 24
奏@@ 24
妙@@ 24
婴 24
嬉皮士 24
季候风 24
宅 24
定下 24
定为 24
密西西比河 24
寓意 24
对性 24
寻 24
寿司 24
封存 24
射出 24
小额贷款 24
小鸟 24
尝@@ 24
尼日利亚人 24
尼罗河 24
屈服于 24
巫@@ 24
巫师 24
帧 24
平方@@ 24
幼年 24
废话 24
延缓 24
开放性 24
式化 24
弗雷德 24
弥漫 24
强迫性 24
当今社会 24
征 24
徒手 24
得意 24
性别差异 24
性是 24
性虐待 24
总计 24
惨 24
想见 24
感光 24
成员国 24
成形 24
成真 24
战线 24
所受 24
扁 24
打出 24
打哈欠 24
执行@@ 24
扬声器 24
把头 24
投资@@ 24
投降 24
押 24
拉动 24
拉美 24
拓@@ 24
拾@@ 24
指导@@ 24
挖出 24
挪动 24
捏造 24
损耗 24
换来 24
排版 24
控制室 24
摩洛哥 24
播放器 24
收容所 24
改观 24
放大镜 24
放着 24
敏感性 24
救命 24
教育家 24
数据中心 24
敲响 24
整洁 24
无限大 24
时而 24
时间机器 24
星期一 24
显现出来 24
晃动 24
暂@@ 24
暖和 24
曾祖父 24
替身 24
最低@@ 24
权限 24
杆@@ 24
条线 24
杰西卡 24
染上 24
柴 24
栓 24
核心@@ 24
核查 24
格温 24
模因 24
橡皮泥 24
欺骗性 24
步调 24
死胡同 24
残渣 24
每一 24
每平方米 24
比分 24
毛衣 24
氦气 24
水族馆 24
水槽 24
汉字 24
波纹 24
泰坦尼克号 24
洗衣服 24
流产 24
流感疫苗 24
流行起来 24
测定 24
浩@@ 24
海鲜 24
涟漪 24
淋@@ 24
淹死 24
渗入 24
渗透到 24
滋生 24
滥@@ 24
漏掉 24
演算法 24
灾@@ 24
炸药 24
片状 24
牛羚 24
特里 24
狂欢 24
狂犬病毒 24
环状 24
环顾 24
珊达 24
琼 24
生效 24
生机勃勃 24
用电 24
田野 24
申请@@ 24
电厂 24
电子书 24
电磁 24
电车 24
皆@@ 24
皇室 24
盈余 24
盛宴 24
相悖 24
眼界 24
睁开眼睛 24
瞎@@ 24
石器时代 24
确 24
碱 24
碳原子 24
示意 24
礼堂 24
社@@ 24
神明 24
祭@@ 24
秋@@ 24
科塔 24
穆萨 24
空间@@ 24
竖@@ 24
笛卡尔 24
符@@ 24
第一场 24
第三条 24
第十@@ 24
管弦乐队 24
篱笆 24
粉笔 24
粘液 24
粪球 24
精 24
紧急@@ 24
纪律 24
纳德 24
织物 24
终结者 24
给与 24
给定 24
绝非 24
绿化 24
缀 24
缓缓 24
缘由 24
缩影 24
缺氧 24
罚金 24
美国宇航局 24
老太太 24
者@@ 24
耗能 24
聊过 24
联系人 24
肌肤 24
育 24
胶水 24
脑组织 24
脚印 24
脚踝 24
腺@@ 24
臂@@ 24
自助 24
自然法则 24
自由民主 24
舆论 24
舔 24
航天局 24
良知 24
艾拉 24
艾萨克 24
艾达 24
花瓣 24
范 24
荒诞 24
药店 24
荷马 24
菌类 24
营业 24
蚁群 24
蜂@@ 24
蜘蛛网 24
行列 24
表现@@ 24
表现形式 24
表达出来 24
衰弱 24
袋鼠 24
见见 24
规章 24
解体 24
警局 24
计量 24
讲到 24
试图用 24
语句 24
语言@@ 24
说不@@ 24
诽谤 24
谓 24
费劲 24
超导体 24
跟进 24
践行 24
踩@@ 24
身在 24
身子 24
车程 24
达尔富尔 24
运往 24
这令 24
进化史 24
远超 24
迫@@ 24
逝世 24
遗传物质 24
邦@@ 24
邮票 24
醇 24
重击 24
重新考虑 24
金牌 24
锤 24
长椅 24
闪 24
问责 24
阈值 24
防卫 24
阴性 24
阿拉@@ 24
降雨量 24
随处 24
隐含 24
难以捉摸 24
集装箱 24
露西 24
青 24
非人类 24
非典 24
面粉 24
音乐剧 24
顶点 24
预防性 24
风扇 24
首字母 24
马克思 24
马萨诸塞州 24
驶向 24
骑着 24
高低 24
魄 24
鲜艳 24
鹦嘴 24
黑点 24
鼓声 24
鼓起勇气 24
12@@ 23
1700 23
2025 23
220 23
81 23
AI@@ 23
Amy 23
Bob 23
Brian 23
CH 23
Cor@@ 23
DE@@ 23
Di@@ 23
FGM 23
Far@@ 23
Jeff 23
LT 23
MB 23
Mu@@ 23
Pro@@ 23
Sam 23
Sand@@ 23
StoryCorps 23
Veronica 23
We@@ 23
Wolfram 23
XY 23
^ 23
ams 23
cima 23
ere 23
eth 23
ions 23
iss@@ 23
ius 23
la@@ 23
ri 23
ver 23
⋯ 23
〈 23
一丁点 23
一个三维 23
一九@@ 23
一些则 23
一分 23
一半@@ 23
一吨 23
一大块 23
一大笔钱 23
一招 23
一朵花 23
一环 23
一百多年 23
一面镜子 23
七十 23
万事@@ 23
万英尺 23
上会 23
上放 23
下会 23
下属 23
不成 23
专利@@ 23
丢脸 23
两万 23
中间@@ 23
为人所知 23
为食 23
之名 23
乞求 23
争议性 23
事会 23
事时 23
二十亿 23
二年级 23
二次 23
亏损 23
亚人 23
交际 23
人类基因 23
从属 23
从无到有 23
仓 23
仗 23
代理人 23
任由 23
作风 23
保护环境 23
借贷 23
借钱 23
值钱 23
倾诉 23
偿@@ 23
先后 23
先说 23
克里 23
全年 23
八卦 23
公之于众 23
公共安全 23
兴 23
冰上 23
凭直觉 23
凯瑟琳 23
凶 23
出众 23
出卖 23
出台 23
分析师 23
刑事法律 23
利他 23
到时候 23
制作者 23
剑桥大学 23
剧中 23
功 23
动性 23
勘探 23
匆匆 23
匆忙 23
半透明 23
博学 23
却@@ 23
压倒性 23
去处 23
反之亦然 23
发性 23
发明创造 23
受挫 23
叛乱 23
口水 23
古生物学家 23
叫法 23
叮 23
可可 23
可谓 23
台灯 23
合作@@ 23
同化 23
后裔 23
呈@@ 23
员@@ 23
周二 23
周刊 23
呼吸机 23
咨询@@ 23
哀@@ 23
哈罗德 23
响亮 23
善待 23
喷雾 23
嘲弄 23
四分钟 23
四年级 23
圆环 23
地缘 23
坎 23
坦然 23
坦率地 23
垒 23
堂吉诃德 23
堵住 23
塔楼 23
塞满 23
墓碑 23
处处 23
外交家 23
外公 23
大堂 23
大大减少 23
大学教授 23
大屏幕 23
大山 23
大意 23
大黄蜂 23
天下 23
天主教徒 23
太迟 23
头版 23
奥利弗 23
奥妙 23
奥尔@@ 23
妥 23
威尔逊 23
威廉姆斯 23
嫌@@ 23
孕期 23
存储器 23
实惠 23
宽带 23
宾州 23
寸 23
对人 23
导入 23
小册子 23
小说家 23
居所 23
州立 23
工作日 23
已故 23
巴哈马 23
市场份额 23
帕斯卡 23
席位 23
平均数 23
平衡点 23
年会 23
年轻一代 23
并排 23
幻灯 23
庆@@ 23
序@@ 23
开诚布公 23
德黑兰 23
忍耐 23
忠@@ 23
性状 23
性高潮 23
恋人 23
恍惚 23
恩赐 23
恶性 23
恶行 23
悄悄地 23
愈@@ 23
感人 23
感恩节 23
感觉良好 23
愤@@ 23
慈悯 23
成败 23
我同 23
我爸 23
戒 23
截然 23
房东 23
房产 23
托管 23
扳机 23
折射 23
抢发 23
抢走 23
报废 23
抵触 23
拟人化 23
挂毯 23
指针 23
挑出 23
捞@@ 23
控制杆 23
控告 23
提炼出 23
揭@@ 23
揭发 23
搞清 23
撒旦 23
效能 23
敏 23
数十万 23
数据资料 23
数码@@ 23
整晚 23
斜坡 23
方框 23
族长 23
无常 23
无所事事 23
无数个 23
无止境 23
无缝 23
既定 23
日内瓦 23
时代广场 23
时间跨度 23
昼夜 23
晦涩 23
普洛斯 23
晶片 23
暖化 23
暴徒 23
最前沿 23
有句 23
朋克 23
望去 23
机舱 23
材 23
极致 23
果园 23
果然 23
标准@@ 23
树种 23
核弹头 23
梦境 23
植入物 23
模块化 23
横穿 23
歉意 23
止痛药 23
死神 23
每天花 23
比利时 23
毫无用处 23
氮气 23
水产 23
水星 23
水是 23
水滴 23
水生 23
汽水 23
汽车座椅 23
没到 23
油轮 23
沿途 23
泳池 23
浇@@ 23
测试者 23
涉@@ 23
润@@ 23
淋巴结 23
深爱 23
混混 23
温床 23
渴 23
游击队员 23
滑行 23
演进 23
灵性 23
炭@@ 23
点点 23
烈@@ 23
烈火 23
热心 23
熔@@ 23
犹太@@ 23
猎 23
珀@@ 23
理所应当 23
理清 23
琴@@ 23
电子化 23
电话@@ 23
略微 23
疏离 23
白种人 23
相关者 23
相距 23
看书 23
看得出来 23
睡觉时 23
砂@@ 23
确切的说 23
社会保障 23
私营部门 23
种族主义者 23
种植园 23
科罗拉多州 23
秒@@ 23
积极性 23
穆 23
空无一物 23
突起 23
窝@@ 23
笔画 23
第二代 23
等离子体 23
筋 23
筹 23
简便 23
简宁 23
米长 23
精明 23
精神病学 23
素描 23
紧缩 23
纵轴 23
线圈 23
细胞壁 23
经销商 23
绘@@ 23
维空间 23
绽放 23
编号 23
网路 23
羊群 23
美好生活 23
翻新 23
翻阅 23
老是 23
而过 23
聊天室 23
肉瘤 23
胸口 23
能源@@ 23
脚本 23
自动@@ 23
自我感觉 23
自由市场 23
自画像 23
色情@@ 23
英语@@ 23
茁壮成长 23
茎 23
荒芜 23
荫 23
莫名其妙 23
莫过于 23
莱恩 23
莱杰特 23
萦绕 23
蓄意 23
蓝线 23
蔓延到 23
蕾丝 23
藏品 23
虐@@ 23
蜿蜒 23
融为一体 23
蠕动 23
补救 23
衫 23
裸@@ 23
覆@@ 23
覆盖@@ 23
见效 23
规划师 23
规避 23
角膜 23
解锁 23
警务 23
认真对待 23
议 23
讲得 23
诈骗 23
诊疗 23
误 23
谁@@ 23
谢谢您 23
象征意义 23
象棋 23
贺卡 23
赏@@ 23
赔偿 23
赢@@ 23
起效 23
越深 23
足球场 23
跟不上 23
路口 23
躁 23
躲@@ 23
轴@@ 23
轴突 23
轶事 23
轻轻地 23
输家 23
边际 23
达菲 23
迄今 23
这仅 23
连贯 23
连通 23
迟钝 23
迷住 23
递交 23
造价 23
遇难 23
遗嘱 23
遗留 23
那句话 23
那本 23
酝酿 23
醒来时 23
释放出来 23
里边 23
重型 23
野牛 23
金融机构 23
鉴别 23
钻探 23
钻研 23
钾 23
销@@ 23
错乱 23
门廊 23
闲逛 23
阅@@ 23
阿姆斯特朗 23
陆军 23
陶醉 23
随身携带 23
雄心 23
静默 23
鞭@@ 23
顺带 23
顺应 23
预感 23
领带 23
颞叶 23
饥@@ 23
馈赠 23
马基雅 23
驾 23
骗@@ 23
高手 23
高贵 23
鸽 23
黄瓜 23
黄金@@ 23
黏土 23
1.4 22
137 22
1918 22
1971 22
1972 22
2019 22
AS 22
AV 22
Alan 22
And@@ 22
Av@@ 22
BC 22
BR@@ 22
CMU 22
CO 22
DARPA 22
DG 22
DL 22
Dar@@ 22
GB 22
Go 22
Go@@ 22
Gra@@ 22
IR@@ 22
KS 22
Kat@@ 22
MD 22
Man@@ 22
Mark 22
Martin 22
PA 22
PDF 22
SA@@ 22
SJ 22
SM 22
TS 22
Tony 22
Tur@@ 22
ari 22
ess@@ 22
ial 22
ins 22
ip 22
ire 22
itt@@ 22
les 22
mon@@ 22
ome 22
ook 22
ord@@ 22
ris@@ 22
ston 22
tr@@ 22
ub 22
í 22
一千万 22
一堂 22
一战 22
一现 22
上画 22
下层 22
下棋 22
下雪 22
不多 22
不看 22
不顾一切 22
中央政府 22
主修 22
主旨 22
义工 22
乐在其中 22
争 22
五位 22
五十@@ 22
五千万 22
亚洲象 22
人到 22
人口数 22
人格@@ 22
人比 22
仅用 22
从头 22
份额 22
优秀@@ 22
传感 22
估值 22
伸 22
低价 22
住户 22
何等 22
余地 22
例假 22
侵 22
信息量 22
修辞 22
借来 22
假使 22
假死 22
偿 22
僵局 22
充沛 22
光点 22
光环 22
光顾 22
克鲁@@ 22
免疫@@ 22
兜@@ 22
全方位 22
公共利益 22
公共部门 22
公告 22
共度 22
关在 22
冲洗 22
冲着 22
准许 22
凉爽 22
凑 22
出产 22
出汗 22
出租 22
创伤性 22
创客 22
判刑 22
制冷 22
前路 22
劝 22
办公桌 22
助产士 22
劳动者 22
劳斯 22
北冰洋 22
医务人员 22
医疗@@ 22
十八岁 22
博茨瓦纳 22
卫士 22
卫生系统 22
印在 22
印度语 22
印证 22
却会 22
卷起 22
卸下 22
厂@@ 22
历史长河 22
双性人 22
双螺旋 22
反转 22
受害 22
变更 22
口服 22
古董 22
可信度 22
可回收 22
可恶 22
史迪芬 22
右转 22
合力 22
吊 22
同心协力 22
吞食 22
启用 22
咯 22
咽 22
四百 22
回放 22
国防部 22
土著人 22
圣殿 22
在短期内 22
地方性 22
地标 22
址 22
坏习惯 22
坏处 22
垂死 22
垃圾场 22
培 22
堆满 22
堡垒 22
堵车 22
声调 22
多到 22
多谢 22
大便 22
大学校园 22
大开眼界 22
大法官 22
天鹅 22
失灵 22
夺回 22
奇幻 22
奇观 22
契 22
契机 22
奢华 22
奥普拉 22
奴隶制度 22
好不好 22
媒体报道 22
孙辈 22
学派 22
宁可 22
它用 22
宛如 22
宝马 22
客观@@ 22
宣战 22
宽松 22
寄宿 22
密歇根州 22
小伙 22
小巷 22
小溪 22
小车 22
小队 22
局外人 22
岔@@ 22
巨大变化 22
巴特勒 22
市政厅 22
希波 22
帕克 22
帝国大厦 22
平安 22
并行 22
庆 22
康德 22
开张 22
异教徒 22
强制性 22
强劲 22
归结 22
彻@@ 22
微波炉 22
微观世界 22
微调 22
徽章 22
心力衰竭 22
必要性 22
快进 22
总统大选 22
总署 22
恒 22
恢复@@ 22
恢复正常 22
悉@@ 22
悲观主义 22
情绪化 22
想像@@ 22
想像力 22
惹@@ 22
愚弄 22
感想 22
愤世嫉俗 22
戏法 22
我学 22
战区 22
户@@ 22
房顶 22
打字机 22
打游戏 22
执行者 22
扫 22
投票者 22
拆解 22
拉拉 22
拍卖 22
拔 22
拘留所 22
招呼 22
拿掉 22
指挥@@ 22
挣脱 22
捐@@ 22
接下去 22
控制系统 22
推到 22
描绘出 22
提姆 22
插画 22
搏 22
搬迁 22
摘除 22
摩托 22
操 22
支持率 22
收件箱 22
改为 22
政体 22
敏@@ 22
教育工作者 22
敬意 22
敲打 22
斐 22
斗士 22
断定 22
施行 22
无可 22
无序 22
无所不在 22
日裔 22
早先 22
明明 22
显眼 22
晃 22
晚年 22
智能@@ 22
暗杀 22
暴躁 22
更多@@ 22
最合适 22
最高点 22
有如 22
有条 22
杜尔曼 22
松鼠 22
果断 22
枝@@ 22
柄 22
某位 22
柔@@ 22
根本就是 22
桌@@ 22
梅隆 22
棋 22
棒@@ 22
棕榈树 22
楷模 22
次要 22
欣喜 22
款项 22
歌剧院 22
歌颂 22
正经 22
此人 22
此项 22
残缺 22
毯 22
水体 22
水底 22
水泥@@ 22
汹涌 22
沉没 22
泉@@ 22
泛 22
洒@@ 22
洗礼 22
涌@@ 22
涩 22
混杂 22
渍 22
渔船 22
湿度 22
源代码 22
滑翔机 22
演讲人 22
澳@@ 22
激进分子 22
火腿 22
点上 22
烧伤 22
焦躁 22
熔炉 22
爆炸@@ 22
父辈 22
牌照 22
牙膏 22
牵扯 22
犯罪分子 22
狐狸 22
猛犸象 22
献身 22
玩弄 22
现任 22
现实情况 22
现身 22
球赛 22
理查 22
甜蜜 22
生活习惯 22
生锈 22
电量 22
画成 22
留出 22
畸形 22
痴呆症 22
白蚁 22
盎司 22
盗窃 22
直白 22
相对来说 22
相左 22
相聚 22
相见 22
看时 22
真人秀 22
真实@@ 22
睁 22
睁开 22
矩形 22
破损 22
确凿 22
确立 22
碳氢化合物 22
祝你好运 22
私立学校 22
科恩 22
秘钥 22
称号 22
穷困 22
空旷 22
窗@@ 22
立方 22
符合@@ 22
第一家 22
第一部 22
第二位 22
第二组 22
第六 22
等不及 22
筹到 22
筹资 22
箱@@ 22
粉红色 22
精确度 22
精神障碍 22
纸袋 22
组合成 22
经验教训 22
结构@@ 22
结点 22
维和 22
绵羊 22
绿线 22
缓@@ 22
罗素 22
翻译@@ 22
老去 22
老家 22
老百姓 22
耗资 22
职务 22
聘用 22
聪慧 22
股价 22
肥@@ 22
肾@@ 22
背心 22
胎@@ 22
胡 22
胡安 22
脉@@ 22
腕@@ 22
腺体 22
自制 22
自拍 22
自此 22
臭氧 22
致力 22
致病 22
舅舅 22
若想 22
苹果电脑 22
茧 22
药效 22
药监局 22
菌根 22
萨尔 22
葡萄@@ 22
蒙特雷 22
蕴含着 22
蚕@@ 22
蛛 22
蜘蛛侠 22
蜡@@ 22
蟋蟀 22
表征 22
要少 22
要死 22
覆 22
视界 22
视觉艺术 22
警觉 22
警醒 22
讨 22
议案 22
讯号 22
许多次 22
设计@@ 22
诀窍 22
诉诸 22
读物 22
读读 22
调查员 22
谱系 22
豪华 22
负鼠 22
贪污 22
贻贝 22
赌@@ 22
赛场 22
赞赏 22
走势 22
超声 22
超速 22
越战 22
趣@@ 22
跟前 22
身亡 22
车主 22
轴上 22
轻度 22
较少 22
较差 22
辩解 22
过夜 22
这般 22
连同 22
递送 22
通行 22
逝者 22
造假 22
逾 22
遇@@ 22
遏制 22
遮住 22
那句 22
那根 22
郁闷 22
都柏林 22
释@@ 22
重写 22
重大@@ 22
重聚 22
金丝雀 22
钦佩 22
银幕 22
错误@@ 22
长期@@ 22
闯入 22
闹钟 22
阁下 22
阅 22
附属 22
隔热 22
难关 22
雪球 22
雪茄 22
霍 22
面容 22
音阶 22
顺其自然 22
顾 22
领会 22
颤 22
风琴 22
飞来飞去 22
饮 22
饮水 22
饱 22
马上会 22
马里奥 22
驱除 22
驶@@ 22
高效率 22
高明 22
默默 22
龙王 22
190 21
1920 21
1929 21
1947 21
1949 21
1967 21
230 21
AED 21
AK 21
Charles 21
Com@@ 21
Craig 21
DIY 21
Dave 21
EB 21
ES@@ 21
Earth 21
Gre@@ 21
IN@@ 21
Jer@@ 21
Joseph 21
Lyn@@ 21
Mich@@ 21
Nick 21
Ol@@ 21
Pe@@ 21
Ra@@ 21
Ravi 21
STEM 21
Sil@@ 21
Siri 21
Smith 21
Te@@ 21
Tri@@ 21
Vis@@ 21
Watson 21
Win@@ 21
ale 21
att@@ 21
be@@ 21
ett 21
ey@@ 21
ier 21
inc@@ 21
ini 21
itz 21
ney 21
ood 21
ort@@ 21
ory 21
q@@ 21
sky 21
ss 21
th 21
uel 21
un 21
ung@@ 21
ur 21
yd@@ 21
® 21
β 21
一下@@ 21
一举一动 21
一代代 21
一具 21
一加仑 21
一包 21
一匹 21
一心 21
一段路 21
一站 21
七天 21
三样 21
三项 21
上岸 21
上能 21
下场 21
不可否认 21
不如@@ 21
不容@@ 21
不得了 21
不断扩大 21
专业化 21
世贸中心 21
东边 21
两方 21
两根 21
严密 21
中央银行 21
中途 21
串联 21
之苦 21
乖 21
乘着 21
书架 21
二极管 21
互动性 21
五件 21
五年级 21
五点 21
交互作用 21
交互式 21
交换@@ 21
交接 21
交流@@ 21
人选 21
亿元 21
亿次 21
今 21
仓@@ 21
代人 21
伏特 21
优先级 21
会计师 21
传染给 21
伴奏 21
伸出手 21
低调 21
何时何地 21
佩 21
供养 21
依次 21
俚语 21
倾注 21
健身房 21
催眠 21
僵化 21
儿童医院 21
先看 21
先驱者 21
克雷格 21
全部都是 21
公司@@ 21
六年级 21
关注度 21
关系@@ 21
关键性 21
其二 21
其实不然 21
内裤 21
再下 21
决策制定 21
况@@ 21
减掉 21
凝固 21
几百人 21
出入 21
出生地 21
分叉 21
分子结构 21
划水 21
划算 21
刘旭 21
利于 21
刮 21
刺绣 21
刻苦 21
剃@@ 21
前卫 21
前台 21
割 21
力求 21
办事 21
加固 21
助听器 21
努力学习 21
劲儿 21
匪夷所思 21
区别对待 21
医护 21
医药@@ 21
十七世纪 21
十二个 21
十几年 21
十分复杂 21
十字 21
升空 21
半天 21
华盛顿邮报 21
卑鄙 21
博士后 21
危险性 21
参考@@ 21
又会有 21
反义词 21
发热 21
发笑 21
发言人 21
取自 21
受访者 21
变化@@ 21
司空见惯 21
同义词 21
名誉 21
后部 21
听不见 21
吸纳 21
吹嘘 21
周三 21
和平共处 21
咯咯 21
哒 21
哥特 21
哺育 21
唇 21
啮齿@@ 21
喂@@ 21
喷涌 21
嘉宾 21
器具 21
噩@@ 21
四十亿 21
团伙 21
固化 21
国家级 21
土卫二 21
圣诞@@ 21
垃圾邮件 21
基本原理 21
基督教徒 21
基础@@ 21
塌@@ 21
增添 21
声源 21
外加 21
外来@@ 21
多任务处理 21
多多少少 21
多点 21
大写 21
大雨 21
天分 21
奇迹般地 21
奋@@ 21
女主角 21
女声 21
女童 21
她家 21
好心 21
妊娠 21
婆婆 21
守护者 21
安放 21
安稳 21
安第斯山脉 21
定时 21
室内@@ 21
家们 21
家畜 21
家门口 21
宽泛 21
对数 21
小房间 21
小马 21
尤为重要 21
尾部 21
屁@@ 21
居家 21
岛@@ 21
峰@@ 21
巴巴 21
市面上 21
帆布 21
帐 21
带去 21
带薪 21
平衡@@ 21
幻 21
床单 21
店主 21
弗吉尼亚州 21
弗格森 21
弦琴 21
录像机 21
彻头彻尾 21
微乎其微 21
心室 21
必 21
志同道合 21
快门 21
忽@@ 21
怯场 21
恋情 21
恭@@ 21
恳求 21
悄然 21
惨痛 21
成份 21
我教 21
我错 21
手斧 21
打乱 21
打孔 21
打工 21
打死 21
打球 21
扩增 21
扩建 21
批量 21
抄 21
投影仪 21
抖 21
披@@ 21
抽屉 21
拉特 21
拟@@ 21
指认 21
挤出 21
挤满 21
挥手 21
振作起来 21
捆绑 21
探索者 21
探险者 21
接通 21
描@@ 21
提早 21
援@@ 21
搁 21
搭载 21
摧残 21
操场 21
改建 21
放回 21
教程 21
教育者 21
数据量 21
整座 21
文学@@ 21
斩首 21
斯托 21
斯特拉 21
新冠 21
新式 21
方格 21
旅 21
无神论 21
无足轻重 21
日夜 21
明尼苏达州 21
星系团 21
春 21
晃@@ 21
晨@@ 21
暗示着 21
暴君 21
曲目 21
曲线图 21
木质 21
未解 21
本地人 21
极强 21
极点 21
极端分子 21
柠檬 21
柴油 21
栖@@ 21
格里 21
棋@@ 21
椭圆形 21
欣 21
正为 21
死地 21
死板 21
比不上 21
比亚 21
比重 21
毫不犹豫 21
水力 21
水手 21
水牛 21
水瓶 21
汉姆 21
江@@ 21
汽@@ 21
沉迷 21
沐浴 21
沟@@ 21
沦为 21
河岸 21
油砂 21
泉 21
波音 21
浓厚 21
海岸边 21
涉水 21
涌向 21
深切 21
渗@@ 21
渡过 21
温泉 21
游牧民族 21
溅 21
漂流 21
漂移 21
潘 21
火葬 21
火鸡 21
灵巧 21
炸掉 21
炸毁 21
点到 21
煮@@ 21
熏@@ 21
爬树 21
爱着 21
片面 21
牙科 21
物质@@ 21
狂人 21
狂喜 21
狮@@ 21
猝死 21
率先 21
瓷器 21
甜美 21
用具 21
用词 21
田纳西 21
申请专利 21
电脉冲 21
画板 21
画笔 21
疗@@ 21
疲@@ 21
疲倦 21
癌变 21
白种 21
白素贞 21
皆知 21
盛大 21
相提并论 21
看清楚 21
真假 21
真谛 21
瞪 21
知识@@ 21
短跑 21
石器 21
石斑鱼 21
破坏力 21
破烂 21
碎石 21
碧@@ 21
社会活动 21
社会福利 21
社区服务 21
禁 21
秉@@ 21
秋季 21
科勒 21
科医生 21
科学院 21
科罗拉多 21
租赁 21
积极情绪 21
积蓄 21
竭力 21
等级制度 21
筹划 21
签证 21
简单明了 21
简短地 21
算上 21
管它 21
篮@@ 21
簇 21
米尔@@ 21
精疲力尽 21
精良 21
紧张@@ 21
繁琐 21
红十字会 21
纤维@@ 21
纪 21
结节 21
绘 21
统统 21
绿洲 21
绿球藻 21
缅因州 21
编纂 21
缘@@ 21
缠@@ 21
美国国防部 21
美女 21
翻开 21
翻过来 21
而行 21
耐力 21
耳环 21
肩并肩 21
胶质 21
腐 21
自以为是 21
自信心 21
自我介绍 21
自治 21
至极 21
至高无上 21
致癌 21
良性 21
艺人 21
节俭 21
苗 21
荷兰人 21
莱纳 21
菌群 21
葫芦 21
藏身 21
虽@@ 21
蛾 21
蜂窝 21
蜜 21
蜡笔 21
融洽 21
螺@@ 21
衰败 21
袍 21
被关 21
被叫 21
裹@@ 21
观望 21
觉悟 21
认识一下 21
记录片 21
记起 21
评审 21
诉@@ 21
词组 21
诡计 21
语义 21
误认为 21
说教 21
诺贝尔@@ 21
课后 21
谱写 21
购@@ 21
赛事 21
赶走 21
起居室 21
超强 21
越来越近 21
越长 21
跋涉 21
跌@@ 21
身患 21
躯干 21
输掉 21
运营商 21
这款 21
这股 21
这面 21
进晚餐 21
述说 21
逆流而上 21
选举人 21
透视 21
逐一 21
递减 21
通电 21
通行证 21
通讯@@ 21
道别 21
遥@@ 21
那人 21
酯 21
酿@@ 21
采矿 21
重启 21
重度 21
重温 21
钢丝 21
铝@@ 21
锋@@ 21
长辈 21
闪耀 21
防护@@ 21
防线 21
阿尔及利亚 21
阿片类 21
阿特拉 21
阿茨海默症 21
除此以外 21
雀@@ 21
雅克 21
青铜 21
静静地 21
非洲地区 21
面条 21
顽@@ 21
飞去 21
餐具 21
饶@@ 21
马丁路德 21
马尔@@ 21
马来西亚 21
驱赶 21
驶过 21
高得 21
高性能 21
高超 21
﹖ 21
$ 20
1948 20
1962 20
1964 20
1966 20
1977 20
3500 20
365 20
6500 20
AA 20
ABC 20
AD@@ 20
Ash@@ 20
Bre@@ 20
CL 20
CP 20
CTE 20
Christ@@ 20
Col@@ 20
Dr@@ 20
G20 20
HA 20
IM 20
Joe 20
Johnson 20
MW 20
Mac@@ 20
NP 20
Neil 20
Qu@@ 20
Raisuddin 20
Rob 20
SL 20
Sarah 20
Scratch 20
Siftables 20
Ta@@ 20
Ter@@ 20
ack@@ 20
ain 20
be 20
bi@@ 20
col@@ 20
cy 20
die 20
for@@ 20
fre@@ 20
ht@@ 20
ight 20
ind 20
j 20
ling 20
my 20
od 20
ola 20
org@@ 20
out 20
rat@@ 20
sk@@ 20
ull@@ 20
yn 20
you 20
一体化 20
一切正常 20
一叠 20
一大部分 20
一曲 20
一月份 20
一段@@ 20
一碗 20
一贯 20
万圣节 20
三分 20
上报 20
上花 20
上路 20
不堪重负 20
不快 20
不断进步 20
专政 20
且@@ 20
丢@@ 20
两万@@ 20
两代 20
两幅 20
两极 20
两百 20
两部 20
中所 20
中用 20
中观 20
中间人 20
主题@@ 20
乌拉圭 20
乔治亚州 20
乘法 20
书页 20
予以 20
事与愿违 20
互不 20
产下 20
亲属 20
人口总数 20
人文主义 20
人症 20
人里 20
令人困惑 20
企业@@ 20
伊斯坦布尔 20
会来 20
传真 20
伦理@@ 20
但丁 20
位子 20
侦查 20
保护者 20
信息时代 20
倒入 20
偏误 20
僧人 20
光在 20
光荣 20
光谱@@ 20
克拉 20
克鲁斯 20
入住 20
全心全意 20
全面@@ 20
公关 20
兰人 20
兼顾 20
内衣 20
农户 20
决定权 20
决议 20
况且 20
几岁 20
几项 20
凶杀 20
出国 20
出场 20
出没 20
分不清 20
创可贴 20
判断力 20
制衡 20
刺激@@ 20
刺痛 20
刻薄 20
前瞻性 20
办公@@ 20
加州大学洛杉矶分校 20
务实 20
动乱 20
动力@@ 20
努力@@ 20
募@@ 20
化学元素 20
北爱尔兰 20
十二年 20
千千万万 20
升降 20
单亲 20
卡特里娜 20
卢卡斯 20
卫 20
即刻 20
卷土重来 20
厄运 20
原点 20
双重@@ 20
发到 20
取名为 20
取得胜利 20
受人 20
受精卵 20
古城 20
可变 20
可真 20
可食用 20
合唱 20
合在一起 20
合情合理 20
同卵 20
名气 20
后遗症 20
命中注定 20
哨声 20
哲@@ 20
唉 20
唾手可得 20
啤酒@@ 20
善款 20
喝醉 20
喷气 20
嗜@@ 20
四分 20
围巾 20
固然 20
圆盘 20
土壤@@ 20
坐牢 20
垂体 20
埃克 20
基准 20
基因@@ 20
塞斯 20
塞缪尔 20
夏令营 20
夏日 20
多半 20
多远 20
大哭 20
大块 20
大部份 20
太热 20
失衡 20
头儿 20
头皮 20
奔走 20
奥斯陆 20
奥陌 20
好用 20
妇@@ 20
妖魔化 20
委婉 20
威士忌 20
学了 20
学年 20
学术期刊 20
官僚主义 20
宜 20
实话实说 20
实际行动 20
容许 20
寂 20
密谋 20
寡妇 20
封电子邮件 20
少数民族 20
少许 20
层出不穷 20
屎 20
屏气 20
履@@ 20
山脊 20
岌岌可危 20
嵌@@ 20
工序 20
左右@@ 20
左转 20
巴拉 20
市场化 20
布伦@@ 20
布林 20
布莱@@ 20
布鲁@@ 20
布鲁塞尔 20
帕拉 20
帕金森 20
帖子 20
带子 20
常年 20
幅@@ 20
并不多 20
并肩作战 20
庄严 20
底座 20
延时 20
建筑工人 20
弗里德曼 20
弟 20
归于 20
归结为 20
当着 20
彷@@ 20
往下@@ 20
径 20
循@@ 20
必要条件 20
快得多 20
怀揣 20
怀疑论者 20
怎@@ 20
急于 20
恰到好处 20
悔恨 20
惊 20
惊醒 20
想像成 20
想当然 20
愚昧 20
感悟 20
感染力 20
戈尔@@ 20
成千 20
我越 20
战地 20
截取 20
截至 20
所罗门 20
扇@@ 20
打喷嚏 20
托拉 20
扶 20
抄@@ 20
投弹 20
抬 20
抵@@ 20
抹杀 20
拉萨 20
拐杖 20
拒@@ 20
拖拉机 20
拥 20
括约肌 20
持有者 20
挨家挨户 20
捐出 20
捐助者 20
捕鲸 20
损 20
换位 20
掉@@ 20
掉落 20
排挤 20
接入 20
推开 20
掩埋 20
揽 20
搅拌 20
摇摇欲坠 20
摘@@ 20
撤销 20
收银员 20
改用 20
改装 20
放上去 20
放牧 20
放电 20
放过 20
整数 20
斯大林 20
斯蒂夫 20
新词 20
施加压力 20
旅鸽 20
无可避免 20
无所@@ 20
无所不能 20
旱灾 20
时间轴 20
旺@@ 20
昂 20
星期二 20
暖气 20
暗淡 20
月底 20
朱莉 20
朱萨尼 20
杰森 20
杰米 20
松开 20
极富 20
极快 20
构筑 20
枕头 20
果酱 20
某物 20
格雷格 20
桌边 20
梳理 20
检查@@ 20
模拟@@ 20
橡皮 20
欢快 20
歇 20
正确@@ 20
正确率 20
死人 20
殖民者 20
毒贩 20
比较简单 20
毕@@ 20
毙 20
毛茸茸 20
民意 20
氟@@ 20
水壶 20
水温 20
沃尔特 20
没人@@ 20
油价 20
法制 20
法子 20
波纳契 20
泰伊 20
洁@@ 20
洗钱 20
洞里 20
津@@ 20
洪 20
流亡 20
浆 20
测算 20
涂层 20
消防栓 20
深圳 20
深色 20
深远影响 20
混合@@ 20
湍流 20
满月 20
漠不关心 20
灯塔 20
炫酷 20
热潮 20
版权保护 20
物理现象 20
狂躁 20
独特性 20
独角兽 20
狮 20
猎犬 20
猎食 20
王蛇 20
环境影响 20
现已 20
珠峰 20
琳娜 20
瑞斯 20
生存环境 20
生态学家 20
生物进化 20
生菜 20
甲壳@@ 20
电灯泡 20
电站 20
电脑前 20
男友 20
画上 20
留存 20
疟原虫 20
疮 20
痛感 20
登顶 20
百岁 20
皮带 20
皮特 20
盗取 20
相交 20
相通 20
着急 20
着眼 20
瞳孔 20
短篇 20
石灰岩 20
碳纳米管 20
社交活动 20
神学 20
神情 20
科德 20
租金 20
积聚 20
稀奇 20
稀薄 20
窃@@ 20
符 20
第一次世界大战 20
筑 20
签字 20
简明 20
管控 20
箭@@ 20
篡改 20
籽 20
粉红 20
粘贴 20
红点 20
纪元 20
纳税 20
纹@@ 20
纺织@@ 20
纽约大学 20
线下 20
细心 20
续集 20
绳@@ 20
综合@@ 20
缆 20
编制 20
缴纳 20
缺损 20
羊羔 20
美联储 20
群居 20
群组 20
联觉 20
联赛 20
聚居地 20
肆意 20
胀 20
能源危机 20
脑内 20
脱颖而出 20
腐朽 20
腻 20
自主性 20
自尊心 20
自带 20
自杀式 20
自满 20
色调 20
艺@@ 20
节制 20
花样 20
花椰菜 20
芽 20
苗条 20
苯@@ 20
英特网 20
茫然 20
草甸 20
荒凉 20
药剂师 20
荷 20
蒂娜 20
蒂斯 20
蓄水 20
蓝点 20
蓬 20
薇 20
藤 20
蚀 20
蜂后 20
血样 20
血红蛋白 20
衣着 20
袋@@ 20
西南 20
西装 20
观测@@ 20
规划者 20
视觉效果 20
角色扮演 20
解放@@ 20
解说 20
触感 20
触手 20
讣告 20
记录@@ 20
设计方案 20
说是 20
请愿 20
诺亚 20
诺言 20
豌豆 20
贝斯 20
贝蒂 20
负重 20
购物@@ 20
起着 20
起立 20
足球队 20
跑过来 20
身临其境 20
车间 20
转入 20
较量 20
较长 20
输血 20
辛格 20
过头 20
近代 20
这么回事 20
这挺 20
这架 20
这真 20
迭代 20
逐年 20
逗@@ 20
逢 20
逸 20
逼近 20
避孕药 20
邮寄 20
邮局 20
配送 20
酸性 20
采伐 20
重新分配 20
金刚 20
钟摆 20
钢筋 20
钦@@ 20
钱财 20
铁轨 20
铸@@ 20
锁链 20
镇定 20
长途 20
闪现 20
阳 20
阿诺德 20
降低成本 20
院里 20
院长 20
陶 20
随机@@ 20
随身带 20
隐患 20
难为情 20
雄心壮志 20
集中@@ 20
雕塑@@ 20
霉 20
面朝 20
音箱 20
音节 20
音速 20
顾及 20
预设 20
颈 20
颈部 20
首批 20
首页 20
马赫 20
马里兰州 20
驻扎 20
骨子里 20
髋关节 20
高层次 20
高档 20
高铁 20
高龄 20
鬣狗 20
鲍鱼 20
黑白@@ 20
默斯 20
默里 20
默默地 20
黛 20
鼓点 20
鼻孔 20
0.2 19
12000 19
1956 19
1963 19
240 19
50000 19
650 19
7.5 19
Art 19
Boy@@ 19
Carl@@ 19
DT 19
H5N1 19
HG 19
HT 19
ID 19
IM@@ 19
IP 19
Lu@@ 19
Mur@@ 19
Nicole 19
Ny@@ 19
RO@@ 19
Ro@@ 19
Sim@@ 19
Snapchat 19
SpaceX 19
Speech 19
VV 19
Zipcar 19
app 19
ass 19
ata 19
bor@@ 19
han 19
ile 19
int 19
ise 19
ite 19
ja 19
ko 19
land 19
lie 19
ona 19
ou 19
oy@@ 19
pl@@ 19
ppm 19
ric@@ 19
rop@@ 19
ug 19
umb@@ 19
ump 19
ver@@ 19
一万亿 19
一击 19
一动不动 19
一国 19
一夫一妻制 19
一小片 19
一层层 19
一性 19
一整@@ 19
一格 19
一袋 19
万到 19
三只 19
三百 19
上万 19
上前 19
上门 19
上限 19
下一阶段 19
下丘脑 19
下决心 19
下颚 19
不利于 19
不单是 19
不同点 19
不堪@@ 19
不止一次 19
不见@@ 19
不需 19
东德 19
两三个 19
个子 19
中说 19
为啥 19
举足轻重 19
乘飞机 19
九十 19
习得 19
习惯性 19
事前 19
二十万 19
于心 19
互利 19
互相合作 19
亚裔 19
交涉 19
交点 19
交通堵塞 19
产后 19
亨 19
享乐 19
人脉 19
仅次于 19
仆 19
从此以后 19
仔 19
仔细@@ 19
令人厌恶 19
令人满意 19
以防万一 19
价值链 19
伎俩 19
休息室 19
众包 19
伙 19
传回 19
传言 19
传输@@ 19
伤感 19
伪@@ 19
伯明翰 19
伴有 19
伽马射线 19
住院@@ 19
佐证 19
体操 19
例行 19
侵权 19
便利店 19
促 19
保守党 19
保留地 19
信使 19
信教 19
假日 19
假笑 19
做广告 19
储@@ 19
储存@@ 19
元音 19
充分发挥 19
先令 19
先来 19
光污染 19
克拉底 19
入境 19
入院 19
全副武装 19
六百万 19
六边形 19
共和 19
其后 19
养料 19
内尔 19
内阁 19
军校 19
军用 19
冥王星 19
冷水 19
准备就绪 19
凡事 19
凶猛 19
出版@@ 19
出资 19
出钱 19
击垮 19
分层 19
分类@@ 19
切斯特 19
列夫 19
创造财富 19
制图 19
前辈 19
前门 19
剩@@ 19
剪断 19
加尔 19
加尔各答 19
动画@@ 19
助长 19
努 19
劳累 19
勃起 19
化验 19
北极@@ 19
匪 19
十五分钟 19
千万年 19
千克 19
半边 19
华氏 19
单人 19
单车 19
南希 19
博尔德 19
博尼卡 19
博科 19
卡罗尔 19
卢 19
卢比 19
厂商 19
厄@@ 19
反叛 19
反射@@ 19
受到@@ 19
受训 19
可耻 19
合成器 19
同种 19
吵闹 19
呐 19
哄 19
哈佛商学院 19
哪条 19
哺乳 19
唐@@ 19
唠叨 19
商业活动 19
喧嚣 19
噜 19
回击 19
回顾过去 19
因数 19
图解 19
圣路易斯 19
基线 19
堪称 19
塔克 19
塞尔吉奥 19
塞罗 19
填饱 19
增殖 19
墨尔本 19
复 19
外人 19
外号 19
多发性 19
大写字母 19
大有 19
天文台 19
太空飞行 19
契尼 19
女性朋友 19
好意 19
姆斯 19
姑@@ 19
姓氏 19
委@@ 19
威利 19
婆 19
媒 19
存入 19
存有 19
孤身一人 19
守则 19
安哥拉 19
安静下来 19
宗教仪式 19
定性 19
家后 19
家庭主妇 19
家庭收入 19
寂寞 19
导性 19
射电 19
小企业 19
小伙伴 19
小盒子 19
尼莱坞 19
山地 19
峭壁 19
崇尚 19
崎岖 19
崩 19
巴拉维 19
巴菲特 19
巴蒂 19
巴里 19
布里 19
希腊语 19
帕金森症 19
帝@@ 19
带你去 19
帮人 19
帮到 19
常有 19
干吗 19
平淡 19
并会 19
幼苗 19
广告商 19
度日 19
建在 19
开学 19
开着车 19
弊端 19
弱者 19
当上 19
当代艺术 19
录音机 19
微处理器 19
心肌细胞 19
心胸 19
忠告 19
快照 19
总额 19
恐怖@@ 19
恒温器 19
恶性肿瘤 19
悠@@ 19
悠久 19
悬念 19
情不自禁 19
情商 19
情报局 19
惩@@ 19
意大利语 19
愚@@ 19
慎@@ 19
慢速 19
我带 19
我开 19
我心 19
战略@@ 19
戴安娜 19
手术@@ 19
才华横溢 19
打下 19
找人 19
承担风险 19
抓到 19
投篮 19
抚慰 19
抚摸 19
抹掉 19
拆卸 19
拉德 19
拍拍 19
拱@@ 19
挽@@ 19
捡起来 19
换种 19
排泄 19
接受者 19
接生 19
推导 19
插曲 19
搬家 19
摇动 19
摇头 19
收入水平 19
收录 19
收据 19
收藏家 19
收视率 19
放疗 19
放缓 19
教养 19
教派 19
斋@@ 19
斗篷 19
斯山 19
新墨西哥州 19
新大陆 19
新闻界 19
施暴者 19
旅行@@ 19
无奈 19
无意间 19
无机 19
无法自拔 19
日常用品 19
日照 19
时态 19
时有 19
时长 19
旺 19
明晰 19
星云 19
昵称 19
普世 19
普遍认为 19
暗网 19
暴雨 19
更是如此 19
更远 19
最终目标 19
最贵 19
最高层 19
最高峰 19
有利可图 19
本体 19
权威@@ 19
杉 19
束手无策 19
杨@@ 19
松动 19
校友 19
样板 19
核实 19
格拉 19
档案馆 19
棕榈油 19
楼层 19
橙子 19
欢庆 19
欺@@ 19
此基础 19
此种 19
武装@@ 19
歪曲 19
母亲节 19
母牛 19
毛细血管 19
气囊 19
求助于 19
求学 19
求生 19
汗水 19
沉淀 19
治病 19
沾@@ 19
泊 19
洛伦 19
洛斯 19
洼 19
流浪者 19
海洋@@ 19
消沉 19
涌出 19
涡轮机 19
深厚 19
深水 19
深空 19
渔网 19
温带 19
游览 19
溪 19
满满 19
漫游者 19
澎湃 19
火球 19
炫 19
热狗 19
烯 19
照耀 19
特大城市 19
特许 19
犯罪者 19
狭义 19
猪肉 19
玛丽@@ 19
球形 19
理论@@ 19
琪 19
瑞典人 19
瓷砖 19
甚远 19
甜点 19
生存@@ 19
生育率 19
用水量 19
用量 19
甲壳虫 19
电视频道 19
病历 19
癖 19
登山 19
白眼 19
百万吨 19
皱@@ 19
目的性 19
相似性 19
相辅相成 19
真诚地 19
瞎 19
石化 19
矿场 19
砂 19
碰面 19
碳酸钙 19
磁盘 19
礼服 19
秋 19
秘书 19
称职 19
移植手术 19
空壳 19
突击 19
竟@@ 19
童子军 19
童工 19
第一座 19
第一手 19
第七 19
第二层 19
米饭 19
类地行星 19
粪@@ 19
糊@@ 19
糕点 19
索尼 19
纠@@ 19
纠纷 19
纸牌 19
细长 19
绞 19
绞@@ 19
绞尽脑汁 19
综@@ 19
罐头 19
网友 19
罕 19
罗密欧 19
罪恶感 19
美国国家航空航天局 19
美国士兵 19
翅 19
翻看 19
老奶奶 19
考古学 19
联合国儿童基金会 19
肠子 19
肯塔基州 19
肺病 19
肺里 19
胆量 19
胰腺 19
脏话 19
脑癌 19
脱掉 19
腹腔镜 19
自我实现 19
自由选择 19
自行@@ 19
舒尔茨 19
舟 19
舰队 19
艰@@ 19
艳@@ 19
艺术馆 19
艾凡 19
芯 19
花旗 19
苔藓 19
英雄主义 19
苹果派 19
荒漠化 19
莫名 19
莫大 19
莫桑比克 19
萌芽 19
蒙特@@ 19
蒸汽机 19
薄片 19
虐 19
虹膜 19
蜂类 19
血型 19
血缘关系 19
行政@@ 19
衣柜 19
表上 19
表现力 19
衰@@ 19
衰减 19
被子 19
裁缝 19
裂痕 19
装作 19
褪色 19
西南部 19
观察@@ 19
觉察 19
觉察到 19
解构 19
触犯 19
计时 19
认知失调 19
训练@@ 19
设在 19
译成 19
试过 19
误以为 19
说好 19
诺斯 19
谜语 19
贫困人口 19
费解 19
赋@@ 19
赞助商 19
跨学科 19
踏 19
躁郁症 19
身形 19
车牌 19
车臣 19
转盘 19
轴线 19
辐射@@ 19
辜负 19
达尔 19
达罗斯 19
过大 19
运动神经元 19
这两项 19
这会儿 19
这花 19
进军 19
违规 19
通用@@ 19
造林 19
遮挡 19
那家 19
那类 19
那间 19
那首歌 19
郎 19
酚 19
重述 19
金矿 19
铺设 19
锐@@ 19
错误观念 19
锦标赛 19
镁 19
问得 19
问责制 19
间断 19
闷 19
阀门 19
陌 19
陶瓷 19
随即 19
隐 19
雅虎 19
集束炸弹 19
雇@@ 19
零碎 19
霍尔 19
非传统 19
非营利性 19
面体 19
面包师 19
音乐学院 19
项@@ 19
预备 19
颠簸 19
风靡 19
飞得 19
食肉 19
饿@@ 19
首尔 19
香草 19
马力 19
马里@@ 19
驰@@ 19
骨髓移植 19
高价 19
高到 19
高楼 19
鬼魂 19
鲁莽 19
黑手党 19
龙卷风 19
105 18
1917 18
1952 18
1953 18
1981 18
2040 18
30@@ 18
35000 18
69 18
APP 18
Apple 18
CAD 18
CPU 18
Dean 18
Di 18
Fr@@ 18
Gary 18
IDEO 18
Kanzi 18
Kathryn 18
Kn@@ 18
LE@@ 18
LG 18
LI@@ 18
LIGO 18
LS@@ 18
Lor@@ 18
Lov@@ 18
Lucius 18
MG 18
MT 18
McGowan 18
NM 18
OECD 18
Or@@ 18
PE@@ 18
RD 18
RG 18
RISD 18
Ray 18
Rick 18
Ron 18
Shar@@ 18
Sm@@ 18
Tim@@ 18
Zero 18
ail 18
com@@ 18
con@@ 18
een 18
ena 18
erg@@ 18
gle 18
ich 18
ide 18
ike 18
la 18
oe 18
onn@@ 18
oop 18
orn 18
ose 18
oub@@ 18
ould 18
oy 18
ph@@ 18
rap@@ 18
te 18
ton@@ 18
uf@@ 18
ush 18
yr@@ 18
▪ 18
一书 18
一味 18
一如既往 18
一百万倍 18
一百倍 18
一试 18
七分 18
七年级 18
七种 18
万倍 18
万公里 18
万分之一 18
三张 18
上一年 18
上任 18
上尉 18
上帝保佑 18
上楼 18
上风 18
不出所料 18
不尽 18
不着 18
不能不 18
不配 18
专业训练 18
世界冠军 18
两三年 18
两千@@ 18
中介 18
中共 18
中央公园 18
中奖 18
中心化 18
中枢神经 18
中止 18
中起 18
临床@@ 18
为所@@ 18
主动脉 18
举荐 18
之光 18
之母 18
乐土 18
乐子 18
乒乓球 18
乔伊 18
买个 18
事业@@ 18
二战时期 18
亏@@ 18
五千年 18
五角大楼 18
亡 18
交谊舞 18
产品设计 18
人像 18
人写 18
人口统计 18
人形 18
人物@@ 18
仅为 18
仅存 18
仆人 18
代币 18
代际 18
令人称奇 18
众筹 18
优于 18
会得 18
伪 18
伯蒂县 18
伯里 18
伸进 18
伽 18
伽玛 18
伽罗瓦 18
住进 18
使命感 18
俄克拉何马 18
信任感 18
信号灯 18
信息源 18
修昔底 18
倍增 18
倒置 18
借着 18
假发 18
偏偏 18
做主 18
做作业 18
停工 18
停战 18
停止使用 18
傍晚 18
催化 18
儒@@ 18
兄妹 18
党@@ 18
入门 18
全班 18
全球定位系统 18
全神贯注 18
全食 18
八点 18
公交@@ 18
公交系统 18
公务员 18
公立 18
公车 18
六到 18
共同利益 18
关联词 18
养家 18
养殖@@ 18
内化 18
内斯 18
内燃机 18
冈 18
再次发生 18
再造 18
冗长 18
写书 18
冠状动脉 18
冬@@ 18
冲到 18
冷静下来 18
凉@@ 18
凝胶 18
几何学 18
几近 18
出差 18
分区 18
切身 18
创新能力 18
删掉 18
到处跑 18
刺耳 18
前夜 18
动感 18
动手术 18
动物界 18
动画片 18
劲@@ 18
北大西洋 18
北极圈 18
匹马 18
医疗保障 18
十五岁 18
十亿美元 18
半部 18
华尔街日报 18
华盛顿大学 18
卑微 18
卡什 18
卡夫卡 18
卡斯特 18
压根儿 18
原版 18
参与@@ 18
发源地 18
发炎 18
受不了 18
受限 18
变慢 18
另一家 18
只管 18
可循 18
可达 18
同步@@ 18
名副其实 18
后腿 18
否决 18
听闻 18
告发 18
告终 18
周四 18
哈德逊 18
哈特 18
哔@@ 18
哥们儿 18
哨兵 18
哪些地方 18
哭声 18
唤 18
喙 18
喜不喜欢 18
喜马拉雅 18
嘎@@ 18
嘣 18
四到 18
四百万 18
回国 18
回望 18
园区 18
国务院 18
国家主义 18
国际法 18
地理学 18
场馆 18
坐落于 18
垂 18
垃圾箱 18
型号 18
声学 18
夏洛特 18
外包 18
外骨骼 18
多元性 18
多哥 18
多活 18
多长 18
夜店 18
大众化 18
大大降低 18
大头针 18
大妈 18
大局 18
天然@@ 18
奋力 18
好的开始 18
如出一辙 18
妇女@@ 18
委任 18
娜@@ 18
娱乐性 18
婆罗 18
嫁@@ 18
孔雀 18
学来 18
完全一致 18
定居点 18
实用主义 18
宠@@ 18
审议 18
寿@@ 18
小数 18
屡见不鲜 18
岁@@ 18
岭 18
崩盘 18
工业界 18
左腿 18
巨无霸 18
巴拉克 18
巴西人 18
巷 18
布景 18
布莱尔 18
布雷 18
帐户 18
平方米 18
年少 18
庄园 18
应是 18
废气 18
延续下去 18
建好 18
引述 18
弥勒 18
强悍 18
强权 18
强韧 18
当晚 18
录下 18
彭@@ 18
往外 18
征程 18
征税 18
径@@ 18
心仪 18
心头 18
忍受着 18
急迫 18
怨@@ 18
总得 18
总说 18
恍然大悟 18
息@@ 18
恳请 18
悉 18
悬 18
惨不忍睹 18
想必 18
慢跑 18
我下 18
我照 18
或用 18
所剩无几 18
手握 18
扑灭 18
打压 18
打理 18
打量 18
扩充 18
把玩 18
抗癌 18
抛出 18
报刊 18
披 18
拉拉@@ 18
拖延者 18
拧@@ 18
择@@ 18
拳击手 18
拼在一起 18
拼装 18
拿下 18
指头 18
指挥家 18
挺不错 18
捏@@ 18
探视 18
接收@@ 18
接电话 18
推倒 18
揣@@ 18
搁置 18
搅@@ 18
搞懂 18
搭便车 18
摊@@ 18
撇开 18
播客 18
收看 18
故事情节 18
救人 18
救活 18
教员 18
敢@@ 18
散开 18
敬佩 18
数不胜数 18
数到 18
数十 18
数百万美元 18
数码相机 18
整夜 18
方舟 18
施虐 18
无处 18
无望 18
日常@@ 18
早些 18
早前 18
早早 18
时性 18
昏昏欲睡 18
易怒 18
晚会 18
普鲁斯特 18
晶 18
晶状体 18
智人 18
暴风 18
有多远 18
有生以来 18
有空 18
有线电视 18
本齐 18
朴@@ 18
朵夫 18
杀人犯 18
杜克 18
条条框框 18
松散 18
柏 18
某地 18
树皮 18
栗 18
校准 18
核糖核酸 18
桌布 18
检 18
棉 18
棒子 18
棵树 18
植 18
楼上 18
榜 18
模具 18
横轴 18
樱@@ 18
歌舞伎 18
正中间 18
正站 18
武 18
武器@@ 18
武装冲突 18
每家 18
比方 18
毗@@ 18
毛里求斯 18
毫克 18
永无止境 18
求婚 18
汉语 18
污垢 18
没准 18
没有@@ 18
河床 18
油脂 18
油门 18
治疗法 18
波段 18
泳@@ 18
洗衣 18
测量@@ 18
浦@@ 18
浮冰 18
海星 18
海狗 18
浸泡 18
涂上 18
涂料 18
涨落 18
深吸 18
渐 18
渐冻 18
渔夫 18
渔村 18
温馨 18
湿润 18
溺水 18
满怀希望 18
潜质 18
灌木丛 18
灰熊 18
炫@@ 18
烤面包 18
烤面包机 18
熔化 18
爆裂 18
牵涉 18
特雷@@ 18
狂野 18
独奏 18
狱 18
猛然 18
猜到 18
猴@@ 18
玉米片 18
现代科技 18
现实@@ 18
现时 18
玻璃杯 18
珠子 18
瑞士@@ 18
生下 18
生成器 18
生灵 18
生物化学 18
生物钟 18
生物降解 18
电力供应 18
电影节 18
电话簿 18
畅想 18
病理 18
登记@@ 18
监管者 18
盖洛普 18
盗 18
直奔 18
看透 18
眨 18
睡不着 18
碰触 18
礼仪 18
社交生活 18
社会群体 18
社会阶层 18
票数 18
祸@@ 18
禁毒 18
禅@@ 18
禽 18
科研@@ 18
科研人员 18
积攒 18
称做 18
移开 18
稍作 18
稠 18
稻@@ 18
穆巴拉克 18
穷国 18
突 18
突击@@ 18
突袭 18
窥 18
立志 18
立法@@ 18
立法者 18
第四点 18
第欧根尼 18
等价 18
等同 18
簿 18
粮@@ 18
精心设计 18
精神科 18
糖浆 18
紧迫感 18
红毛 18
纤毛 18
纱 18
纹状体 18
线粒体 18
组学 18
细微差别 18
终极目标 18
经验@@ 18
结婚@@ 18
结成 18
续@@ 18
维珍 18
绷带 18
罗德 18
罗杰斯 18
罗纳德 18
置信 18
置身 18
美好@@ 18
翻过 18
老妈 18
老年@@ 18
耍 18
聊起 18
联合会 18
联合国@@ 18
联手 18
肾 18
胃口 18
胆怯 18
胜利者 18
胡说八道 18
能源需求 18
脂质 18
脆弱性 18
脚手架 18
自始至终 18
自由式 18
舰 18
色彩@@ 18
艺术展 18
艾尔 18
艾斯@@ 18
艾玛 18
节律 18
节约能源 18
芝加哥大学 18
芭比娃娃 18
花儿 18
荣 18
菜谱 18
营业@@ 18
萨斯 18
萨达姆 18
葛 18
董事 18
蒂亚 18
蒸@@ 18
蓄 18
蚌 18
表决 18
裁决 18
装修 18
西尔 18
西弗吉尼亚州 18
要钱 18
规格 18
视觉@@ 18
觉@@ 18
解救出来 18
譬如说 18
证件 18
试纸 18
试验@@ 18
诚信 18
诱使 18
请原谅 18
诺基亚 18
象形文字 18
贝南 18
贝类 18
负罪感 18
财务@@ 18
贩卖机 18
贫乏 18
贷 18
资料库 18
资本家 18
超级大国 18
跳下去 18
跳入 18
踩踏 18
蹒跚 18
躲开 18
车流 18
车窗 18
转瞬即逝 18
轮班 18
载人 18
辛勤工作 18
辛西娅 18
达克 18
近似 18
近十年 18
这一@@ 18
这代人 18
这帮 18
这束 18
进口@@ 18
进度条 18
远去 18
迪恩 18
逃生 18
透明性 18
遍@@ 18
道德观 18
遗弃 18
遨游 18
遵@@ 18
邓@@ 18
邦德 18
邮报 18
邮编 18
邻居家 18
郑重 18
醒悟 18
里昂 18
里森 18
量产 18
钥 18
铁丝网 18
铲@@ 18
错误信息 18
锡 18
锥@@ 18
锦@@ 18
镰状 18
长假 18
长期性 18
长满 18
问卷调查 18
闯@@ 18
间歇泉 18
阴阳 18
阿尔戈 18
阿拉伯@@ 18
阿格 18
阿片 18
阿联酋 18
陀@@ 18
际@@ 18
随手 18
难免 18
难点 18
难闻 18
集体行动 18
集结 18
需求量 18
震 18
非国家 18
面包店 18
革命@@ 18
鞋带 18
音乐节 18
颅@@ 18
领略 18
颇@@ 18
颈@@ 18
风景@@ 18
飞奔 18
食性 18
饮@@ 18
饮酒 18
香皂 18
马克笔 18
驯化 18
验证码 18
骨盆 18
高楼大厦 18
高盛 18
高雅 18
魔幻 18
鲁克 18
鲜 18
鲜血 18
鹦鹉 18
麻省 18
黑线 18
鼎@@ 18
* 17
.5 17
0.3 17
1.6 17
1850 17
1954 17
4500 17
5.5 17
750 17
AC 17
AC@@ 17
Anas 17
Arthur 17
Ban@@ 17
Barry 17
Bas@@ 17
Bronx 17
CR@@ 17
Dre@@ 17
ECT 17
Fi 17
GG 17
Gi@@ 17
Im@@ 17
LC 17
Lab 17
Lim@@ 17
ML 17
MT@@ 17
Mel@@ 17
Mob@@ 17
NA 17
NPR 17
Nathaniel 17
Ok@@ 17
Panbanisha 17
Pin@@ 17
Pixar 17
Pra@@ 17
Project 17
Reddit 17
SO@@ 17
SP@@ 17
Sebastian 17
Stephen 17
Stewart 17
Sudhir 17
UC@@ 17
ab 17
ade 17
ae 17
ama 17
bot 17
deepf@@ 17
ene 17
ers@@ 17
ish 17
ish@@ 17
ium 17
lam 17
lan 17
och@@ 17
ole 17
ony 17
oon 17
ope 17
oph@@ 17
ota 17
ott@@ 17
ower 17
ris 17
rom 17
st 17
su@@ 17
vuma 17
yp@@ 17
zo 17
一千倍 17
一发 17
一大@@ 17
一打 17
一探 17
一时间 17
一票 17
一般而言 17
一辈 17
一通 17
万事万物 17
三十岁 17
三层 17
三藩市 17
上要 17
不及格 17
不好玩 17
不明智 17
不论@@ 17
丑@@ 17
专属 17
世博会 17
世贸 17
东区 17
丢人 17
两千五百 17
两只手 17
两台 17
两场 17
两头 17
两英里 17
中去 17
中子星 17
中餐馆 17
丹尼斯 17
主观@@ 17
之事 17
之子 17
之战 17
之爱 17
之王 17
之高 17
乡间 17
事来 17
二氧化@@ 17
二者之间 17
于是乎 17
互相帮助 17
五人 17
亚里 17
亟需 17
京@@ 17
亲密关系 17
人机 17
人站 17
人马 17
亿倍 17
亿颗 17
今年夏天 17
以新 17
以求 17
以至 17
份量 17
伊万 17
伏特加 17
伐 17
休克 17
休息时间 17
优生学 17
传入 17
传播@@ 17
传真机 17
伤痕 17
低语 17
低频 17
作何 17
作法 17
你够 17
佩里 17
侏罗纪 17
供水 17
依存 17
侯 17
俄 17
俗称 17
保持稳定 17
保管 17
保险丝 17
信服 17
修炼 17
倒霉 17
借给 17
假冒 17
假释 17
健在 17
偷猎 17
储量 17
像样 17
八次 17
公民权 17
公用 17
六百 17
共情 17
关切 17
关照 17
养老金 17
内华达州 17
内部@@ 17
冒充 17
军事行动 17
冰激凌 17
冲出 17
冲进 17
凋@@ 17
凌乱 17
减重 17
几万 17
几十 17
几句话 17
几星期 17
几步 17
凯奇 17
分子生物学 17
分级 17
分配@@ 17
切尔诺贝利 17
刊@@ 17
刑罚 17
利益冲突 17
别墅 17
到访 17
制造@@ 17
刷新 17
刺杀 17
前有 17
剥开 17
功用 17
加载 17
努力实现 17
勇敢的人 17
募捐 17
包罗万象 17
化物 17
区区 17
十亿分 17
十八世纪 17
十六岁 17
十几个 17
千多 17
卖力 17
博弈论 17
卡恩 17
卡拉@@ 17
卡玛 17
卡通画 17
厄 17
历史进程 17
厕纸 17
原型机 17
县@@ 17
参赛 17
反派 17
发射器 17
发源 17
发表@@ 17
取水 17
取胜 17
受到感染 17
受到限制 17
叛逆者 17
另一名 17
另类 17
召 17
史黛拉 17
叹息 17
吃不@@ 17
名牌 17
后勤 17
听错 17
启动@@ 17
启示录 17
启程 17
味蕾 17
和尚 17
咸 17
哈欠 17
哈莱姆 17
哔 17
哲 17
唐 17
唐氏 17
喂给 17
喃@@ 17
善用 17
善行 17
嗓音 17
嘞 17
嘻 17
四万 17
回想起来 17
园丁 17
国境 17
国立 17
土耳其人 17
土著居民 17
圣雄甘地 17
在实践中 17
地底 17
垮台 17
埃菲尔铁塔 17
城邦 17
域@@ 17
培根 17
基斯 17
墨 17
墨迹 17
壳@@ 17
壶 17
复健 17
复印 17
夏娃 17
多哈 17
多能 17
多花 17
夜班 17
大得 17
大肠杆菌 17
太空@@ 17
头牛 17
奇思妙想 17
奉 17
奋战 17
奥运 17
女兵 17
女权 17
奴隶主 17
如图所示 17
妇 17
妓院 17
始 17
姐 17
委员 17
威慑 17
娇@@ 17
婚姻@@ 17
孤岛 17
学童 17
孰@@ 17
孽 17
安然 17
宙斯 17
宝贝儿 17
实况 17
实境 17
实用@@ 17
实际@@ 17
审计 17
客观事实 17
宣传@@ 17
家时 17
寄来 17
密苏里州 17
富翁 17
察 17
对冲 17
对撞 17
对角线 17
导管 17
射入 17
對 17
小刀 17
小玩意儿 17
小脑 17
尔多 17
就医 17
尼克松 17
尼科 17
尼西亚 17
尼龙 17
尽责 17
展厅 17
屠宰场 17
岗 17
工作组 17
巨大成功 17
巨浪 17
巴尔@@ 17
布鲁克 17
希尔 17
希腊神话 17
帐号 17
帕克斯 17
帕特@@ 17
帖 17
年轻@@ 17
并不比 17
幸免 17
庄 17
庄@@ 17
库存 17
应用软件 17
康纳 17
建材 17
开外 17
开工 17
开拓@@ 17
异想天开 17
引言 17
弗朗@@ 17
张嘴 17
弹射 17
彼岸 17
得上 17
得当 17
德堡 17
心灵@@ 17
心肺 17
快递 17
怎能 17
怪胎 17
恐惧感 17
恼怒 17
情书 17
惯用 17
惹麻烦 17
愁 17
愈演愈烈 17
意向 17
憋@@ 17
憎恶 17
戈登 17
成正比 17
我时 17
戒断 17
战友 17
战时 17
戴维斯 17
房门 17
所著 17
手提包 17
手足 17
打了个 17
打入 17
打勾 17
打斗 17
打赢 17
托尔 17
扣子 17
扶手 17
扼@@ 17
抄袭 17
抢救 17
护理人员 17
披头士 17
抽象化 17
拉克 17
拍下来 17
拍照片 17
拳@@ 17
指派 17
挚友 17
挥动 17
挪 17
挽回 17
捕鱼业 17
换气 17
探求 17
接过 17
推力 17
推着 17
提出@@ 17
摘 17
摩根 17
撤@@ 17
撤退 17
操作性 17
改正 17
放走 17
教育领域 17
教课 17
数千名 17
数天 17
数百名 17
整栋 17
文森 17
斥 17
斯堪的纳维亚 17
斯瓦希里 17
新增 17
新车 17
方位 17
方便@@ 17
施以 17
旅游@@ 17
旅游业 17
无动于衷 17
无线@@ 17
旱@@ 17
旱季 17
时要 17
星团 17
晚安 17
普拉 17
晶@@ 17
最佳@@ 17
最出色 17
最想 17
有事 17
有件 17
有条理 17
有近 17
服务业 17
服装@@ 17
朗读 17
木卫二 17
未婚 17
本世纪末 17
本次 17
本职工作 17
机动车 17
杂烩 17
杂物 17
杂草 17
杏仁 17
杨 17
板车 17
极客 17
极易 17
林业 17
果冻 17
枝条 17
查明 17
查理@@ 17
标牌 17
栏@@ 17
格莱@@ 17
桃@@ 17
桶@@ 17
梦幻 17
梳@@ 17
梵@@ 17
检索 17
棱镜 17
椎@@ 17
椰子 17
模式识别 17
橘@@ 17
橘色 17
欠缺 17
欧拉 17
正确性 17
残余 17
段落 17
每户 17
每样 17
毕业@@ 17
毛泽东 17
气候变迁 17
水在 17
水库 17
永续 17
污名 17
沃克 17
沟通交流 17
河谷 17
油滴 17
法兰@@ 17
法国@@ 17
法拉@@ 17
法西斯 17
泡泡糖 17
波尔 17
泰德 17
活性@@ 17
派克 17
派别 17
流氓 17
流水线 17
浇灌 17
海中 17
海吉@@ 17
海狸 17
海鸥 17
海默 17
消化系统 17
消费主义 17
消防@@ 17
涵 17
涵义 17
混合体 17
清新 17
清澈 17
游牧 17
溶液 17
满载 17
漠视 17
激光@@ 17
濒死 17
火人节 17
炮弹 17
燃起 17
爆炸声 17
爆炸性 17
父母亲 17
爸妈 17
版图 17
特拉@@ 17
特蕾西 17
犯罪行为 17
狱@@ 17
猿人 17
环境污染 17
玻利维亚 17
瑞恩 17
生命@@ 17
用地 17
用钱 17
电子表格 17
电机 17
电气 17
电磁波 17
电脑系统 17
画图 17
畅 17
略有不同 17
疏忽 17
疾 17
白日梦 17
百分之九十九 17
皮埃尔 17
盒@@ 17
盖拉 17
盛 17
盟@@ 17
省略 17
眉@@ 17
看不出来 17
看不清 17
看得出 17
真不知道 17
真真切切 17
眩晕 17
眼科医生 17
眼罩 17
短小 17
矮@@ 17
硕大 17
碾@@ 17
礁 17
祖 17
神秘@@ 17
私底下 17
私有化 17
私营企业 17
科菲 17
租用 17
积雪 17
稻草 17
稿子 17
穆苏 17
究 17
窥探 17
章@@ 17
竣工 17
第七@@ 17
第三代 17
第二项 17
笼@@ 17
筋疲力尽 17
算得 17
箴言 17
精心@@ 17
精液 17
精神状态 17
系统化 17
索引 17
紧密@@ 17
紧身 17
累计 17
繁盛 17
红色高棉 17
约克 17
约翰@@ 17
约翰内斯堡 17
经常出现 17
结了婚 17
结交 17
绕开 17
绝好 17
维特 17
维纳 17
缓 17
缓刑 17
网络游戏 17
网络空间 17
罗宾@@ 17
置疑 17
美是 17
羚羊 17
翱翔 17
老公 17
而用 17
聊到 17
聋哑 17
聘@@ 17
肇事者 17
肌腱 17
肿瘤@@ 17
背诵 17
胜者 17
胡安娜 17
脊@@ 17
脑筋 17
脑脊液 17
自由度 17
自责 17
舍弃 17
舞蹈家 17
航道 17
良药 17
艺术史 17
艾丽@@ 17
艾比 17
苏醒 17
英文@@ 17
英雄@@ 17
草稿 17
莉娅 17
莫尔 17
莫耳 17
获救 17
获知 17
营救 17
萦绕在 17
著称 17
葡萄牙语 17
蓝莓 17
蚁@@ 17
蜂房 17
蝇 17
血浆 17
行李箱 17
表演艺术 17
表观 17
裂谷 17
要不是 17
见鬼 17
观者 17
解决不了 17
誓@@ 17
警戒 17
认同感 17
记着 17
试飞 17
询 17
语言学 17
诱@@ 17
诺曼人 17
读写能力 17
调查结果 17
调配 17
谋杀案 17
谬论 17
豆腐 17
象是 17
象牙 17
责任@@ 17
贩 17
贩子 17
贮存 17
贱民 17
贾德 17
赤字 17
赶来 17
超负荷 17
超音速 17
越南战争 17
越远 17
踢足球 17
身体语言 17
身躯 17
躺@@ 17
辞掉 17
辱@@ 17
过日子 17
迎刃而解 17
这则 17
这成 17
这棵 17
这道 17
进进出出 17
连词 17
迟疑 17
迪米特里 17
追问 17
选拔 17
通力合作 17
逻辑思维 17
那件 17
那名 17
邻座 17
配额 17
酱@@ 17
醉酒 17
里亚 17
里亚@@ 17
里尔 17
重大突破 17
重振 17
野性 17
量身 17
钓 17
钝@@ 17
钠 17
钢琴@@ 17
锋 17
错事 17
长矛 17
闪闪 17
问答 17
阔@@ 17
防晒霜 17
防水 17
阿富汗人 17
阿尔伯特 17
阿尔法 17
阿肯色州 17
陈规 17
院@@ 17
陪审员 17
随机性 17
集成电路 17
集权 17
集聚 17
雷德 17
非线性 17
面包车 17
韩@@ 17
顺畅 17
顿饭 17
预防措施 17
颤动 17
飞碟 17
飞速发展 17
食指 17
食材 17
香豆素 17
马匹 17
马斯洛 17
马龙 17
骇人听闻 17
骨牌 17
髓 17
高举 17
高产 17
高分辨率 17
高校 17
高能量 17
高速@@ 17
高速路 17
高高 17
鱼肉 17
鹅@@ 17
麻醉剂 17
黑寡妇 17
黑眼睛 17
黑色素 17
鼓吹 17
101 16
1928 16
1939 16
20000 16
404 16
5500 16
99.9 16
AIDS 16
AP@@ 16
AR 16
Ay@@ 16
Beck 16
Bobby 16
CE@@ 16
Can@@ 16
Cap@@ 16
Cura 16
Du@@ 16
El 16
Ex@@ 16
FOXO 16
Gillian 16
Giussani 16
HAL 16
Hal@@ 16
Harriet 16
ICU 16
Jam@@ 16
Jay 16
Kelly 16
Kickstarter 16
Li@@ 16
MP3 16
Mac 16
Myriad 16
NFL 16
Nelson 16
No@@ 16
Oliver 16
PISA 16
Phil@@ 16
Point 16
Power@@ 16
RT 16
RW 16
Roy 16
SUDEP 16
She@@ 16
Str@@ 16
Willi@@ 16
aya 16
box 16
can 16
ero 16
ese 16
ew 16
har 16
hr@@ 16
ings 16
ion@@ 16
iy@@ 16
ook@@ 16
ora 16
stein 16
uss@@ 16
we@@ 16
™ 16
一大步 16
一季 16
一户 16
一无是处 16
一片@@ 16
一片空白 16
一班 16
一瞥 16
万分之 16
万辆 16
上个星期 16
上船 16
上色 16
下列 16
不分@@ 16
不安全感 16
不惜一切 16
不成比例 16
不算什么 16
不饱和 16
与时俱进 16
世世代代 16
丘吉尔 16
两步 16
两百年 16
中亚 16
中写 16
中情局 16
丰满 16
为难 16
之以@@ 16
乎乎 16
乐手 16
乐章 16
九点 16
乞讨 16
书包 16
书架上 16
书桌 16
买不到 16
乱流 16
乳汁 16
乳癌 16
乳草 16
了如指掌 16
事实真相 16
二人 16
二分之一 16
互相联系 16
五分 16
五十个 16
五号 16
五百年 16
亚当斯 16
交友 16
交界处 16
产权 16
亭子 16
亲生 16
仅剩 16
介意 16
他花 16
付不起 16
代表@@ 16
以期 16
任一 16
优良 16
伙伴关系 16
会飞 16
传出 16
传教 16
传送带 16
伤员 16
估@@ 16
伺@@ 16
低端 16
体中 16
佛教徒 16
佛祖 16
佛罗伦萨 16
侥幸 16
侵@@ 16
侵占 16
保加利亚 16
信任度 16
俾@@ 16
做做 16
先天性 16
先祖 16
光彩 16
光敏 16
克利夫兰 16
克利斯 16
免遭 16
兑现 16
党员 16
兜售 16
全貌 16
公然 16
六倍 16
六十年 16
共同@@ 16
共感 16
兴奋剂 16
兴盛 16
再进一步 16
军事力量 16
军备竞赛 16
农贸市场 16
冰球 16
冲撞 16
凌驾于 16
减退 16
凯撒 16
出世 16
出炉 16
凿 16
刘易斯 16
删@@ 16
利兹 16
利比 16
剧毒 16
办不到 16
办公楼 16
功能@@ 16
加点 16
劣@@ 16
动作电位 16
努尔 16
勺子 16
化妆品 16
区间 16
医学杂志 16
医疗器械 16
十万人 16
十三 16
十二岁 16
卖出去 16
南卡罗来纳州 16
博主 16
即将来临 16
厄尔尼诺 16
原子钟 16
参观者 16
叉子 16
及早 16
反光 16
发亮 16
发射@@ 16
发掘出 16
取向 16
取回 16
受制于 16
受控 16
变冷 16
变形虫 16
变质 16
叛军 16
口哨 16
古里 16
只能靠 16
可比 16
可追溯 16
司法部 16
吃晚饭 16
合乎 16
后会 16
后备 16
君主 16
听不懂 16
周后 16
周而复始 16
呼出 16
和睦 16
咔 16
咕@@ 16
哀悼 16
哈利波 16
哈塞尔 16
哑@@ 16
啊啊啊 16
喊道 16
喝一杯 16
嘀@@ 16
嘉年华 16
器件 16
四件 16
四号 16
四季 16
四百@@ 16
回收@@ 16
回溯到 16
因纽 16
围坐在 16
国家博物馆 16
国民收入 16
图样 16
圆桌 16
圈圈 16
圣杯 16
坐姿 16
块@@ 16
域名 16
培植 16
培特 16
基姆 16
堪萨斯 16
堪萨斯州 16
增发 16
墨西哥城 16
处以 16
处罚 16
复杂度 16
外貌 16
多层 16
多方 16
多维 16
大些 16
大作 16
大军 16
大厨 16
大喊大叫 16
大方 16
大灾难 16
大肆 16
天大 16
天际 16
太冷 16
太空服 16
太空站 16
太美 16
太长 16
夭 16
奄奄一息 16
好几 16
妆 16
姨妈 16
娘 16
婊子 16
存亡 16
学前教育 16
学士学位 16
学术@@ 16
孵@@ 16
安南 16
安检 16
完备 16
完整性 16
实情 16
宠物@@ 16
客机 16
宣讲 16
宫颈 16
宽慰 16
宽阔 16
宾夕法尼亚 16
察看 16
对岸 16
射中 16
小偷 16
小团体 16
小块 16
小径 16
小手 16
小方块 16
小节 16
少有 16
少校 16
尖叫声 16
尝到 16
就此@@ 16
就职 16
尼古拉 16
尽量避免 16
尾气 16
居里 16
届时 16
履历 16
岛国 16
岩浆 16
崩@@ 16
巨怪 16
巨蚌 16
差异性 16
己见 16
巴塞罗那 16
巴顿 16
布尔@@ 16
希腊@@ 16
常听到 16
幢 16
平面设计 16
年期 16
年末 16
幸@@ 16
广岛 16
广播电台 16
广泛应用 16
应运而生 16
建于 16
开了个 16
开动 16
开放@@ 16
开灯 16
开通 16
异国 16
式样 16
弗罗 16
张牌 16
弹琴 16
强烈@@ 16
当务之急 16
彩色@@ 16
彰显 16
役 16
彻 16
彼罗 16
很会 16
微薄 16
心弦 16
心理准备 16
心肌 16
必将 16
忍者 16
忧郁症 16
念书 16
怎 16
怕@@ 16
急促 16
性价比 16
性侵犯 16
怪怪的 16
恶毒 16
悬殊 16
悲 16
情结 16
情绪反应 16
惨烈 16
意料之中 16
慌 16
慕尼黑 16
懊悔 16
成千上百 16
我过 16
戒律 16
戒掉 16
截图 16
戴眼镜 16
戴维 16
房间内 16
所在@@ 16
扁平 16
手工艺品 16
手推车 16
手电筒 16
手绘 16
手续 16
手边 16
打住 16
托德 16
托斯 16
扮@@ 16
扰 16
技术创新 16
抓捕 16
抓起 16
折断 16
抽象@@ 16
拆掉 16
拉到 16
拉蒙 16
拍到 16
拖丝 16
拼成 16
拿给 16
持续时间 16
挂钩 16
挑战者 16
挖出来 16
挥 16
挥发性 16
挪威人 16
捆 16
捕蝇草 16
排水@@ 16
探望 16
掩护 16
插件 16
插头 16
操心 16
收尾 16
收集器 16
放假 16
放屁 16
放映@@ 16
政见 16
敬仰 16
数千万 16
数学课 16
数次 16
斑蝶 16
斧@@ 16
断开 16
斯堡 16
斯德哥尔摩 16
斯普京 16
斯维尔 16
新发明 16
新年 16
新意 16
新纳粹 16
新闻记者 16
族@@ 16
无论怎样 16
日托 16
日益@@ 16
时代@@ 16
时装@@ 16
明尼苏达 16
昏暗 16
星期四 16
普罗 16
普罗@@ 16
普顿 16
晴@@ 16
暂时性 16
暴政 16
更会 16
更差 16
更衣室 16
替@@ 16
最高@@ 16
有家 16
有无 16
期望值 16
本事 16
本源 16
朴 16
朵 16
杀伤力 16
松弛 16
松树 16
林斯 16
果汁 16
果糖 16
查查 16
柯 16
柳@@ 16
标杆 16
栏杆 16
树下 16
核电 16
根与芽 16
格格不入 16
桑迪 16
档案@@ 16
梯 16
植株 16
椭圆 16
模子 16
欣喜若狂 16
欧几里得 16
正相反 16
此生 16
步兵 16
武断 16
残害 16
每秒钟 16
比拟 16
毫不费力 16
毫升 16
民兵 16
氧化 16
氧原子 16
水会 16
永存 16
永远都是 16
求救信号 16
求爱 16
汤安诺 16
沉默@@ 16
沙漠化 16
沿海地区 16
沿路 16
法兰克 16
法老 16
注释 16
洗碗 16
洛克菲勒 16
活过来 16
流言 16
浇水 16
济@@ 16
海滨 16
浸入 16
消防车 16
淋浴 16
淘金热 16
深入@@ 16
深情 16
源@@ 16
溢出 16
溶剂 16
满脑子 16
滴滴 16
漏水 16
火山口 16
灵丹妙药 16
炉子 16
炉膛 16
点半 16
点数 16
烘培 16
烙印 16
热情@@ 16
焚@@ 16
焦油 16
焦距 16
熊猫 16
燃 16
燃气 16
牛粪 16
特地 16
狒狒 16
独 16
独裁统治 16
猎手 16
玩得 16
玩过 16
环礁 16
珍爱 16
班里 16
瑞卡 16
瑞尔 16
生产方式 16
生物工程 16
生物性 16
生物课 16
用意 16
由此可见 16
申明 16
电力@@ 16
电子元件 16
电磁力 16
电脑芯片 16
电视新闻 16
电锯 16
畜@@ 16
疹 16
疾@@ 16
病毒传播 16
病理学家 16
痘 16
痴@@ 16
白光 16
白内障 16
百事 16
皇后区 16
皮肤科 16
直截了当 16
直立人 16
相互依存 16
盾 16
真地 16
督促 16
睾酮 16
矫@@ 16
短裤 16
短视 16
矮小 16
石碑 16
矿产 16
砖头 16
硬化 16
确定性 16
碧娜 16
礼拜@@ 16
社交@@ 16
社会工作者 16
社会科学家 16
祝愿 16
福岛 16
福林 16
私人@@ 16
私人企业 16
秃顶 16
秃鹰 16
积分 16
称得上 16
移交 16
移走 16
稠密 16
稿@@ 16
穿衣服 16
窃 16
窘境 16
立体声 16
立方米 16
童年时期 16
笛 16
第二名 16
第五@@ 16
第八 16
策展 16
简介 16
管理费 16
篇幅 16
篮 16
米切尔 16
类人猿 16
粘性 16
粪 16
繁复 16
繁杂 16
红血球 16
经典@@ 16
结肠镜 16
绝不能 16
维斯塔 16
维纳斯 16
绵 16
绿巨人 16
绿色革命 16
缓冲@@ 16
罗斯林 16
罗马@@ 16
罚@@ 16
置身其中 16
美利坚合众国 16
美国公司 16
美术馆 16
群中 16
耀 16
而会 16
而活 16
耕@@ 16
耶稣基督 16
耽@@ 16
聋人 16
联合国教科文组织 16
肖恩 16
肝酱 16
胡乱 16
脚踏实地 16
腌制 16
腾出 16
膛 16
自小 16
自控 16
致癌物 16
舒缓 16
舞步 16
航天@@ 16
船舶 16
良多 16
艾米丽 16
芒@@ 16
花太多 16
花生酱 16
芳@@ 16
芽@@ 16
苏菲 16
若要 16
英特尔 16
茨@@ 16
茫茫 16
荷兰语 16
莫测 16
萌生 16
萨利 16
葵 16
蒙大 16
蓝绿色 16
薯 16
蚕 16
蜕@@ 16
螺 16
裁 16
装扮 16
西奥多 16
西岸 16
西斯廷 16
覆盖率 16
解剖学家 16
誉 16
警长 16
让给 16
记下来 16
讲演 16
设计图 16
诈@@ 16
详@@ 16
诧异 16
调子 16
调试 16
谈不上 16
谦@@ 16
负电荷 16
财政部 16
责@@ 16
货币@@ 16
质心 16
贪@@ 16
贼 16
赏 16
赖特 16
赛车手 16
赞颂 16
赤足 16
起先 16
超载 16
越快越好 16
趋向 16
足球比赛 16
跑动 16
距@@ 16
跪 16
路易 16
路灯 16
身份@@ 16
身心健康 16
转账 16
轻声 16
轻蔑 16
辛普森 16
辨认出 16
达到@@ 16
迅猛 16
过期 16
这算 16
远大于 16
远征 16
迥异 16
迪尔 16
迫 16
迸发 16
退步 16
适量 16
选美 16
這@@ 16
道义 16
道菜 16
遗传性 16
遮掩 16
遮盖 16
邀 16
邀@@ 16
那双 16
部手机 16
配乐 16
酬劳 16
酷儿 16
酷刑 16
采石场 16
野餐 16
金融业 16
金融服务 16
鉴 16
鉴@@ 16
钩子 16
钻孔 16
铁矿 16
铃铛 16
销售@@ 16
长处 16
长尾 16
长老 16
长队 16
门户 16
闪烁着 16
阳光@@ 16
阻 16
阻隔 16
阿博布 16
阿尔文 16
阿斯@@ 16
阿訇 16
难以启齿 16
难以忍受 16
雷尔 16
霸 16
静坐 16
非比寻常 16
非法@@ 16
韦 16
韧带 16
项目@@ 16
颂 16
领头 16
颇为 16
风光 16
风味 16
飞扬 16
饰演 16
馆@@ 16
香气 16
马州 16
马铃薯 16
驾驶座 16
骂@@ 16
高尔夫球场 16
高智商 16
高架 16
高涨 16
高耸 16
高频 16
鱼缸 16
鳗鱼 16
麦哈麦 16
黏合剂 16
１ 16
----- 15
0.0@@ 15
00 15
02 15
1.25 15
1943 15
1955 15
1958 15
260 15
7500 15
99.@@ 15
Acumen 15
Ali@@ 15
Amazon 15
Angel@@ 15
As@@ 15
BMI 15
Bab@@ 15
Baker 15
Black@@ 15
CDC 15
Cam@@ 15
Cas9 15
Char@@ 15
Da 15
Dr 15
Ele@@ 15
Fe@@ 15
Gh@@ 15
Gore 15
HPV 15
HeForShe 15
IW 15
In 15
Jac@@ 15
Jack@@ 15
Jerry 15
Josh 15
Julian 15
Kanner 15
Keith 15
LA 15
Larry 15
Lee 15
Liv@@ 15
Louis 15
Maiden 15
NE@@ 15
Netra 15
Prot@@ 15
Ser@@ 15
Stev@@ 15
Tom@@ 15
Val@@ 15
Venter 15
Wat@@ 15
Whit@@ 15
You 15
act@@ 15
ane 15
ao 15
arty 15
ath 15
daf 15
edy 15
iel@@ 15
ij@@ 15
ika 15
ima 15
ink 15
iri@@ 15
me@@ 15
per@@ 15
que 15
ray 15
ril@@ 15
ul 15
ult@@ 15
use 15
yan 15
yst@@ 15
á 15
一世 15
一二 15
一天天 15
一届 15
一并 15
一无所获 15
一朵 15
一条街 15
一目了然 15
一磅 15
一窥 15
一而再 15
一闪 15
万亿个 15
三万 15
上下文 15
上下颠倒 15
上学时 15
上读 15
下肢 15
下部 15
不全 15
不可收拾 15
不均 15
不堪设想 15
不大@@ 15
不容忽视 15
不屈 15
不开 15
不然的话 15
不留 15
不耐烦 15
不能容忍 15
不论如何 15
不远处 15
不锈钢 15
专利局 15
两千年 15
两片 15
严重@@ 15
个人主义 15
中产 15
中将 15
中年人 15
中非 15
丰收 15
主导@@ 15
主机 15
主治医生 15
之少 15
之火 15
之遥 15
乍一看 15
乔恩 15
乔治亚 15
乖@@ 15
乘车 15
九成 15
习性 15
乳酪 15
二十多岁 15
五名 15
亚马@@ 15
些小 15
交付 15
亦@@ 15
产业@@ 15
产能 15
亨廷顿 15
亲眼见到 15
亵渎 15
人太多 15
人意 15
人文@@ 15
人机@@ 15
亿多 15
介 15
他时 15
仙境 15
代词 15
令人费解 15
仲@@ 15
价位 15
任何@@ 15
优 15
优惠 15
会出 15
传授给 15
传统观念 15
估测 15
但会 15
低压 15
佐 15
体力@@ 15
何去何从 15
你试 15
使用率 15
依赖性 15
保养 15
保留@@ 15
修好 15
修整 15
修订 15
值得尊敬 15
健康@@ 15
偷盗 15
偷看 15
储蓄率 15
催泪@@ 15
僻 15
先入为主 15
光标 15
光泽 15
全天候 15
全息图 15
六天 15
六次 15
兰迪 15
共同体 15
关头 15
兼具 15
再生资源 15
再试一次 15
冗@@ 15
写照 15
军服 15
农耕 15
冬眠 15
冲击波 15
冲走 15
冷却@@ 15
几代 15
凡是 15
凯伦 15
出个 15
出去玩 15
出处 15
出庭 15
分子@@ 15
分明 15
切掉 15
刚果民主共和国 15
创业家 15
创举 15
初始@@ 15
刺眼 15
前不久 15
前部 15
力争 15
劝@@ 15
加一点 15
加压 15
加班 15
务必 15
劣质 15
动向 15
动听 15
动态@@ 15
助推 15
励志 15
势不可挡 15
勋章 15
募资 15
十二月 15
十四 15
十次 15
十诫 15
千亿 15
升职 15
半叶 15
华纳 15
协同工作 15
卒 15
南北 15
卡梅隆 15
卫生部 15
印章 15
厂房 15
压垮 15
压缩成 15
压裂 15
厚重 15
原位 15
原样 15
双倍 15
发售 15
发货 15
发髻 15
叔@@ 15
取得联系 15
取款机 15
受惠 15
受益匪浅 15
受限制 15
受难 15
变戏法 15
叙@@ 15
叙利亚人 15
口感 15
古人类 15
可供 15
可否 15
可编程 15
可贵 15
各有不同 15
各种类型 15
合一 15
合作项目 15
合金 15
同意书 15
名望 15
后备箱 15
吐温 15
向北 15
向来 15
君主制 15
吟唱 15
吨@@ 15
听信 15
听得@@ 15
吸引住 15
吹牛 15
呎 15
周边环境 15
呵 15
呻吟 15
咆哮 15
咔哒 15
咖啡@@ 15
哈里斯 15
哟 15
哥伦比亚@@ 15
哨 15
哨@@ 15
唇@@ 15
唯独 15
喀布尔 15
喊叫 15
喧闹 15
喷口 15
喻 15
嗡嗡声 15
噱头 15
嚷 15
回升 15
围观 15
国家元首 15
图斯 15
土地@@ 15
圣诞树 15
在我心中 15
地使 15
地块 15
地层 15
坏蛋 15
坐轮椅 15
坠 15
城外 15
培训@@ 15
基准线 15
基因图谱 15
基因型 15
基因学 15
塑料制品 15
塞拉 15
塞特 15
境@@ 15
声望 15
复印机 15
复合性 15
复杂程度 15
复活节岛 15
外壁 15
外祖母 15
多产 15
多孔 15
多尔 15
多层次 15
大不一样 15
大众@@ 15
大伙 15
大同小异 15
大时 15
大本营 15
大臣 15
大革命 15
天内 15
天平 15
天数 15
天际线 15
夫斯基 15
奇才 15
奇点 15
奖品 15
好要 15
好评 15
威尔@@ 15
娴熟 15
婚前 15
媒@@ 15
嫌 15
嬉皮 15
孟德尔 15
学前班 15
学术论文 15
学步 15
宇航局 15
定式 15
定格 15
室@@ 15
家居 15
家电 15
寄主 15
寄希望于 15
密不可分 15
密修者 15
寝@@ 15
对峙 15
对接 15
对视 15
小号 15
小心谨慎 15
小而 15
少数派 15
就餐 15
尽其所能 15
屏@@ 15
岁时 15
工业生产 15
工人阶级 15
工艺品 15
左眼 15
巨噬细胞 15
巴克图 15
巴拉巴 15
布什总统 15
布拉@@ 15
布萨利 15
希伯来 15
帕瑟珊 15
干草 15
干部 15
平息 15
平等权利 15
年仅 15
年迈 15
年青人 15
并不大 15
幸亏 15
广为 15
库斯 15
库珀 15
应为 15
廉@@ 15
弄懂 15
引人注意 15
引来 15
弗兰@@ 15
张唱片 15
强加于 15
强国 15
强奸犯 15
归因于 15
归零 15
当回事 15
当真 15
录影 15
彻彻底底 15
往前走 15
征服者 15
待在家里 15
很晚 15
很赞 15
律法 15
徒@@ 15
得太快 15
微管 15
德纳 15
德罗 15
心力 15
忏悔 15
忧伤 15
怀里 15
怜悯之心 15
急诊 15
性伴侣 15
总局 15
总收入 15
恩惠 15
恭 15
悟 15
惠特尼 15
惨重 15
惯常 15
惰性 15
想尽办法 15
意念 15
慌@@ 15
懒得 15
懦夫 15
成绩单 15
我常@@ 15
我生 15
战俘 15
战利品 15
战斗机 15
所含 15
所花 15
手提箱 15
扔出去 15
托尔斯泰 15
投下 15
投球 15
抗菌 15
抵 15
抽离 15
抽象概念 15
拆分 15
拒之门外 15
拣 15
拦住 15
括号 15
拴 15
指导员 15
挠@@ 15
挣@@ 15
挣得 15
挨@@ 15
振 15
损@@ 15
换上 15
掌上电脑 15
排便 15
掘@@ 15
接上 15
接吻 15
接触@@ 15
接连 15
控诉 15
推土机 15
提高效率 15
插进 15
握着 15
搭桥 15
携@@ 15
摘下 15
摞 15
撤回 15
擦拭 15
改革@@ 15
攻 15
放纵 15
政治体制 15
敞开大门 15
散发出 15
散文 15
数亿美元 15
数字信息 15
数据流 15
数百万个 15
整形@@ 15
文化差异 15
文稿 15
斯蒂@@ 15
方向感 15
旗下 15
无异 15
无敌 15
无污染 15
无药 15
无菌 15
无著 15
日全食 15
日用品 15
旦@@ 15
早起 15
时光@@ 15
时时 15
明日 15
春季 15
晒太阳 15
暗箱 15
曲奇 15
更何况 15
曾祖母 15
最低点 15
最富 15
月光 15
有别于 15
有效@@ 15
有朝一日 15
有车 15
朝下 15
期许 15
木乃伊 15
木瓜 15
木马 15
未知数 15
术后 15
杜绝 15
来个 15
杰瑞 15
松饼 15
某次 15
柜@@ 15
查莉 15
标明 15
核废料 15
核电厂 15
根茎 15
栽培 15
桑尼 15
桑德拉 15
桑德斯 15
梭状 15
检查表 15
棚屋 15
楼顶 15
模式化 15
模糊不清 15
橡皮@@ 15
橡皮筋 15
欣然接受 15
欧美 15
正试 15
每一处 15
每一秒 15
氏症 15
气馁 15
氨酸 15
水塘 15
水来 15
水污染 15
水牛城 15
汇合 15
汉堡包 15
汽油@@ 15
沃特斯 15
沉闷 15
沫 15
油井 15
法治 15
活人 15
活塞 15
派上用场 15
流行音乐 15
浑然@@ 15
浪漫爱情 15
浮标 15
浴 15
海关 15
海床 15
消 15
消化道 15
消耗量 15
涡流 15
润 15
淘@@ 15
深信不疑 15
混音 15
清扫 15
清白 15
渡 15
港@@ 15
滑落 15
滞留 15
滩 15
漆@@ 15
演奏@@ 15
演练 15
漫 15
漫漫 15
潦倒 15
激 15
激励机制 15
炎@@ 15
烟油 15
烧焦 15
烧煤 15
热切 15
煎饼 15
熔岩 15
熟人 15
爱国者 15
爱护 15
牵连 15
特写 15
犹豫不决 15
狭鳕 15
王朝 15
玛丽安 15
玛尼 15
玩具@@ 15
玫瑰@@ 15
珍宝 15
理工学院 15
瑞克 15
甜味 15
生小孩 15
生死@@ 15
生死攸关 15
生物质 15
生还 15
用电量 15
用车 15
田园 15
由此@@ 15
电子商务 15
男同性恋 15
男士们 15
画中 15
画里 15
畏@@ 15
留声机 15
疗伤 15
疮@@ 15
疾病@@ 15
痕 15
痛觉 15
痰 15
白领 15
百倍 15
百分之四 15
百种 15
的士 15
盎@@ 15
监督@@ 15
盖伦 15
盲文 15
相待 15
相貌 15
相间 15
看穿 15
真空管 15
真让人 15
短期内 15
矿业 15
砸@@ 15
硅片 15
硕 15
碳纤维 15
碾碎 15
磷脂 15
示例 15
社会规范 15
神力 15
神经病 15
神话故事 15
祥 15
祭祀 15
离得 15
科威特 15
科学杂志 15
秘密武器 15
稀奇古怪 15
程序@@ 15
程序化 15
税率 15
稻田 15
窍 15
窗子 15
端倪 15
竹 15
笔直 15
笔迹 15
第一周 15
第一块 15
第一架 15
第一项 15
第一首 15
第二轮 15
等位基因 15
等生 15
筋@@ 15
策@@ 15
筹码 15
简简单单 15
类药物 15
精力充沛 15
精神创伤 15
紧要 15
紫 15
繁殖@@ 15
纳什维尔 15
纸币 15
织 15
绑@@ 15
绝症 15
维吉尼亚 15
维护@@ 15
绵@@ 15
编辑部 15
缝纫 15
缩略@@ 15
网络化 15
罗兰 15
罗宾斯 15
美式 15
美术 15
翻滚 15
老大哥 15
而应 15
耍@@ 15
耳闻 15
肌肉组织 15
股份 15
肢@@ 15
肤 15
肥鹅肝 15
能动 15
脑瘫 15
脱下 15
脱发 15
臆@@ 15
自称为 15
臭虫 15
舍尔 15
船厂 15
艾美莉卡 15
节省@@ 15
节选 15
花哨 15
苍白 15
苟@@ 15
英吉利海峡 15
莫斯 15
获准 15
获奖者 15
菌丝体 15
菜肴 15
菠萝 15
萨尔瓦多 15
萨科 15
葡萄干 15
蓬勃 15
虑 15
虚伪 15
虹@@ 15
蚊虫 15
蚱蜢 15
蛆 15
螈 15
融 15
行动者 15
街景 15
衣橱 15
补给 15
衷@@ 15
被绑 15
裁员 15
裤@@ 15
西北 15
要命 15
要长 15
角斗士 15
解出 15
触控 15
言归正传 15
詹姆士 15
计算机系统 15
认知科学 15
讨好 15
讲究 15
识别@@ 15
识破 15
诊室 15
诋毁 15
诗是 15
诗篇 15
诗集 15
诞@@ 15
说成 15
诶 15
诺依曼 15
诺贝尔和平奖 15
谨记 15
贡@@ 15
财政部长 15
贫困地区 15
贫富 15
贬@@ 15
贬值 15
购买力 15
贯@@ 15
贴着 15
赔@@ 15
赖 15
超链接 15
趴在 15
跑来跑去 15
跪下 15
跳绳 15
身体@@ 15
身陷 15
躲藏 15
车位 15
车载 15
轨@@ 15
转头 15
轻描淡写 15
辅助@@ 15
辩护律师 15
辱骂 15
边界线 15
边缘系统 15
辽阔 15
达成协议 15
过渡带 15
过渡期 15
过滤@@ 15
迈入 15
运输系统 15
这两点 15
这正 15
这起 15
连锁反应 15
迦@@ 15
退货 15
逃过 15
通晓 15
逛@@ 15
道奇 15
遗传疾病 15
遥 15
遮蔽 15
那群 15
都市@@ 15
鄙视 15
酬 15
酷热 15
采取任何 15
采集@@ 15
释 15
里德 15
重新认识 15
重物 15
重置 15
野火 15
野狗 15
金发 15
钓@@ 15
钞 15
钱来 15
钻头 15
铲除 15
锌 15
锤@@ 15
长大成人 15
长河 15
长途@@ 15
门人 15
门卫 15
闪过 15
问候 15
闲 15
闲聊 15
闷@@ 15
阿伦 15
阿尔伯克 15
阿布@@ 15
阿鲁@@ 15
际 15
陛下 15
隆重 15
难以承受 15
难熬 15
雀 15
雄性激素 15
雄虫 15
零星 15
雷福斯 15
霍布斯 15
非官方 15
非常@@ 15
非常规 15
颂扬 15
颜@@ 15
风气 15
风潮 15
风趣 15
飞行@@ 15
飞车 15
食欲 15
餐盘 15
饭碗 15
首脑 15
首要任务 15
马德里 15
马斯 15
马赛 15
驯鹿 15
驴 15
驼峰 15
骇客 15
骚动 15
高原 15
高浓度 15
高高的 15
鹤 15
黄昏 15
黑客帝国 15
齐全 15
1908 14
1912 14
401 14
40@@ 14
50@@ 14
550 14
AGI 14
AT 14
Alec 14
App 14
BL 14
Babb@@ 14
Bot 14
CAT 14
CM 14
Comp@@ 14
Do@@ 14
E8 14
Emily 14
Evan 14
Fried@@ 14
Furby 14
GPHIN 14
Ger@@ 14
Goo@@ 14
Hans 14
Henry 14
INCRA 14
IQ 14
JL 14
Jefferson 14
Jonathan 14
Ker@@ 14
Kiva 14
Ku@@ 14
Kur@@ 14
Los 14
ME@@ 14
Mart@@ 14
Max 14
Med@@ 14
Mil@@ 14
Mos@@ 14
New@@ 14
No 14
Nov@@ 14
Obama 14
Oh 14
On@@ 14
Pa@@ 14
Photoshop 14
Pol@@ 14
Pri@@ 14
Ram@@ 14
SE@@ 14
SUV 14
South 14
Stacey 14
Sw@@ 14
TH 14
THC 14
Ur@@ 14
Ven@@ 14
WhatsApp 14
Wil@@ 14
ZK 14
arg@@ 14
ark 14
ary 14
ast 14
ati 14
az 14
bo@@ 14
ds 14
ea 14
ee@@ 14
ella 14
elle 14
ema 14
end 14
ert 14
ever 14
ex 14
ies 14
inger 14
ink@@ 14
ira 14
itch@@ 14
ix 14
kh 14
lig@@ 14
line 14
man@@ 14
mo 14
ode 14
odi 14
onia 14
oto 14
ott 14
ouse 14
pH 14
pe@@ 14
red 14
ten@@ 14
twitter 14
uk 14
und 14
up 14
ura 14
ustin 14
vet@@ 14
was 14
一个系列 14
一出 14
一分为二 14
一命 14
一夜间 14
一小撮 14
一张白纸 14
一想 14
一拳 14
一早 14
一时期 14
一视同仁 14
一餐 14
万元 14
万张 14
三千万 14
三四个 14
上上下下 14
上千人 14
上衣 14
下一场 14
不前 14
不可分割 14
不合逻辑 14
不宜 14
不息 14
不惜 14
不懈 14
不明@@ 14
不难理解 14
与日俱增 14
与此@@ 14
丑恶 14
专门@@ 14
业界 14
两间 14
个人利益 14
个体化 14
个面 14
中庭 14
中要 14
主播 14
主教 14
丽娜 14
之屋 14
之树 14
之源 14
也@@ 14
乳头 14
事有 14
二十分钟 14
二十多年 14
二零零@@ 14
互相学习 14
互补 14
五亿 14
亚地区 14
些@@ 14
交警 14
产地 14
亲友 14
亲和力 14
人上 14
人情味 14
人权@@ 14
人死 14
人眼 14
人身 14
亿光年 14
仅靠 14
今年年底 14
今早 14
从天而降 14
付诸 14
以人为本 14
仰 14
仰慕 14
仰赖 14
任何理由 14
伊利诺伊州 14
伊阿宋 14
会犯 14
传播速度 14
传送门 14
伯尼 14
伯爵 14
伯莎 14
但别 14
但用 14
何以 14
你会用 14
使用暴力 14
侏儒 14
供暖 14
供选择 14
侦察员 14
便签 14
俄克拉@@ 14
俘虏 14
保镖 14
信箱 14
借由 14
值班 14
倾 14
先要 14
先辈 14
光靠 14
克制 14
克拉夫特 14
克鲁 14
全套 14
全球@@ 14
全自动 14
八度 14
公会 14
公职 14
公鸡 14
共产@@ 14
共产党 14
具象 14
再好不过 14
再者 14
军阀 14
冰水 14
净水 14
几十万 14
几家 14
几百名 14
几百种 14
几百美元 14
凭空@@ 14
出口国 14
出手 14
出演 14
击退 14
分水岭 14
分清 14
划出 14
创新力 14
利人 14
别国 14
制订 14
刺伤 14
剌 14
前列 14
前才 14
前男友 14
剪切 14
加州理工学院 14
加里 14
勤劳 14
包涵 14
化工厂 14
匹 14
十一 14
十三岁 14
千万个 14
千五百 14
千兆 14
千篇一律 14
午餐时间 14
半月板 14
半身 14
华尔兹 14
卓有成效 14
南端 14
博爱 14
占地 14
卡扎菲 14
卡纳@@ 14
卡通人物 14
卡马 14
印地语 14
印欧语 14
印着 14
危急 14
即使如此 14
卸 14
历史悠久 14
原以为 14
原件 14
原地@@ 14
原文 14
厨艺 14
参赛者 14
双鞋 14
发光@@ 14
发展壮大 14
发行@@ 14
发财 14
发送给 14
取暖 14
取货 14
受力 14
变少 14
变得复杂 14
变暗 14
变色 14
口吻 14
口述 14
另有 14
只为 14
可想而知 14
史瓦西 14
吃些 14
合乎@@ 14
合理性 14
吉斯 14
同源 14
向南 14
含水层 14
含羞草 14
吼叫 14
周边@@ 14
味儿 14
咄@@ 14
咖啡机 14
哪些方面 14
哼@@ 14
售出 14
啄@@ 14
啥@@ 14
喀拉 14
喇叭@@ 14
喘@@ 14
嗪 14
噗@@ 14
四大 14
四项 14
回味 14
回家@@ 14
回顾历史 14
围住 14
围成 14
固定@@ 14
国人 14
图书@@ 14
图形@@ 14
圆柱体 14
在技术上 14
在线@@ 14
地名 14
地心引力 14
地来 14
地理杂志 14
地读 14
地面@@ 14
坐标轴 14
坐立不安 14
坑里 14
坦白讲 14
埃克森 14
埃利奥特 14
埃尔 14
埋头 14
培养基 14
基因库 14
基恩 14
基特 14
基站 14
塞万提斯 14
塞巴斯蒂安 14
填埋 14
墓@@ 14
墓穴 14
增重 14
增高 14
声纳 14
处理@@ 14
处理厂 14
处置 14
备选 14
外光 14
多位 14
多加 14
多快 14
多明戈 14
多种语言 14
大儿子 14
大名 14
大小便 14
天文馆 14
太子港 14
太短 14
太空舱 14
太重 14
太阳镜 14
太阳风 14
太阳风暴 14
奈特 14
奈飞 14
奉行 14
契@@ 14
套路 14
奥斯曼帝国 14
奧 14
奴@@ 14
奸 14
好孩子 14
好点 14
好玩儿 14
妥当 14
妹 14
姑且 14
子集 14
孛 14
学问 14
它长 14
守法 14
安然无恙 14
完好无损 14
完成学业 14
宗教@@ 14
定时炸弹 14
宝莱坞 14
实事 14
实事求是 14
实用性 14
实证 14
实验组 14
客服 14
宣判 14
害者 14
家禽 14
富于 14
富勒 14
寓@@ 14
导火@@ 14
寿命@@ 14
小儿@@ 14
小型企业 14
小得多 14
小提琴家 14
小精灵 14
小钱 14
尸检 14
尾数 14
尿道 14
展会 14
屠@@ 14
山地车 14
山洞 14
山里 14
岔 14
岩层 14
岸上 14
崇敬 14
巴尔 14
巴布亚新几内亚 14
巷@@ 14
市内 14
布洛芬 14
布雷顿 14
希拉 14
希瑟 14
带头 14
常见@@ 14
常量 14
幂 14
幌子 14
平面@@ 14
年长者 14
年龄@@ 14
并列 14
并试 14
幸福快乐 14
幸福生活 14
应邀 14
底端 14
座右铭 14
座头 14
康恩 14
建国 14
建筑工地 14
引申 14
弗拉@@ 14
弧 14
弧线 14
弯折 14
弱小 14
弹出 14
弹药 14
弹跳 14
归根到底 14
当面 14
录下来 14
录影带 14
形形色色 14
形态@@ 14
彬@@ 14
影院 14
往上爬 14
得着 14
循环@@ 14
微微 14
微秒 14
微藻 14
微风 14
德福 14
德雷克 14
心脏起搏器 14
忒 14
忘不了 14
忧心 14
怀特兄弟 14
思维@@ 14
急救室 14
怪癖 14
恕 14
恢复健康 14
恢复性 14
恰 14
悍 14
患病率 14
惨淡 14
惬意 14
惯@@ 14
想学 14
想尽 14
感到痛苦 14
愤慨 14
慕@@ 14
成功人士 14
成吉思汗 14
成年期 14
戒毒 14
战舰 14
戴尔 14
打中 14
打击@@ 14
托克 14
托尼@@ 14
扰动 14
批改 14
承载@@ 14
技术手段 14
技术支持 14
技术革新 14
投手 14
抗病毒 14
折服 14
押韵 14
拆毁 14
拉力 14
拉登 14
拉长 14
拐 14
拐角 14
拔掉 14
拘捕 14
拦@@ 14
择 14
拱 14
拳击 14
拷@@ 14
持续上升 14
指示牌 14
按部就班 14
挑选出 14
挖掘出 14
掏@@ 14
排在 14
推动者 14
推销员 14
描绘成 14
提了 14
搜身 14
摄于 14
摄影者 14
摊开 14
摘要 14
撕掉 14
撕碎 14
撬@@ 14
支持系统 14
收听 14
收益率 14
收藏品 14
改名 14
放个 14
政治立场 14
故事书 14
教学方式 14
教育学 14
数百人 14
数码技术 14
整件事 14
文件夹 14
文化大革命 14
文斯 14
斟酌 14
断断续续 14
斯塔 14
斯多德 14
斯多葛 14
斯巴达克斯 14
新兴国家 14
新来 14
新闻标题 14
新鲜@@ 14
施暴 14
旋转@@ 14
无事 14
无价 14
无忧 14
无所不知 14
无法回答 14
无法形容 14
无稽之谈 14
无障碍 14
日新月异 14
日程表 14
日间 14
旬 14
时代周刊 14
昆 14
明暗 14
昨天晚上 14
普京 14
晾@@ 14
更棒 14
曾一度 14
替代@@ 14
替罪羊 14
最常 14
月经周期 14
未成年 14
本上 14
本子 14
机关枪 14
机动 14
束@@ 14
杠 14
来举 14
杰弗里 14
杰里 14
松露 14
极低 14
林木 14
林登 14
架起 14
柔和 14
查德 14
标榜 14
树液 14
核反应 14
核裂变 14
核酸 14
格里@@ 14
格陵兰 14
桅杆 14
桌面上 14
梅花 14
梦里 14
梦魇 14
梯度 14
棒棒糖 14
棕榈 14
概念化 14
横扫 14
橘子 14
橱窗 14
欧罗巴 14
正当@@ 14
正题 14
此举 14
武士 14
段@@ 14
殿堂 14
母性 14
每星期 14
比较复杂 14
毕尔巴鄂 14
毕达哥拉斯 14
毛细胞 14
氏@@ 14
民主制 14
民主选举 14
民粹主义 14
氟 14
水危机 14
水坝 14
汉娜 14
池@@ 14
池子 14
汽车行业 14
沙袋 14
没多久 14
没过多久 14
法式 14
波哥大 14
泣 14
泰坦尼克 14
洗掉 14
洞悉 14
活动@@ 14
流下 14
流水 14
浅色 14
浮力 14
浮夸 14
浸 14
消息来源 14
消极@@ 14
消遣 14
淋巴@@ 14
淤泥 14
深刻印象 14
深受@@ 14
深邃 14
添 14
渐进 14
温顺 14
游泳@@ 14
游艇 14
湾@@ 14
溃@@ 14
滑翔 14
滴水 14
演奏家 14
澳大利亚人 14
激进主义 14
灾区 14
点心 14
炽热 14
烟草业 14
烦扰 14
热气 14
热液 14
热烈@@ 14
热身 14
烷 14
烹调 14
焊接 14
照射到 14
照常 14
熟睡 14
熬夜 14
熬过 14
爱国 14
爱慕 14
爱戴 14
爱达荷州 14
爵 14
爷 14
爸爸妈妈 14
牵强 14
特伦斯 14
特拉维夫 14
犀利 14
犯过 14
狂笑 14
猛地 14
猜猜看 14
猴面包树 14
玉@@ 14
玛莎 14
玩玩 14
环流 14
环视 14
现代科学 14
理事会 14
理工大学 14
瑞奇 14
甚微 14
生植物 14
生殖器官 14
用笔 14
甲醛 14
电源@@ 14
电路@@ 14
画展 14
畔 14
留有 14
疆@@ 14
疫 14
疼@@ 14
病原 14
病得 14
病患者 14
病理学 14
瘫 14
白化 14
白点 14
百分@@ 14
百分之三 14
百分之九十五 14
的的确确 14
皮毛 14
皮肤癌 14
盘尼西林 14
盛会 14
相仿 14
省份 14
看管 14
看门人 14
真能 14
着手于 14
睁@@ 14
知名度 14
石板 14
石灰 14
石英 14
砍伐森林 14
研究课题 14
砖墙 14
破除 14
硬性 14
碟@@ 14
碰巧是 14
磨灭 14
磨练 14
示威游行 14
社会效益 14
祝@@ 14
神学家 14
票房 14
禁不住 14
私 14
私人化 14
种树 14
科学依据 14
秘@@ 14
秘书长 14
秘密@@ 14
秘方 14
移出 14
移动@@ 14
移动性 14
税款 14
稳定下来 14
稻米 14
空谈 14
窃窃私语 14
窥视 14
立体@@ 14
站不住脚 14
竭 14
笛@@ 14
第一例 14
第一段 14
第一行 14
第四天 14
笼罩着 14
等量 14
筹钱 14
简略 14
管状 14
精准度 14
索内斯 14
紧握 14
紧缺 14
约旦河西岸 14
约束条件 14
纪实 14
纬 14
纲 14
纳人 14
纳斯 14
纸箱 14
纺@@ 14
经济繁荣 14
经理人 14
绰号 14
绿地 14
绿茶 14
罗德@@ 14
罗德岛 14
罗比 14
置之不理 14
置入 14
美国农业部 14
美好未来 14
群体@@ 14
羽 14
翘@@ 14
翻一番 14
翻版 14
翻译人员 14
翻页 14
耀斑 14
老大 14
老手 14
老生常谈 14
老鹰 14
而建 14
聊一聊 14
联通 14
聚餐 14
肖@@ 14
肚@@ 14
肥皂泡 14
肩负 14
胡克 14
胡椒 14
能行 14
能长 14
脑神经 14
脚尖 14
脱离@@ 14
腰包 14
腰部 14
自卫 14
自古以来 14
自残 14
自然语言 14
自由落体 14
自豪感 14
致密 14
船身 14
艾琳 14
艾略特 14
芝诺 14
芭比 14
花纹 14
苏茜 14
苦痛 14
茜 14
莱卡 14
营利性 14
萨莉 14
葛瑞丝 14
蒙哥马利 14
蒙德 14
蓝牙 14
蓬松 14
薄弱 14
蚊@@ 14
蚜虫 14
蚯蚓 14
螨虫 14
蠢事 14
行军 14
行车 14
衍@@ 14
衬 14
衰 14
裁定 14
西里尔 14
要害 14
视频@@ 14
解法 14
解谜 14
警力 14
警员 14
计划局 14
训斥 14
训练营 14
议定书 14
议论 14
记忆犹新 14
讲师 14
论调 14
诈 14
诊@@ 14
诚 14
详细@@ 14
误区 14
说点 14
诺伊曼 14
谁会想到 14
调低 14
调查者 14
谣 14
谩骂 14
豪 14
豪宅 14
货真价实 14
贫血 14
贯彻 14
贱 14
资历 14
资金@@ 14
赐 14
赛道 14
起火 14
趁着 14
超常 14
越低 14
越多越好 14
足有 14
足球赛 14
趾 14
跃 14
路由器 14
跳到 14
跷@@ 14
踏出 14
蹩脚 14
躲起来 14
躲过 14
车型 14
车开 14
转转 14
轮车 14
轻便 14
辛勤 14
辨 14
达尔文主义 14
迂回 14
过会 14
近在咫尺 14
这倒 14
这全 14
这封 14
进门 14
远亲 14
远胜 14
远足 14
远高于 14
连环 14
迟早会 14
迷上 14
送来 14
送达 14
逐个 14
逗留 14
通俗 14
逮@@ 14
道义上 14
遗留下来 14
遣@@ 14
避 14
那一 14
那套 14
那该 14
配音 14
酒鬼 14
酸度 14
采摘 14
里兰 14
里奥 14
里长 14
重整 14
重蹈 14
重金属 14
野猪 14
量子@@ 14
金融市场 14
钟声 14
钩@@ 14
铁人三项 14
锦上添花 14
镇子 14
镑 14
镶@@ 14
长凳 14
长途跋涉 14
问号 14
闯进 14
闹剧 14
闻所未闻 14
队列 14
防备 14
阴 14
阴谋论 14
阿尔卑@@ 14
阿帕@@ 14
阿比 14
阿特 14
阿迪达斯 14
附上 14
陆 14
陨石坑 14
难以忘怀 14
难逃 14
雄伟 14
雨滴 14
零散 14
雷诺 14
雾气 14
震网 14
露脊 14
霸主 14
静音 14
鞍@@ 14
韦斯 14
音域 14
预料@@ 14
预订 14
风险@@ 14
飞来 14
飞过来 14
食肉动物 14
马尔科 14
马耳他 14
马路上 14
驴@@ 14
驾驶者 14
驾驶舱 14
骄傲地 14
骑兵 14
骑单车 14
骑马 14
骗人 14
髋骨 14
高中@@ 14
高墙 14
高深 14
鱿鱼 14
麦哲伦 14
麻风病 14
麼 14
黄热病 14
黄金时代 14
黑名单 14
鼓手 14
齿@@ 14
＋ 14
0.00@@ 13
11000 13
17000 13
1910 13
1919 13
1941 13
1942 13
2.4 13
860 13
9.11 13
AG 13
Alexa 13
Allen 13
BJ 13
Ben 13
Bern@@ 13
Bur@@ 13
CERN 13
CFC 13
Cameron 13
Carol 13
Cent@@ 13
Chop@@ 13
Chr@@ 13
DBC 13
DI 13
DIS 13
Deborah 13
Dem@@ 13
Der@@ 13
Donn@@ 13
Eduardo 13
Eli@@ 13
Eth@@ 13
Fab 13
HI@@ 13
HT@@ 13
Ha@@ 13
Haryana 13
Hol@@ 13
IC@@ 13
Ib@@ 13
Inst@@ 13
It 13
Jason 13
Jon 13
KKM 13
Ka@@ 13
Kenn@@ 13
Kevin 13
Koolhaas 13
LGBT@@ 13
Lick@@ 13
Lisa 13
MBI 13
Mark@@ 13
Mathematica 13
Microsoft 13
Minto 13
Mouaz 13
NO@@ 13
Nan@@ 13
Nor@@ 13
OWIC 13
PPT 13
Pen@@ 13
Pet@@ 13
Pink 13
Pur@@ 13
RHex 13
ROTC 13
Rad@@ 13
Rose 13
Ruby 13
SOPA 13
Sar@@ 13
Shadi 13
Sher@@ 13
Sun@@ 13
TB 13
TBP 13
TC 13
TEDGlobal 13
TR@@ 13
Too 13
UPS 13
US@@ 13
Un@@ 13
U盘 13
Wilson 13
Worldchanging 13
YR 13
Zip@@ 13
abad 13
agos 13
aker 13
ally 13
anc@@ 13
anda 13
ano 13
ap 13
awkins 13
civility 13
co@@ 13
der@@ 13
eck 13
edia 13
elyn 13
ery 13
esh 13
feld 13
ger 13
goo@@ 13
had 13
hat 13
hu@@ 13
iTunes 13
igg@@ 13
ign 13
iki 13
ila 13
ingo 13
ita 13
jitney 13
mail 13
mi 13
olly 13
oma 13
oom@@ 13
ps 13
rav@@ 13
row 13
tion 13
vin 13
wa 13
wor@@ 13
zal@@ 13
zy 13
× 13
ō 13
π 13
一劫 13
一大笔 13
一宗 13
一帆风顺 13
一帧 13
一百万美元 13
一盏 13
一盏灯 13
一脚 13
一般@@ 13
一触即发 13
一顿饭 13
七倍 13
七百万 13
万事 13
万升 13
万岁 13
万无一失 13
万英镑 13
万颗 13
丈 13
丈量 13
三宝 13
上取 13
上山 13
上扬 13
不休 13
不可理喻 13
不合 13
不太会 13
不妙 13
不干 13
不忠 13
不相干 13
不绝 13
不肯 13
不良@@ 13
不赖 13
不难想象 13
与其说 13
与此相关 13
业者 13
两句话 13
两国@@ 13
两手 13
两支 13
两条线 13
两栖动物 13
两秒 13
两篇 13
两股 13
两腿 13
两辆 13
严肃@@ 13
严苛 13
个人行为 13
个儿 13
个点 13
丰富性 13
丰盛 13
临终前 13
为一体 13
为时已晚 13
主编 13
举重 13
乃@@ 13
久而久之 13
之不@@ 13
之远 13
乌斯 13
乙 13
乙烯 13
书面@@ 13
买车 13
事无@@ 13
事能 13
二十个 13
二十五 13
二十岁 13
二百@@ 13
二级 13
于世 13
亏欠 13
云团 13
五条 13
五线谱 13
五花八门 13
亚历山大港 13
亚特 13
亡@@ 13
交互方式 13
交响曲 13
产房 13
亲缘 13
人人平等 13
人声 13
人工智慧 13
人情 13
人文主义者 13
人次 13
人正 13
人花 13
亿到 13
介子 13
从何 13
从左到右 13
从现在起 13
他乡 13
他妈的 13
令人讨厌 13
令人难忘 13
以为@@ 13
任何时刻 13
份@@ 13
企及 13
伊莱 13
休眠 13
优胜 13
伞@@ 13
伟哥 13
传奇@@ 13
传道 13
伤人 13
伴@@ 13
低碳 13
住宅区 13
住房@@ 13
体征 13
体贴 13
体重增加 13
何塞 13
作个 13
你们好 13
你会@@ 13
佳 13
佳肴 13
使用权 13
供应@@ 13
侦@@ 13
侦察 13
侯赛因 13
俄勒冈 13
保险箱 13
信天翁 13
停歇 13
停靠 13
健壮 13
健康人 13
偶然@@ 13
偷听 13
僵@@ 13
光度 13
克利 13
克利@@ 13
克服困难 13
克莱尔 13
克里斯蒂安 13
兑换 13
入眠 13
入选 13
全然不同 13
全称 13
八倍 13
八分钟 13
八小时 13
八面体 13
公义 13
公升 13
公理 13
六十@@ 13
共同行动 13
共舞 13
共进午餐 13
关键作用 13
兴建 13
其事 13
养老 13
内侧 13
内分泌 13
冈@@ 13
再而三 13
冒名顶替 13
冒险@@ 13
写于 13
写实 13
军备 13
冰河 13
冲刷 13
冻土 13
凄@@ 13
减免 13
凝 13
几内亚 13
几样 13
几段 13
几百万个 13
几百米 13
出局 13
出版物 13
出面 13
刀刃 13
刃@@ 13
切入点 13
切实可行 13
切身@@ 13
切除术 13
到家 13
制剂 13
制动 13
制药业 13
制表 13
削@@ 13
前身 13
剖@@ 13
剥 13
力图 13
办事员 13
加个 13
加利福 13
加快@@ 13
加迪休 13
动作@@ 13
动弹 13
劳伦 13
勘测 13
化学键 13
北海 13
匠@@ 13
匣子 13
医药行业 13
十九岁 13
十六@@ 13
千张 13
半英里 13
华特 13
协奏曲 13
单是 13
单调乏味 13
卖得 13
南斯拉夫 13
南面 13
博格 13
卜@@ 13
卡拉奇 13
卢克 13
卫生条件 13
卫生设施 13
卫生部门 13
印刷品 13
印有 13
原始人 13
原状 13
厨 13
参加者 13
双关语 13
双金属 13
反作用 13
反对派 13
反问 13
发丝 13
发动战争 13
发电量 13
受审 13
受雇 13
变坏 13
变糟 13
口香糖 13
可取 13
可说 13
史密森 13
右上方 13
各样 13
合群 13
吉娜 13
吉布@@ 13
吉普车 13
同一性 13
同时代 13
同胞们 13
同辈 13
名列前茅 13
后人 13
后边 13
后门 13
吐丝 13
吞没 13
吩咐 13
听者 13
呆板 13
呵护 13
命中 13
和蕾 13
咪 13
咳 13
咽@@ 13
品牌@@ 13
哈克 13
哑 13
哪去 13
商业价值 13
喉头 13
喝点 13
喷嘴 13
喷气式 13
嗅@@ 13
嘟 13
嘲@@ 13
囚 13
囚徒 13
四人 13
四分五裂 13
四射 13
回旋 13
回落 13
回音 13
因人而异 13
困苦 13
国家卫生研究院 13
国民@@ 13
国防部长 13
圆满 13
土生土长 13
圣坛 13
在你看来 13
在此之后 13
地段 13
地热 13
地要 13
块头 13
域性 13
塌 13
塔布 13
塞尔玛 13
增量 13
墨西哥人 13
声呐 13
备忘录 13
复习 13
复杂化 13
复活节 13
外显 13
外皮 13
多克 13
多多 13
多疑 13
多米 13
多英里 13
多西 13
多边 13
大吉 13
大坝 13
大壶 13
大学@@ 13
大家族 13
大树 13
大气污染 13
天呀 13
天壤之别 13
天气预报 13
天马行空 13
失事 13
失学 13
失语症 13
头来 13
夸 13
夸特 13
夹板 13
奎特 13
套用 13
奠@@ 13
女演员 13
女郎 13
奶昔 13
好日子 13
如实 13
妖@@ 13
妥善 13
妮可 13
委 13
字谜 13
存档 13
存货 13
学名 13
学老师 13
孩提时代 13
它成 13
守夜 13
守旧 13
安乐死 13
安全气囊 13
宜@@ 13
宝库 13
实体化 13
实实 13
审 13
审批 13
审阅 13
客户@@ 13
宫廷 13
家长会 13
寄出 13
寄托 13
密特 13
密码@@ 13
察@@ 13
对弈 13
对齐 13
寻思 13
寻觅 13
射精 13
小儿子 13
小声 13
小女儿 13
小把戏 13
小白鼠 13
少之又少 13
尝尝 13
尺子 13
屋檐下 13
山中 13
崇@@ 13
巢@@ 13
工具包 13
左宗棠 13
巨资 13
巴兹 13
巴德 13
巾 13
市场需求 13
市里 13
布宜诺斯艾利斯 13
帆@@ 13
希利 13
帕尔@@ 13
帮手 13
常去 13
干掉 13
干枯 13
幼仔 13
广为流传 13
床位 13
廉 13
开垦 13
开篇 13
开药 13
弗洛@@ 13
弗里@@ 13
弗雷 13
弟@@ 13
弧菌 13
强加在 13
归宿 13
形容词 13
彭 13
往右 13
待会 13
很受 13
很烂 13
得快 13
循序渐进 13
循环往复 13
循规蹈矩 13
微缩 13
德兰 13
心事 13
心境 13
心得 13
心房 13
心理咨询 13
忧@@ 13
急剧下降 13
性病 13
恐怖活动 13
恐怖电影 13
恼人 13
情绪低落 13
惠及 13
惠特@@ 13
惧 13
惨案 13
想通 13
愁@@ 13
愈加 13
愈来愈 13
感染性 13
感觉器官 13
愤 13
愿不愿意 13
慈@@ 13
慎 13
慢慢来 13
我作 13
我得 13
我来举 13
我点 13
战斗@@ 13
截面 13
所到之处 13
所及 13
所起 13
手榴弹 13
才干 13
打人 13
打篮球 13
打通 13
扫弦 13
找些 13
把握住 13
抒发 13
投在 13
投石 13
投票站 13
抖动 13
抗性 13
抢先 13
报税 13
抵挡 13
拂@@ 13
拉巴 13
拉扯 13
拉斐尔 13
拉链 13
拍电影 13
拖拽 13
拖网 13
拖鞋 13
拘禁 13
招待 13
招来 13
招致 13
拼贴 13
持枪 13
指指点点 13
按压 13
按计划 13
挑起 13
挡风玻璃 13
挥发 13
挪到 13
振兴 13
挺酷 13
捅 13
捍卫者 13
捧@@ 13
掉入 13
排外 13
掠@@ 13
控方 13
推算 13
掺@@ 13
揉 13
揍 13
提供@@ 13
提拔 13
揪@@ 13
搅 13
搅动 13
摔跤手 13
撤 13
操作员 13
擦肩而过 13
攫取 13
改变方向 13
改掉 13
改革者 13
政府@@ 13
政治权利 13
故事会 13
故土 13
故我在 13
敏锐@@ 13
教我如何 13
教育界 13
散居 13
数十个 13
数学计算 13
数据处理 13
数是 13
整体@@ 13
整形 13
整部 13
斑斓 13
断掉 13
斯丁 13
斯伯格 13
斯卡 13
斯尔 13
斯托尔 13
斯托芬 13
斯文 13
斯洛@@ 13
斯马 13
新手 13
新政 13
新鲜空气 13
方圆 13
施舍 13
旁人 13
旁观 13
旋钮 13
无人问津 13
无可救药 13
无垠 13
无心 13
无损 13
无政府 13
无理 13
无表情 13
日益增长 13
日趋 13
旨意 13
早产 13
早点 13
时差 13
昆士@@ 13
星级 13
昧 13
昧@@ 13
显现出 13
晒@@ 13
晓@@ 13
普通话 13
普遍现象 13
景致 13
晴朗 13
暮@@ 13
暴民 13
暴风雪 13
更佳 13
更正 13
曼莎 13
最广 13
有余 13
有悖 13
有线 13
朗诵 13
木制 13
木工 13
朱 13
朵@@ 13
机器人学 13
权重 13
条形码 13
来算 13
来谈 13
板上 13
枕@@ 13
枝干 13
枯萎 13
架设 13
柏林墙 13
柱状 13
标价 13
校区 13
根治 13
根系 13
桂@@ 13
梁@@ 13
棘龙 13
森林@@ 13
棱 13
植根于 13
概念性 13
榜首 13
模版 13
橄榄 13
橄榄@@ 13
次级 13
歇@@ 13
正中 13
正对着 13
正想 13
正整数 13
武装力量 13
殉@@ 13
殷@@ 13
母婴 13
每一寸 13
每加仑 13
每场 13
比伯 13
比萨 13
毛孔 13
毡 13
毫无价值 13
毫无关系 13
民间@@ 13
氨@@ 13
水坑 13
水性 13
水晶@@ 13
水桶 13
水熊虫 13
水肺 13
水道 13
汁@@ 13
求偶 13
污 13
污染@@ 13
汽车旅馆 13
沃尔沃 13
沃斯 13
沉溺于 13
沟渠 13
没完 13
没落 13
沧@@ 13
泄@@ 13
波及 13
泪流满面 13
泳 13
洲@@ 13
浆@@ 13
测谎 13
浓烟 13
浩大 13
海尔 13
涅@@ 13
消减 13
消磨 13
消耗掉 13
深入人心 13
深刻@@ 13
深爱着 13
混为一谈 13
混血 13
清空 13
渔猫 13
溃疡 13
溪@@ 13
滞 13
满满的 13
滥伐 13
滨海 13
滴答 13
澜 13
火星人 13
灯笼 13
灼烧 13
炉灶 13
炒作 13
炒鱿鱼 13
点火 13
炼金@@ 13
烘焙 13
烟草行业 13
烫@@ 13
热门话题 13
焕发 13
煤油 13
燕麦片 13
爬楼梯 13
爱国主义 13
爱达荷 13
牢笼 13
物化 13
牵手 13
特殊性 13
犯了@@ 13
狂奔 13
狄克 13
猫科动物 13
王者 13
玛氏 13
玩转 13
现阶段 13
珊 13
珊@@ 13
珍藏 13
理发 13
琳达 13
瓦纳 13
甘多 13
甘愿 13
生平 13
生根 13
生活品质 13
生物界 13
生育@@ 13
生长@@ 13
用功 13
用电器 13
由衷 13
电气@@ 13
电磁@@ 13
电话线 13
男性化 13
画得 13
畏缩 13
畜牧业 13
疆界 13
疏散 13
疲惫不堪 13
病史 13
痛哭 13
痣 13
癌基因 13
登场 13
百分之二十五 13
百叶窗 13
百年@@ 13
百货公司 13
皮克斯 13
皮桦 13
皱 13
盈@@ 13
益虫 13
盐湖城 13
盟 13
直接@@ 13
直言不讳 13
看台 13
眼皮 13
着重于 13
睦@@ 13
睫毛 13
矗立 13
矛@@ 13
矩 13
矮人 13
石匠 13
石油价格 13
矿石 13
硝@@ 13
硫@@ 13
碌@@ 13
碎裂 13
碑@@ 13
碧昂斯 13
碰见 13
磁力 13
社会底层 13
神仙 13
神器 13
神经性 13
科斯 13
稀 13
稀疏 13
稳定@@ 13
穆德 13
穗 13
空心 13
空想 13
穿衣 13
窖 13
立足@@ 13
竞争@@ 13
竞选活动 13
第一线 13
第一颗 13
筑巢 13
答题 13
签下 13
简单易行 13
简约 13
算数 13
算盘 13
管弦乐团 13
米勒 13
米特 13
粗糙度 13
精确性 13
索韦托 13
繁重 13
纤维化 13
纯正 13
纱@@ 13
纳格 13
纵横 13
纶 13
纸杯 13
纽约@@ 13
细分 13
细看 13
绊倒 13
经商 13
结合体 13
结账 13
给予帮助 13
绰@@ 13
绿野仙踪 13
编程@@ 13
缴 13
网络系统 13
罗德尼 13
罗拉 13
罢课 13
美国大使馆 13
美国空军 13
美洲@@ 13
翻遍 13
翼@@ 13
老套 13
老鼠@@ 13
考试@@ 13
而变 13
而论 13
耕 13
耸耸肩 13
职业道德 13
肆@@ 13
肌萎缩 13
肘 13
肩负着 13
胀@@ 13
胃灼热 13
背负着 13
胡扯 13
胸针 13
脉动 13
脑瘤 13
臆想 13
自于 13
自动售货机 13
自发性 13
自已 13
自愈 13
自然规律 13
自由贸易 13
致富 13
舞团 13
舞曲 13
良心 13
艰险 13
艾诗 13
节育 13
花光 13
芳 13
苏格拉底 13
苦差事 13
茂 13
茶叶 13
药物滥用 13
药用 13
莫夫 13
莫里斯 13
莲@@ 13
菊 13
菌株 13
菩提 13
萨克 13
落差 13
藏有 13
蛙@@ 13
蛛网 13
蛞蝓 13
蛤@@ 13
蝶 13
蠢货 13
行刑 13
衣架 13
表兄 13
表演@@ 13
被试 13
裂变 13
装饰@@ 13
西德 13
西班牙@@ 13
西班牙人 13
西瓜 13
覆辙 13
观测台 13
觑 13
解散 13
触须 13
言行 13
计划署 13
计时器 13
订制 13
记事 13
记录在案 13
记忆@@ 13
讶异 13
许多@@ 13
论断 13
设身处地 13
证券 13
试管婴儿 13
语言表达 13
说得对 13
说明书 13
诺莱坞 13
课时 13
调节器 13
谋划 13
谐@@ 13
谢尔盖 13
豆子 13
贝卡 13
贝特 13
贞操 13
贡献者 13
财力 13
财务状况 13
货船 13
购买@@ 13
赘@@ 13
赛季 13
赛局 13
赤裸 13
赫尔@@ 13
赫顿 13
走私者 13
赶回 13
起手来 13
超文本 13
超高 13
趣事 13
趣味 13
足智多谋 13
距今 13
跨越国界 13
路易斯安那州 13
路障 13
踏进 13
踮@@ 13
蹄 13
蹲@@ 13
身心@@ 13
身手 13
转播 13
轰动 13
辉 13
辩方 13
边角 13
迅@@ 13
过上 13
过学 13
过热 13
运动会 13
运动神经 13
运载 13
还清 13
这么@@ 13
这得 13
进发 13
连续不断 13
迪斯科 13
退役军人 13
退税 13
适度 13
适得其反 13
逃难 13
通宵 13
通风@@ 13
逝 13
造物 13
遂 13
遍布整个 13
遗传@@ 13
那家伙 13
那般 13
那要 13
那部 13
那面 13
鄂 13
酒杯 13
酸痛 13
酸盐 13
重中之重 13
重大意义 13
重燃 13
量身定做 13
金鱼 13
钟形 13
钟表 13
钢琴家 13
铂 13
铠甲 13
铭@@ 13
铲 13
铺路 13
销售员 13
锁住 13
锡克教 13
锯 13
镀@@ 13
镶嵌 13
长岛 13
长篇 13
门票 13
问好 13
间距 13
闸门 13
防御@@ 13
防范 13
阿兹@@ 13
阿布 13
阿斯 13
阿桑@@ 13
阿蒙森 13
阿门 13
陀螺仪 13
陈列 13
陌生感 13
降临到 13
降级 13
降至 13
限制@@ 13
除外 13
除草 13
陨@@ 13
险恶 13
陵 13
隐居 13
隐形眼镜 13
隙 13
雅兹@@ 13
震撼人心 13
非常灵活 13
非要 13
面墙 13
靶心 13
鞭 13
鞭子 13
鞭策 13
音乐演奏 13
音景 13
顾名思义 13
顾忌 13
预制 13
领到 13
领头人 13
风俗 13
饮食@@ 13
饵 13
马萨诸塞 13
驯服 13
驱 13
驳@@ 13
驳回 13
驼 13
骨灰 13
骸骨 13
高分 13
高点 13
高能 13
魂 13
魏@@ 13
鳃 13
麦凯恩 13
麦加 13
麦金@@ 13
黄石公园 13
黎@@ 13
黏在 13
黑色素瘤 13
鼓棒 13
齐默@@ 13
--@@ 12
0.8 12
123 12
175 12
1914 12
1938 12
1944 12
2.3 12
2300 12
2600 12
270 12
2700 12
330 12
6.5 12
8.5 12
Ahm@@ 12
Ak@@ 12
Alexander 12
Amel 12
America 12
Armstrong 12
August@@ 12
BM 12
BO@@ 12
Brown 12
Bruce 12
Burn@@ 12
B型 12
CG 12
Cohh 12
Corexit 12
Cr@@ 12
Cupid 12
DM 12
Denn@@ 12
Des@@ 12
Dis@@ 12
Dra@@ 12
Gal@@ 12
Gapminder 12
Gar@@ 12
Greg 12
Gri@@ 12
H1N1 12
HBO 12
Hillis 12
HyperCard 12
JK 12
Jacqu@@ 12
Je@@ 12
Jean 12
Jennifer 12
Jud@@ 12
Juli@@ 12
June 12
Ken 12
Khan 12
LES 12
Lady 12
Lay@@ 12
Line 12
Linet 12
MM 12
MP@@ 12
MV 12
Mand@@ 12
Maria 12
Mer@@ 12
Morgan 12
Mus@@ 12
NBC 12
NR@@ 12
Nar@@ 12
Nathan 12
New 12
Ob@@ 12
PP 12
Pi@@ 12
Ross 12
SAT 12
Saf@@ 12
Sec@@ 12
Siftable 12
Ste@@ 12
Sur@@ 12
TRAPPIST 12
The@@ 12
Thongo 12
Twitch 12
T恤衫 12
USB 12
WW@@ 12
Warren 12
Web@@ 12
XX 12
Zabalaza 12
Zara 12
aa@@ 12
akes 12
ald 12
ank@@ 12
ans 12
apple 12
ber 12
bre@@ 12
cat@@ 12
cymatics 12
den 12
do@@ 12
doo 12
ens 12
hai 12
iP@@ 12
ical 12
ier@@ 12
illa 12
ional 12
irl@@ 12
ki 12
ky 12
lif@@ 12
lo 12
low 12
mann 12
ois 12
old@@ 12
oods 12
oria 12
oth 12
par@@ 12
raft 12
rec@@ 12
ree 12
rie 12
si 12
sup 12
ts 12
tt 12
une 12
ure@@ 12
ush@@ 12
va 12
vs 12
ys 12
yth@@ 12
zi 12
ç 12
ó 12
ö 12
一两次 12
一事 12
一剂 12
一千多年 12
一整 12
一文不值 12
一条条 12
一来 12
一档 12
一空 12
一线希望 12
一致同意 12
一跃 12
七点 12
万台 12
万多 12
万维 12
三世 12
三十个 12
三家 12
三文鱼 12
三步 12
三篇 12
三类 12
上校 12
上班@@ 12
上百年 12
上街 12
下回 12
下达 12
不一 12
不假思索 12
不具 12
不凡 12
不可逆转 12
不好@@ 12
不如说 12
不巧 12
不差 12
不常 12
不得而知 12
不正 12
不知疲倦 12
不祥 12
不胜 12
不胜枚举 12
不良影响 12
不适感 12
丙烷 12
东岸 12
丢进 12
两套 12
两极化 12
两秒钟 12
两米 12
严寒 12
丧 12
个人身份 12
中人 12
中才 12
丶 12
为本 12
主动@@ 12
主权国家 12
举世@@ 12
乃 12
之三 12
之举 12
之争 12
之作 12
之家 12
之意 12
之痛 12
之计 12
之鹰 12
乔叟 12
乔纳斯 12
乘船 12
乞讨者 12
习惯化 12
乡镇 12
书时 12
书评 12
买房 12
事实@@ 12
二三十年 12
二分法 12
二十四 12
互动@@ 12
互换 12
互相支持 12
互相残杀 12
五感 12
井然有序 12
亚斯 12
交叉口 12
交战 12
交融 12
产护 12
亨特 12
亲密@@ 12
人为@@ 12
人口普查 12
人大 12
人类史上 12
人见 12
人际交往 12
亿桶 12
亿磅 12
今天下午 12
今时 12
从头@@ 12
从技术上 12
代表团 12
价值@@ 12
任天堂 12
任教 12
任重道远 12
企 12
伊博@@ 12
伊拉克人 12
伊斯 12
伊玛目 12
优待 12
优越感 12
伙儿 12
会动 12
会过 12
伤到 12
伤残 12
伤者 12
伦斯 12
伪科学 12
伴四郎 12
伸直 12
体能训练 12
何故 12
佛爱 12
佣@@ 12
佩服 12
保护层 12
保暖 12
俯冲 12
借助于 12
偏倚 12
储藏@@ 12
傲 12
傻事 12
儿童性 12
兄弟会 12
充盈 12
充血 12
光临 12
光影 12
光晕 12
克劳@@ 12
党制 12
入学考试 12
全国上下 12
全天 12
全速 12
全额 12
八分 12
八成 12
公平性 12
公平正义 12
公案 12
公民自由 12
公牛 12
公益@@ 12
公转 12
六万 12
关税 12
养牛 12
内特 12
内耳 12
内隐 12
再往 12
再谈 12
再过 12
写字@@ 12
写文章 12
写歌 12
军事基地 12
军营 12
军鼓 12
农庄 12
冥思 12
冲浪板 12
冲浪者 12
决斗 12
决断 12
准确无误 12
凝视着 12
几世纪 12
几何图形 12
几名 12
凡尔纳 12
凯克 12
出力 12
出生率 12
击掌 12
函 12
刀片 12
分子生物学家 12
分门别类 12
切割机 12
切斯 12
刊物 12
刑讯逼供 12
列出来 12
刚毛 12
刚过去 12
创业精神 12
利奥 12
别动 12
券@@ 12
刻不容缓 12
剃 12
剪纸 12
劈 12
劈@@ 12
办理 12
功能障碍 12
加密技术 12
加拉@@ 12
加斯 12
加来 12
加西亚 12
加进去 12
加进来 12
务员 12
动能 12
努克 12
劳力 12
势利 12
勺 12
匈牙@@ 12
医学生 12
医药学 12
十九 12
十四岁 12
半空 12
单枪匹马 12
卖点 12
南太平洋 12
博文 12
占有@@ 12
卤@@ 12
即时通讯 12
卵泡 12
卷毛 12
压倒 12
原由 12
原貌 12
厥 12
厮@@ 12
双亲 12
双人 12
双关 12
反应@@ 12
反式 12
反语 12
发射台 12
发帖 12
发推特 12
发条 12
发消息 12
发狂 12
发生器 12
发生率 12
取下 12
取证 12
受益者 12
变差 12
变种 12
变黑 12
口头禅 12
古典@@ 12
古德 12
另一类 12
只靠 12
召@@ 12
可有可无 12
叼 12
吃光 12
各式 12
合伙 12
合作性 12
合影 12
吉萨 12
同仁 12
同居 12
后头 12
君 12
君士坦@@ 12
君王 12
吟@@ 12
吠 12
吨重 12
含糊 12
听得 12
吱 12
吸血 12
呆滞 12
周到 12
呼吸@@ 12
呼吸器 12
呼吸困难 12
咪@@ 12
咳@@ 12
咻 12
哈德 12
哭喊 12
唯 12
唯物@@ 12
商业利益 12
商业区 12
商业性 12
商业界 12
商品@@ 12
商议 12
商谈 12
啦@@ 12
啪 12
善事 12
善恶 12
喝杯 12
喷水 12
嗡 12
嗡@@ 12
嘟嘟 12
嘴边 12
四散 12
四面 12
回事儿 12
回合 12
回文 12
囤积 12
困于 12
围起来 12
国税局 12
图是 12
图森 12
圈养 12
圣彼得堡 12
在建 12
在校 12
地有 12
地道 12
坎塔白 12
坏主意 12
坚定不移 12
坡度 12
型车 12
埃森哲 12
培养@@ 12
基本权利 12
基调 12
基质 12
堆砌 12
堆积如山 12
塔夫 12
塞德 12
填充物 12
填字游戏 12
境外 12
墓 12
增值 12
壁炉 12
夕 12
夕@@ 12
外侧 12
外边 12
外部环境 12
多一点点 12
多任务 12
多家 12
多有 12
多棒 12
多用 12
多萝西 12
多过 12
夜以继日 12
大发雷霆 12
大声@@ 12
大大增加 12
大大提高 12
大步 12
大炮 12
大脑神经 12
大街小巷 12
大陆@@ 12
天文@@ 12
天方夜谭 12
太多人 12
太平@@ 12
太精彩 12
失禁 12
失败率 12
失重 12
头盖骨 12
奥古斯丁 12
奥图 12
奥萨马 12
女主人 12
女性主义 12
好几代 12
好戏 12
好过 12
始祖 12
姬 12
娘@@ 12
娜塔莉 12
婆罗@@ 12
字里行间 12
存留 12
存量 12
孝媛 12
学界 12
学识 12
安息 12
完事 12
完全同意 12
完结 12
官方语言 12
定论 12
实际操作 12
审查员 12
审问 12
客房 12
宣泄 12
宫颈癌 12
家常便饭 12
家庭医生 12
家庭聚会 12
家族史 12
宽大 12
宾夕法尼亚大学 12
密尔沃基 12
密西西比州 12
小型化 12
小家庭 12
小店 12
小汽车 12
小河 12
小组@@ 12
小肠 12
就地取材 12
就职@@ 12
尼加拉瓜 12
尼尔斯 12
尼日尔 12
尼葛洛庞 12
尼采 12
尽己 12
居民区 12
屈从 12
屠宰 12
山峦 12
屹立 12
巡回 12
巡逻队 12
工作狂 12
工具@@ 12
工夫 12
工头 12
工蚁 12
工蜂 12
工资@@ 12
左下方 12
巧是 12
巴克斯 12
巴巴拉 12
巴西@@ 12
市值 12
布兰妮 12
布拉姆斯 12
布罗 12
布莱特 12
帅气 12
帐单 12
帕金森氏 12
帕金森氏症 12
帘 12
带头人 12
常会 12
干道 12
平地上 12
平日 12
平等@@ 12
平米 12
平静下来 12
年少时 12
年龄层 12
并购 12
幼 12
幼小 12
幼鸟 12
广播节目 12
广泛传播 12
库克 12
应用@@ 12
应答 12
康沃尔 12
廊 12
开去 12
开幕式 12
开战 12
开火 12
异国@@ 12
异形 12
弗拉 12
张望 12
弧@@ 12
强制执行 12
强烈建议 12
当说 12
形图 12
彩画 12
往下走 12
很广 12
很脏 12
得救 12
得花 12
御@@ 12
微创 12
微生物学 12
德鲁 12
心上 12
心地 12
心律 12
心无@@ 12
心烦 12
必备 12
必然@@ 12
忠 12
忠诚度 12
忧心忡忡 12
快地 12
快餐店 12
思念 12
思潮 12
急救@@ 12
性地 12
性格@@ 12
怪才 12
怪诞 12
总体而言 12
总督 12
恨不得 12
恶意软件 12
恶臭 12
悔@@ 12
悲剧性 12
情势 12
情理 12
惊叹不已 12
惊慌失措 12
惋惜 12
惑@@ 12
惴@@ 12
惹恼 12
慷慨@@ 12
懂@@ 12
戏弄 12
成倍 12
成群结队 12
我于 12
我付 12
我应 12
我犯 12
战车 12
房主 12
房屋里 12
所愿 12
所见所闻 12
扁豆 12
手心 12
手提 12
手柄 12
打到 12
打响 12
打滑 12
打破@@ 12
打结 12
打转 12
打针 12
扛着 12
执导 12
扮 12
找份 12
技因 12
抒@@ 12
抓紧 12
投了 12
折痕 12
抚 12
护送 12
抵抗@@ 12
押@@ 12
抽出来 12
拉出 12
拉尔夫 12
拉尼 12
拍卖会 12
拔地而起 12
招牌 12
拟 12
拦 12
持平 12
挤进 12
挥霍 12
捆@@ 12
换句话 12
捣乱 12
掀开 12
掉头 12
掉队 12
排名@@ 12
排尿 12
排行 12
排除@@ 12
探员 12
探测仪 12
探险队 12
掩体 12
掩藏 12
措手不及 12
掰 12
插手 12
揭秘 12
援救 12
搅拌机 12
搬回 12
摘取 12
摘掉 12
摸不着头脑 12
撑过 12
撞击@@ 12
撤出 12
播下 12
播放@@ 12
播音员 12
撰稿人 12
攥 12
支持性 12
收起 12
改了 12
改道 12
政治信仰 12
政治性 12
救治 12
教父 12
敞@@ 12
数百次 12
敲开 12
整件 12
斐济 12
斜 12
斧头 12
斯利 12
斯托克顿 12
斯拉 12
斯瓦尔 12
斯皮尔伯格 12
斯科@@ 12
新一轮 12
新兵 12
新家 12
新能源 12
旅行家 12
族谱 12
无一例外 12
无中生有 12
无几 12
无可厚非 12
无完@@ 12
无形@@ 12
无忧无虑 12
无济于事 12
无睹 12
无缘无故 12
日食 12
旧时 12
早产儿 12
早饭 12
时事 12
时任 12
时日 12
时说 12
昏 12
昔@@ 12
昔日 12
星期三 12
星辰 12
映 12
昭@@ 12
普及@@ 12
普林斯顿大学 12
晴天 12
智囊团 12
暴力@@ 12
暴涨 12
曲棍球 12
更优 12
更斯 12
更酷 12
曼哈顿岛 12
曼森 12
最短 12
有失 12
有氧 12
木屋 12
木雕 12
未成年人 12
机动性 12
杀菌 12
杏@@ 12
条带 12
条河 12
来教 12
来访 12
来读 12
来龙去脉 12
杰里米 12
林地 12
枪口 12
枷锁 12
柔韧 12
查兹 12
查出 12
查尔斯顿 12
核燃料 12
核辐射 12
格兰@@ 12
桃子 12
梦想@@ 12
棕 12
椅@@ 12
植物园 12
榜单 12
橡树 12
欢 12
款@@ 12
正像 12
歧义 12
歪@@ 12
死亡数 12
死定了 12
残杀 12
殡葬 12
每十年 12
每块 12
每间 12
毛毛虫 12
毛毯 12
毫@@ 12
民族主义者 12
民调 12
氮@@ 12
水力发电 12
水处理 12
永动机 12
沃德 12
沉寂 12
沉沉 12
沉浸于 12
沒 12
河马 12
油炸 12
油田 12
治疗@@ 12
泄密 12
法海 12
泛非主义 12
波士@@ 12
波峰 12
泰特 12
洋溢 12
洞口 12
活检 12
浏览@@ 12
浑浊 12
海产品 12
海味 12
海特 12
海鞘 12
涂抹 12
润滑@@ 12
淫 12
淫@@ 12
深埋 12
深藏 12
混战 12
清洁剂 12
港湾 12
游离 12
游行示威 12
湖水 12
湖边 12
湿婆 12
溺@@ 12
滑雪者 12
满分 12
漂白 12
漏斗 12
演习 12
演说家 12
漠@@ 12
潜到 12
激光束 12
火力 12
火山爆发 12
火炬 12
灶@@ 12
灼伤 12
点滴 12
為 12
烤鸡 12
热浪 12
热空气 12
照样 12
照镜子 12
熙@@ 12
熬 12
爆炸式 12
爪@@ 12
爬墙 12
爱伦 12
爱意 12
爱滋 12
爱荷华州 12
牙垢 12
牛棚 12
牛群 12
牢狱之灾 12
牢骚 12
牧童 12
牵 12
特兰 12
特殊@@ 12
特鲁斯 12
犬儒主义 12
狂犬病 12
独眼 12
狱友 12
狼群 12
猎户座 12
王位 12
现况 12
现场直播 12
现场表演 12
珍娜 12
球手 12
理睬 12
理解力 12
琳@@ 12
琴键 12
瓦尔迪 12
瓦格纳 12
瓦砾 12
瓶装水 12
甘 12
生养 12
生前 12
生命线 12
生日礼物 12
生活费 12
生理反应 12
生生不息 12
用户@@ 12
田里 12
申诉 12
电信公司 12
电冰箱 12
电动机 12
电磁辐射 12
电视广告 12
畅游 12
留意到 12
疫@@ 12
症结 12
瘙痒 12
白垩 12
白线 12
白质 12
百分之七十五 12
百科 12
百货 12
监视器 12
盛开 12
盟军 12
直击 12
直射 12
相互之间 12
相册 12
省去 12
省油 12
眉 12
看一遍 12
看个 12
看守所 12
真伪 12
真真正正 12
真笑 12
真面目 12
眶 12
眷顾 12
眼皮底下 12
眼部 12
着陆@@ 12
睡得 12
瞥@@ 12
矛 12
矛盾@@ 12
短波 12
石墙 12
石墨 12
石灰石 12
码器 12
砂砾 12
研究室 12
碧 12
碰壁 12
磷虾 12
神性 12
神来 12
神迹 12
福尔摩斯 12
离婚率 12
私人生活 12
私立 12
科幻电影 12
秤 12
积极主动 12
积极向上 12
穆罕 12
穴@@ 12
空中@@ 12
空格 12
空荡荡 12
空袭 12
穿孔 12
突显 12
立方@@ 12
立竿见影 12
端粒酶 12
第一印象 12
第一层 12
第九条 12
米兰达 12
米老鼠 12
精彩@@ 12
精炼 12
精神药物 12
素食主义者 12
繁华 12
繁星 12
纯天然 12
纳什 12
纹路 12
纽瓦克 12
组员 12
细化 12
细腻 12
终端@@ 12
经常性 12
经营者 12
结石 12
结肠@@ 12
给力 12
绝对@@ 12
绝种 12
绝迹 12
继承人 12
维克多 12
绿光 12
缆@@ 12
缝制 12
缪尔 12
缴税 12
网络服务 12
罗莎 12
罪过 12
署名 12
美人 12
美国航空航天局 12
美地 12
美洲豹 12
翼服 12
老挝 12
老虎机 12
老话 12
耆那教 12
而出名 12
而定 12
耐药 12
耳熟 12
耸人听闻 12
耻@@ 12
联合利华 12
联接 12
肆无忌惮 12
肿@@ 12
胆小 12
背景@@ 12
胖子 12
胡德 12
胡须 12
胸膛 12
能起 12
脚趾头 12
脱口而出 12
脱轨 12
腐败问题 12
腓@@ 12
膏 12
膏@@ 12
臂膀 12
臣@@ 12
自力更生 12
自拍照 12
自拔 12
自有 12
自爱 12
自闭 12
臭味 12
致命性 12
舒适度 12
舞动 12
航向 12
航程 12
舱门 12
节课 12
芦@@ 12
芭芭拉 12
花粉@@ 12
花豹 12
英语老师 12
苹果@@ 12
茱莉亚 12
荒地 12
荒废 12
荒漠 12
荒者 12
荧光@@ 12
莉翰娜 12
莫地 12
莫妮卡 12
菌种 12
菩萨 12
营利 12
萨曼莎 12
蒙在鼓里 12
蒙蔽 12
蒲@@ 12
蓬@@ 12
蔬@@ 12
蔽@@ 12
蕾@@ 12
虚 12
蛀@@ 12
蛋白@@ 12
蜂拥而至 12
螺丝 12
血块 12
血汗 12
行性 12
衔 12
表兄弟 12
表弟 12
表示感谢 12
衬@@ 12
袍子 12
袖 12
裁剪 12
装点 12
裙@@ 12
西方式 12
西服 12
西蒙@@ 12
观光 12
观察员 12
规章制度 12
规范@@ 12
览@@ 12
触目惊心 12
言表 12
誉@@ 12
誉为 12
警报器 12
订婚 12
讨人喜欢 12
讨价还价 12
让你能 12
让路 12
讯@@ 12
讲授 12
讲者 12
许多种 12
访者 12
评论员 12
诊断@@ 12
词条 12
试错 12
诗作 12
诗句 12
详述 12
语中 12
误判 12
误用 12
诸神 12
调料 12
调查@@ 12
谎话 12
谐 12
豁然开朗 12
貌@@ 12
贝克特 12
贝利 12
贝叶斯 12
负面@@ 12
责任心 12
账本 12
贩@@ 12
贫困@@ 12
费尔@@ 12
贾巴尔 12
资质 12
赌场 12
赎@@ 12
赐@@ 12
赛尔 12
赝@@ 12
赴@@ 12
趁机 12
超导 12
越强 12
跌入 12
跌落 12
跛@@ 12
跟得上 12
跟踪调查 12
路克 12
跳跳 12
跷 12
身分 12
身无分文 12
车内 12
车门 12
转手 12
转机 12
转角 12
轻柔 12
载重 12
达斯 12
过低 12
过失 12
过渡@@ 12
近地 12
近海 12
返程 12
这批 12
这招 12
这株 12
这道题 12
进制 12
进驻 12
远不如 12
迟@@ 12
迭戈 12
迷雾 12
追求幸福 12
适中 12
适于 12
适者生存 12
逆时针 12
选区 12
选择@@ 12
逐出 12
递 12
通用汽车 12
速度慢 12
逾越 12
遇到困难 12
遛狗 12
邂逅 12
那就是说 12
那点 12
那组 12
邸 12
酒瓶 12
酒馆 12
酿造 12
醋 12
醒醒 12
里夫 12
里奇 12
里安 12
里希 12
里装 12
重任 12
重创 12
野心勃勃 12
金正@@ 12
针管 12
钉@@ 12
钚 12
钢材 12
铺上 12
铺天盖地 12
键@@ 12
门厅 12
阔 12
防盗 12
阳光明媚 12
阶 12
阶@@ 12
阻挠 12
阿克 12
阿克拉 12
阿波@@ 12
附肢 12
陆上 12
陋@@ 12
降下来 12
降水 12
限速 12
陪@@ 12
陪伴着 12
陪同 12
陶器 12
隐私权 12
隐约 12
隔膜 12
障@@ 12
集资 12
雌激素 12
雏@@ 12
雕@@ 12
雪上加霜 12
零排放 12
零花钱 12
零钱 12
雷区 12
雷曼 12
雷特 12
雾剂 12
霍夫曼 12
霸凌 12
青年人 12
静静 12
非兹河 12
非对称 12
非盈利性 12
韦斯特 12
音乐声 12
音响@@ 12
项圈 12
预 12
预判 12
预留 12
预科 12
预言@@ 12
领着 12
题@@ 12
额度 12
风中 12
风吹 12
风声 12
风速 12
飞出 12
飞离 12
飞秒 12
飞舞 12
食草动物 12
餐饮@@ 12
饥渴 12
饭桌 12
饮食习惯 12
饺子 12
首例 12
首府 12
首当其冲 12
首饰 12
马克@@ 12
马尔克斯 12
驯养 12
驱车 12
驱逐出境 12
驾驶@@ 12
高品质 12
高烧 12
高级@@ 12
高过 12
魔咒 12
鲍林 12
鳞@@ 12
鸟群 12
鸡块 12
鸡皮疙瘩 12
麻醉药 12
黄线 12
黏 12
黑暗时代 12
黑暗面 12
默契 12
齐聚一堂 12
龋齿 12
0.7 11
08 11
09 11
114 11
155 11
1858 11
1915 11
1937 11
1946 11
1959 11
200@@ 11
2027 11
210 11
2200 11
3200 11
3x@@ 11
40000 11
46@@ 11
9.@@ 11
ATM 11
Albert 11
Alt@@ 11
Andre@@ 11
Aud@@ 11
Aurora 11
BS 11
Bal@@ 11
Bio@@ 11
Bohanna 11
Bono 11
CB@@ 11
CIA 11
Conn@@ 11
DE 11
DMCA 11
DP 11
Da@@ 11
Don@@ 11
Dun@@ 11
EPC 11
ER 11
Edw@@ 11
Entropica 11
Er@@ 11
Eri@@ 11
Excel 11
FEMA 11
Fosbury 11
Fox 11
Fran@@ 11
Franc@@ 11
Gaga 11
Gil@@ 11
Girl@@ 11
Good@@ 11
Herbie 11
HoloLens 11
Hot@@ 11
Hug@@ 11
Human@@ 11
IA 11
IL 11
JB 11
JO 11
Jasmine 11
Joshua 11
Jumia 11
Kal@@ 11
Kha@@ 11
Kle@@ 11
Les@@ 11
Lev@@ 11
Linked@@ 11
Litt@@ 11
Luc@@ 11
Ly@@ 11
Mag@@ 11
Moham@@ 11
NC 11
NIH 11
Nano 11
OKRs 11
OLED 11
O型 11
PCB 11
PIPA 11
Part@@ 11
Pop@@ 11
Pub@@ 11
RL 11
Rach@@ 11
Reb@@ 11
Rev@@ 11
Rock@@ 11
Row 11
SDSS 11
Sel@@ 11
Simon 11
Super@@ 11
Sylvia 11
TA 11
TEDTalk 11
TEDWomen 11
Tam@@ 11
Tata 11
Taylor 11
Teddy 11
Tel@@ 11
Tori 11
Tube 11
VC 11
Wor@@ 11
Word 11
You@@ 11
able 11
amp@@ 11
anis@@ 11
atch@@ 11
av 11
cho 11
don@@ 11
ee 11
eet 11
eman 11
eme 11
emy 11
ente 11
esk 11
eth@@ 11
facebook 11
ford 11
head 11
ib 11
ield 11
ik 11
inson 11
iphone 11
isa 11
ism 11
iti 11
kana 11
lamb 11
ld@@ 11
like 11
mat@@ 11
ment 11
ni 11
now 11
ogo 11
oh@@ 11
oom 11
ort 11
oup 11
rab@@ 11
red@@ 11
row@@ 11
ser@@ 11
sh 11
sha 11
siRNA 11
sol 11
str@@ 11
sub 11
that 11
tim@@ 11
to@@ 11
untu 11
uz 11
van 11
youtube 11
© 11
¼ 11
一万两千 11
一亿@@ 11
一伙 11
一动 11
一去@@ 11
一块块 11
一年@@ 11
一心@@ 11
一摸 11
一死 11
一派 11
一滴水 11
一百三十 11
一眨眼 11
一脸 11
一英寸 11
一跳 11
七万 11
万五千 11
万磅 11
万里 11
三十万 11
三千五百 11
三思 11
三颗 11
三餐 11
上所述 11
上星期 11
上爬 11
上移 11
下楼 11
下流 11
下象棋 11
下身 11
不乏 11
不以为然 11
不值一提 11
不善 11
不容易 11
不屈不挠 11
不爱 11
不由得 11
不菲 11
不诚实 11
不详 11
不费吹灰之力 11
专业性 11
专攻 11
专题 11
专题@@ 11
丙氨酸 11
业余@@ 11
业余爱好 11
东南@@ 11
东南部 11
东大 11
丝带 11
丝线 11
两三天 11
两亿 11
两岸 11
两本 11
两条@@ 11
两架 11
两级 11
两起 11
两足 11
两辆车 11
两面性 11
个月 11
中产阶层 11
中画 11
中线 11
为荣 11
主食 11
义词 11
之时 11
之深 11
乍得 11
乏@@ 11
乔纳 11
习近平 11
乡村@@ 11
买账 11
事半功倍 11
事发 11
二月份 11
二等 11
二选 11
互通 11
五家 11
亚型 11
亚瑟王 11
亡者 11
交易员 11
交易成本 11
享 11
亭 11
亲历 11
亲朋好友 11
人一等 11
人以 11
人流 11
人队 11
亿英镑 11
什叶派 11
仇@@ 11
从上到下 11
他于 11
他成 11
他本 11
仙人掌 11
仙女 11
代言人 11
以使 11
以供 11
以北 11
仪表 11
仪表盘 11
任地 11
伊利@@ 11
伊德 11
伊莎贝拉 11
伐木工 11
众议员 11
优先权 11
会者 11
会计@@ 11
会诊 11
会话 11
伟@@ 11
传开 11
传闻 11
伤亡@@ 11
伤痕累累 11
伤脑筋 11
伦敦大学 11
伯恩 11
伯纳德 11
伯纳斯 11
估价 11
位居 11
住址 11
佑 11
体裁 11
何其 11
何地 11
何必 11
作出@@ 11
佼佼者 11
依附 11
依附于 11
侠@@ 11
侯@@ 11
保护主义 11
保持警惕 11
保龄球 11
信上 11
信息流 11
信息系统 11
修理@@ 11
倒转 11
值得一提 11
倾泻 11
偏振@@ 11
偏转 11
做礼拜 11
停用 11
停课 11
健忘症 11
偶遇 11
偷偷摸摸 11
储物@@ 11
储藏室 11
催 11
充满信心 11
充满生机 11
先人 11
先有 11
先给 11
光圈 11
光阴 11
克里斯托 11
免疫性 11
入伍 11
入口处 11
全家人 11
全过程 11
八万 11
八条 11
公务人员 11
公告@@ 11
六分钟 11
兮 11
兰斯 11
共同完成 11
共计 11
共进 11
关上门 11
关灯 11
兴趣爱好 11
具体化 11
具体情况 11
养蜂 11
内在@@ 11
内嵌 11
内森 11
内源性 11
再犯 11
写些 11
写作班 11
写手 11
军火 11
冰河@@ 11
决策权 11
冷血 11
减压 11
几下 11
几公里 11
几千人 11
几年来 11
几米 11
几组 11
凤@@ 11
凯恩 11
凳子 11
凹槽 11
出游 11
击碎 11
切入 11
切面 11
刑法 11
刑犯 11
刚果@@ 11
创世 11
创世纪 11
创办人 11
创始 11
判处 11
利益@@ 11
利语 11
别想 11
别管 11
别致 11
到手 11
制度化 11
刹那间 11
削 11
前脑 11
割掉 11
办公大楼 11
办学 11
功绩 11
加总 11
加法 11
加糖 11
动器 11
动手做 11
助推器 11
勇往直前 11
勾 11
勾起 11
勿 11
包厢 11
化学药品 11
北朝鲜 11
区内 11
十七 11
十五@@ 11
十几@@ 11
十字@@ 11
千分之 11
升降机 11
午后 11
半张 11
单单是 11
单靠 11
南大洋 11
博尔赫斯 11
博诺 11
卜拉@@ 11
占卜 11
占地面积 11
卡通@@ 11
卡雷@@ 11
卢布 11
印第安纳 11
印第安纳州 11
危机@@ 11
却没能 11
卷发 11
卷曲 11
历史背景 11
压迫者 11
原意 11
厢情愿 11
去学 11
叉@@ 11
友爱 11
双层 11
反例 11
发个 11
发扬 11
发起@@ 11
发送信息 11
取材于 11
受性 11
变亮 11
变多 11
变强 11
变硬 11
叙 11
古尔德 11
古生物学 11
只顾 11
叫停 11
可以@@ 11
可信赖 11
可用性 11
台前 11
台风 11
史蒂文 11
号称 11
叹气 11
合二为一 11
合子 11
合成物 11
吉它 11
吉纳 11
同心 11
同舟共济 11
名下 11
名人@@ 11
吐出来 11
向东 11
向日葵 11
吓倒 11
听器 11
听诊器 11
吮吸 11
吵架 11
吸毒者 11
周游 11
呱@@ 11
和善 11
和玛丽 11
和蔼 11
咖@@ 11
咚咚 11
哄@@ 11
哄骗 11
哈哈哈 11
哈希 11
哈扎拉 11
哈桑 11
哈瓦@@ 11
哈迪 11
哪位 11
哮喘病 11
唧@@ 11
唱起 11
唾液@@ 11
商业行为 11
商品化 11
商铺 11
善举 11
喋喋不休 11
嗜好 11
嘌呤 11
嘘@@ 11
噪 11
嚷嚷 11
囚@@ 11
四方 11
因陀罗 11
团结一心 11
围攻 11
国与国 11
图腾 11
图谱 11
圣徒 11
圣经上 11
在精神上 11
在表面上 11
地玩 11
地过 11
坍缩 11
坏死 11
坚不可摧 11
坚持到底 11
坝 11
型态 11
垮掉 11
埃克@@ 11
埃斯特 11
埋没 11
基岩 11
基思 11
堤坝 11
塔里 11
塞克斯 11
塞恩 11
墓园 11
墙体 11
士气 11
壮年 11
处理过程 11
复制到 11
复述 11
多彩的 11
多得 11
多想 11
多米@@ 11
大于@@ 11
大半生 11
大卫王 11
大堆 11
大忙 11
大洞 11
大纲 11
大船 11
大餐 11
大马士革 11
天上@@ 11
天主教堂 11
天桥 11
天窗 11
天衣无缝 11
太忙 11
央@@ 11
失智症 11
头等 11
夷为平地 11
夹杂着 11
奇缘 11
奋起 11
奎因 11
奔驰 11
奢望 11
奥兰@@ 11
奥卡万戈 11
奥古斯都 11
奥拉 11
奥纳多 11
女权运动 11
她@@ 11
好几种 11
好斗 11
如此这般 11
妇人 11
妥善@@ 11
妮塔 11
妳 11
姆森 11
始终如一 11
姑 11
委会 11
威斯康辛 11
婴儿@@ 11
字样 11
字词 11
孤独症 11
学习外语 11
学分 11
安危 11
安息日 11
安葬 11
安详 11
完全符合 11
完整@@ 11
宗教团体 11
审理 11
室温 11
害死 11
容易接受 11
密布 11
密码学 11
寒冬 11
寸@@ 11
对战 11
导线 11
封闭式 11
小便 11
小数点 11
小腿 11
小题@@ 11
小鸡 11
少不了 11
少得 11
尔瓦 11
尔罕 11
尖峰 11
尘世 11
就是指 11
尼卡 11
尽如人意 11
屁屁 11
居于 11
居住者 11
居里夫人 11
屈辱 11
展览馆 11
履 11
崖 11
崩坏 11
嵌入式 11
工薪阶层 11
巨响 11
巴人 11
巴马 11
布克 11
布兰 11
布朗@@ 11
布莱克 11
布达佩斯 11
帅@@ 11
希德 11
帕尔 11
帕罗 11
帘@@ 11
帝国主义 11
带点 11
带电 11
带电粒子 11
带菌者 11
帮帮我 11
幕布 11
干些 11
平均收入 11
平均温度 11
平安@@ 11
平整 11
平方根 11
平淡无奇 11
年时期 11
年薪 11
幸运儿 11
幻听 11
广播@@ 11
广泛性 11
庇@@ 11
库尔德 11
库马 11
应不应该 11
废奴 11
度假@@ 11
庭@@ 11
延 11
开幕 11
异卵 11
弄断 11
引导员 11
引起共鸣 11
弗尔 11
弗雷德里克 11
弱力 11
弹弓 11
强弱 11
归档 11
归还给 11
录音带 11
彪@@ 11
影星 11
彻底@@ 11
彼得@@ 11
征集 11
徒劳@@ 11
徒步旅行 11
得克萨斯州 11
得森 11
循证 11
徳 11
德利 11
德勒 11
德国@@ 11
德曼 11
德米特里 11
心于 11
心意 11
心流 11
心满意足 11
必胜 11
忘怀 11
快速增长 11
怀上 11
怒不可遏 11
怡 11
性快感 11
怨 11
总动员 11
恒河 11
恢复力 11
恩泽 11
恶棍 11
悄悄@@ 11
悠 11
患儿 11
悦目 11
情报系统 11
想不起来 11
想做到 11
想干什么 11
想谈 11
惶恐 11
感情@@ 11
感慨 11
愤恨 11
愧@@ 11
慌张 11
懦弱 11
戈德温 11
成人@@ 11
成虫 11
成问题 11
我仅 11
我发 11
我录 11
我放 11
我查 11
戒备 11
或非 11
战前 11
截 11
所得税 11
所画 11
所致 11
所述 11
扁@@ 11
扁桃体 11
扇形 11
手工艺 11
手帕 11
手无寸铁 11
手机用户 11
手来 11
手镯 11
扑克牌 11
打广告 11
打火机 11
打过 11
扔下 11
扣留 11
执政党 11
执教 11
扩展性 11
扫兴 11
扫描@@ 11
扳@@ 11
抑 11
投票率 11
投钱 11
抖@@ 11
抚@@ 11
抛光 11
抛物线 11
抢占 11
护栏 11
抵抗运动 11
抽水 11
抽水马桶 11
拉上 11
拉回来 11
拉姆 11
拉姆@@ 11
拉布拉多 11
拉达 11
拎 11
拒绝接受 11
拓 11
拧 11
拨盘 11
拼字游戏 11
按住 11
挨 11
振作 11
捉摸@@ 11
捐钱 11
捕到 11
捕手 11
授@@ 11
授精 11
掏空 11
掠夺者 11
接住 11
接听 11
接待@@ 11
控制不了 11
控制能力 11
推车 11
措 11
揉@@ 11
提供数据 11
提前@@ 11
搜救 11
摁 11
摄相机 11
摇摇晃晃 11
摇曳 11
摩天@@ 11
撇子 11
撒丁岛 11
撞倒 11
撤资 11
撰@@ 11
擅@@ 11
操场上 11
支撑@@ 11
收入者 11
收紧 11
攻击者 11
放在@@ 11
放生 11
政治化 11
政治犯 11
救出 11
救命稻草 11
救生衣 11
教学方法 11
数学公式 11
数学方法 11
数数 11
数百种 11
敲响警钟 11
文件@@ 11
文字游戏 11
斥@@ 11
斧 11
斯卡@@ 11
斯科 11
斯通 11
新教 11
新种 11
新篇章 11
新纪元 11
新罕布什尔州 11
新途径 11
新闻自由 11
方程组 11
方针 11
无味 11
无所作为 11
无所适从 11
无权 11
无解 11
无言 11
旦 11
旧金山湾 11
明尼阿波利斯 11
明智地 11
易变 11
易度 11
昙花一现 11
显微 11
显露 11
晓 11
晚间 11
普林斯 11
暗藏 11
曲率 11
曲调 11
更上一层楼 11
更多 11
更易 11
更有甚者 11
曼克夫 11
曼彻斯特 11
曼谷 11
替换成 11
最弱 11
最新@@ 11
會 11
月初 11
有何@@ 11
有机化学 11
有理 11
有病 11
服务提供商 11
朝鲜@@ 11
木屑 11
木筏 11
本土化 11
本着 11
机会成本 11
机械设备 11
杂乱无章 11
杂志社 11
来来@@ 11
来点 11
杯水 11
杰佛@@ 11
杰拉德 11
架上 11
柔 11
柔弱 11
柳叶刀 11
树丛 11
核对 11
核武 11
格拉@@ 11
桌椅 11
梅根 11
梅毒 11
梅西 11
梭 11
棒球场 11
森堡 11
椎 11
椰子@@ 11
榨@@ 11
榨取 11
橙 11
檀香山 11
欢喜 11
款待 11
正反馈 11
正巧 11
正常@@ 11
此案 11
殊@@ 11
段子 11
母子 11
母狗 11
母猪 11
每人每天 11
每到 11
每台 11
每每 11
毒气 11
毒蛇 11
比上 11
比人 11
比划 11
比比皆是 11
毛线 11
毫无希望 11
民族@@ 11
民间组织 11
气孔 11
氧气@@ 11
氧量 11
水压 11
水族箱 11
水汽 11
水泡 11
水深火热 11
水蒸气 11
永 11
求知 11
求知欲 11
汉森 11
汗液 11
汞 11
污点 11
汰 11
沉淀物 11
沉醉@@ 11
沙克 11
沙地 11
沙沙声 11
没事儿 11
没变 11
没有勇气 11
没法@@ 11
沦陷 11
沸@@ 11
法学 11
法律条文 11
波形 11
波斯语 11
泥巴 11
注射@@ 11
泼@@ 11
洋洋 11
洗碗机 11
洪晃 11
流动@@ 11
流线型 11
浇铸 11
济 11
浑@@ 11
浑身@@ 11
浓郁 11
浩劫 11
浮在 11
海员 11
海带 11
海湾地区 11
海草 11
液滴 11
淡出 11
深有@@ 11
深沉 11
深潜 11
添加剂 11
渥太华 11
游到 11
渺茫 11
溢@@ 11
溢价 11
溶 11
滋 11
滔滔不绝 11
滨@@ 11
滴答声 11
漆黑一片 11
漏油 11
演化出 11
演讲稿 11
潮水 11
激光器 11
火器 11
火场 11
火烈鸟 11
火爆 11
灰暗 11
灾后 11
点击率 11
点对点 11
点赞 11
炼 11
烘烤 11
烟花 11
烧死 11
烧饭 11
热带@@ 11
热度 11
热源 11
热血 11
焦急 11
煮熟 11
熊熊@@ 11
熨斗 11
燕@@ 11
爆米花 11
爱彼迎 11
版块 11
版面 11
牙线 11
牟利 11
特制 11
特洛伊木马 11
特种部队 11
特鲁多 11
特鲁威 11
犒赏 11
状图 11
狠 11
独立宣言 11
独裁政权 11
猎巫 11
王后 11
王国里 11
玛雅人 11
环保@@ 11
环保主义者 11
环形山 11
现金@@ 11
珍妮@@ 11
珍珠港 11
班杜拉 11
球状 11
理学 11
理性@@ 11
理想主义者 11
瑙@@ 11
瓢虫 11
瓣体 11
瓦力 11
瓦西里 11
甄别 11
甘蓝 11
生日快乐 11
生而平等 11
用户名 11
用谷歌 11
由人 11
电力公司 11
电子显微镜 11
电气化 11
电磁场 11
电话亭 11
电话公司 11
电话响 11
男主角 11
畜牧 11
番话 11
疏 11
疗 11
痒痒 11
瘦小 11
瘾@@ 11
白白 11
百思买 11
皆大欢喜 11
盐分 11
监狱@@ 11
盟国 11
相互支持 11
相助 11
看中 11
看些 11
真挚 11
真皮 11
眩 11
着头 11
睾丸酮 11
瞪@@ 11
瞬@@ 11
瞭@@ 11
矢@@ 11
知情@@ 11
砌@@ 11
研磨 11
研究生院 11
砷 11
硬度 11
确是 11
磨坊 11
示威@@ 11
社交互动 11
社交能力 11
社会意识 11
社会活动家 11
社区活动 11
神经科 11
神职人员 11
禁用 11
禅师 11
秆 11
种植者 11
科技人员 11
科斯塔 11
科特迪瓦 11
科里 11
积水 11
移情 11
稀缺@@ 11
税务 11
穆尔 11
穷苦 11
空空 11
空置 11
突如其来 11
窄@@ 11
窥@@ 11
竖琴 11
竞相 11
章程 11
笃@@ 11
笨@@ 11
第一所 11
第一站 11
第一章 11
第一篇 11
第一课 11
第一道 11
第三位 11
第三层 11
第二类 11
第二语言 11
第六感 11
等离子 11
筏子 11
筑起 11
筷子 11
算了吧 11
管好 11
管治 11
篮球队 11
篷 11
篷车 11
米克 11
米制 11
米尔顿 11
粉饰 11
糕 11
系列@@ 11
系鞋带 11
索科@@ 11
索菲亚 11
紧绷 11
紧跟 11
紧闭 11
維 11
繁荣@@ 11
纤@@ 11
约束力 11
约组织 11
纯真 11
纲领 11
纳吉木丁 11
纳纳 11
纵容 11
纽约城 11
线段 11
组别 11
绊 11
经合组织 11
经过@@ 11
绒@@ 11
结构图 11
结缔组织 11
绘制地图 11
络@@ 11
绝缘 11
统一@@ 11
统治@@ 11
统领 11
绪 11
维克 11
维尼 11
维权 11
绵延 11
缓存 11
编舞 11
编译器 11
缘于 11
缜密 11
缝纫机 11
缤纷 11
网上@@ 11
罢@@ 11
美国会 11
美容 11
美容@@ 11
美术@@ 11
美餐 11
翩翩起舞 11
翻腾 11
翼展 11
老家伙 11
老花 11
而今 11
而入 11
耶和华 11
聂鲁达 11
职权 11
联合@@ 11
联邦快递 11
肉体上 11
肉食 11
肖邦 11
股权 11
股票价格 11
肩部 11
肯德尔 11
育出 11
胰岛素泵 11
胸怀 11
胺@@ 11
胼胝 11
能克服 11
能源价格 11
能省 11
能过 11
能量消耗 11
脂肪@@ 11
脉冲星 11
脏水 11
脚点 11
脚跟 11
脱贫 11
脸孔 11
腋下 11
腋窝 11
腾飞 11
臀 11
自利 11
自助餐 11
自在 11
自我管理 11
自我调节 11
自杀@@ 11
自欺欺人 11
自知 11
自立 11
自言自语 11
致残 11
致辞 11
航海@@ 11
般@@ 11
舵 11
船体 11
船舵 11
艾格尼丝 11
节拍器 11
芒 11
芒果 11
芝麻街 11
花岗岩 11
苏格兰人 11
苦力 11
茂密 11
茂盛 11
荧光灯 11
药性 11
莱利 11
莱姬尼娅 11
莱昂纳多 11
菜鸟 11
菠菜 11
营养成分 11
萨克拉门托 11
萨拉@@ 11
萨拉热窝 11
落下来 11
葛兰@@ 11
葱 11
蒙住 11
蒙大拿 11
蒙羞 11
蒸蒸日上 11
蓄水池 11
蓝领 11
蔚@@ 11
薄荷 11
藤蔓 11
虚张声势 11
蛋壳 11
蛔虫 11
蝠 11
血迹 11
行动计划 11
行医 11
行话 11
行踪 11
行长 11
街灯 11
表态 11
表面@@ 11
表面温度 11
衬线 11
衬衣 11
被盗 11
被装 11
装到 11
褒@@ 11
西蒙尼 11
要强 11
要教 11
见了面 11
见证者 11
观经济 11
视之为 11
视频会议 11
觉得很有 11
解析度 11
言以@@ 11
詹森 11
警卫队 11
讨论会 11
记不得 11
记在心 11
讳 11
许下 11
论战 11
讽@@ 11
评语 11
诞辰 11
说不出 11
说客 11
说得通 11
说错 11
诺夫 11
诺拉 11
读一读 11
课程@@ 11
调用 11
谈判桌 11
谈判桌上 11
谋面 11
谎@@ 11
谨@@ 11
谱子 11
贝尔@@ 11
贞洁 11
负有责任 11
负起 11
质性 11
贩毒 11
贫 11
贺@@ 11
赔 11
赚大钱 11
赛特 11
赞助人 11
赠 11
赢取 11
赫尔 11
走下坡路 11
超级@@ 11
超长 11
越南@@ 11
跑车 11
跪@@ 11
路人 11
路旁 11
跳来跳去 11
跳水 11
跳脱 11
跳蚤 11
踏步 11
踪 11
车身 11
转圈 11
转速 11
软盘 11
软组织 11
轰 11
轻巧 11
较弱 11
输给 11
辟蹊径 11
过境 11
过桥 11
过火 11
过难关 11
运动场 11
运载@@ 11
还行 11
还远 11
这三项 11
这么一来 11
这列 11
这堆 11
这太@@ 11
这枚 11
这药 11
这词 11
连锁店 11
迟早 11
迭 11
述@@ 11
追上 11
追忆 11
逆风 11
选者 11
递增 11
通通 11
逼@@ 11
道而@@ 11
遣 11
避孕@@ 11
避税 11
那辆车 11
邮政@@ 11
郁症 11
酰@@ 11
酵母菌 11
醋@@ 11
醚 11
释义 11
里加 11
重伤 11
重审 11
重新启动 11
重病 11
重负 11
金属片 11
金森 11
金门大桥 11
钱会 11
铐 11
铜线 11
铝制 11
铺垫 11
链子 11
锈@@ 11
锐减 11
镭@@ 11
镰刀 11
长于 11
长存 11
长笛 11
长跑 11
门子 11
门得 11
闪光灯 11
问诊 11
闲暇 11
闷热 11
闻闻 11
阁@@ 11
阑尾 11
防火 11
防蚊 11
阵亡 11
阵阵 11
阿卜@@ 11
阿尔茨海默 11
阿巴拉契亚 11
阿琦 11
附件 11
陈腐 11
陡 11
除颤 11
隔离@@ 11
隼 11
难事 11
难以实现 11
难者 11
雄蚁 11
雅各 11
集中化 11
集体@@ 11
集合起来 11
集思广益 11
雌虫 11
雌鱼 11
雕刻家 11
雕塑家 11
雨天 11
雪地 11
零售@@ 11
零售店 11
雷切尔 11
雾化 11
震慑 11
霍普金斯 11
霓@@ 11
靓丽 11
静止不动 11
非常感激 11
非正规 11
非洲@@ 11
面料 11
面目 11
面目全非 11
面谈 11
革新者 11
鞠躬 11
鞭打 11
韦尔 11
韦尔斯 11
韩 11
音译 11
音质 11
页岩 11
顺利进行 11
顺序排列 11
预测性 11
预警系统 11
颅 11
领队 11
频发 11
频谱 11
题外话 11
颚 11
飞入 11
飞利浦 11
飞向 11
飞行物 11
食人族 11
饭圈 11
马尾藻 11
马赛克 11
马蹄 11
驳 11
验血 11
髓鞘 11
高中学生 11
高亮 11
高层建筑 11
高阶 11
高频率 11
高额 11
鱼鳍 11
鲁特 11
鲍威尔 11
鲤鱼 11
鹅卵石 11
鹰@@ 11
麦克斯 11
麦克斯韦 11
麦子 11
麻醉师 11
黎 11
黏糊糊 11
黑客攻击 11
黑市 11
黑色@@ 11
默德 11
鼎 11
鼻祖 11
０ 11
＝ 11
..... 10
100000 10
115 10
1890 10
1x@@ 10
2.2 10
2.7 10
24@@ 10
2x@@ 10
3.6 10
3.8 10
30000 10
999 10
AB 10
AIVA 10
Af@@ 10
Ag@@ 10
Agnes 10
Ali 10
Anders 10
App@@ 10
Asp@@ 10
Avel@@ 10
BO 10
BP 10
Barric@@ 10
Beverly 10
Big 10
Blake 10
Blue 10
Bol@@ 10
Bou@@ 10
Buzz@@ 10
C4 10
CBS 10
CE 10
Cha@@ 10
Christopher 10
Cle@@ 10
Crunch 10
DAR 10
Del@@ 10
Diana 10
Dick@@ 10
Dor@@ 10
Doug 10
Et@@ 10
FC 10
Fide 10
Fiona 10
GF 10
GMT 10
Ga@@ 10
Gabri@@ 10
Galvao 10
Gat@@ 10
Gertrude 10
GirlTrek 10
Git 10
Global 10
Gordon 10
Grand 10
Green 10
HR 10
Hall@@ 10
Health@@ 10
Howard 10
ICO 10
IPCC 10
IS 10
Int@@ 10
Intel 10
Ir@@ 10
JG 10
Jan@@ 10
Jav@@ 10
Java 10
John@@ 10
Jones 10
Jos@@ 10
Juliano 10
Just 10
KIP@@ 10
Kam@@ 10
Kap@@ 10
Kh@@ 10
Kiki 10
Kind@@ 10
Kinect 10
King 10
Kismet 10
Kr@@ 10
LOL 10
Lam@@ 10
Lang@@ 10
Leg@@ 10
Life 10
May@@ 10
Met@@ 10
Mid@@ 10
Miller 10
NA@@ 10
Nad@@ 10
OL 10
OO@@ 10
Okol@@ 10
Om@@ 10
Ork@@ 10
PF@@ 10
PM2.5 10
Prego 10
Ray@@ 10
Red@@ 10
Rep@@ 10
Rich@@ 10
Rita 10
Roger 10
Serg@@ 10
Sev@@ 10
Shirley 10
Spot 10
Stanley 10
Stein 10
Sug@@ 10
T20 10
TEDx@@ 10
TO@@ 10
TSI 10
Tech@@ 10
Thordis 10
Tim 10
Tubman 10
UE 10
University 10
Vas@@ 10
Vermeer 10
Vir@@ 10
White 10
ac 10
ades 10
aga 10
air 10
aki 10
asc@@ 10
ase 10
aw 10
beatboxing 10
bit 10
car 10
cel@@ 10
cl@@ 10
cos@@ 10
don 10
ec 10
elli 10
ern 10
ets 10
ex@@ 10
fMRI 10
ge@@ 10
ger@@ 10
gr@@ 10
if 10
ig 10
ild@@ 10
ille 10
int@@ 10
ith@@ 10
itha 10
ito 10
itt 10
ji 10
las 10
littleBits 10
mc 10
obe 10
ocrac@@ 10
ods 10
ok 10
oo 10
ool 10
ound@@ 10
ous 10
over 10
pre@@ 10
rain 10
ria 10
right 10
rob@@ 10
tt@@ 10
two 10
ves 10
water 10
ww 10
ys@@ 10
ˎ 10
ω 10
『 10
』 10
一万亿美元 10
一举 10
一二@@ 10
一亿人 10
一任 10
一切办法 10
一听 10
一字@@ 10
一己 10
一年一度 10
一捆 10
一整块 10
一栏 10
一派胡言 10
一点一滴 10
一百四十 10
一维 10
一见 10
一蹴而就 10
一连 10
一针 10
七次 10
七百 10
万份 10
三十五 10
三十秒 10
三四 10
三头 10
三岁时 10
三思@@ 10
三段 10
三百年 10
三秒 10
三组 10
三面 10
上下@@ 10
上刻 10
上推 10
下令 10
下注 10
下结论 10
下船 10
不亚于 10
不以 10
不入 10
不动@@ 10
不可逾越 10
不合时宜 10
不同@@ 10
不尽然 10
不屑一顾 10
不忘 10
不悦 10
不断创新 10
不断涌现 10
不由 10
不相上下 10
不着@@ 10
不离 10
不管是谁 10
不计后果 10
不足之处 10
不长 10
不难@@ 10
丑化 10
专为 10
专利申请 10
世事 10
世卫 10
世界贸易组织 10
东河 10
两万五千 10
两千多年 10
两杯 10
两艘 10
严重后果 10
严重威胁 10
个个 10
中仅 10
中士 10
中学生 10
中指 10
中等教育 10
中读 10
丰饶 10
临界@@ 10
为时@@ 10
主动性 10
主因 10
主宰@@ 10
举些 10
举步维艰 10
之星 10
之窗 10
乐于助人 10
乔治敦 10
九百万 10
买下来 10
买票 10
乱糟糟 10
乱跑 10
了算 10
予@@ 10
事务部 10
二个 10
二十五年 10
二字 10
于人 10
互联网@@ 10
五十岁 10
五大 10
五百@@ 10
五美元 10
亚利桑@@ 10
亚历克斯 10
亚历山大图书馆 10
亟待解决 10
亢奋 10
交叉@@ 10
交叉点 10
交叉路口 10
交易市场 10
产期 10
享乐主义 10
亲戚@@ 10
亲眼所见 10
亲眼看见 10
人力物力 10
人口众多 10
人口比例 10
人带 10
人活 10
人生哲学 10
人生道路 10
亿分 10
仇外 10
仇视 10
从大 10
从头再来 10
从这一点 10
从那之后 10
仔@@ 10
他开 10
他读 10
付诸实施 10
仙子 10
代理@@ 10
令人发指 10
令人敬畏 10
令人生畏 10
令人高兴 10
价值体系 10
价格低廉 10
仿照 10
伊恩 10
伊斯@@ 10
伊曼纽尔 10
伊莎@@ 10
伊莱克斯 10
伊隆 10
优异 10
优惠@@ 10
会选 10
伟大领袖 10
传播者 10
伫立 10
伯克利分校 10
伸张 10
佃农 10
位点 10
位移 10
低声 10
低氧 10
低水平 10
低薪 10
佐料 10
体毛 10
体质 10
体验@@ 10
作呕 10
作恶 10
佩吉 10
例行公事 10
供职 10
依恋 10
依托 10
依旧会 10
俄亥@@ 10
俗语 10
保加利@@ 10
信守 10
修长 10
倍数 10
倚 10
借出 10
值得一提的是 10
偏执狂 10
偏狭 10
做人 10
偷猎者 10
傀儡 10
储 10
催促 10
傻傻的 10
僧 10
儒家 10
充裕 10
光和@@ 10
光鲜 10
克罗 10
克莉@@ 10
克里克 10
克里特岛 10
克鲁格 10
免不了 10
免费@@ 10
全市 10
全部@@ 10
八方 10
八百 10
八种 10
公共事业 10
公共厕所 10
公吨 10
公墓 10
公寓楼 10
公平竞争 10
公爵 10
关键期 10
关键步骤 10
兴旺 10
兴高采烈 10
其所 10
内什 10
内华达 10
内含 10
内科 10
冈比亚 10
写日记 10
军事化 10
冠军赛 10
冥河 10
冯内 10
冰解面 10
冲击力 10
冲刺 10
决不会 10
冶@@ 10
冻伤 10
减到 10
凝乳酶 10
几十亿美元 10
几千次 10
几百次 10
凯瑟 10
凯莉 10
凸 10
出击 10
出勤率 10
出口@@ 10
出生@@ 10
出谋划策 10
击溃 10
刀切 10
分化成 10
分号 10
分散剂 10
分散式 10
分析仪 10
分枝 10
分母 10
分泌物 10
分钱 10
切感 10
刚满 10
初吻 10
判别 10
利害@@ 10
利润率 10
别无他法 10
刷子 10
刹@@ 10
刺入 10
剧集 10
剪裁 10
副牌 10
割裂 10
功利@@ 10
加以@@ 10
加利福尼亚大学 10
加水 10
加薪 10
动工 10
动荡@@ 10
努力做到 10
努力奋斗 10
勃勃 10
勒姆 10
勘察 10
募 10
化学性质 10
北卡罗 10
北卡罗@@ 10
北约 10
区里 10
医嘱 10
匿@@ 10
匿名@@ 10
十位 10
十秒 10
千亿美元 10
千变万化 10
千方百计 10
千瓦 10
千禧年 10
升水 10
半点 10
半空中 10
华里 10
单单在 10
南北战争 10
南区 10
占星@@ 10
卡米 10
卡罗来纳 10
印度@@ 10
印度政府 10
厄尔 10
历史课 10
厉 10
压强 10
压榨 10
厕 10
原产 10
原发性 10
原告 10
原始森林 10
参考系 10
又称 10
双子塔 10
双曲 10
双筒 10
双面 10
反复@@ 10
反观 10
发号施令 10
发展史 10
发痒 10
发给你 10
取缔 10
受伤害 10
受此 10
受测者 10
受虐 10
受访 10
受阻 10
受限于 10
变回 10
变热 10
叙述者 10
叠纪 10
口口相传 10
古典主义 10
古特 10
古猿 10
可及 10
可可豆 10
台面 10
史蒂@@ 10
右倾 10
右腿 10
叶绿@@ 10
司令 10
司法公正 10
司法制度 10
叹 10
各界 10
吉尔伯特 10
吉普 10
同谋者 10
后现代 10
后盾 10
后脑勺 10
吐出 10
向外看 10
吝啬 10
启@@ 10
吱吱@@ 10
吸取教训 10
吹气 10
吼@@ 10
吾 10
周年纪念 10
呼啦@@ 10
呼啸@@ 10
咒 10
咒骂 10
咔@@ 10
咖啡豆 10
咸水 10
品位 10
品店 10
品德 10
哈萨克斯坦 10
哗 10
哥特式 10
哲学@@ 10
哲学思想 10
唇膏 10
唐娜 10
唬 10
喀 10
喧@@ 10
喷漆 10
嗅到 10
嗓子 10
嗤之以鼻 10
嗷 10
器皿 10
噼啪 10
嚎@@ 10
四名 10
四边形 10
四面@@ 10
回想到 10
回流 10
团团 10
国有 10
国罪 10
国际舞台 10
国际贸易 10
圆桌会议 10
圈里 10
在所难免 10
地会 10
地写 10
均等 10
坏话 10
坐等 10
坐进 10
块状 10
基加利 10
基建 10
基础知识 10
基础科学 10
堆里 10
堪忧 10
塔利 10
塔尔 10
塔斯马尼亚 10
塔斯马尼亚岛 10
塞勒姆 10
塞塔 10
塞尔@@ 10
墨守成规 10
声名狼藉 10
处女@@ 10
处女膜 10
复制@@ 10
夏夜 10
夏洛蒂 10
夕阳 10
外卖 10
多好 10
多彩 10
多斯 10
多月 10
多米尼加 10
多边形 10
大一 10
大二 10
大佬 10
大力士 10
大力支持 10
大大小小 10
大幅@@ 10
大有裨益 10
大权 10
大湖 10
大类 10
大英博物馆 10
大英百科全书 10
天翻地覆 10
天资 10
天黑 10
太天真 10
太好 10
太强 10
太赞 10
太阳神 10
失忆 10
头头 10
头目 10
奏鸣曲 10
奔腾 10
奖得主 10
奖杯 10
奥兹 10
奥康纳 10
奥德赛 10
奥马尔 10
女婴 10
女座 10
女神像 10
奸商 10
好于 10
好多@@ 10
好多好多 10
好客 10
如图 10
如火如荼 10
妒忌 10
姑姑 10
姥姥 10
威严 10
威尔斯 10
威廉斯 10
威斯康星州 10
威望 10
婚姻关系 10
婴儿床 10
婴孩 10
嫌疑犯 10
子民 10
孔子 10
孟@@ 10
孤独感 10
孤立无援 10
学习曲线 10
学医 10
孩提 10
孵化器 10
它会@@ 10
它花 10
宅@@ 10
守门员 10
安吉@@ 10
安第@@ 10
完全免费 10
宗教自由 10
官僚@@ 10
定位系统 10
实则 10
客户群 10
客观性 10
宣 10
宣传册 10
宾语 10
密切合作 10
密西根州 10
密闭 10
富国 10
寒武纪 10
对系统 10
导航系统 10
射箭 10
将会@@ 10
尉 10
小妖精 10
小布什 10
小敏 10
小王子 10
小虫 10
小贩 10
少数@@ 10
尤达 10
就位 10
就学 10
就绪 10
就诊 10
尼卡@@ 10
尼塔 10
尼日 10
尼日@@ 10
尽可能@@ 10
居住@@ 10
居住区 10
居高临下 10
展板 10
岩壁 10
岳母 10
崔@@ 10
巡回@@ 10
工作坊 10
左倾 10
巨大贡献 10
巨量 10
巴尔干 10
巴拉@@ 10
巴林 10
布基纳法索 10
布罗德 10
布隆迪 10
帮帮 10
干扰@@ 10
平价 10
平分 10
平易近人 10
平板@@ 10
平生 10
平线 10
平缓 10
并非易事 10
幸 10
幸免于难 10
床垫 10
床铺 10
应有尽有 10
应聘 10
应聘者 10
康奈尔大学 10
廓 10
建设者 10
开场白 10
开心@@ 10
开怀大笑 10
开拍 10
开过 10
异乎寻常 10
异域 10
异样 10
弄乱 10
弓箭手 10
引以为傲 10
引以为豪 10
引到 10
引力@@ 10
引号 10
弗利 10
弗莱@@ 10
张正义 10
弥漫着 10
弦@@ 10
弱化 10
弹得 10
强盗 10
当当 10
当心 10
当新 10
当权 10
当过 10
形似 10
彩排 10
彻夜@@ 10
征得 10
待人 10
很久没 10
很早以前 10
得够 10
得起 10
微博上 10
德人 10
德修斯 10
德尼柔 10
德米 10
德鲁伊 10
心怀@@ 10
必定会 10
忌@@ 10
念完 10
怀中 10
怜@@ 10
性冲动 10
性格特点 10
怪罪 10
总体@@ 10
总指挥 10
恤衫 10
恶意@@ 10
悟@@ 10
悠闲 10
悦耳 10
悬而未决 10
悼念 10
情景喜剧 10
惊悚 10
惊诧 10
惩 10
惩戒 10
惶@@ 10
意味@@ 10
意在 10
意指 10
感到@@ 10
感觉得到 10
慢活 10
憋 10
成功@@ 10
我进 10
我长 10
战事 10
战死 10
戛@@ 10
截止期 10
[...]
