#version: 0.2
t h
i n
a n
th e</w>
e r
o s
an d</w>
o u
a t</w>
a p
in g</w>
t o</w>
a r
e n
t i
r e
ap os
& apos
&apos ;
o n
i s</w>
o f</w>
a l
o r
e r</w>
e d</w>
i n</w>
th at</w>
o n</w>
e s</w>
th e
w h
i t
s t
i t</w>
l y</w>
o m
o u</w>
a c
w e</w>
l i
y ou</w>
c a
v e</w>
a s</w>
r o
a t
o r</w>
u s
n o
l e</w>
&apos; s</w>
b e
e n</w>
q u
er e</w>
e l
d i
o t
h a
th is</w>
r i
m a
l e
s i
l o
s o</w>
a b
e c
l d</w>
b u
g h
qu ot
quot ;</w>
& quot;</w>
i l
a s
u r
ou t</w>
v er
ti on</w>
a n</w>
ar e</w>
m e</w>
d e
a l</w>
o p
the y</w>
i c
k e</w>
f or</w>
en t</w>
n e
ou r</w>
w as</w>
c h
s e</w>
a y</w>
u n
s h
s e
c om
ha ve</w>
bu t</w>
al ly</w>
w it
e s
on e</w>
wit h</w>
r a
ca n</w>
t s</w>
w or
wh at</w>
al l</w>
g o
b e</w>
no w</w>
p e
p ro
o l
&apos; t</w>
c e</w>
t er</w>
p l
us e</w>
e x
ou n
- -</w>
ou ld</w>
a g
c on
ab out</w>
gh t</w>
i r
th er</w>
no t</w>
s om
m y</w>
th ere</w>
th in
t o
d s</w>
s u
p er
s a
g e
m e
r e</w>
d o
t er
t r
or e</w>
d o</w>
li ke</w>
u l
pe op
peop le</w>
s p
c i
v i
ti on
h o
it y</w>
&apos; re</w>
f ro
fro m</w>
us t</w>
ver y</w>
th ing</w>
s t</w>
m p
i f</w>
a r</w>
a u
t a
v er</w>
er s</w>
h e</w>
f f
k ing</w>
m o
m i
e ar
i r</w>
t u
wh en</w>
u c
j ust</w>
t ed</w>
an t</w>
the se</w>
be ca
d e</w>
at e</w>
b y</w>
ur e</w>
u s</w>
b o
beca use</w>
m ore</w>
a d
ho w</w>
p o
f or
g s</w>
the m</w>
el l</w>
g e</w>
the ir</w>
u p</w>
h i
g i
p ar
p re
y our</w>
ha d</w>
f e
f i
k now</w>
m an
som e
lo o
w ay</w>
wh o</w>
e v
t h</w>
o ther</w>
a tion</w>
tion s</w>
w ere</w>
go ing</w>
os e</w>
w n</w>
w ould</w>
t w
in d</w>
t e
thin k</w>
t ing</w>
g h</w>
ge t</w>
ti me</w>
au gh
se e</w>
ic h</w>
h ere</w>
oun d</w>
il l</w>
en ce</w>
wh ich</w>
c re
o d</w>
in e</w>
augh ter</w>
p u
ou r
re ally</w>
os t</w>
m ent</w>
wh ere</w>
i s
c o
a y
a m
&apos; ve</w>
L aughter</w>
the n</w>
a d</w>
som e</w>
k s</w>
i d</w>
h e
f u
ab le</w>
st r
d ay</w>
d on</w>
wor ld</w>
h as</w>
&apos; m</w>
ac k</w>
in to</w>
c l
ca l</w>
ap p
r ou
un d
y ear
b i
s s</w>
tu ally</w>
w ill</w>
ac e</w>
al l
en ts</w>
d ing</w>
c h</w>
s el
st e
c ould</w>
en t
m b
l l</w>
year s</w>
v es</w>
g u
st ar
e t</w>
f ir
f a
ac tually</w>
m ost</w>
ag e</w>
g o</w>
m s</w>
be en</w>
thin gs</w>
com p
h u
ma ke</w>
di ff
d y</w>
ri ght</w>
sh e</w>
s o
n o</w>
g re
w ant</w>
en ti
v e
as t</w>
th ose</w>
ch an
ti ve</w>
t y</w>
th an</w>
v ing</w>
k ed</w>
com e</w>
l a
t ri
p h
f e</w>
s c
wor k</w>
h app
d u
st or
i es</w>
i z
l it
fir st</w>
ou s</w>
w e
s ti
ev en</w>
in ter
al so</w>
h is</w>
w i
on g</w>
some thing</w>
g r
sh o
s y
t al
t ure</w>
pl a
es s</w>
k e
on s</w>
tw o</w>
ne w</w>
th ou
h er</w>
c e
i mp
es t</w>
t le</w>
diff er
w ell</w>
m uc
y ing</w>
ma n</w>
ay s</w>
it e</w>
muc h</w>
man y</w>
ec t</w>
o ver</w>
pro b
g en
on ly</w>
p os
sa id</w>
h an
d ed</w>
f o
at ed</w>
en d</w>
b ack</w>
f ac
g y</w>
it s</w>
st u
ne ed</w>
b le</w>
li fe</w>
r u
t ra
g n
d n</w>
i m
com m
i c</w>
m in
ac h</w>
ch o
loo k</w>
m on
re e</w>
c oun
s ay</w>
e ver
ti c
ar d</w>
0 0</w>
ta ke</w>
A p
fu l</w>
m il
go t</w>
an s</w>
t ur
ever y
lit tle</w>
bo dy</w>
t ec
or t
th rou
si on</w>
d er</w>
pla use</w>
at er</w>
e very</w>
Ap plause</w>
an y</w>
m ar
c ol
f in
lo t</w>
i de
ec i
p a
o f
di d</w>
le t</w>
und er
al s</w>
i ma
di s
ti es</w>
m at
ar ound</w>
ic e</w>
el l
a f
w er</w>
s er
re d</w>
y e
s ec
t e</w>
re c
f ri
differ ent</w>
throu gh</w>
go od</w>
wh y</w>
ti c</w>
n ing</w>
m er
con t
v ed</w>
a m</w>
un i
s ur
c ar
be ing</w>
w s</w>
tr y</w>
p ri
st s</w>
do wn</w>
or s</w>
h el
d re
sa me</w>
c all
il l
es s
k ind</w>
in g
le ar
s ol
or t</w>
si de</w>
p r
c u
mb er</w>
s en
o b
prob le
sel f</w>
n a
ar y</w>
w ays</w>
s ci
an s
mp le</w>
stor y</w>
s on</w>
ti m
at ing</w>
&apos; ll</w>
e l</w>
st an
ex per
w om
g ra
happ en
so ci
u e</w>
g a
an y
sy ste
d uc
tec h
ag a
call ed</w>
v el
n u
t ly</w>
o k</w>
l ar
n i
b l
en c
to day</w>
b ra
af ter</w>
c ent</w>
pu t</w>
w r
qu es
ac h
do ing</w>
re s</w>
o l</w>
pl an
f ore</w>
ma de</w>
tion al</w>
lo gy</w>
chan ge</w>
t re
b r
d er
th ree</w>
us ed</w>
g er</w>
g in
li on</w>
hu man</w>
t ter</w>
c ul
per cent</w>
p i
&apos; d</w>
t ell</w>
o wn</w>
wi th
t en
e ver</w>
de si
s s
e st
at es</w>
di dn</w>
k es</w>
imp ort
sh i
f ind</w>
e ach</w>
lo w</w>
bu il
be fore</w>
le ss</w>
tech no
in t</w>
tim es</w>
y s</w>
in gs</w>
ye ar</w>
me di
mi ght</w>
k no
w an
p p
sti ll</w>
se e
l an
on d</w>
n ed</w>
re al
sh ould</w>
fac t</w>
w ing</w>
c an
an other</w>
as e</w>
be li
p s</w>
be tter</w>
h ear
ter s</w>
p ic
ne ver</w>
j o
h om
f t</w>
star ted</w>
e ly</w>
exper i
s m
e p</w>
ge ther</w>
w a
T han
to gether</w>
tal k</w>
ide a</w>
c or
in v
g ro
pl ace</w>
i ld</w>
b ot
ne x
il ity</w>
d at
Than k</w>
st and</w>
t ting</w>
gi ve</w>
c our
re ad
tw e
c ess</w>
ar i
an ce</w>
o m</w>
l ast</w>
si ble</w>
k i
gre at</w>
a tions</w>
lo gi
w ater</w>
t en</w>
to o</w>
import ant</w>
po li
A n
thou ght</w>
syste m</w>
I n
2 0
v ir
par t</w>
hi m</w>
s cho
v en</w>
ch il
s h</w>
bi g</w>
i l</w>
ac t</w>
wom en</w>
C h
of f</w>
proble m</w>
w ar
it ed</w>
ex p
do es</w>
al i
nex t</w>
m us
b it</w>
e ff
he al
fa mi
r os
star t</w>
c ou
m ents</w>
c er
twe en</w>
be tween</w>
f ound</w>
bra in</w>
a si
hel p</w>
aga in</w>
c k</w>
comp le
w ent</w>
fe w</w>
d eci
pro duc
g n</w>
, 0
for ma
g es</w>
str uc
in s</w>
l ong</w>
b re
re sp
us ing</w>
s pe
dat a</w>
ma y
f l
A mer
d d
in cre
e ve</w>
ca me</w>
e y</w>
,0 00</w>
de vel
dre n</w>
s es</w>
com es</w>
cour se</w>
lo ve</w>
ag o</w>
gen er
ca tion</w>
m or
o ld</w>
st o
on om
chil dren</w>
s k
li ght</w>
se ar
ques tion</w>
techno logy</w>
r an
ne ss</w>
a mple</w>
wh i
may be</w>
n ec
ma y</w>
ex ample</w>
f ul
ch e
c ap
1 9
sho w</w>
me an</w>
un ity</w>
fe el</w>
&apos ;</w>
po int</w>
sel ves</w>
g an
es n</w>
or i
e w</w>
do esn</w>
ce p
th er
ou gh</w>
b li
per son</w>
st a
under stand</w>
li ve</w>
& #
&# 9
forma tion</w>
al ways</w>
c ur
wan ted</w>
ou s
re al</w>
re as
a way</w>
c all</w>
g g
loo king</w>
col le
f ace</w>
v o
n at
e p
al e</w>
wor king</w>
whi le</w>
c es</w>
com pu
st re
inter est
scho ol</w>
l ine</w>
ne e
ti cal</w>
d es</w>
pu bli
po wer</w>
for m</w>
ou t
c ri
o ff
ab ly</w>
m y
iz ed</w>
sp ec
r y</w>
beli eve</w>
as k</w>
o le</w>
u m</w>
nu mber</w>
l es</w>
j ect</w>
tr ans
me ans</w>
d one</w>
ell s</w>
c ity</w>
b or
w al
every thing</w>
ent ly</w>
m om
1 0</w>
tr ying</w>
in t
u tion</w>
th s</w>
w er
l ed</w>
ic i
l dn</w>
z e</w>
ro om</w>
ec onom
le a
y p
en er
n s</w>
A fri
ma king</w>
ti v
c li
pre s
d ri
y es</w>
in formation</w>
hom e</w>
read y</w>
v al
coun try</w>
cre ate</w>
en ds</w>
devel op
h ar
en ough</w>
ec ts</w>
be come</w>
el e
s ing
mil lion</w>
en d
S t
st ri
el ec
thin king</w>
on es</w>
wh ole</w>
com ing</w>
g ed</w>
c r
fu ture</w>
at h</w>
with out</w>
e i
or y</w>
or gan
go ver
er i
d ol
stu d
g ine</w>
f our</w>
h op
s it
ros s</w>
m en</w>
g rou
sec ond</w>
hi gh
g lo
s on
sm all</w>
b as
a k</w>
op p
g ing</w>
t es</w>
gr ap
shi p</w>
lo w
h al
ki ds</w>
a ma
m ul
c are</w>
mon ey</w>
be st</w>
su b
th ers</w>
to ok</w>
iz e</w>
c en
b us
sp ace</w>
w at
hu man
d ge</w>
h ard</w>
in ess</w>
fi ve</w>
soci al</w>
wh e
r on
ge tting</w>
ab ility</w>
st er</w>
gover n
fo od</w>
y si
re sear
l on
y oun
se t</w>
p le</w>
i d
an d
ul ar</w>
t or</w>
we e
l and</w>
re ad</w>
m ed</w>
li ves</w>
fami ly</w>
su pp
in es</w>
s ort</w>
it ing</w>
ener gy</w>
e qu
ve l</w>
b ro
An d</w>
sci enti
ph ysi
pl ac
di vi
ar e
heal th</w>
si gn
su ch</w>
le ft</w>
cont ro
f ol
p as
re la
tri es</w>
te ly</w>
b il
b asi
pre t
re me
ima gine</w>
to ld</w>
ac ross</w>
sen se</w>
en e
ot s</w>
it al</w>
resp on
di c
si ve</w>
o ver
l ing</w>
su l
bu ild</w>
thou gh</w>
pl ay</w>
mi s
in ed</w>
in ste
ch ar
e -
z ing</w>
b ac
prob ably</w>
of ten</w>
d ra
experi ence</w>
w as
tal king</w>
desi gn</w>
uni ver
comm uni
si ons</w>
cl u
glo b
f f</w>
s ure</w>
some one</w>
k en</w>
m en
ta in</w>
buil ding</w>
ha ving</w>
pret ty</w>
on ce</w>
mo ve</w>
ma kes</w>
al ity</w>
in ce</w>
ent al</w>
mus ic</w>
v en
f un
c ha
happen ed</w>
s our
bo ok</w>
sci ence</w>
e mp
be au
coun tries</w>
bi o
gh ts</w>
el s</w>
bot h</w>
g ir
mom ent</w>
su c
h ou
as ked</w>
m ic
e ty</w>
tr u
sp eci
W h
enc es</w>
ca se</w>
any thing</w>
youn g</w>
con nec
m ing</w>
qu ite</w>
j u
p or
w ard</w>
ous ly</w>
c ally</w>
li ving</w>
y et</w>
sa w</w>
vir on
d in
p op
fo re
comm unity</w>
pa ti
vi de
se en</w>
l ater</w>
d ays</w>
n er</w>
e du
f re
ser v
hal f</w>
w on
tic s</w>
l s</w>
tur n</w>
en viron
he ad</w>
lear n</w>
pro cess</w>
pl ay
happ en</w>
be g
cont in
c le
f ar</w>
al most</w>
inste ad</w>
c a</w>
par tic
lan gu
di se
reme mber</w>
Amer ic
2 0</w>
hi gh</w>
el se</w>
cl as
c ells</w>
an g
all en
pi ec
al ready</w>
u p
thou s
ar t</w>
en s</w>
m ach
si mple</w>
sing le</w>
ic es</w>
s ing</w>
lar s</w>
m ind</w>
ch allen
is m</w>
ke ep</w>
pos sible</w>
wor ks</w>
wor ds</w>
whe ther</w>
ar ti
dol lars</w>
sc ri
c ra
ur ing</w>
ti ce</w>
ir d</w>
. .</w>
di es</w>
a ff
interest ing</w>
. ..</w>
desi gn
t ors</w>
b ri
en g
di rec
a tive</w>
ag es</w>
some times</w>
no thing</w>
happen s</w>
e t
in side</w>
le ad
E ar
or der</w>
in f
de p
my self</w>
publi c</w>
dis co
hi story</w>
with in</w>
b ad</w>
ol s</w>
min u
f ron
li es</w>
at ely</w>
to p</w>
ex i
v ol
n or
sa ys</w>
stor ies</w>
k et</w>
5 0</w>
un ti
jo b</w>
h and</w>
tu res</w>
a i
pro gra
os p
mat ter</w>
T he</w>
a h</w>
ur al</w>
ti ci
our s</w>
c ent
pro f
proble ms</w>
Ch in
ev ol
unti l</w>
ul t</w>
U n
t able</w>
f el
ap s</w>
ans wer</w>
s ity</w>
go es</w>
plan et</w>
stu ff</w>
s ince</w>
glob al</w>
reas on</w>
Ear th</w>
h er
c er</w>
ac y</w>
k ers</w>
st ed</w>
Afri ca</w>
p at
ac tion</w>
stan ding</w>
c t</w>
ex c
ap pro
wr ong</w>
was n</w>
is n</w>
B u
ve ly</w>
an ds</w>
st er
every one</w>
resear ch</w>
vide o</w>
sol u
tr ue</w>
is su
in ing</w>
d ar
h und
at t
re sul
mo ther</w>
st ing</w>
loo ked</w>
O K</w>
si on
grou p</w>
ch ild</w>
sa ying</w>
compu ter</w>
ne t</w>
d ru
in divi
per son
b er
mon ths</w>
ur y</w>
indivi du
ri s
o thers</w>
o t</w>
e d
ca r</w>
k in
re f
k new</w>
ni ght</w>
mb ers</w>
du ce</w>
bus iness</w>
S o</w>
pos i
wom an</w>
sh ar
ide as</w>
c op
k er</w>
ta tion</w>
und er</w>
hop e</w>
ge ts</w>
bil lion</w>
Un ited</w>
c ess
lear ned</w>
n er
govern ment</w>
con si
beca me</w>
in st</w>
s ed</w>
t in
o s</w>
tiv ity</w>
d ro
langu age</w>
b lo
beau ti
ch ing</w>
wor d</w>
pic ture</w>
fi c</w>
u ro
stu dy</w>
aga inst</w>
o c
g l
i a</w>
ful ly</w>
contro l</w>
hear d</w>
N ew</w>
the m
op en</w>
fri ends</w>
ap e</w>
li ons</w>
t on</w>
h y
er ing</w>
br ing</w>
o k
con ver
ar s</w>
re co
sh are</w>
ou th</w>
bl ack</w>
incre di
is h</w>
ex ac
ama zing</w>
p er</w>
oun ds</w>
every body</w>
i gh
m ust</w>
f ic
fi g
1 ;</w>
&#9 1;</w>
3 ;</w>
&#9 3;</w>
us es</w>
th y</w>
con f
enti al</w>
in i
t -
fo c
a v
si x</w>
ques tions</w>
si mp
exac tly</w>
ca ted</w>
our selves</w>
hou se</w>
l ab
hear t</w>
ar ly</w>
th an
th re
t yp
ph ot
ta king</w>
ic s</w>
f il
loo ks</w>
buil t</w>
them selves</w>
na me</w>
t un
do m</w>
stud ents</w>
pro ject</w>
3 0</w>
0 s</w>
sto p</w>
comp any</w>
plac es</w>
kno wn</w>
basi cally</w>
an im
mat eri
e mo
st ra
m er</w>
qu ic
bu r
logi cal</w>
can cer</w>
sh ed</w>
an ts</w>
bre a
op er
beauti ful</w>
po wer
bas ed</w>
soci ety</w>
c ed</w>
us i
me as
deci ded</w>
d ec
a ir</w>
p ol
t om
p ul
In di
qu i
St ates</w>
p ast</w>
m ate</w>
ec ted</w>
fe el
li st
id enti
pop ul
b ly</w>
pro vi
comp an
au di
i ght</w>
iz ation</w>
cul ture</w>
le vel</w>
0 ,000</w>
d uring</w>
tur ns</w>
f -
ch ed</w>
gr ound</w>
ver ed</w>
de v
in du
vi ew</w>
ph one</w>
he ar</w>
a w
spec ies</w>
ap pe
comple tely</w>
c le</w>
c y</w>
opp ort
be ha
re li
tr an
r un
fron t</w>
cl os
mi c</w>
h or
diff ic
ss ed</w>
Amer i
ru n</w>
edu cation</w>
ad v
par ents</w>
war ds</w>
d -
dd le</w>
s is</w>
at e
f lo
be gin
do c
won der
e ts</w>
u es</w>
o grap
t ot
gu y</w>
h ours</w>
w in
i se</w>
lear ning</w>
o ce
lit er
stan ce</w>
j our
b loo
vi ol
p ot
en ing</w>
f ar
piec e</w>
Americ a</w>
s ound</w>
cou ldn</w>
b ab
ra ther</w>
in clu
ell ing</w>
thous ands</w>
b an
ap er</w>
some body</w>
wor ked</w>
re si
o w</w>
pl es</w>
Ameri can</w>
it self</w>
dise ase</w>
de l</w>
sti tu
ou ldn</w>
c tion</w>
cou ple</w>
beha vi
st ate</w>
f ree</w>
happen ing</w>
as y</w>
k ly</w>
per f
cre ated</w>
p le
E n
ar ch
j ects</w>
f und
1 00</w>
nat ure</w>
w ed</w>
fi el
enti re</w>
s li
cep t</w>
al ong</w>
en gin
anim als</w>
ear ly</w>
te am</w>
d ers</w>
rela tion
fel t</w>
na tional</w>
ir e</w>
ke y</w>
at ten
s or
c ir
hu ge</w>
str y</w>
lar ge</w>
compan ies</w>
int el
in no
re g
fin ally</w>
nee ds</w>
human s</w>
T E
cent ury</w>
p ur
om e</w>
me an
c ell</w>
univer se</w>
syste ms</w>
m ental</w>
cur r
ro w</w>
m a</w>
fig ure</w>
di g
tur ned</w>
real ity</w>
pr in
le ast</w>
ne t
tu al</w>
n on
ne ws</w>
at s</w>
am oun
d ent</w>
mo del</w>
li ke
rec or
fa ther</w>
environ ment</w>
n am
kno w
pr ac
o o
fi sh</w>
t est</w>
v ari
re st</w>
de li
y our
Y ou</w>
ta in
In ter
w on</w>
h ind</w>
ci ties</w>
struc ture</w>
ac c
as es</w>
x i
your self</w>
ce i
nee ded</w>
ta kes</w>
p e</w>
w ar</w>
gi ven</w>
h aps</w>
e asy</w>
engin e
beg an</w>
20 0
A r
an t
sel f-
nat ural</w>
diffic ult</w>
mo ving</w>
per haps</w>
be hind</w>
Bu t</w>
hel p
c ks</w>
kin ds</w>
out side</w>
tr ac
d r
minu tes</w>
sc ale</w>
str u
ca te</w>
sur vi
si ze</w>
cl es</w>
chan ged</w>
b ir
an ti
Y or
ga ve</w>
comm on</w>
b ed</w>
s cre
ti vely</w>
ti s
b ility</w>
scienti sts</w>
l in
E uro
th ird</w>
O h</w>
cli mate</w>
ga me</w>
lea ve</w>
fl u
d ence</w>
power ful</w>
de fin
at or</w>
pos ed</w>
par t
ma j
c al
ma l</w>
1 5</w>
e yes</w>
see ing</w>
li m
se qu
h on
simp ly</w>
lon ger</w>
at ure</w>
u al</w>
y -
car e
an ci
s le
wal k</w>
me mor
know le
p t</w>
m ess
differ ence</w>
poli tical</w>
happ y</w>
cl ose</w>
al lo
bloo d</w>
de ca
enc y</w>
con di
ta ken</w>
li g
c s</w>
mach ine</w>
bor n</w>
m ale</w>
fri end</w>
conver sa
Chin a</w>
ex pla
h ol
de mo
re l
wh ite</w>
lo cal</w>
reco gn
di ed</w>
inno v
wh at
t ou
or din
ve ment</w>
real ized</w>
ex tre
s ha
ra di
gro w</w>
m p</w>
e vi
u res</w>
te ach
c y
partic ular</w>
su per
cer tain</w>
N A</w>
ye ah</w>
tic ally</w>
popul ation</w>
de ath</w>
pati ents</w>
like ly</w>
p sy
z ed</w>
elec tri
mul ti
ima ge</w>
C A</w>
d en
b ar
wr it
medi a</w>
can not</w>
si mil
sur pri
l ots</w>
ho ld</w>
han ds</w>
par ts</w>
ful l</w>
d om
atten tion</w>
ei ther</w>
k ill
ste p</w>
ne y</w>
vi sion</w>
fa il
pat ter
feel ing</w>
chan ges</w>
e ment</w>
inv ol
ok ay</w>
ob vi
m os
e se</w>
re gi
g er
Yor k</w>
re le
l ost</w>
gu ys</w>
f ra
a ds</w>
pre dic
audi ence</w>
low ed</w>
are a</w>
ver age</w>
pre sen
con su
fi ed</w>
econom ic</w>
G od</w>
supp ort</w>
li sh</w>
Indi a</w>
ac cess</w>
ro bo
in sp
sit u
re sour
in ten
c k
T h
ab solu
ex pl
b ene
quic kly</w>
m al
pres ent</w>
ac e
ver sity</w>
qu e</w>
mar ket</w>
im pro
ris k</w>
ne igh
e y
amoun t</w>
d ly</w>
c os
En g
N or
hund re
ri ed</w>
de scri
knowle dge</w>
wee k</w>
mi ddle</w>
mic ro
gro wing</w>
under standing</w>
t elling</w>
p ay</w>
as tic</w>
A l
D NA</w>
se ven</w>
pos si
val ue</w>
sp ent</w>
a ir
wr ite</w>
su ff
gro w
oce an</w>
pr om
st ro
spe ak</w>
spe a
me t</w>
sp end</w>
bac k
al one</w>
sol ution</w>
opport unity</w>
sol ve</w>
nu mbers</w>
de f
com b
what ever</w>
r ac
fiel d</w>
ci vi
ter ms</w>
po or</w>
for tun
l os
mil lions</w>
colle c
tri ed</w>
per for
begin ning</w>
comple x</w>
mo d
for ward</w>
er ed</w>
TE D</w>
sur face</w>
ex t</w>
am s</w>
per i
gir ls</w>
es p
ar gu
e f</w>
s mar
Inter net</w>
progra m</w>
o ds</w>
s it</w>
char ac
p an
fe ar</w>
hundre ds</w>
ch es</w>
c ost</w>
si l
h osp
wee ks</w>
intel lig
for ce</w>
W e</w>
r en
o ks</w>
w ouldn</w>
person al</w>
challen ge</w>
I t</w>
gir l</w>
rou ght</w>
physi cal</w>
g one</w>
j ec
e asi
U .
pre ci
m u
en ding</w>
po in
ill s</w>
as h
g ger</w>
medi cal</w>
arch it
b a
man ag
phot ograp
de al</w>
d en</w>
su dd
s qu
cle ar</w>
st e</w>
gi ving</w>
f ur
ab o
grow th</w>
pre ss
reli gi
any one</w>
tra di
gg est</w>
chan ging</w>
al y
sho ws</w>
ser i
ho od</w>
de ep</w>
p aper</w>
ic ally</w>
i li
fa v
mo der
com pe
Wh at</w>
J o
mo le
f y</w>
di e</w>
an ima
le g
gr and
communi ties</w>
ca tions</w>
behavi or</w>
imp act</w>
so on</w>
de ep
o d
vo ice</w>
l u
in ve
4 0</w>
ca use</w>
sit ting</w>
st in
f ast</w>
car b
a il
to ols</w>
ti z
t ect</w>
see ms</w>
ei ght</w>
comp li
p us
se ver
f as
col or</w>
as king</w>
st age</w>
tin y</w>
te mp
enti ally</w>
bu y</w>
bo oks</w>
year -
i cal</w>
e mb
vi e
bene f
s sive</w>
pro duce</w>
e mer
t ro
r ul
individu al</w>
real ize</w>
b rought</w>
tre at
ter m</w>
t ar
ac hi
on line</w>
cer tain
incre as
G re
esp eci
especi ally</w>
a x
ne ur
W or
tur al</w>
a verage</w>
liter ally</w>
gen e
con sci
ev en
mor ning</w>
mo vi
logi es</w>
g am
ima ges</w>
i st</w>
w ers</w>
m ine</w>
lab or
s ite</w>
all s</w>
C on
foc us</w>
la w</w>
develop ed</w>
are as</w>
tru th</w>
le c
uc k</w>
resul t</w>
wonder ful</w>
ro te</w>
ti ves</w>
t an
ot e</w>
ima gin
interest ed</w>
econom y</w>
disco vered</w>
cre ating</w>
c ro
wat ch</w>
to m</w>
o -
g en</w>
eff ec
ar en</w>
gre ss</w>
W ell</w>
w rote</w>
t y
i tion</w>
re ly</w>
mo vement</w>
k y</w>
fund am
d ou
c lo
mis sion</w>
o p</w>
bre ak</w>
re p
om s</w>
ver s</w>
star ting</w>
se x</w>
f ly</w>
R e
tici p
rec ently</w>
cen ter</w>
indu stry</w>
ing ly</w>
mo ved</w>
incredi ble</w>
au th
M us
as s</w>
ter ri
che mi
pro tec
il s</w>
see m</w>
design ed</w>
r ace</w>
nec ess
e at</w>
pa in</w>
in k</w>
be y
typ e</w>
play ing</w>
al low</w>
sh ort</w>
pl ant</w>
gener ation</w>
u ally</w>
simil ar</w>
nor mal</w>
materi al</w>
g ar
di sc
bey ond</w>
20 1
he ad
z y</w>
chan ce</w>
viol ence</w>
for ms</w>
ca mer
suc cess
clas s</w>
gre en</w>
in stitu
pri v
om e
absolu tely</w>
to wards</w>
su sta
shi ps</w>
s ounds</w>
pa in
ex am
cho ice</w>
d a</w>
bac ter
s la
re vol
issu es</w>
f er
com for
ch ec
bab y</w>
tran sp
run ning</w>
l ate</w>
g est</w>
pati ent</w>
re cei
ca mp
at ors</w>
en ded</w>
relation ship</w>
ma in</w>
fe et</w>
bl ue</w>
o il</w>
r ate</w>
m ers</w>
develop ment</w>
ser ve</w>
ordin ary</w>
cu t</w>
sa ve</w>
er ci
b all</w>
sever al</w>
su g
read ing</w>
ac coun
se x
m es</w>
M ar
bo x</w>
me et</w>
issu e</w>
fre e
dig ital</w>
medi c
su p
grou ps</w>
techno logies</w>
anima l</w>
sto od</w>
vi su
th ro
pot ential</w>
perf ect</w>
ci tiz
resour ces</w>
pres sion</w>
mil es</w>
or ity</w>
s al
pro te
carb on</w>
the ma
n ar
j us
inclu ding</w>
v ic
t op
gi ves</w>
tr ust</w>
re ach</w>
ob s</w>
ch i
ac k
conversa tion</w>
con cer
c ing</w>
S outh</w>
st ay</w>
o w
ur ity</w>
sec on
k id</w>
w o
sa fe</w>
de sp
sh ape</w>
op en
me t
h un
S u
l ines</w>
even tually</w>
produc t</w>
ori gin
bo dies</w>
tri bu
D e
ul arly</w>
str ong</w>
le ad</w>
dar k</w>
d ings</w>
evi dence</w>
bi gger</w>
z er
sho wed</w>
sh ing</w>
be comes</w>
appro ach</w>
si a</w>
de gre
ma thema
situ ation</w>
fav or
st ant</w>
se a</w>
Eng lish</w>
no body</w>
maj or</w>
connec ted</w>
b es</w>
imp os
beli ev
M o
b al
net work</w>
i fic
ec han
n y</w>
the ory</w>
as su
s ent</w>
heal thy</w>
L i
L e
we ver</w>
robo t</w>
moder n</w>
inv en
P ar
n ice</w>
li ved</w>
beg in</w>
L a
Euro pe</w>
year- old</w>
psy cho
evol ution</w>
bo ard</w>
car s</w>
su m
Wor ld</w>
eff ici
wr iting</w>
ra is
te ach</w>
bot tom</w>
h y</w>
sol ar</w>
di stri
ca t
la b</w>
av ail
dru gs</w>
basi c</w>
pp ed</w>
cho ose</w>
mar ke
tal ked</w>
rul es</w>
jour ney</w>
ho wever</w>
usi on</w>
n uc
eff ect</w>
str an
respon se</w>
di ag
te m
n ers</w>
fi ght</w>
sy n
ri ghts</w>
A u
st ers</w>
qu ality</w>
de ter
v ill
ou ght</w>
m it
con struc
m ent
j obs</w>
fami lies</w>
es ti
an aly
sec re
insp i
co ol</w>
compu ters</w>
speci al</w>
s end</w>
iz ing</w>
t or
reas ons</w>
plan ts</w>
at ures</w>
so f
r ap
ma p</w>
fu n</w>
de ad</w>
develop ing</w>
b it
r it
p en
exper im
sle ep</w>
ro le</w>
m echan
ro ad</w>
li fe
gre at
vel s</w>
h our</w>
fortun ately</w>
a tional</w>
U ni
f le
f oun
incredi bly</w>
in de
high er</w>
han d
contin ue</w>
b at
ac i
resul ts</w>
r .</w>
do or</w>
dep end
T his</w>
suc cess</w>
int ro
U S</w>
experi ment</w>
g le</w>
sk in</w>
ey e</w>
expla in</w>
nuc le
mean ing</w>
dre am</w>
ha ven</w>
bu l
stru gg
high -
avail able</w>
lo ved</w>
meas ure</w>
0 -
h it</w>
spe ed</w>
ac tions</w>
G oo
gu ess</w>
re qui
g ri
bi ggest</w>
sec urity</w>
r om
posi tion</w>
par ticip
wor th</w>
pu tting</w>
m oun
stre et</w>
i g
gra du
sour ce</w>
mole cul
am ong</w>
6 0</w>
pro cess
me ly</w>
fir e</w>
tech ni
f all</w>
dru g</w>
kno ws</w>
ss ing</w>
sm all
scho ols</w>
d y
wor l
w in</w>
memor y</w>
sp ir
1 2</w>
str ate
min i
fur ther</w>
devel op</w>
2 5</w>
invol ved</w>
emp lo
ca ses</w>
colle ag
pr os
off ice</w>
l y
gi c</w>
than k</w>
f am
b er</w>
al ized</w>
se par
sc en
nam ed</w>
favor ite</w>
cr acy</w>
bu n
app li
star ts</w>
intellig ence</w>
us ually</w>
ti vi
li gh
dri ve</w>
list en</w>
ar ed</w>
sk y</w>
g -
ter ed</w>
sti c</w>
prin ci
c lear
lead ers</w>
wor se</w>
ru p
o re
g al
ex tra
b an</w>
w ell
ri ch</w>
pro per
poli ce</w>
hund red</w>
d ang
cri sis</w>
M a
sign ific
i al</w>
g ot
fil m</w>
bot s</w>
on to</w>
jo y</w>
au ght</w>
ar ri
po ver
l un
w all</w>
co de</w>
to wn</w>
sion al</w>
n al</w>
mess age</w>
ici al</w>
doc tor</w>
li st</w>
bo y</w>
pover ty</w>
gre w</w>
deci sions</w>
go al</w>
throu gh
wal king</w>
st ore</w>
pl an</w>
en sive</w>
en ly</w>
t end</w>
pro tect</w>
mach ines</w>
l ose</w>
im medi
de ta
conf li
scienti fic</w>
r ing</w>
innov ation</w>
dev ice</w>
ri es</w>
per spec
p ose</w>
pre ss</w>
com par
ad dre
a st
treat ment</w>
in flu
prof es
partic ularly</w>
fa ster</w>
colle ge</w>
al lowed</w>
n os
fin ding</w>
every where</w>
t aught</w>
certain ly</w>
bacter ia</w>
ma ss</w>
lo wer</w>
l ap
an i
19 9
mon th</w>
e m</w>
l ay
der ed</w>
wat ching</w>
tra ining</w>
t ele
r an</w>
or d</w>
jus tice</w>
speci fic</w>
exam ples</w>
cra zy</w>
c in
al g
y ed</w>
pic tures</w>
u m
s ou
posi tive</w>
pic k</w>
obvi ously</w>
doc tors</w>
medic ine</w>
ro bots</w>
consi der</w>
ac tive</w>
un e</w>
sho wing</w>
o x
an tly</w>
lan d
w ish</w>
li z
leg al</w>
Afri can</w>
ob jects</w>
human ity</w>
equ i
eng ag
condi tions</w>
as se
8 0</w>
hosp ital</w>
c ru
wa it</w>
al ing</w>
n ine</w>
P ro
ple ase</w>
no tice</w>
n ect</w>
individu als</w>
in come</w>
cre ative</w>
Chin ese</w>
tot ally</w>
sudd enly</w>
do w
lar gest</w>
ear li
b s</w>
ad d</w>
N e
tr al</w>
sp ac
ill ing</w>
al le
abo ve</w>
B e
success ful</w>
incre ase</w>
deca des</w>
produc ts</w>
con nect</w>
writ ten</w>
stud ent</w>
sof tw
ph il
any body</w>
peri od</w>
ex tr
ac tivity</w>
solu tions</w>
l ack</w>
inde ed</w>
as h</w>
S .</w>
tru ly</w>
sp read</w>
m ir
f ru
col labor
archit ec
th o
it ary</w>
d an
wor kers</w>
ther ap
susta in
in si
Jo h
v ul
ro r</w>
provi de</w>
ori th
for med</w>
st om
softw are</w>
e ting</w>
alg orith
ac tivi
me ant</w>
de m
pro gress</w>
g as</w>
fin anci
ari ly</w>
minu te</w>
min ds</w>
cul tural</w>
contin u
al th</w>
Goo gle</w>
G er
Nor th</w>
impos sible</w>
stu dies</w>
s un
resear ch
materi als</w>
wi fe</w>
exi st</w>
comp as
ear s</w>
teach ers</w>
stre ss</w>
e e</w>
wan ts</w>
bra ins</w>
sup posed</w>
ma ssive</w>
li ar</w>
la un
allo ws</w>
z z
ra ge</w>
ach ed</w>
to ol</w>
sh e
press ure</w>
ma in
a vi
scre en</w>
ke pt</w>
ear th</w>
v al</w>
ep ing</w>
enc ed</w>
smar t</w>
re presen
neigh bor
h ur
recor d</w>
l uc
a mp
organ iz
N ow</w>
camer a</w>
b and</w>
t ells</w>
sh ap
ran ge</w>
fe male</w>
ver se</w>
tre es</w>
through out</w>
s mo
p ay
elec tr
wi se</w>
sk ills</w>
non -
ing ing</w>
disc us
wi de</w>
well -
shar ed</w>
vi sible</w>
sho wn</w>
con tribu
1 1</w>
fol low</w>
ste m</w>
gam es</w>
extre mely</w>
do cu
demo cracy</w>
re pe
ol der</w>
ob ject</w>
ma tic</w>
dang er
challen ges</w>
tim ate</w>
str on
some where</w>
re por
ne w
effec tive</w>
di men
1 8
ther e
sp o
or ts</w>
in te
up on</w>
prac tice</w>
par ti
organ ization</w>
movi e</w>
H e
wa ste</w>
distri bu
exc iting</w>
de b
d on
recogn ize</w>
mod els</w>
ir s</w>
t t
su n</w>
exc ited</w>
Americ ans</w>
gen der</w>
cir cu
ci es</w>
st opp
compe ti
ac her</w>
P h
wor k
tem per
t ree</w>
lar ger</w>
indu stri
cl ou
c ked</w>
M i
m ous</w>
exp ect</w>
typ es</w>
piec es</w>
gene tic</w>
fol lo
as p
Th at</w>
nucle ar</w>
i gn
experi ences</w>
re duc
si bility</w>
sear ch</w>
free dom</w>
ad ap
gener al</w>
we a
star s</w>
ri se</w>
osp here</w>
ic k</w>
eff ects</w>
ess entially</w>
e ful</w>
cre a
con sequ
a vo
U. S.</w>
re fu
perspec tive</w>
d ate</w>
sho t</w>
perfor man
vir us</w>
in di
en ter</w>
sa fe
logi sts</w>
tre at</w>
m ot
desp ite</w>
cont ent</w>
Ch ri
to -
serv ice</w>
produc tion</w>
dise ases</w>
tra vel</w>
poin ts</w>
mo m</w>
eng th</w>
w ind</w>
fundam ental</w>
compli cated</w>
H ar
le vels</w>
danger ous</w>
curr ent</w>
wa iting</w>
seri ous</w>
le -
help ed</w>
e ma
B ri
p ath</w>
inter est</w>
d ama
con v
care er</w>
ox y
W est</w>
mi sta
gen es</w>
fi gu
some how</w>
n e</w>
ac ks</w>
s us
fore st</w>
buil dings</w>
tu m</w>
mo bi
extra ordinary</w>
do w</w>
wer en</w>
tou ch</w>
f our
al ism</w>
te acher</w>
list ening</w>
be ings</w>
al though</w>
re mar
or ies</w>
ne arly</w>
hi m
cri tical</w>
govern ments</w>
e th
5 00</w>
ger y</w>
exp lo
won der</w>
uni que</w>
spea king</w>
op s</w>
ar m</w>
tradi tional</w>
gal ax
enc ou
deci sion</w>
as soci
J ap
thous and</w>
ta ins</w>
as ed</w>
patter n</w>
fo ot
fac es</w>
ver sion</w>
k ill</w>
fun c
dri ving</w>
d aughter</w>
I s
revol ution</w>
pre v
h ing</w>
ill ed</w>
ec u
di versity</w>
cont ext</w>
a in</w>
val ues</w>
ser ies</w>
ni a</w>
k able</w>
comm it
t ory</w>
h ed</w>
be coming</w>
financi al</w>
pro jects</w>
bio logy</w>
au tom
a p</w>
direc tly</w>
any more</w>
ag ree</w>
M on
C ol
emo tional</w>
cor rec
ta tions</w>
small er</w>
si gn</w>
patter ns</w>
no tic
ini ti
c ele
sy m
ou se</w>
exp ensive</w>
citiz ens</w>
s wi
a th
we b
physi cs</w>
on e-
kill ed</w>
fe els</w>
f er</w>
cle an</w>
him self</w>
ec tion</w>
cu ri
ali ve</w>
2 00</w>
man u
got ten</w>
fun ction</w>
b its</w>
performan ce</w>
earli er</w>
ab ili
wh ose</w>
un fortunately</w>
o es</w>
kno wing</w>
great est</w>
low -
M ars</w>
B i
me eting</w>
as s
C ar
tion ary</w>
st an</w>
re ma
or g
la ws</w>
connec tion</w>
comple te</w>
R i
m it</w>
is ms</w>
bun ch</w>
we ight</w>
v acc
s we
dow n
relation ships</w>
T V</w>
G e
s ent
ho t</w>
de stro
mil itary</w>
fi gh
con cept</w>
t on
poli cy</w>
identi ty</w>
electri city</w>
1 0
si mul
inter national</w>
B ra
under stood</w>
ph ones</w>
happ iness</w>
ra ise</w>
f ying</w>
clear ly</w>
visu al</w>
t a</w>
st y
P e
tr ou
rel ated</w>
it h</w>
f it</w>
comfor table</w>
F ran
ti tu
fami liar</w>
J u
H I
me th
jour n
architec ture</w>
vill age</w>
re qu
i an</w>
g ate</w>
serv ices</w>
poli tics</w>
pl astic</w>
impro ve</w>
ec h</w>
con fi
logi st</w>
f ant
M ic
s low</w>
pp ing</w>
le ss
institu tions</w>
ho le</w>
con tr
tis su
any way</w>
zer o</w>
me ters</w>
fam ous</w>
ac ts</w>
than ks</w>
n a</w>
mat h</w>
gh tly</w>
d ness</w>
cop e</w>
ar r
f ine</w>
ex cept</w>
w el
sta ti
plan e</w>
lon g-
colleag ues</w>
tra in</w>
sor ts</w>
li ghts</w>
aw are</w>
refu ge
priv ate</w>
pl at
oun ded</w>
n one</w>
m or</w>
im m
fas cin
diag nos
cep tion</w>
bro ken</w>
ur s</w>
tion ed</w>
s an
organiz ations</w>
on y</w>
gre ater</w>
ad di
op pos
b om
sur r
ph en
con ven
wo od</w>
sur ve
stan tly</w>
s m</w>
s l
par a
mo tiv
me mbers</w>
lan ds</w>
g ly</w>
deci de</w>
ac tual</w>
ac ting</w>
ti mat
st -
hi c</w>
fe ed</w>
beau ty</w>
al ter
ther n</w>
mor al</w>
ca uses</w>
sy mp
stan d
mos tly</w>
immedi ately</w>
hi stor
cho ices</w>
bir th</w>
wal ked</w>
stran ge</w>
en ter
n ur
en or
ad ul
C an
timat ely</w>
shar ing</w>
s ell</w>
reg ul
ag re
t ex
physi ci
mi gr
for get</w>
at ory</w>
B o
7 0</w>
rec ent</w>
r is</w>
pa id</w>
fin al</w>
direc tion</w>
d ance</w>
anci ent</w>
the tic</w>
secon ds</w>
pre si
os op
ha ir</w>
cos ts</w>
confli ct</w>
co ld</w>
cal cul
v ot
st at
ne ga
er ence</w>
chemi cal</w>
W ar</w>
1 8</w>
qu ar
re duce</w>
bio logical</w>
arti st</w>
ab les</w>
R us
in a</w>
flo or</w>
research ers</w>
e ties</w>
ac ity</w>
survi ve</w>
l l
inve st
e g
s ong</w>
phil osop
h us
cor por
- year-old</w>
ous ness</w>
manu fac
g ent
f la
easi er</w>
deca de</w>
c ket</w>
l li
appe ar</w>
N o</w>
le t
l led</w>
follo wing</w>
engine ering</w>
ar ds</w>
Uni versity</w>
op ti
ne ar</w>
bab ies</w>
C o
there fore</w>
stor s</w>
neur ons</w>
addre ss</w>
sen s
fo ot</w>
F ace
we ap
om en
tw o-
an a</w>
a head</w>
regi on</w>
mat ters</w>
compas sion</w>
terri ble</w>
K en
secre t</w>
ra id</w>
lead ing</w>
st ates</w>
molecul es</w>
any where</w>
C ity</w>
ss es</w>
in stance</w>
app ed</w>
phen omen
oc cu
de s
con serv
wh er
pre par
li ber
it ation</w>
i tive</w>
hel d</w>
wor st</w>
vic ti
dra w</w>
bri dge</w>
tot al</w>
pur pose</w>
os y
neigh b
equ ality</w>
d ad</w>
Joh n</w>
w illing</w>
sh ort
i sts</w>
cap ital</w>
al o
ac cep
tr ack</w>
sug ge
par ty</w>
M e
I f</w>
tur ning</w>
s at
pul l</w>
ans wers</w>
T he
Face book</w>
vul ner
o ther
mi le</w>
l ar</w>
af ter
p age</w>
land sc
inf ra
ach es</w>
E ast</w>
th ri
origin al</w>
o logy</w>
los s</w>
ap art</w>
tra vel
signific ant</w>
pri ce</w>
j a
easi ly</w>
ac ci
R o
shi ft</w>
pr int</w>
play ed</w>
h ic
for th</w>
exp ec
d ation</w>
bo ys</w>
us eful</w>
ul timately</w>
pr ene
parti cles</w>
est er
af raid</w>
mobi le</w>
f os
emo tions</w>
communi cation</w>
N o
wor ry</w>
stre ets</w>
obvi ous</w>
de tec
progra ms</w>
for ces</w>
eri a</w>
co ver</w>
clos er</w>
Y e
H ow</w>
su s</w>
re turn</w>
en ess</w>
e m
ter r
stopp ed</w>
pop ular</w>
pi cal</w>
de st</w>
x es</w>
us h</w>
st ar</w>
sex ual</w>
m ming</w>
differ ently</w>
an ce
pus h</w>
or ing</w>
m osphere</w>
is tic</w>
inspi red</w>
help ing</w>
co ff
clas s
c ros
att ack</w>
D i
respon sibility</w>
fa ir
f low</w>
ent re
chec k</w>
c king</w>
at mosphere</w>
ur ban</w>
tu red</w>
gr y</w>
crea tivity</w>
u r</w>
th i
si des</w>
ra tion</w>
pe ace</w>
er ship</w>
entre prene
e ding</w>
S y
HI V</w>
C hi
s sion</w>
gu e</w>
fu el</w>
dev ices</w>
de ser
stud ying</w>
s wit
n ation</w>
i shed</w>
c enti
ag ri
s at</w>
man i
hel ps</w>
notic ed</w>
fre qu
ac cor
f li
plac ed</w>
ali st</w>
a di
t ext</w>
cu stom
communi cate</w>
high ly</w>
en ed</w>
do g</w>
9 0</w>
religi on</w>
pas sed</w>
multi ple</w>
in ation</w>
camp ai
L on
C ali
t el
sustain able</w>
resp ond</w>
pri son</w>
plan ets</w>
m el
hear ing</w>
deter min
19 8
produc ed</w>
he at</w>
am bi
ach ing</w>
a de
teach ing</w>
t ask</w>
scienti st</w>
necess ary</w>
inven ted</w>
er y</w>
clas si
b oun
al ization</w>
stati sti
pa ir</w>
achi ev
Ch ris</w>
publi shed</w>
pre ssed</w>
pol l
it es</w>
de mon
tra ff
oppos ite</w>
er a</w>
S A</w>
J e
y a</w>
vari ous</w>
experim ents</w>
thre e-
sum mer</w>
sub ject</w>
oxy gen</w>
gra v
expl ore</w>
environ mental</w>
de pression</w>
vol un
squ are</w>
cri min
ar ies</w>
ag ing</w>
perf ec
foc used</w>
fl ying</w>
du e</w>
w ear
ver ing</w>
supp or
on ic</w>
inte gr
ev ent</w>
cele br
A f
struc tures</w>
ma g
li e</w>
le s
in ess
see med</w>
pas s</w>
off er</w>
gi ant</w>
enor mous</w>
arti f
x ed</w>
val u
tion ally</w>
t ons</w>
s ch
jo in</w>
cro w
bir ds</w>
achi eve</w>
Cali for
pe di
effici ent</w>
e f
ca u
br inging</w>
ari a</w>
D r.</w>
ri c</w>
nar ra
g ers</w>
cy cle</w>
cl ai
car ry</w>
b ing</w>
te en
ma gic</w>
cre ates</w>
W ester
S e
si ck</w>
re ve
el ess</w>
depend ent</w>
an ced</w>
L o
stre am</w>
stan ces</w>
S i
tra de</w>
spac es</w>
bus iness
mp tion</w>
l en
gen e</w>
fant astic</w>
A I</w>
v ast</w>
u t
nega tive</w>
e ating</w>
cap acity</w>
mi ssing</w>
S te
S a
nu tri
le gs</w>
la w
il ed</w>
ve hic
remar kable</w>
possi bly</w>
in stru
import antly</w>
dro p</w>
temper ature</w>
qu an
f illed</w>
con duc
C om
na tive</w>
ex erci
di stin
bu t
Lon don</w>
Califor nia</w>
we alth</w>
tw ice</w>
tur ing</w>
s -
ple as
mom ents</w>
le ts</w>
disco ver</w>
curr ently</w>
civi l</w>
chil d
cap it
be low</w>
H a
resp ect</w>
rep ort</w>
on -
ex ten
ac cur
uni ties</w>
l at
for ced</w>
C O
supp ly</w>
me ter</w>
m end
l ying</w>
infra structure</w>
gra de</w>
fail ure</w>
di sp
benef its</w>
adul ts</w>
a thy</w>
B an
spe ech</w>
luc ky</w>
l er</w>
ti n</w>
rais ed</w>
ma m
e k</w>
dom in
d ying</w>
coff ee</w>
c ore</w>
b la
P o
sol di
opport unities</w>
abili ties</w>
a ster
we ar</w>
w alls</w>
suff ering</w>
ste ps</w>
ser ved</w>
ir ing</w>
evol ved</w>
el lit
di sa
be l</w>
quan tum</w>
p ho
le tter</w>
i on</w>
gl ass</w>
figh ting</w>
fi x</w>
ent ally</w>
b le
H ey</w>
sat ellit
net works</w>
di stance</w>
believ ed</w>
fi cation</w>
exi st
dd en</w>
consci ous</w>
as ks</w>
ap h
am p</w>
wa ves</w>
strate gy</w>
mis sions</w>
far mers</w>
charac ter</w>
app ly</w>
sur gery</w>
ru le</w>
other wise</w>
o h</w>
intro duc
ali a</w>
t al</w>
it ely</w>
5 ,000</w>
soci eties</w>
respon sible</w>
p ha
h ate</w>
gu i
eng age</w>
arti sts</w>
B ro
quic k</w>
le y</w>
f ill</w>
exp an
ele ments</w>
bil lions</w>
am a</w>
lead ership</w>
extr a</w>
ev ents</w>
degre es</w>
deep ly</w>
b ase</w>
Euro pe
w is
il ing</w>
hus band</w>
ha bit
f all
condi tion</w>
tele vision</w>
ro ll</w>
gu n</w>
comm erci
adv ant
web site</w>
prac tic
mat es</w>
dre ams</w>
dou b
and -
accor ding</w>
s al</w>
dol lar</w>
B er
tran si
stra ight</w>
sti ck</w>
pri mar
lim ited</w>
bas is</w>
ac ked</w>
sty le</w>
p al
k a</w>
ill u
fa ir</w>
extre me</w>
comp on
at temp
sh ouldn</w>
safe ty</w>
mi d
every day</w>
e um</w>
degre e</w>
cri me</w>
cap able</w>
artif icial</w>
z o
wa ve</w>
religi ous</w>
consci ousness</w>
am ing</w>
vi s
stand ard</w>
sor ry</w>
sli ghtly</w>
necess arily</w>
n ic
lea ving</w>
k il
hol ding</w>
di a
ar t
an xi
a -
on g
imm une</w>
defin ition</w>
d ai
tici ans</w>
st uck</w>
i gn</w>
u t</w>
st ation</w>
s low
ro oms</w>
maj ority</w>
in ci
ess or</w>
emp o
descri be</w>
dem and</w>
as si
Wester n</w>
V i
1 ,000</w>
ti sh</w>
ing ton</w>
1 4</w>
ref le
r ying</w>
men ted</w>
let ters</w>
es cap
avo id</w>
ari an</w>
meas u
li br
lab or</w>
gener ations</w>
differ ences</w>
benef it</w>
vi sit</w>
fac ts</w>
consequ ences</w>
bro ther</w>
neighbor hood</w>
enti rely</w>
fas hi
e li
co gn
Wh y</w>
stra tion</w>
inv esti
eff ort</w>
ali sts</w>
W i
we b</w>
mo ves</w>
enc ing</w>
en se</w>
a id</w>
tre mend
st ay
so li
radi o</w>
p it
hom es</w>
do z
dai ly</w>
1 6</w>
feel ings</w>
cor ner</w>
con stantly</w>
collec tive</w>
be at</w>
ar tic
sp ot</w>
sign als</w>
sc ul
os s</w>
har der</w>
sen si
ri ver</w>
possi bility</w>
engine ers</w>
br ings</w>
a ti
S o
F ren
3 00</w>
s ac
prev ent</w>
li ties</w>
in -
pre vi
mo tion</w>
aff ect</w>
trou ble</w>
s w
po e
in st
civi liz
call s</w>
b ought</w>
H u
wear ing</w>
th ir
ke ts</w>
in tu
consi dered</w>
bu d
al ize</w>
T wit
marke ts</w>
fore ver</w>
an cy</w>
19 7
wa ke</w>
so il</w>
cat ch</w>
bu b
tra ined</w>
pre gn
n an
landsc ape</w>
gg ing</w>
fun ny</w>
experi enced</w>
Mus li
I D
tissu e</w>
ec osy
b one</w>
N ational</w>
Ge or
l ling</w>
it able</w>
e sts</w>
dama ge</w>
ca used</w>
b on
ter y</w>
se ly</w>
d ents</w>
blo ck</w>
win dow</w>
trans l
se tt
predic t</w>
par ent</w>
langu ages</w>
influ ence</w>
hor ri
cl in
T u
p rou
ke eping</w>
cen tral</w>
brea k
sh el
qu es</w>
pu zz
op tion</w>
is ol
invest ment</w>
identi fy</w>
bri lli
ar ms</w>
vie ws</w>
sp ending</w>
slow ly</w>
ro ck</w>
figu red</w>
c ot
al es</w>
ad y</w>
requi res</w>
no ise</w>
fol ks</w>
fic ally</w>
emplo ye
ef s</w>
conversa tions</w>
char ge</w>
G o
we ird</w>
volun te
temp or
si ster</w>
si an</w>
op ini
lead er</w>
f ab
est ab
el er
Fren ch</w>
therap y</w>
th -
nam es</w>
mar ried</w>
imp re
ema il</w>
bu s</w>
Au str
wi ld</w>
in sec
equ al</w>
app ing</w>
ve ments</w>
recei ved</w>
ra in</w>
part ner</w>
ne l</w>
inv est</w>
inter net</w>
in visible</w>
imagin ation</w>
aff ord</w>
u tionary</w>
r ates</w>
gener ate</w>
y el
stu died</w>
mat ch</w>
man age</w>
lo ad</w>
l ou
inter act</w>
compar ed</w>
tis m</w>
tar get</w>
ran dom</w>
produc tive</w>
lea ves</w>
fail ed</w>
business es</w>
us ual</w>
t ough</w>
r in
l a</w>
f al
be d
1 .
wat ched</w>
un less</w>
sh ou
ris ks</w>
r a</w>
pas sion</w>
gen cy</w>
deep er</w>
begin s</w>
bal ance</w>
accoun t</w>
tre ated</w>
trans form</w>
m outh</w>
cau ght</w>
bi lities</w>
y er</w>
pain ting</w>
kil ome
h ot
din ner</w>
Europe an</w>
worl d
st one</w>
bl ind</w>
ap preci
2 ,000</w>
strugg le</w>
perfec tly</w>
organ isms</w>
ic o</w>
ep ide
acc eler
tri l
ot h</w>
ju d
be l
associ ated</w>
Twit ter</w>
2 4</w>
1 0,000</w>
th row</w>
sign al</w>
gr an
fos si
cha ir</w>
thre at
surpri se</w>
sli de</w>
open ed</w>
nor m
mo thers</w>
cre d
cra tic</w>
Bra z
vo ices</w>
presi dent</w>
ne uro
les son</w>
ke e
it ch
gh t
col ors</w>
v ote</w>
t ac
gen ome</w>
ban k</w>
b in
avi d</w>
Ch ar
ti l
so ld</w>
no te</w>
mb le</w>
mal es</w>
inter pre
competi tion</w>
cha in</w>
ad ver
1 7</w>
mus cle</w>
mo on</w>
mar ri
los ing</w>
design ers</w>
deli ver</w>
bro ad
at om
sit es</w>
oc cur
he ads</w>
gro wn</w>
fac ing</w>
direc t</w>
di o
conv in
call ing</w>
bo at</w>
G u
z one</w>
par k</w>
mic ros
lea ds</w>
hy po
hy dro
cre atures</w>
tra u
le gi
industri al</w>
i m</w>
e u
e dge</w>
child hood</w>
ap ers</w>
an z
M an
Bri tish</w>
ty pical</w>
suc ce
separ ate</w>
m b</w>
f light</w>
de a
P a
li c</w>
i or</w>
fin ished</w>
col lap
S an</w>
s ke
profes sional</w>
plat form</w>
mon it
en joy</w>
ec h
e fully</w>
ca ting</w>
algorith ms</w>
W ash
C E
wor ried</w>
photograp h</w>
met aph
i ds</w>
cl usi
bl es</w>
M y</w>
manag ed</w>
lar ge
co o
ch ron
M c
I n</w>
symp tom
re present</w>
prof it</w>
oper ation</w>
ob jec
ner v
ne ar
long- term</w>
fac tors</w>
S p
w il
tion ing</w>
tec h</w>
rup tion</w>
rou gh
prote in</w>
mean ing
ga in</w>
fa ith</w>
car to
O r
A t
univer sity</w>
pl u
os ity</w>
o logical</w>
hosp it
disco very</w>
desi re</w>
Wash ington</w>
A d
x ity</w>
si ght</w>
br an
T here</w>
E g
to x
thre at</w>
er -
Af gh
survi val</w>
sta ur
sm ell</w>
sh es</w>
re staur
re action</w>
re -
prou d</w>
pl us</w>
moun tain</w>
hon est</w>
hi dden</w>
h s</w>
descri bed</w>
an ces</w>
ur ch</w>
sudd en</w>
su it</w>
rele v
poll ution</w>
op hi
oce ans</w>
I ra
g ation</w>
exp ected</w>
comple xity</w>
c ard</w>
be es</w>
def ine</w>
d el
coun ter
R ic
N A
vi le
sion ate</w>
pri vile
opti mi
narra tive</w>
n oun
mal aria</w>
lo g
ex act</w>
clos ed</w>
tremend ous</w>
plan ning</w>
movi es</w>
li f
exper ts</w>
ca te
bre ath</w>
back ground</w>
b ird</w>
b al</w>
ad a</w>
ac ade
z ine</w>
rec y
phenomen on</w>
new sp
in struc
ex ecu
av y</w>
ac cept</w>
D avid</w>
1 3</w>
war ming</w>
val ent</w>
seri ously</w>
scen e</w>
rep li
part ment</w>
ob se
comp os
Jap an</w>
viol ent</w>
transp or
traff ic</w>
shi f
reg ular</w>
gra tion</w>
exerci se</w>
de struc
W e
vulner able</w>
transp ar
ot ing</w>
micro bes</w>
mar k</w>
m ur
ele ph
colle ct</w>
b ru
Eg yp
vir tual</w>
process es</w>
li qu
fi f
engine er</w>
D ar
symptom s</w>
str ength</w>
sa v
pho to</w>
ga ther
deb ate</w>
connec tions</w>
ac ted</w>
inv ited</w>
fac tory</w>
exi sts</w>
ex tin
dri ven</w>
coun t</w>
charac ters</w>
charac ter
campai gn</w>
ag s</w>
tri al</w>
spo ke</w>
sol ved</w>
si x
fol lowed</w>
ess ential</w>
c ell
argu e</w>
ani stan</w>
ad dic
Ye ah</w>
Afgh anistan</w>
sec tor</w>
sa ving</w>
sa d</w>
nat ur
mathema tics</w>
increas ed</w>
fiel ds</w>
exist ence</w>
der ing</w>
conf erence</w>
cate g
yel low</w>
weap ons</w>
titu de</w>
increas ing</w>
g in</w>
er t</w>
cont act</w>
circu m
cir cle</w>
a z
N ig
t ent</w>
surpri sed</w>
se as
r ural</w>
pro ce
increas ingly</w>
imp li
d a
correc t</w>
K ore
ta il</w>
produc ing</w>
lay er</w>
j e
d le</w>
contin ent</w>
a k
z es</w>
rele ase</w>
pres ents</w>
low ers</w>
che mic
M ex
A sia</w>
s ons</w>
pro p
pay ing</w>
inter ven
in fin
fri end
elec tion</w>
ar ity</w>
advant age</w>
thou ghts</w>
nerv ous</w>
go ld</w>
design ing</w>
concer ned</w>
class room</w>
analy sis</w>
sec tion</w>
norm ally</w>
ga p</w>
beli ef</w>
an ger</w>
ve -
ten s</w>
surpri sing</w>
sti mul
reas on
men tioned</w>
me mber</w>
f ell</w>
din os
clai m</w>
I sla
v ac
te sting</w>
te e
sho p</w>
qu e
ob serv
ma ga
l au
f ran
b y
argu ment</w>
am es</w>
y ers</w>
tan e
st ate
se tting</w>
resi dent</w>
pic ally</w>
p un
or row</w>
co vered</w>
ac tiv
ab use</w>
M r.</w>
19 6
re main</w>
pro found</w>
hop efully</w>
cre ation</w>
D P</w>
wer ed</w>
tri p</w>
sus p
princi ple</w>
grand mother</w>
wh om</w>
sent ence</w>
s pl
requ ire</w>
r are</w>
gradu ate</w>
fascin ating</w>
cen tu
ang le</w>
ref lec
pu ts</w>
prof essor</w>
mp s</w>
hou ses</w>
high est</w>
defin itely</w>
cu le</w>
cl usion</w>
brilli ant</w>
be t</w>
vide os</w>
re m
prote ins</w>
organ ized</w>
oper ating</w>
no tion</w>
n it
intellig ent</w>
CO 2</w>
ti ous</w>
the sis</w>
sp on
s si
refuge es</w>
r ay</w>
ne u
min d
ju mp</w>
fore ign</w>
es ome</w>
emp athy</w>
construc tion</w>
comp are</w>
ca st</w>
addi tion</w>
ver sus</w>
qu it
p ra
fa il</w>
al ed</w>
ag gre
ad ult</w>
ad ed</w>
Mex ico</w>
vol u
us ers</w>
sign ed</w>
pro ve</w>
per cei
oun ding</w>
off ic
n ose</w>
is land</w>
fe ed
en ever</w>
e ar</w>
cul tures</w>
O k
Mi ddle</w>
wh enever</w>
v es
t ol
sho es</w>
prom ise</w>
pa int</w>
neighb ors</w>
n or</w>
fo ld</w>
fashi on</w>
de aling</w>
b is
Indi an</w>
Ger many</w>
C am
se ts</w>
ri d</w>
princi ples</w>
pl ays</w>
in centi
grav ity</w>
fa ke</w>
brea king</w>
bar ri
M il
har d
go als</w>
dra wing</w>
at oms</w>
ali ties</w>
al u
ty pically</w>
tel es
stan ds</w>
neur os
gg ed</w>
exi sting</w>
col on
cogn itive</w>
blo cks</w>
1 7
st able</w>
pot entially</w>
mil li
ma tically</w>
lo cation</w>
kilome ters</w>
ki d
ini cal</w>
h os
e missions</w>
e ds</w>
br and</w>
au l</w>
anti bio
J an
rap id
intel lec
en z
ci al</w>
ch ic
cap ture</w>
ad ded</w>
univer sal</w>
tril lion</w>
statisti cs</w>
spec tr
soldi ers</w>
na mic</w>
marri age</w>
inter action</w>
hom e
gent le
cop y</w>
cl inical</w>
an thro
T im
I S
4 00</w>
sp i
shap es</w>
laun ched</w>
hur t</w>
en cies</w>
electri c</w>
di r
an noun
ac king</w>
I T</w>
wis dom</w>
victi ms</w>
su ici
speci fically</w>
r ound</w>
ma kers</w>
in her
gi es</w>
g ay</w>
fair ly</w>
electri cal</w>
clou d</w>
centu ries</w>
bro ke</w>
agri culture</w>
ag ed</w>
Is ra
Gre at</w>
sign s</w>
scri p
op tions</w>
on ed</w>
my ster
in ner</w>
go l
curi ous</w>
appe ared</w>
activi ties</w>
a war
T al
L u
wonder ing</w>
to ward</w>
rele ased</w>
re min
per form</w>
galax y</w>
confi dence</w>
be ar</w>
W il
sto ck</w>
se at</w>
sa tis
or d
mess ages</w>
le g</w>
ha dn</w>
four th</w>
fi shing</w>
con ta
ad op
Wh en</w>
A ma
un like</w>
ser ving</w>
sel ling</w>
scul p
s and</w>
r at
p ounds</w>
liqu id</w>
l augh
ha s
gu ar
fore sts</w>
et c</w>
con cep
ca using</w>
alter native</w>
a str
1 ,
tal ity</w>
sequ ence</w>
pic ked</w>
phot os</w>
inclu de</w>
ex plan
encou ra
en coun
demon str
defin ed</w>
anti -
R ob
H o
sug ar</w>
ra in
grap h</w>
de tect</w>
cour t</w>
chemi stry</w>
arri ved</w>
stat us</w>
sa ved</w>
prom is
oper ate</w>
manag ement</w>
commerci al</w>
Ira q</w>
war m</w>
tom orrow</w>
sol ving</w>
situ ations</w>
simp li
possi bilities</w>
natur ally</w>
encou rage</w>
cre te</w>
b ar</w>
artic le</w>
appro pri
A le
ra tional</w>
quot e</w>
emo tion</w>
deta ils</w>
chemic als</w>
ce ment</w>
S ec
Ama z
yp e</w>
stan dar
sp in
ro b
poli ticians</w>
k ness</w>
he avy</w>
h ell</w>
for ming</w>
fac ed</w>
dr ink</w>
at trac
E x
Chri st
1 5
xi de</w>
vari ety</w>
ill ness</w>
galax ies</w>
far m</w>
ci ence</w>
c at</w>
P ri
th es</w>
s y</w>
s che
o be
k itch
her o</w>
f loo
en gine</w>
c ure</w>
au d
re ached</w>
rapid ly</w>
pre ven
import ance</w>
fund ing</w>
edu ca
c on</w>
Q u
2 1
swit ch</w>
relev ant</w>
organ ic</w>
or ders</w>
hol es</w>
gre en
g ment</w>
expl or
ar d
a i</w>
Su n</w>
wher e
wh el
ti le</w>
rough ly</w>
no w
meth od</w>
ma gn
hospit als</w>
has n</w>
fel low</w>
at ri
valu able</w>
teen ag
sensi tive</w>
mag ne
dou ble</w>
comb ination</w>
an gry</w>
adv ice</w>
Braz il</w>
B rit
4 5</w>
spir it</w>
sp ring</w>
na vi
mani pul
i ve</w>
consi st
3 D</w>
radi ation</w>
proper ty</w>
life time</w>
h a</w>
g on
equi valent</w>
employe es</w>
clo ck</w>
civiliz ation</w>
che ap</w>
bis cu
ac le</w>
Mus ic</w>
Austr alia</w>
te x</w>
te ams</w>
sil ence</w>
mo vements</w>
memor ies</w>
kee ps</w>
h ous
do ws</w>
cle an
bl in
b ol
Ken ya</w>
sour ces</w>
requi red</w>
play er</w>
p ment</w>
logi c</w>
lo ck</w>
kill ing</w>
dimen sional</w>
dep ends</w>
aff ected</w>
P resident</w>
stitu te</w>
s co
over whel
fi sh
b right</w>
a de</w>
vir uses</w>
sym bo
l as
for d</w>
f lies</w>
ex hi
colle ction</w>
adv anced</w>
Y es</w>
F r
stre t
sha me</w>
sen ding</w>
m ouse</w>
c ans</w>
behavi ors</w>
al -
P aul</w>
worl ds</w>
te sts</w>
tal ks</w>
ph r
ke ys</w>
h i</w>
comfor t</w>
challen ging</w>
ad ly</w>
ID S</w>
wea ther</w>
techni ques</w>
pro tot
p ages</w>
op ening</w>
no vel</w>
ne ath</w>
meaning ful</w>
gi ft</w>
feed back</w>
cor al</w>
B ar
su ggest</w>
ja il</w>
insec ts</w>
fossi l</w>
fal se</w>
escap e</w>
emp ty</w>
dy namic</w>
deta il</w>
u ne
rela tively</w>
mo di
manufac turing</w>
m as</w>
att acks</w>
world wide</w>
under neath</w>
pul led</w>
prepar ed</w>
pp er</w>
per ception</w>
org ans</w>
gi cal</w>
environ ments</w>
ent y</w>
ance stors</w>
I I</w>
rema ins</w>
re ci
p id</w>
fundam entally</w>
distribu tion</w>
design er</w>
convin ced</w>
consu mption</w>
clou ds</w>
care fully</w>
aw esome</w>
ab led</w>
G DP</w>
ve ge
u nex
shou l
se es</w>
ref er
re sc
na tion
min ation</w>
in ts</w>
in sur
hou se
engag ed</w>
effec tively</w>
doub t</w>
cred it</w>
cra ft</w>
biscu it</w>
anxi ety</w>
ab str
Can ada</w>
B os
un it</w>
tu mor</w>
poin ted</w>
part ners</w>
oc ca
im migr
dr in
con stant</w>
ar ing</w>
Tim es</w>
P er
I tal
ta ste</w>
t onom
l ay</w>
kitch en</w>
evol utionary</w>
de -
cor tex</w>
co al</w>
ch imp
cen tr
S ou
the ater</w>
rem ote</w>
recei ve</w>
protec ted</w>
play ers</w>
op e</w>
mi x</w>
met al</w>
j ected</w>
happ i
gener ally</w>
for mer</w>
fin ish</w>
fi le</w>
er al</w>
equi pment</w>
epide mic</w>
cl a
algorith m</w>
S we
scen ari
satellit e</w>
na tions</w>
mus eum</w>
hor iz
gh t-
fre sh</w>
v ard</w>
tri ck</w>
st y</w>
ri de</w>
re presents</w>
grap hic</w>
gen i
des per
ca mp</w>
astr onom
20 th</w>
vi a</w>
thin ks</w>
techni cal</w>
te sted</w>
sp orts</w>
sing ing</w>
radi cal</w>
progra m
no tes</w>
mista kes</w>
mista ke</w>
me tri
me at</w>
intro duce</w>
fe atures</w>
fall ing</w>
estab li
ed it
econom ics</w>
ch ose</w>
TE D
E inste
x im
ti red</w>
regi ons</w>
primar y</w>
previ ous</w>
pas s
mar ine</w>
ma ster</w>
le ment</w>
evi l</w>
crimin al</w>
au tonom
ab sor
At lan
A IDS</w>
vie wed</w>
spectr um</w>
mp ed</w>
inf ec
in ev
in equality</w>
grap hy</w>
fe wer</w>
ent ure</w>
d ry</w>
asse mb
ar re
sc ary</w>
mole cule</w>
lin k</w>
it u
introduc ed</w>
fe min
ex pression</w>
di verse</w>
clo thes</w>
H e</w>
Chri sti
techno logical</w>
se v
per s</w>
per man
in sul
bi as</w>
ar m
ap art
T i
S tre
P al
tee th</w>
sur ge
st af
sou l</w>
re place</w>
r hy
libr ary</w>
k ne
jo ined</w>
in dependent</w>
bat tle</w>
Y ou
F e
ro ads</w>
resi li
qu anti
maga zine</w>
do ors</w>
con crete</w>
car ds</w>
can di
bur ning</w>
recy cl
provi ding</w>
pri son
poli cies</w>
mor tality</w>
hi de</w>
el ing</w>
deser t</w>
c ts</w>
acci dent</w>
Fr ance</w>
Eng land</w>
Einste in</w>
w ings</w>
stron ger</w>
staf f</w>
sp here</w>
re mind</w>
qu a
less ons</w>
hon or</w>
fic tion</w>
ex change</w>
appe ars</w>
amoun ts</w>
ad vo
19 5
suff er</w>
su m</w>
re stri
process ing</w>
mathema tical</w>
inf ected</w>
fun d</w>
be lon
awar eness</w>
au tism</w>
M al
Geor ge</w>
sh ir
sc ared</w>
resi stance</w>
re move</w>
pleas ure</w>
physi cally</w>
opp ing</w>
ophi sti
j un
c ross</w>
ba g</w>
an o</w>
T o
S h
M IT</w>
F l
s ophisti
mus cles</w>
molecul ar</w>
min ate</w>
lun ch</w>
contro lled</w>
ci l</w>
camer as</w>
bi a</w>
Jap an
C oun
C a
Amaz on</w>
t asks</w>
reme mb
pl ate</w>
ner ship</w>
mi ss</w>
har m</w>
fle xi
comb ined</w>
ch er</w>
brea the</w>
3 5</w>
x ing</w>
unex p
ri sing</w>
protec tion</w>
ne i
mir ror</w>
eg gs</w>
cor ruption</w>
bor der</w>
youn ger</w>
y outh</w>
writ er</w>
travel ing</w>
su per</w>
str ang
state ment</w>
shap ed</w>
sc an
proper ties</w>
pre dat
f at</w>
dis ci
commit ted</w>
certain ty</w>
car rying</w>
bre ast</w>
Tu be</w>
Ar ab
tempor ary</w>
t at
over come</w>
hous ing</w>
hol ds</w>
dis h</w>
bir th
S pan
N i
Har vard</w>
sel s</w>
sc ar
sa mple</w>
restaur ant</w>
rais ing</w>
r ene
particip ate</w>
metaph or</w>
lo y
g el
fl u</w>
equ ally</w>
de di
The y</w>
T ur
H i
Brit ain</w>
ul l</w>
terr ori
priv acy</w>
p y</w>
out come</w>
or al</w>
ing -
ex ter
consu mer</w>
cen ters</w>
autom a
ath le
allo wing</w>
S cho
K ing</w>
sh ment</w>
sa m
mil k</w>
inter nal</w>
he li
g un
H ol
to i
re ver
nei ther</w>
li ked</w>
ju dge</w>
inv ent</w>
gri d</w>
expla ined</w>
effici ency</w>
cou rage</w>
transi tion</w>
st eri
p il
l -
intellec tual</w>
entreprene urs</w>
dis order</w>
bu ying</w>
bo xes</w>
assu me</w>
ar ts</w>
Fran ci
u ri
ru b
ro ots</w>
recor ds</w>
person ally</w>
mon y</w>
g or
et ings</w>
emb race</w>
disci pl
continu ed</w>
collec ted</w>
c el
b ic
ap par
L et</w>
1 6
- up</w>
vacc ine</w>
sc o</w>
rela tive</w>
r y
pus hing</w>
por tra
occu r</w>
lou d</w>
go ods</w>
dri ver</w>
ch est</w>
alle y</w>
absolu te</w>
M an</w>
B ill</w>
y l
trans formation</w>
tra ge
stu pid</w>
practic es</w>
me -
laun ch</w>
inst all
hy per
go ti
ex press</w>
en able</w>
emer ging</w>
dio xide</w>
de man
co ordin
ch urch</w>
ar my</w>
ac tor</w>
You Tube</w>
stor y
see k</w>
ro t
re ven
qui et</w>
psycho logical</w>
moun tains</w>
f it
en jo
deter mine</w>
S ha
O b
Franci sco</w>
is on</w>
in fl
experi encing</w>
dan ger</w>
L in
- to-
where as</w>
vehic le</w>
us er</w>
th in</w>
sens ors</w>
particip ants</w>
or an
meth ods</w>
large ly</w>
la dies</w>
h ers</w>
gener ated</w>
fu els</w>
fra me
di et</w>
destruc tion</w>
ch rom
appli ed</w>
Japan ese</w>
3 ,000</w>
ye ster
t les</w>
s mile</w>
resour ce</w>
opini on</w>
nor th</w>
mus ici
mil len
me etings</w>
l in</w>
hand le</w>
glo be</w>
es tic</w>
ecosy stem</w>
di gn
cul ar</w>
bud get</w>
F ri
7 5</w>
10 0,000</w>
0 0,000</w>
wor ker</w>
tradi tion</w>
top ic</w>
th care</w>
terr or
fin ger</w>
corpor ate</w>
con stra
M u
H er
Con gress</w>
swi mming</w>
sev ere</w>
run s</w>
recor ded</w>
re comm
pregn ant</w>
po em</w>
ph er
ly mp
lau gh</w>
h all
fil ms</w>
ex pos
emb arr
conven tional</w>
con trac
compon ents</w>
brea thing</w>
Span ish</w>
P i
Musli m</w>
F re
F or
wer ing</w>
w are</w>
surr ounded</w>
puzz le</w>
poe try</w>
ot ed</w>
org an</w>
ne goti
inter view</w>
innov ative</w>
gu il
func tions</w>
conv ince</w>
but ton</w>
bur n</w>
bre ad</w>
aw ful</w>
NA SA</w>
F a
B lack</w>
well- being</w>
v a</w>
pe t</w>
p ack</w>
p ack
out comes</w>
ori ties</w>
mi ssed</w>
in gre
ingre di
h ost</w>
clas ses</w>
W ow</w>
2 .
sch ol
s ca
om es</w>
foun dation</w>
fac tor</w>
expl os
en ted</w>
di scri
di o</w>
d ots</w>
curi osity</w>
Scho ol</w>
R om
C enter</w>
w est</w>
tri als</w>
ta x</w>
s lo
press ing</w>
pres ence</w>
inspi ration</w>
her self</w>
fe eding</w>
dea ths</w>
cu tting</w>
collabor ation</w>
circum stances</w>
appropri ate</w>
agre ed</w>
adver ti
Stre et</w>
Par is</w>
yester day</w>
rhy th
re aching</w>
on i
mit ted</w>
ment ary</w>
mechan ism</w>
inter ests</w>
heal thcare</w>
fru it</w>
exper t</w>
ell o</w>
disa ster</w>
cu mul
con tains</w>
co -
asp ects</w>
acc es
Ric hard</w>
Ger man</w>
1 50</w>
rec ru
pur su
il legal</w>
f r
ex posed</w>
emer gency</w>
cer e
c o</w>
at en</w>
am ed</w>
accur ate</w>
win ter</w>
surve y</w>
supp ose</w>
sk ill</w>
s na
rom an
pre -
mis m</w>
mi gration</w>
incre ases</w>
in o</w>
grand father</w>
econom ies</w>
discus sion</w>
d ates</w>
appli cations</w>
ap p</w>
transpor tation</w>
tox ic</w>
te e</w>
ru pt</w>
per cent
pas sionate</w>
pain ful</w>
hon est
ha m
exp and</w>
es timate</w>
b ones</w>
ad mit</w>
Nig eria</w>
D on
A ra
un known</w>
tol er
suici de</w>
sp ar
ri di
refuge e</w>
pro por
pos t-
li ver</w>
gar den</w>
fra me</w>
el ev
eff orts</w>
dro pped</w>
dra matic</w>
do gs</w>
divi de</w>
dev ast
determin ed</w>
citiz en</w>
as ses</w>
O ne</w>
sec ure</w>
ro of</w>
represen ted</w>
re ward</w>
po wers</w>
imagin ed</w>
der son</w>
bro thers</w>
Chi ca
An gel
1 9</w>
w oo
tane ously</w>
si zed</w>
re solution</w>
privile ge</w>
prin ting</w>
myster y</w>
illu str
engag ing</w>
en sure</w>
co ast</w>
V alley</w>
Chica go</w>
stay ed</w>
st un
ro ot</w>
re ment</w>
ph arm
pedi a</w>
od d</w>
lin ked</w>
ho ods</w>
guar an
gra m</w>
g all
dimen sions</w>
compu ting</w>
cli mb
air plane</w>
S cot
S at
J ames</w>
1 4
wal ks</w>
syn thetic</w>
sophisti cated</w>
sc ore</w>
recogn ized</w>
popul ations</w>
over all</w>
organ ism</w>
off ered</w>
mam m
gro ws</w>
di v
crow d</w>
clos ely</w>
ac tors</w>
Sy ri
J er
t ack
t ables</w>
s outh</w>
pro gre
plan es</w>
l ady</w>
inf ection</w>
i el
hop ing</w>
gu t</w>
aster n</w>
son gs</w>
so ft</w>
of -
j ury</w>
inter actions</w>
frame work</w>
f alls</w>
car ried</w>
brea ks</w>
bor ing</w>
bl ing</w>
bar ely</w>
auth ority</w>
T ru
volu me</w>
un comfortable</w>
swi m</w>
struc k</w>
so -
inven tion</w>
go s</w>
d ust</w>
custom ers</w>
col li
chrom os
cha mp
bor ders</w>
ber g</w>
appreci ate</w>
ac les</w>
a urs</w>
S er
wonder ed</w>
provi ded</w>
photograp hs</w>
it arian</w>
h at
fl at</w>
dra matically</w>
chimp anz
ch ap
C or
Bi g</w>
20 10</w>
techni que</w>
si ties</w>
seas on</w>
r ors</w>
mus ical</w>
measu red</w>
main tain</w>
inter face</w>
instru ment</w>
ign ore</w>
her oes</w>
forma l</w>
dom estic</w>
comb ine</w>
bl u
b allo
2 1</w>
wel come</w>
t all</w>
strugg ling</w>
produc tivity</w>
perfor ming</w>
o tic</w>
m aps</w>
liter ature</w>
inten se</w>
in tri
evol ve</w>
ev ening</w>
cli ck</w>
asp ect</w>
amp ;</w>
21 st</w>
- like</w>
& amp;</w>
wher ever</w>
un usual</w>
terror ism</w>
st ur
ra m</w>
r ab
pro of</w>
p in
open -
no on</w>
newsp aper</w>
lim its</w>
li cen
le f
dri ves</w>
demo cratic</w>
con tain</w>
bus y</w>
app le</w>
L os</w>
survi v
soli d</w>
repor ted</w>
par king</w>
on y
men tion</w>
marke ting</w>
ly wood</w>
jo ke</w>
g ent</w>
de sc
consu mers</w>
bot tle</w>
auth enti
M is
tain ment</w>
standar ds</w>
sh ut</w>
profes sion
presen ted</w>
pre fer
per su
p ort</w>
p es</w>
mp ing</w>
i ed</w>
fru str
fin gers</w>
di str
dep ending</w>
de stin
ci g
c tic</w>
ad mini
An derson</w>
9 9</w>
200 8</w>
under water</w>
the -
succe ed</w>
strang ers</w>
prac tical</w>
percent age</w>
pe ace
l ength</w>
it i</w>
insi ght</w>
dinos aurs</w>
d ay
contr ast</w>
colleag ue</w>
ck y</w>
b a</w>
aff ects</w>
sun light</w>
sa tion</w>
recor ding</w>
po p</w>
occur red</w>
inten ded</w>
fin ance</w>
cr ying</w>
contin ues</w>
com pla
clusi ve</w>
be long</w>
ar ran
acces sible</w>
D on</w>
Ban k</w>
A ll</w>
ro cks</w>
refle ct</w>
h its</w>
gentle men</w>
flo ating</w>
f ears</w>
explan ation</w>
dra wn</w>
direc tor</w>
be have</w>
ad es</w>
H ouse</w>
D o</w>
20 00</w>
we ak</w>
w l</w>
trans formed</w>
sho ot</w>
s in</w>
pl ans</w>
on e
iz es</w>
i Ph
han g</w>
figu res</w>
exi sted</w>
destro yed</w>
Me di
He alth</w>
6 00</w>
win ning</w>
ti tle</w>
sugge sts</w>
se a
preci sely</w>
pre ce
hydro gen</w>
dre w</w>
diagnos ed</w>
cru cial</w>
connec ting</w>
cho os
c ers</w>
W om
Pa ki
ter ies</w>
ste el</w>
or bit</w>
m ess</w>
log ically</w>
hear ts</w>
gui de</w>
ge ograp
fran kly</w>
en ting</w>
a side</w>
W al
Rus sia</w>
20 15</w>
2 2</w>
sk ele
ro cket</w>
pol y
pa tho
multi p
infin ite</w>
imp acts</w>
g li
e pi
distribu ted</w>
destro y</w>
der al</w>
d ary</w>
attemp t</w>
antibio tics</w>
an alo
y ard</w>
swe et</w>
sh all</w>
re cep
quar ter</w>
pros per
p ost</w>
gen u
explor ation</w>
el ine</w>
edu cated</w>
depend ence</w>
de vi
cr y
conserv ation</w>
audi o</w>
ar med</w>
ap es</w>
Mic ha
La tin</w>
5 0,000</w>
ul ty</w>
treat ments</w>
tr uck</w>
psycho logy</w>
philosop hy</w>
p uni
ne ural</w>
medi um</w>
lo cked</w>
ke t
histor ical</w>
h es</w>
for mul
f ed</w>
ell ed</w>
doz en</w>
c kets</w>
bl an
bi om
acade mic</w>
Mo on</w>
In stitute</w>
Bos ton</w>
war s</w>
psy ch
partic le</w>
p apers</w>
lim it</w>
gra b</w>
def ense</w>
cur ve</w>
che ers</w>
celebr ate</w>
ba th
a mi
T hom
M S</w>
Kore a</w>
ste ms</w>
she et</w>
ra p</w>
o id</w>
me d
l uck</w>
horri ble</w>
drin king</w>
dign ity</w>
contribu te</w>
con clusion</w>
con centr
ca ts</w>
bat tery</w>
at tr
M arti
E ver
Ara b</w>
sub -
smar t
sil ent</w>
s and
re moved</w>
proper ly</w>
par aly
p ure</w>
ob st
lun gs</w>
insur ance</w>
gl aci
g ust</w>
friend ly</w>
f at
ev alu
ear th
dia be
di stant</w>
con vic
beli efs</w>
ad ding</w>
St ate</w>
whe el</w>
v an
trau ma</w>
r ar
ma d</w>
four -
fi xed</w>
en han
elec tro
b ers</w>
an atom
al d</w>
Ok ay</w>
I s</w>
D o
vehic les</w>
vacc ines</w>
ton ight</w>
ter ing</w>
ridi cul
pa th
ou ri
os is</w>
mot or</w>
ma s
le st</w>
journ alist</w>
in stin
green house</w>
foc using</w>
flu id</w>
fa ult</w>
er ror</w>
dis play</w>
bub ble</w>
archit ect</w>
all -
aff ord
2 3</w>
zo om</w>
vill ages</w>
ves sels</w>
pro jec
isol ated</w>
inv ite</w>
im er</w>
ide al</w>
g ha
el a</w>
co m</w>
chic ken</w>
ate ful</w>
ac cumul
L E
ul ate</w>
transp ort</w>
ster e
sen ses</w>
s n
rel ate</w>
mi d-
ma ker</w>
labor atory</w>
enz y
e ye
bro wn</w>
apart ment</w>
adap t</w>
wh o
wan ting</w>
un its</w>
ul timate</w>
strate gies</w>
sp reading</w>
some what</w>
recogn ition</w>
re pair</w>
re gre
pl as
pas sing</w>
on ics</w>
ol ds</w>
no where</w>
fun g
fortun ate</w>
birth day</w>
are t
after noon</w>
Pro ject</w>
K e
G i
2 7</w>
tre ating</w>
ter -
surve ill
sla very</w>
shar ks</w>
s per
rene w
pos t
pl ying</w>
person ality</w>
min gly</w>
life -
hor mon
fla g</w>
dol ph
dep end</w>
clin ic</w>
be ach</w>
C en
B l
B G</w>
wit ne
whi st
vi sit
v ag
travel ed</w>
st ag
se l</w>
repe at</w>
obse ssed</w>
lo red</w>
gen ous</w>
g y
f lowers</w>
expec tations</w>
equ ation</w>
col um
cig aret
ca tes</w>
bra ve</w>
ban ks</w>
O s</w>
J es
C ha
vir tu
t ori
surveill ance</w>
pi ano</w>
off ici
ne s
mos quit
it e
invol ves</w>
ing dom</w>
ele ment</w>
concer n</w>
care ful</w>
asi ve</w>
al co
Lo ok</w>
Isra el</w>
wat er
v it
stor m</w>
sha ke</w>
ra ft</w>
pus hed</w>
pos es</w>
para do
organ ize</w>
o rest</w>
mamm als</w>
ma ster
le tting</w>
her o
he imer</w>
dat ab
dar kness</w>
cro ps</w>
confi dent</w>
con clu
appar ently</w>
al ty</w>
P R</w>
O lymp
we igh
unexp ected</w>
trac king</w>
spec tac
sc rat
re turned</w>
provi des</w>
phr ase</w>
neighb or</w>
li zed</w>
le m
i ties</w>
hun ger</w>
hor se</w>
he ight</w>
f are</w>
conven i
con cent
classi c</w>
archit ects</w>
an nu
abstr act</w>
stu dio</w>
ser ves</w>
se as</w>
sac ri
reduc ing</w>
produc es</w>
pri ces</w>
pl enty</w>
per pe
m ou
hun gry</w>
dis appear</w>
dep lo
den sity</w>
den se</w>
che aper</w>
b en
Wi ki
We b</w>
S ep
P S</w>
Egyp t</w>
- based</w>
vis ited</w>
sp ort</w>
pri me</w>
p en</w>
on ing</w>
o logists</w>
n in
lun g</w>
institu tion</w>
gran ted</w>
g ated</w>
fi ve-
expl oring</w>
ex tent</w>
engag ement</w>
dec line</w>
collap se</w>
cle ver</w>
char t</w>
cap tured</w>
c us
achiev ed</w>
accep ted</w>
Micha el</w>
A ri
200 9</w>
v ital</w>
v an</w>
ti s</w>
te a</w>
sam ples</w>
re ments</w>
rap id</w>
ran dom
objec tive</w>
las er</w>
k ic
journ alists</w>
educa tional</w>
bic y
ac compli
Sat ur
0 0-
z heimer</w>
tr end</w>
su rely</w>
str ing</w>
perman ent</w>
o ids</w>
in ju
in ations</w>
hear t
he a
glob ally</w>
ge ome
et ro
embarr as
dan cing</w>
d ges</w>
cry st
contro ver
con stitu
com e
c ents</w>
am i</w>
T ex
I ran</w>
H i</w>
Char les</w>
Al zheimer</w>
wor thy</w>
victi m</w>
tim ated</w>
ta tive</w>
t ears</w>
spir it
ra w</w>
ra dic
off icial</w>
mi es</w>
instruc tions</w>
in car
identi cal</w>
har m
es timated</w>
commit ment</w>
boun dar
bom b</w>
ap o
alco ho
M at
CE O</w>
Angel es</w>
writ ers</w>
sym me
s can</w>
reg ard
regard less</w>
ow ned</w>
lo aded</w>
l ens</w>
instru ments</w>
inclu des</w>
gh ten
foun ded</w>
es sion</w>
divi ded</w>
cre ature</w>
conserv ative</w>
cli mb</w>
chron ic</w>
cho col
c ry</w>
boundar ies</w>
bl ed</w>
be e
appli cation</w>
an ticip
ab und
Ste ve</w>
M ary</w>
B a
1 3
z a</w>
whe el
un g</w>
sto res</w>
spl it</w>
so- called</w>
sear ching</w>
reduc ed</w>
posi tions</w>
pe ak</w>
mean while</w>
loo p</w>
impli cations</w>
identi fied</w>
fe ature</w>
en tr
dir ty</w>
compon ent</w>
co ol
capit alism</w>
tor ies</w>
stran ger</w>
shir t</w>
see ds</w>
reve al</w>
re verse</w>
is es</w>
iPh one</w>
for m
elec tions</w>
ec ting</w>
doz ens</w>
cop es</w>
construc t</w>
con fir
che str
camp us</w>
b low</w>
b age</w>
Thom as</w>
Ob ama</w>
M ay
19 th</w>
trans late</w>
tici an</w>
thre ats</w>
st ops</w>
protec ting</w>
pha se</w>
para dig
par ties</w>
o de</w>
micros cope</w>
medi cation</w>
insp iring</w>
ign or
ha bit</w>
frequ ency</w>
emp ha
di alo
d ating</w>
consist ent</w>
con sul
bo w</w>
addi tional</w>
Tex as</w>
Tal k</w>
G ener
y ours</w>
transpar ency</w>
tou ched</w>
sub jects</w>
smo ke</w>
ske p
sing ly</w>
sho ck</w>
pat ent</w>
ong st</w>
in d
immedi ate</w>
i ly</w>
gr and</w>
de pressed</w>
d ding</w>
coo king</w>
argu ments</w>
am ongst</w>
aci fic</w>
St an
Dar win</w>
Afri cans</w>
A R
ver ies</w>
u te</w>
t ability</w>
squ e
spea kers</w>
scenari o</w>
real -
per si
pa int
neighbor hoods</w>
mp tions</w>
me mb
leg acy</w>
lat est</w>
har dly</w>
func tional</w>
ful l-
foot ball</w>
fif th</w>
en a</w>
econom ists</w>
deli vered</w>
contr act</w>
arti cles</w>
an -
afford able</w>
Uni on</w>
O c
B en
wh ales</w>
w ire</w>
w ine</w>
th ick</w>
s in
re st
re plac
re act</w>
pen gu
lay ers</w>
inve sting</w>
insp ire</w>
help ful</w>
go od
fi re
fer ti
cr ash</w>
collec ting</w>
chi p</w>
bol a</w>
P acific</w>
D u
Ale x
200 7</w>
y o
trans forma
the ories</w>
ta g</w>
sh opping</w>
s ki
repor ts</w>
re pu
ra mi
pl ed</w>
per mission</w>
pa use</w>
op h
od ds</w>
nur ses</w>
meas uring</w>
me al</w>
integr ated</w>
hal f-
ga ther</w>
fish er
ex ha
ene my</w>
conf used</w>
chan ces</w>
bla me</w>
automa tically</w>
Sep te
D is
D en
v est</w>
u gly</w>
tr uc
thro wn</w>
simil arly</w>
sel ection</w>
p y
offic er</w>
mic s</w>
li kes</w>
it ting</w>
exp on
et ary</w>
es tion</w>
di stur
de partment</w>
concep ts</w>
ca ve</w>
ca sh</w>
ca ble</w>
bi ke</w>
att ached</w>
Septe mber</w>
C he
we al
te en</w>
si sters</w>
roman tic</w>
rar ely</w>
pre fer</w>
ph an
n els</w>
ma gical</w>
itu de</w>
dro ve</w>
docu ments</w>
descri p
dedi cated</w>
c up</w>
b att
accoun ts</w>
Li fe</w>
J os
A c
z en</w>
y iel
teles cope</w>
stra igh
reli able</w>
pic king</w>
pas sen
magne tic</w>
l o</w>
is tics</w>
inter acting</w>
i ous</w>
emb rac
ear n</w>
deli very</w>
de serve</w>
cha os</w>
b alls</w>
augh ters</w>
adv ance</w>
a do
S ar
H en
E bola</w>
1 2
un certainty</w>
ti p</w>
the me</w>
str eng
spea ker</w>
s lu
rou te</w>
po ol</w>
po cket</w>
per cep
oran ge</w>
my th</w>
li ft</w>
initi al</w>
i ons</w>
geni us</w>
fail ing</w>
f ear
dis rup
deb t</w>
cu te</w>
con tra
comp rom
assu mptions</w>
Ne w
G lo
F i
ve ter
st ations</w>
sle eping</w>
rac ism</w>
presen tation</w>
pit ch</w>
par alle
paralle l</w>
ou ter</w>
m ice</w>
life style</w>
ir on</w>
inve stors</w>
inclu ded</w>
in jury</w>
in formed</w>
fo ods</w>
fe deral</w>
elec ted</w>
des k</w>
cli p</w>
behavi oral</w>
ab or
S un
R os
Gre ek</w>
G ol
to y</w>
sto red</w>
spea ks</w>
smar ter</w>
robo tic</w>
pur cha
p ed</w>
p ace</w>
op posed</w>
mechan ical</w>
industri es</w>
habit at</w>
fle w</w>
fil ter</w>
fi res</w>
establi shed</w>
enter tainment</w>
consu me</w>
b oss</w>
ax is</w>
an ony
R u
J une</w>
Inter national</w>
Afri can
vir al</w>
univer sities</w>
under ground</w>
til ity</w>
thi er</w>
sustain ability</w>
spirit ual</w>
shar k</w>
ri ce</w>
remin ded</w>
re less</w>
op ia</w>
inv ent
ill usion</w>
hi p
he al</w>
gr ay</w>
g ments</w>
fascin ated</w>
f rac
exc ell
end a</w>
eleph ant</w>
electr onic</w>
eg g</w>
dri vers</w>
d ated</w>
consequ ence</w>
con ve
co w</w>
cli ents</w>
ca ta
b ill</w>
X -
R a
Paki stan</w>
M R
B ur
u pper</w>
surpri singly</w>
shoul der</w>
r us
pul ling</w>
os en</w>
nam ics</w>
min ated</w>
micro bi
meas ures</w>
main ly</w>
lim it
li ed</w>
hu mor</w>
gr ounds</w>
fli p</w>
f ought</w>
exter nal</w>
en tered</w>
eleph ants</w>
cla im
choos ing</w>
back wards</w>
V ir
Sa har
R wan
R evolution</w>
M in
E d
volunte ers</w>
tic a</w>
suppor ted</w>
re in
ra ys</w>
power ed</w>
nar row</w>
li c
la be
kill er</w>
immigr ants</w>
hot el</w>
ha m</w>
g ence</w>
em bed
direc tions</w>
diabe tes</w>
design s</w>
de gra
chocol ate</w>
bri ef</w>
announ ced</w>
ag ency</w>
No bel</w>
Hol lywood</w>
F in
Christ mas</w>
B al
vi br
under lying</w>
trage dy</w>
ten sion</w>
t less</w>
respon ses</w>
reco ver</w>
re form</w>
r ent</w>
prin ted</w>
on al</w>
liber al</w>
intu itive</w>
hom eless</w>
fin ger
es the
dis orders</w>
ali en</w>
Wil li
T om</w>
T e
Atlan tic</w>
19 4
vir tually</w>
tri gg
sh ell</w>
se ssion</w>
sav ings</w>
satellit es</w>
sac red</w>
ri vers</w>
re ti
progra mming</w>
pro to
pro per</w>
pan de
oun d
ol dest</w>
near by</w>
mi ze</w>
mechan isms</w>
li ve
lap top</w>
la id</w>
h ire</w>
h ello</w>
gr ateful</w>
diagnos is</w>
cir cles</w>
U K</w>
R IS
Par k</w>
H ere</w>
tri gger</w>
ta p</w>
t ag
see king</w>
se ven
pre p
pl om
pi lot</w>
p lot</w>
mi ser
lo ving</w>
ligh ting</w>
in put</w>
i um</w>
fe a
encoun ter</w>
el se
di an</w>
bu ried</w>
aw k
ad ing</w>
T a
Rob ert</w>
P M</w>
J im</w>
- scale</w>
vot ing</w>
u ary</w>
teenag ers</w>
ta x
surge on</w>
suff ici
signific antly</w>
sh ore</w>
se ed</w>
scho ol
sal t</w>
ref erence</w>
qu it</w>
prep are</w>
plan ted</w>
mind set</w>
fri ghten
for gotten</w>
fig uring</w>
ec e</w>
discri mination</w>
car ing</w>
ash es</w>
arre sted</w>
agri cultural</w>
Wiki pedia</w>
B ang
An tar
tu be</w>
toi let</w>
ti ll</w>
threat ened</w>
the less</w>
th us</w>
spo ken</w>
pol ar</w>
po orest</w>
pain ted</w>
ori gin</w>
nutri ents</w>
nu mer
monit or</w>
met abo
j ac
ima ging</w>
hard ware</w>
grap h
for cement</w>
else where</w>
dis ability</w>
d aughters</w>
ch osen</w>
arri ve</w>
arch y</w>
ace u
a ment</w>
S ch
P en
N G
D ay</w>
wit ness</w>
un able</w>
sh ops</w>
se y</w>
ra ti
r ape</w>
qu est</w>
preci se</w>
p hi
ob serve</w>
navi gate</w>
n ings</w>
motiv ated</w>
mb ling</w>
luc ki
l ers</w>
impro vement</w>
fav or</w>
ex pres
dis ap
cy ber
con cei
character istics</w>
bene ath</w>
auth or</w>
a tives</w>
Wh ite</w>
P u
Marti n</w>
M oun
Jan uary</w>
F oun
Cen tral</w>
A h</w>
6 5</w>
yp es</w>
wil d
un t</w>
ul f</w>
ter rit
tech n
tal ent</w>
t led</w>
t ape</w>
survi ved</w>
sp ots</w>
smo king</w>
resi stant</w>
prom ote</w>
origin ally</w>
nutri tion</w>
nec k</w>
my steri
mi a</w>
m ac
law yers</w>
k i</w>
ho li
han ded</w>
gi ble</w>
g ases</w>
cri tici
co ck
chan nel</w>
S he</w>
E l
C i
9 5</w>
was h</w>
tar ge
rema ining</w>
rac ial</w>
profession als</w>
pol lu
pl er</w>
ot a</w>
multi -
min im
li an</w>
il le</w>
han ging</w>
flexi ble</w>
far mer</w>
exhi bi
eth ical</w>
emer ge</w>
earth qua
do t</w>
cir cul
b by</w>
D an
C al
wee k
ul ous</w>
ti an</w>
thir ds</w>
symbo l</w>
sugge sted</w>
suff ered</w>
stron au
sen ior</w>
sal es</w>
reco very</w>
reason able</w>
r yp
pros ecu
prof its</w>
prison ers</w>
mon keys</w>
mar gin
ke y
go ds</w>
fr action</w>
fac ial</w>
e es</w>
d am
cor d</w>
construc ted</w>
com man
ans wered</w>
ang les</w>
ali gn
al ga
a stronau
K i
C l
Arab ic</w>
A l</w>
- making</w>
tu m
sho oting</w>
ridicul ous</w>
quar ters</w>
paradig m</w>
paint ings</w>
or chestr
op ens</w>
h att
govern ance</w>
gon na</w>
flo wer</w>
fin ds</w>
f ts</w>
dre ss</w>
docu ment</w>
discus s</w>
d ur
cor respon
concer ns</w>
co in</w>
bro w
b ags</w>
Musli ms</w>
D ec
Ap ple</w>
201 2</w>
. com</w>
- and-
z ar
ver tical</w>
ti ze</w>
ti ed</w>
t y-
sculp ture</w>
ro lling</w>
resili ence</w>
protot ype</w>
pro pos
p ing</w>
neuros cience</w>
mon key</w>
manag er</w>
list ened</w>
lef t-
lan ce</w>
k er
interest ingly</w>
hormon es</w>
honest ly</w>
fra u
di c</w>
de ly</w>
de fe
com mod
collec tively</w>
bub bles</w>
after wards</w>
Z i
M ini
H om
3 0s</w>
ti se</w>
t ary</w>
prob ability</w>
predic ted</w>
out put</w>
millen ni
lim b</w>
inve sted</w>
inter active</w>
ingredi ents</w>
gradu ally</w>
gl asses</w>
fund ed</w>
frequ ently</w>
expan ding</w>
der ly</w>
deli ber
d ential</w>
cata stro
ca tal
blo g</w>
be sides</w>
b ound</w>
W at
Man hatt
J en
African -
8 0s</w>
6 0s</w>
u ps</w>
ti e</w>
sta irs</w>
st ones</w>
si de
sh ine</w>
s ne
represen tation</w>
rela tions</w>
psy chi
p ort
p es
optimi stic</w>
mir acle</w>
ment ally</w>
mechan ics</w>
ma tion</w>
lo cated</w>
licen se</w>
less ly</w>
laugh ing</w>
incenti ves</w>
fi ber</w>
far ms</w>
expos ure</w>
exper tise</w>
ess ence</w>
embed ded</w>
disco veries</w>
compe te</w>
co ok</w>
bl ack
ber t</w>
al ong
ag encies</w>
T it
S al
Manhatt an</w>
Glo bal</w>
De partment</w>
4 ,000</w>
z i
work place</w>
tu s</w>
sens ory</w>
safe ly</w>
sa fer</w>
restri c
re r</w>
predic tions</w>
pre mi
photograp hy</w>
pharm aceu
om in
o v
medic ines</w>
m on</w>
k le</w>
gra in</w>
g mented</w>
g a</w>
fab ric</w>
ed ly</w>
ecosy stems</w>
dic t
corpor ations</w>
carto on</w>
b ars</w>
ash ing</w>
adverti sing</w>
Ri ver</w>
A s</w>
201 1</w>
t ap
t ab
st ages</w>
sp in</w>
sil k</w>
separ ated</w>
sacri f
pri ze</w>
predic table</w>
pi le</w>
motiv ation</w>
inev itable</w>
incar cer
h all</w>
gun s</w>
ge ous</w>
f illing</w>
ex cep
ev el
en e</w>
ec raft</w>
d ose</w>
c ran
barri er</w>
analy ze</w>
along side</w>
activi sts</w>
Foun dation</w>
D emo
Be cause</w>
vac u
tack le</w>
t an</w>
stro ke</w>
stay ing</w>
sh u
see mingly</w>
scri pt</w>
sc ales</w>
s ect</w>
re placed</w>
preci ous</w>
occur s</w>
nur se</w>
lucki ly</w>
ligh t
l ined</w>
k ni
indi genous</w>
hi cal</w>
head ed</w>
h ill</w>
guil ty</w>
fro zen</w>
fe males</w>
di plom
di g</w>
curr ency</w>
coun ting</w>
comm it</w>
bath room</w>
agre ement</w>
a ks</w>
W here</w>
Swe den</w>
S D</w>
P hi
Mus eum</w>
D etro
Ad am</w>
weap on</w>
wat ers</w>
suppor ting</w>
success fully</w>
sk y
simul taneously</w>
shel ter</w>
se t
resc ue</w>
re actions</w>
py rami
proce d
physici st</w>
percei ve</w>
o ci
ni ght
mi xed</w>
lo vely</w>
li ze</w>
law yer</w>
k is
ili con</w>
house hold</w>
horiz on</w>
gr ass</w>
gr ab
gl am
flo ws</w>
dr ome</w>
competi tive</w>
co operation</w>
char ged</w>
be e</w>
at tribu
W all</w>
S ilicon</w>
Rus sian</w>
R ome</w>
Je wish</w>
E m
Ar ctic</w>
A s
7 0s</w>
win dows</w>
wi dely</w>
w age</w>
transpar ent</w>
terri fying</w>
stere ot
short -
re son
perfor med</w>
o logist</w>
mer ely</w>
mb s</w>
j i
initi ally</w>
hypo the
h ac
gu ard</w>
far ming</w>
er adi
distri ct</w>
d al</w>
contro lling</w>
co vering</w>
bio logists</w>
appro aches</w>
alga e</w>
Sou thern</w>
O ce
MR I</w>
G al
G PS</w>
tissu es</w>
thro wing</w>
si vely</w>
ner ve</w>
nee dle</w>
mysteri ous</w>
lo ves</w>
le sc
it ate</w>
in tr
extr act</w>
extin ction</w>
e ments</w>
dialo gue</w>
con fron
clo thing</w>
civi c</w>
bur ned</w>
bra in
ac tively</w>
L ou
B C</w>
20 s</w>
vo ca
three- dimensional</w>
ske t
s its</w>
prosper ity</w>
primar ily</w>
pre h
peri ods</w>
par tly</w>
mo od</w>
impro ved</w>
f usion</w>
ep is
contro ls</w>
contra dic
at titude</w>
adop ted</w>
S tu
Re publi
Isla m</w>
C an</w>
C A
9 0s</w>
year- olds</w>
up set</w>
thri ve</w>
the ore
sti cks</w>
sk ull</w>
s now</w>
ri st</w>
rel ation</w>
reduc tion</w>
re efs</w>
re ads</w>
qu ali
organ izing</w>
on a
offici als</w>
obe sity</w>
o th
neu tr
legi sl
hi er
ful ness</w>
di ver
d os
d entally</w>
communi cations</w>
bo ards</w>
as ing</w>
ari ties</w>
alcoho l</w>
ag enda</w>
adv enture</w>
P or
P ol
P an
Gre en
D el
201 4</w>
200 5</w>
20 ,000</w>
wi red</w>
wh ale</w>
volunte er</w>
un believ
to wer</w>
ti zed</w>
sent ences</w>
secre ts</w>
s sions</w>
s or</w>
ro les</w>
research er</w>
re store</w>
pro posed</w>
oper ations</w>
n -
men tation</w>
mat ri
imp le
im mer
i P
gu ess
gi le</w>
en th
e ks</w>
de ar</w>
datab ase</w>
cor als</w>
autonom ous</w>
as sa
ab and
K .</w>
Ha iti</w>
G o</w>
E thi
C ap
wi reless</w>
sub tle</w>
su bur
sper m</w>
sou thern</w>
sh ri
secon dly</w>
r ings</w>
po et</w>
ow nership</w>
or -
mi dd
mb led</w>
k ick</w>
ig no
har vest</w>
happi er</w>
glob alization</w>
explos ion</w>
ex tend</w>
enter ing</w>
el ed</w>
cr ac
confli cts</w>
ci enti
cap ability</w>
bi c</w>
N ations</w>
Joh n
A m
2 6</w>
wi d
ta ining</w>
surviv ors</w>
sum mar
sub stance</w>
sh ots</w>
s er</w>
real istic</w>
phil anthro
ow ner</w>
ne st</w>
lan ded</w>
insi ghts</w>
he avi
ec tive</w>
dis appeared</w>
de adly</w>
d les</w>
conver t</w>
barri ers</w>
b y-
attr act</w>
ast oni
an no
ag er</w>
Wh o</w>
U gan
Rwan da</w>
H am
F or</w>
y n
vol can
tra jec
tex t
ta ined</w>
t our</w>
symme try</w>
stron gly</w>
stom ach</w>
ssi vely</w>
rob ust</w>
publi c
prop ag
po int
plat forms</w>
pi one
na ked</w>
musici ans</w>
m m</w>
heal ing</w>
g os
fi red</w>
exc it
en forcement</w>
el ite</w>
ech no
e ded</w>
domin ant</w>
cos mo
conduc ted</w>
accep table</w>
Vi et
Stan ford</w>
G han
D A</w>
201 6</w>
tr ends</w>
top s</w>
th al</w>
sur faces</w>
st ure</w>
spectac ular</w>
opini ons</w>
nor thern</w>
gene tics</w>
f an</w>
emer ged</w>
electr onics</w>
di ve</w>
dama ged</w>
d ency</w>
circu it</w>
char ity</w>
ca ke</w>
c us</w>
as pi
ar cha
appe ar
ado lesc
a is
V en
G r
C u
B on
ver sions</w>
tri cks</w>
t ell
so ap</w>
ro gen</w>
repu tation</w>
rememb ered</w>
religi ons</w>
poin ting</w>
oc curr
mi li
metri c</w>
liter acy</w>
lea p</w>
l aughter</w>
impro ving</w>
im men
hop es</w>
h il
grand children</w>
go d</w>
fra gile</w>
fi es</w>
fa st
es is</w>
electr ons</w>
dep th</w>
dec lar
cu ts</w>
cr ack</w>
cor n</w>
comm ents</w>
col ony</w>
chap ter</w>
categ ory</w>
campai gn
bar re
b o</w>
amp li
al izing</w>
Wom en</w>
Pri ze</w>
Is land</w>
Bu dd
8 00</w>
3 2</w>
war ning</w>
v a
u ti
truc ks</w>
trans mission</w>
ta il
sugge sting</w>
sco res</w>
real m</w>
ra tions</w>
pre serve</w>
k ens</w>
infec tions</w>
hypo thesis</w>
heal thier</w>
gl ad</w>
fun ds</w>
extin ct</w>
ei gh
dre ssed</w>
disp os
dec re
categ ories</w>
bur den</w>
bro ad</w>
attrac tive</w>
a to</w>
V er
Ph il
Pe ter</w>
Pal est
w ill
une mp
tun e</w>
tradi tions</w>
ti les</w>
tar gets</w>
spin al</w>
ro ws</w>
rela tives</w>
proced ure</w>
pro file</w>
pregn ancy</w>
pre scri
particip ation</w>
memb ran
mar ry</w>
jus ti
ic a</w>
gi a</w>
gather ed</w>
gar d
diffic ulty</w>
con temporary</w>
challen ged</w>
can e</w>
bo di
be gun</w>
be er</w>
ballo on</w>
auth or
air craft</w>
Z e
Car ol
197 0s</w>
trans fer</w>
sti g
shif ting</w>
sh r
ser ver</w>
s .</w>
revol u
r on</w>
r o</w>
pande mic</w>
or a</w>
of t</w>
ne ys</w>
mis sion
mar i
ma il</w>
lu x
knowle d
in ch</w>
il es</w>
ignor ance</w>
ha bits</w>
graph ics</w>
gol den</w>
gar bage</w>
g al</w>
f its</w>
f ancy</w>
expan sion</w>
er ce</w>
en abled</w>
ed ges</w>
e ball</w>
cha irs</w>
bacter ial</w>
bac ks</w>
addic tion</w>
Sp ace</w>
S pain</w>
Ital y</w>
Fl ori
Don ald</w>
B ab
Alex an
un likely</w>
tr ash</w>
titu des</w>
teles copes</w>
t ar</w>
t ant</w>
su gg
story telling</w>
stor age</w>
ste al</w>
st ly</w>
st ine</w>
sion ally</w>
s mil
reve aled</w>
rema ined</w>
physici sts</w>
pan els</w>
pa irs</w>
oun dly</w>
off ers</w>
off ering</w>
m o</w>
eth n
enc ryp
el derly</w>
dis abled</w>
diag ram</w>
d i</w>
d ele
consi der
comb at</w>
calcul ate</w>
bo ld</w>
Syri a</w>
P T
N a
A re</w>
198 0s</w>
1 0-
vari ation</w>
tr apped</w>
thre w</w>
terrori st</w>
sli des</w>
sho cked</w>
she ep</w>
ri cher</w>
rhyth m</w>
re con
re build</w>
in stantly</w>
ima gery</w>
identi ties</w>
hi ding</w>
gra ms</w>
foot print</w>
ema ils</w>
edu cate</w>
clu b</w>
climb ing</w>
chimpanz ees</w>
catastro p
au r</w>
appro xim
Sec ond</w>
P ole</w>
Mic ros
Flori da</w>
Col um
B ron
200 6</w>
was hing</w>
w ound</w>
ver s
v y</w>
un k</w>
ul tra
to ber</w>
t i</w>
sy mb
struc tural</w>
ster ed</w>
smart phone</w>
rou t
reven ue</w>
resi dents</w>
pri de</w>
parado x</w>
p ound</w>
p ink</w>
offic ers</w>
ob served</w>
m -
lo cations</w>
ju mped</w>
hon ey</w>
fir st-
fac ility</w>
fa thers</w>
exten ded</w>
experim ental</w>
distin ct</w>
demonstr ate</w>
clos ing</w>
cal ories</w>
bu cks</w>
bicy cle</w>
annu al</w>
Ugan da</w>
Oc tober</w>
Isla mic</w>
B ay</w>
y ment</w>
vie wing</w>
v able</w>
un cle</w>
tra gic</w>
tal s</w>
st or</w>
sp an</w>
sm alle
smalle st</w>
simul ation</w>
sha dow</w>
ri ght-
recei ving</w>
re tin
pro test</w>
previ ously</w>
ki lo
intu ition</w>
gri ef</w>
gen s</w>
gather ing</w>
g aps</w>
frustr ated</w>
f ted</w>
excit ement</w>
en ables</w>
e ast</w>
decre ase</w>
deci sion
comp ounds</w>
clai ms</w>
chi ef</w>
candi date</w>
believ es</w>
au to
arti stic</w>
ambi tious</w>
ad ays</w>
Tru mp</w>
Oce an</w>
M om</w>
M ari
G ulf</w>
Detro it</w>
2 50</w>
. 5</w>
vulner ability</w>
tra its</w>
to w
tion -
t one</w>
surr ounding</w>
si zes</w>
real izing</w>
radic ally</w>
predat ors</w>
poli o</w>
par as
now adays</w>
mo de</w>
mat ure</w>
l ot
har dest</w>
fir m</w>
fac tories</w>
equ ity</w>
end less</w>
dy namics</w>
cul tiv
controver si
comple ted</w>
b iting</w>
atom ic</w>
ag ue</w>
V o
P A</w>
G ra
vacu um</w>
trac ks</w>
tele phone</w>
symb ols</w>
soldi er</w>
soci ally</w>
s ink</w>
re view</w>
prece den
percei ved</w>
observ ation</w>
neur on</w>
ne ts</w>
lon ely</w>
k o</w>
it er</w>
intri gu
interven tion</w>
inno cent</w>
in justice</w>
guaran tee</w>
fre sh
en tation</w>
en de
e ter
e go</w>
cre w</w>
coun tless</w>
cos mic</w>
cop ic</w>
by e</w>
break fast</w>
bil li
ap plying</w>
an e</w>
S ol
Mar ch</w>
M os
M ad
L ord</w>
J ust</w>
B re
y al</w>
un preceden
traff ic
temper atures</w>
ta tional</w>
st ability</w>
sil ly</w>
re minds</w>
pursu e</w>
pi g</w>
pe ers</w>
p ir
p ap
lin ks</w>
li ament</w>
jud gment</w>
ite ms</w>
innov ations</w>
im migration</w>
gu id
grand parents</w>
gen oci
expla ins</w>
exhibi tion</w>
ex trac
encoura ged</w>
de al
consci ously</w>
concent ration</w>
ce iling</w>
bin ary</w>
activi st</w>
T er
M or
Hen ry</w>
D a
Christi an</w>
201 3</w>
wa i
v ation</w>
unpreceden ted</w>
syn drome</w>
sta tic</w>
sing le-
shar p</w>
sh or
rou gh</w>
que en</w>
prof oundly</w>
pan el</w>
overwhel ming</w>
on ds</w>
o red</w>
ni ghts</w>
min ating</w>
ma xi
lin ear</w>
l ining</w>
inter n
ini an</w>
im provi
harm ful</w>
h itting</w>
grav it
f es
excell ent</w>
enth usi
devast ating</w>
cros s-
comm un
co lored</w>
b adly</w>
avo i
anthro po
aggre ssive</w>
activ ate</w>
T ri
T or
P le
N ic
Micros oft</w>
Con go</w>
A b
work force</w>
teenag er</w>
tan k</w>
super -
st abili
ref er</w>
reci pe</w>
pro ved</w>
prepar ing</w>
on a</w>
obst acles</w>
min ing</w>
min d-
k in</w>
jec tion</w>
high way</w>
heli cop
gene tically</w>
femin ist</w>
f ate</w>
ex pedi
e fly</w>
custom er</w>
cros sing</w>
cr us
com preh
ci ous</w>
chi ps</w>
chec k
cha ins</w>
cap abilities</w>
cal m</w>
bla h</w>
anima tion</w>
anatom y</w>
an ni
W ay</w>
So vi
N at
La b</w>
Gener al</w>
wo ke</w>
wheel chair</w>
to ys</w>
sub si
st ays</w>
refle ction</w>
re d
pri or</w>
pri mi
pl ing</w>
pi x
physici an</w>
par ks</w>
observ ations</w>
midd le-
mach in
li sm</w>
li a</w>
in clusive</w>
home work</w>
gener ating</w>
ga ined</w>
g ant</w>
fast est</w>
expla ining</w>
enter pri
ell a</w>
earthqua ke</w>
crimin als</w>
cri mes</w>
cer ti
bas eball</w>
b ats</w>
at om</w>
al a</w>
ai m</w>
ag ents</w>
aband oned</w>
T ra
Qu e
Phi li
M er
Li b
Ghan a</w>
E astern</w>
A sian</w>
A ir
A ct</w>
v ice</w>
stri ke</w>
speci alized</w>
sand w
s ins</w>
repe ti
pro pose</w>
pre y</w>
pre scrip
photograp her</w>
pe er</w>
p al</w>
o ked</w>
mo bility</w>
marke t
igno red</w>
hall uc
gan g</w>
fl ouri
fail ures</w>
emb ry
desper ately</w>
conclu de</w>
com ment</w>
clos est</w>
capit a</w>
b ble</w>
as sign
al right</w>
adap ted</w>
ac qui
S en
M ay</w>
D C</w>
8 5</w>
20 50</w>
2 9</w>
we ed</w>
vege tables</w>
transl ation</w>
tran sc
tr ace</w>
ten ds</w>
susp ect</w>
sil ver</w>
rub ber</w>
ro of
read ers</w>
rap ed</w>
r ose</w>
predic tion</w>
preci sion</w>
physici ans</w>
philosop her</w>
nit ure</w>
mosquit oes</w>
mom en
minim um</w>
l ls</w>
ju di
inter viewed</w>
human -
hea ven</w>
e aten</w>
dri ll</w>
docu mented</w>
dis gu
der i
d ul
compar ison</w>
co ast
camp s</w>
c ker</w>
blo wing</w>
believ ing</w>
authenti c</w>
audi ences</w>
appro ached</w>
advo cate</w>
ac knowledge</w>
O x
7 00</w>
weal thy</w>
the ast</w>
stopp ing</w>
spi der</w>
renew able</w>
puni shment</w>
pu mp</w>
psycho logists</w>
pro ven</w>
po is
pharmaceu tical</w>
out break</w>
occa sionally</w>
na tives</w>
mus h
mos pher
momen tum</w>
mi x
measu rements</w>
may or</w>
limit ations</w>
li hood</w>
la bel</w>
k it</w>
influ enced</w>
ili ties</w>
hi red</w>
g ating</w>
fron tal</w>
ferti liz
fac ilities</w>
execu tive</w>
ex ception</w>
eli minate</w>
echno logy</w>
ec k</w>
coun ter</w>
cou ples</w>
correc tly</w>
chan nels</w>
candi dates</w>
blo ck
an cing</w>
air port</w>
ac he</w>
T re
S cience</w>
L ar
H un
C RIS
Ban g</w>
B I</w>
200 3</w>
2 8</w>
. D
vot ers</w>
ven ess</w>
ve mber</w>
v ity</w>
sub jec
stre ss
sque e
some day</w>
so le
shri mp</w>
sh it</w>
scre aming</w>
robo tics</w>
regul ation</w>
primi tive</w>
pla in</w>
mar ks</w>
lo an</w>
ju ana</w>
hun ting</w>
he mi
fur niture</w>
eri an</w>
engine ered</w>
detec tion</w>
bur st</w>
bri efly</w>
bran ches</w>
bl ings</w>
be ars</w>
assu mption</w>
ass ment</w>
appro ved</w>
app s</w>
ap or
al lies</w>
P r
Or gan
Jes us</w>
D an</w>
C .</w>
Au gust</w>
z z</w>
witne ssed</w>
v as
than e</w>
six -
sen ds</w>
scrat ch</w>
qui to</w>
pyrami d</w>
pur poses</w>
publi sh</w>
pleas ant</w>
men ting</w>
medi cations</w>
li fel
inten sive</w>
imp lement</w>
human itarian</w>
gradu ated</w>
fol ding</w>
dom ain</w>
di lem
di am
bi zar
assemb ly</w>
asse ts</w>
U. K.</w>
T w
T o</w>
N ot</w>
H on
Fri day</w>
Fran k</w>
Ethi opia</w>
B el
200 4</w>
wor e</w>
wi der</w>
w rest
tra p</w>
ti ps</w>
suffici ent</w>
ste pped</w>
spac ecraft</w>
simpli city</w>
s wal
reg ularly</w>
prin ts</w>
non profit</w>
newsp apers</w>
mos quito</w>
me ta
ma ke
m ort
inf ant</w>
i ans</w>
gro cer
fri ger
expec ting</w>
exc use</w>
esti mates</w>
er o
entreprene ur</w>
earli est</w>
di um</w>
deman ds</w>
decision -making</w>
continu ous</w>
comp elling</w>
classi cal</w>
che ese</w>
char ges</w>
bru ary</w>
blo wn</w>
blan k</w>
bi ases</w>
appear ance</w>
appe aring</w>
and a</w>
ama z
N et
Fe bruary</w>
E mp
200 1</w>
, 500</w>
to bac
than k
ter ror</w>
syn the
smo oth</w>
si blings</w>
sens or</w>
sch iz
ri cul
repor ting</w>
qu alities</w>
pengu ins</w>
peace ful</w>
min es</w>
lec ture</w>
le ep</w>
lab s</w>
la ke</w>
l an</w>
kne e</w>
k ton</w>
indi ca
in timate</w>
i le</w>
histor ic</w>
ha n</w>
foun d
for got</w>
fac tion</w>
e mber</w>
deta iled</w>
def end</w>
cr it
controversi al</w>
co ach</w>
cl ue</w>
ca de
bu g</w>
al arm</w>
acci dents</w>
a ster</w>
U. S</w>
T r
M ag
K u
F u
D ou
CRIS PR</w>
C s</w>
Bron x</w>
what so
whatso ever</w>
war ri
v enture</w>
tri bes</w>
tan cy</w>
t ance</w>
spin ning</w>
s lower</w>
s enti
repe ated</w>
re friger
re ef</w>
r ush</w>
plan etary</w>
p acked</w>
opti mism</w>
mu tations</w>
mini ster</w>
ment or</w>
l it</w>
l am
isol ation</w>
gr u
fi bers</w>
fa i
estab lish</w>
encoura ging</w>
ear ned</w>
descri bing</w>
defin ing</w>
colum n</w>
collabor ative</w>
ca s
bloo d
bio diversity</w>
bed room</w>
b end</w>
awk ward</w>
achiev ement</w>
ab s
H ig
F er
Dec ember</w>
,0 00-
v ille</w>
up side</w>
un d</w>
tum ors</w>
ton gue</w>
tic ket</w>
terrori sts</w>
supp lies</w>
stret ch</w>
stre ssed</w>
scen es</w>
sc al
sacrif ice</w>
respon ded</w>
psycho logist</w>
pret end</w>
portra it</w>
p ill
mur der</w>
mit h</w>
lan ding</w>
it age</w>
in sect</w>
gr ass
g ur
fa st-
down load</w>
div or
distin gu
cro p</w>
ca p</w>
c tica</w>
bri dges</w>
bo om</w>
bizar re</w>
be ating</w>
athle tes</w>
at mospher
ade qu
ad m
aci ds</w>
S mith</w>
S S</w>
Ital ian</w>
G en
G ar
D ut
Bi ble</w>
- of-
wor rying</w>
vie wer</w>
tri be</w>
trau matic</w>
transl ated</w>
ti me-
th ic</w>
terri fied</w>
st es</w>
sp ra
se ats</w>
scre ens</w>
ri l</w>
regre t</w>
regi me</w>
re produce</w>
re aches</w>
profes sion</w>
preven tion</w>
pos ted</w>
por tion</w>
poll en</w>
pas ses</w>
pan ic</w>
neu tral</w>
monit oring</w>
mathema ticians</w>
manag ers</w>
ly n</w>
ligh ten
le an
ki e</w>
incenti ve</w>
imagin ing</w>
histor ically</w>
head lines</w>
great -
genoci de</w>
ex pressed</w>
er rors</w>
en s
disco vering</w>
dis agree</w>
descrip tion</w>
dea f</w>
cur ricul
con sen
circu its</w>
bu gs</w>
bran ch</w>
bat teries</w>
b ite</w>
auth orities</w>
ash ed</w>
am in</w>
N .</w>
M and
C our
Antar ctica</w>
A li
199 0s</w>
0 .
zer o-
win ds</w>
v ility</w>
u ed</w>
u ality</w>
trajec tory</w>
territ ory</w>
straigh t
star ing</w>
so c
sa dness</w>
sa dly</w>
reli ef</w>
re stor
prin ter</w>
pri ori
pr on
ph a</w>
open- source</w>
om a</w>
lin gu
li sts</w>
impre ssive</w>
ho p</w>
g on</w>
fla v
enzy mes</w>
empo wer</w>
dam n</w>
connec ts</w>
cli ent</w>
ca sting</w>
bra tion</w>
appro aching</w>
abs ence</w>
S B</w>
M y
Ci vi
Carol ina</w>
v ant
unbeliev able</w>
u red</w>
ti er</w>
sp ot
short ly</w>
rit u
ri sky</w>
resi st</w>
public ly</w>
pol lin
pi e</w>
on going</w>
narra tives</w>
n am</w>
me l</w>
m one</w>
la de
in stant</w>
in san
hor mone</w>
hand ful</w>
gra des</w>
follo ws</w>
empo wered</w>
emo tionally</w>
el ly</w>
di stor
d op
cy cles</w>
compas sionate</w>
beauti fully</w>
accur acy</w>
ac id</w>
S qu
Rom an</w>
Go od</w>
G s</w>
F o
Bang lade
B ush</w>
African- American</w>
1 20</w>
z ones</w>
wh is
ver i
threat ening</w>
thre sho
thresho ld</w>
susta in</w>
soc cer</w>
shel f</w>
sen sation</w>
schiz oph
schizoph ren
ro lled</w>
ref used</w>
rati o</w>
promis ed</w>
pr osp
part ner
pa ths</w>
opp er</w>
neuros cienti
manag ing</w>
man ner</w>
magn itude</w>
ma r</w>
m ol
le verage</w>
la sting</w>
l ad
ir ony</w>
inten tion</w>
inev it
in ity</w>
imp ul
ha ir
fortun e</w>
dra wings</w>
dimen sion</w>
dic tionary</w>
di ving</w>
di al</w>
constra ints</w>
br ush</w>
b in</w>
an ia</w>
ag ent</w>
W a
U. N.</w>
The se</w>
T ha
Ju ly</w>
3 0,000</w>
19 0
we i
wa vel
ur ge</w>
ul ation</w>
tre as
trans plant</w>
trans mit
tou ching</w>
tim acy</w>
te dly</w>
t ants</w>
sub stan
st ack</w>
recycl ing</w>
r i</w>
person alized</w>
pe de
o tion</w>
microbi al</w>
mari juana</w>
m es
m apping</w>
lux ury</w>
k ingdom</w>
hop eful</w>
hol ders</w>
hi p</w>
h in
h ated</w>
ge ly</w>
fin ed</w>
fig ur
exha u
evol ving</w>
du le</w>
dolph ins</w>
con front</w>
chromos ome</w>
bio logist</w>
at -
a king</w>
Viet nam</w>
Tur key</w>
St ar</w>
S han
S W</w>
Jan e</w>
Hig gs</w>
G ates</w>
Bro ok
3 3</w>
we dding</w>
un clear</w>
tw i
tra ins</w>
ti ght</w>
th um
th u
stri king</w>
st on</w>
sk illed</w>
sign ature</w>
si ck
sho cking</w>
sec tions</w>
re war
re vi
ran k</w>
pos ter</w>
pack age</w>
nor ms</w>
mor ality</w>
mon o
ma ss
low est</w>
la p</w>
k ably</w>
interpre tation</w>
in duc
impre ssion</w>
head ing</w>
formul a</w>
dinos aur</w>
d or
connec tivity</w>
compe ting</w>
comp lish</w>
car ed</w>
can v
ca su
autom o
anony mous</w>
an esthe
al tru
ac complish</w>
a u</w>
a tic</w>
Sovi et</w>
S om
Nor thern</w>
L augh
I S</w>
3 6</w>
ur a</w>
th or
te ens</w>
t esti
sla ve</w>
she ets</w>
separ ation</w>
rout ine</w>
pri sons</w>
poe ms</w>
our ing</w>
off -
me thane</w>
m uni
m ere</w>
kin dness</w>
kill s</w>
invol ve</w>
investi gate</w>
in e
flo wing</w>
fall en</w>
fair ness</w>
fab ulous</w>
f an
en try</w>
ei j
ec ological</w>
du ty</w>
desper ate</w>
d an</w>
coun sel
cop ies</w>
contr ary</w>
conta ined</w>
communi cating</w>
come dy</w>
can cers</w>
bon ds</w>
bo red</w>
bo ok
bi an</w>
be an</w>
astoni shing</w>
assu med</w>
as m</w>
air s</w>
aci ous</w>
V an
Sun day</w>
Se a</w>
Sahar an</w>
S he
Hom o</w>
Bo b</w>
B r
Ar t</w>
6 ,000</w>
wi res</w>
w rap</w>
tra ding</w>
tobac co</w>
ther ed</w>
ter ly</w>
po le</w>
origin s</w>
off ices</w>
mas k</w>
man kind</w>
loy ment</w>
lo ws</w>
le an</w>
k -
inter rup
integr ate</w>
in ti
i tions</w>
gu ards</w>
fil m
fer ence</w>
expres sions</w>
equ ations</w>
ent y-
engin es</w>
emplo yment</w>
dre aming</w>
divi sion</w>
destro ying</w>
bot tles</w>
bo y
alter natives</w>
adv ances</w>
ad just</w>
Willi am</w>
In du
D ani
Ber lin</w>
B eij
2 4
y o</w>
wor ms</w>
tou gh
th r
teen age</w>
straight forward</w>
si m
ref use</w>
recogn izing</w>
re jected</w>
random ly</w>
pur suit</w>
plan ned</w>
pi gs</w>
pen cil</w>
p el
or ous</w>
om ing</w>
magn ific
journ alism</w>
in formal</w>
har mony</w>
geome try</w>
ge ment</w>
g an</w>
fre ely</w>
fin dings</w>
expec tancy</w>
es thetic</w>
econom ist</w>
dro pping</w>
dr ones</w>
cop y
con sent</w>
chromos omes</w>
che mo
bo ats</w>
astronom ers</w>
as leep</w>
architec tural</w>
approxim ately</w>
ant a</w>
an ic</w>
an g</w>
ad ju
ac qu
a sion</w>
a er
Scot t</w>
O r</w>
Dut ch</w>
B F</w>
195 0s</w>
.D .</w>
y ourselves</w>
y an</w>
wa ited</w>
vac ation</w>
sus pic
sub way</w>
strate gic</w>
sou p</w>
shif ted</w>
ro pe</w>
revol utionary</w>
rememb ering</w>
protec tive</w>
pro -
pres su
po t</w>
p ene
osy n
or ds</w>
op le</w>
occurr ing</w>
ne ver
mot or
mess y</w>
manipul ate</w>
main stream</w>
ju ven
grocer y</w>
gra m
gr oss</w>
fore station</w>
eu ms</w>
ethn ic</w>
equ als</w>
ep tion</w>
cros sed</w>
cot ton</w>
conveni ent</w>
contribu tion</w>
consu med</w>
co inci
cl arity</w>
ch ur
cell ular</w>
bu re
bel ly</w>
at titudes</w>
at ro
at ers</w>
assi stance</w>
ari ans</w>
anxi ous</w>
aff ecting</w>
a c</w>
Ste ph
S ing
S D
Ri o</w>
R ed</w>
Organ ization</w>
M A</w>
D er
D ad</w>
C D</w>
Bl ue</w>
under stands</w>
un conscious</w>
tion ality</w>
thum b</w>
tho od</w>
t sun
substan ti
stor ms</w>
sla ves</w>
sc ent</w>
s wee
run k</w>
repli cate</w>
remar kably</w>
pur ple</w>
pre me</w>
part nership</w>
over night</w>
le gen
large -scale</w>
it er
illustr ate</w>
i e</w>
ho ly</w>
gener ous</w>
gard ens</w>
g as
ess ors</w>
discipl ine</w>
dia c</w>
deli vering</w>
d am</w>
conve y</w>
con qu
bom bs</w>
be half</w>
b ands</w>
att acked</w>
arr ay</w>
ali an</w>
accoun table</w>
ac knowled
T es
Ri ghts</w>
Ox ford</w>
L A</w>
Isra el
wan dering</w>
ur ban
ti ble</w>
ten dency</w>
targe ted</w>
ste ady</w>
sett led</w>
scre ening</w>
represen tative</w>
real ities</w>
re actor</w>
ow ners</w>
mus eums</w>
min al</w>
lo ads</w>
legi timate</w>
le thal</w>
it ar</w>
is lands</w>
inten sity</w>
infec tious</w>
in ches</w>
gol f</w>
gir l
gam i</w>
fri ction</w>
est ate</w>
er als</w>
dis abilities</w>
dec or
de fault</w>
continu ing</w>
conduc t</w>
class rooms</w>
bre eding</w>
arr ator</w>
ar do</w>
accoun tability</w>
absor b</w>
S E
N az
N arrator</w>
Mar k</w>
J us
J ack</w>
G ir
F ir
C y
Ar gent
5 0s</w>
20 -
wild life</w>
us eless</w>
tra vels</w>
succe eded</w>
su its</w>
rit ual</w>
respon si
re turns</w>
privile ged</w>
po x</w>
plu g</w>
paraly zed</w>
ni e</w>
mu d</w>
micro -
m all</w>
libr aries</w>
hu m</w>
gr as
gen esis</w>
g ates</w>
fi cations</w>
expon ential</w>
ex ag
ent -
ene mies</w>
en vel
dru m</w>
domin ated</w>
discus sions</w>
desp air</w>
d ar</w>
cu st
cre di
crac ies</w>
cor ners</w>
com ic</w>
blu e
b or</w>
b all
at tle</w>
at a</w>
al istic</w>
V ic
Squ are</w>
Re search</w>
G ran
F DA</w>
D s</w>
vi al</w>
v ary</w>
syn ap
strugg les</w>
ster n</w>
sp ace
short- term</w>
sel ected</w>
s ni
repe at
rec k
re solve</w>
re se
pri ority</w>
preven ting</w>
peop les</w>
p ac
ordin arily</w>
op i
ne sses</w>
mu tation</w>
low- income</w>
ligh t-
laugh ed</w>
inju red</w>
initi ative</w>
in dependence</w>
horiz on
gu es</w>
func tioning</w>
fl ash</w>
fab ri
en ab
dro ps</w>
dir t</w>
de pos
curricul um</w>
colon ies</w>
chec king</w>
ch ess</w>
ce -
bure au
bul b</w>
bi e</w>
belon gs</w>
ban king</w>
attemp ts</w>
astronau ts</w>
archa e
ar ded</w>
adop t</w>
R ight</w>
Mi ke</w>
H y
E ric</w>
C re
3 7</w>
wid th</w>
vari ations</w>
usi ve</w>
tr ans</w>
th and</w>
teach es</w>
te ar</w>
tal e</w>
si r</w>
shor ter</w>
shi pping</w>
ri ding</w>
recep tors</w>
read er</w>
r at</w>
qui e
pre su
pol ar
percep tions</w>
ori um</w>
oper a</w>
open ness</w>
na sty</w>
n ity</w>
multip ly</w>
mar ked</w>
mar ch</w>
legisl ation</w>
je al
invest ments</w>
ide ology</w>
he y</w>
gli mp
glaci ers</w>
gl uc
fac il
f ans</w>
exten sion</w>
el ess
el d</w>
edit or</w>
e ing</w>
don e
do or
demonstr ated</w>
deli cious</w>
deep est</w>
dec k</w>
d or</w>
cre am</w>
col or
coast al</w>
co des</w>
clin ics</w>
cl ay</w>
c in</w>
asse mble</w>
ab y
S am
Ph D</w>
O n
M other</w>
La w</w>
L at
Jo e</w>
In done
H el
G ab
Fre e
Fir st</w>
Ever y
Cour t</w>
Can adi
Cam bridge</w>
3 0-
visit ing</w>
ves sel</w>
top ics</w>
therap ist</w>
ta ils</w>
surge ons</w>
sequ ences</w>
sci ences</w>
satis faction</w>
pu rely</w>
practic ing</w>
p ants</w>
nu ts</w>
ner ves</w>
ne g
musici an</w>
lo cally</w>
like lihood</w>
li p
kni fe</w>
k ings</w>
jo int</w>
han d-
employe e</w>
effici ently</w>
compu tational</w>
comprom ise</w>
care ers</w>
car ries</w>
buil ds</w>
br a</w>
bi le</w>
b at</w>
aud it
analo gy</w>
am ine</w>
al together</w>
admini stration</w>
ad el
accur ately</w>
S an
Pe ople</w>
PT SD</w>
P re
Mini ster</w>
Laugh s</w>
Ch urch</w>
Brook lyn</w>
Beij ing</w>
Ari st
Ap ril</w>
201 7</w>
20 30</w>
196 0s</w>
y fish</w>
worl d-
wi desp
widesp read</w>
was hed</w>
vi vi
u bi
two- thirds</w>
tu bes</w>
trans mit</w>
ti a</w>
tho do
th ic
ta xes</w>
serv ation</w>
ritu als</w>
resp ected</w>
r ats</w>
promis ing</w>
po ckets</w>
phi a</w>
ph os
passen ger</w>
overwhel med</w>
oo h</w>
ograp hic</w>
ne o
min ority</w>
magnific ent</w>
lo ans</w>
landsc apes</w>
k el
jour nal</w>
install ed</w>
in ser
ic on</w>
hun t</w>
hu mili
hac kers</w>
got ta</w>
ge l</w>
gar age</w>
for cing</w>
f ence</w>
exp lic
dou bled</w>
cr acks</w>
cou sin</w>
collap sed</w>
collabor ate</w>
co ws</w>
co vers</w>
clean ing</w>
car dio
associ ate</w>
apo logi
ang ered</w>
am y
al and</w>
air planes</w>
activi sm</w>
Y our</w>
Sha k
S k
R NA</w>
O ur</w>
No vember</w>
Indu stri
D ra
D B</w>
Col le
A cade
yiel d</w>
usi ons</w>
tru sted</w>
tro pical</w>
tri angle</w>
techn ically</w>
syn chron
stra tions</w>
stig ma</w>
star t-
sm ells</w>
skele ton</w>
sim pler</w>
sex ually</w>
ro ll
reg ard</w>
re turning</w>
re think</w>
photograp hed</w>
p ill</w>
or dered</w>
on stage</w>
nit rogen</w>
mel t</w>
me als</w>
mani fe
machin ery</w>
kin son</w>
it y-
it em</w>
is ed</w>
interpre t</w>
inevit ably</w>
immigr ant</w>
immen se</w>
h at</w>
gravit ational</w>
gh ted</w>
ga ins</w>
foot age</w>
expan ded</w>
en i
don or</w>
di stances</w>
descri bes</w>
de forestation</w>
claim ed</w>
catal y
cat ching</w>
canv as</w>
bur g</w>
bul let</w>
br is</w>
bel t</w>
argu ing</w>
ama zed</w>
adel phia</w>
achiev ing</w>
ab sur
a stro
Vir gin
T ony</w>
T -
St .</w>
S anta</w>
Phil adelphia</w>
D H</w>
Bro wn</w>
Be at
3 .
&apos; clock</w>
we stern</w>
us age</w>
tun a</w>
tru ths</w>
toler ance</w>
terri bly</w>
t z</w>
strugg led</w>
stri ct</w>
shif ts</w>
she er</w>
sa u
restaur ants</w>
resili ent</w>
recycl ed</w>
prison er</w>
por no
par enting</w>
ou tw
op y</w>
ol en</w>
my ths</w>
matri x</w>
mathema tician</w>
j ell
hor ror</w>
her itage</w>
heavi ly</w>
gluc ose</w>
gener ic</w>
ff s</w>
el iness</w>
ed a</w>
du mb</w>
destin y</w>
demon stration</w>
de pic
cour ses</w>
contribu ting</w>
contin ents</w>
concer t</w>
con tain
cigaret tes</w>
cha mber</w>
ch at
carto ons</w>
ca s</w>
bo t</w>
be ll</w>
amaz ingly</w>
Virgin ia</w>
T anz
K ar
Ca tho
wel fare</w>
tun nel</w>
tri ps</w>
tow ns</w>
th a</w>
t s
si ans</w>
sh ining</w>
sex y</w>
sa ke</w>
ri gi
re ha
re bel</w>
poli tically</w>
pl ates</w>
path ways</w>
ori al</w>
opp on
numer ous</w>
near est</w>
ne at</w>
mo ther
micros copic</w>
mi st</w>
men stru
m ly</w>
kid ney</w>
interven tions</w>
inter section</w>
i on
hop ed</w>
head line</w>
har ve
ght ful</w>
gentle man</w>
gener ative</w>
floo d</w>
fe ver</w>
explo red</w>
er ra</w>
down town</w>
destin ation</w>
demo graphic</w>
declar ed</w>
cru el</w>
consi dering</w>
cigaret te</w>
celebr ated</w>
bri gh
be aten</w>
bas ket
back grounds</w>
b ills</w>
ambi gu
St ar
O n</w>
M ac
Gre ece</w>
F ar
F BI</w>
D re
Acade my</w>
web sites</w>
wat ts</w>
ur gent</w>
u mp
thro at</w>
therap ies</w>
th- century</w>
ta ke
sti cs</w>
sp ati
small pox</w>
sel ect</w>
recomm end</w>
ra il
pul ls</w>
presi dential</w>
pede stri
pe ts</w>
n ate</w>
mar row</w>
los ses</w>
lon eliness</w>
leg ally</w>
ici ous</w>
ic e
har ness</w>
fu r</w>
frighten ing</w>
explo it</w>
et te</w>
enjo yed</w>
ele gant</w>
dy s
differ enti
dia meter</w>
cr yp
coun ts</w>
continu ously</w>
consu ming</w>
comb inations</w>
ca ves</w>
broad er</w>
br ands</w>
au ti
at ar</w>
acceler ate</w>
T y
Nor way</w>
Le on
L an
I cel
Dani el</w>
D evel
Alexan der</w>
4 8</w>
whe els</w>
w ins</w>
vot ed</w>
vi sions</w>
ver ts</w>
ver bal</w>
uni form</w>
trans forming</w>
tr a</w>
te mple</w>
tat to
t ate</w>
st en</w>
sp ell</w>
smil ing</w>
six th</w>
shr ink</w>
sh y</w>
sel fish</w>
sec tors</w>
se gre
s ma
reti rement</w>
resp ec
repeat edly</w>
regul ations</w>
qu ad
propor tion</w>
program med</w>
porno graphy</w>
plas tics</w>
philosop hers</w>
pass words</w>
pas sive</w>
pal m</w>
p ills</w>
ori gami</w>
on er</w>
mon u
mod eling</w>
ju mping</w>
ici ans</w>
ici an</w>
hon y</w>
hier archy</w>
hal f
h -
ga tions</w>
frau d</w>
foun der</w>
fes tiv
electr om
crit eria</w>
cr ats</w>
comm and</w>
bi ot
as signed</w>
argu ed</w>
aff ir
activ ated</w>
a we</w>
a the
Ze aland</w>
NG Os</w>
N ep
Industri al</w>
Ha wai
Geor gia</w>
G and
Devel op
Banglade sh</w>
B M</w>
Ap ol
z u
ver t</w>
ther mal</w>
th ur</w>
t age</w>
swit ched</w>
story tell
sta ke</w>
st olen</w>
st le</w>
sp ends</w>
shoul ders</w>
sex uality</w>
schol ars</w>
san itation</w>
requ est</w>
reflec ted</w>
reason ing</w>
rais es</w>
pot ent</w>
por ts</w>
phos ph
pat ri
p on
or a
mil ity</w>
me ets</w>
mat ing</w>
market place</w>
ma ma</w>
lo g</w>
li mbs</w>
inter ro
in k
i di
hor ses</w>
helicop ter</w>
ha med</w>
gra ve</w>
geograp hy</w>
ge on</w>
fle sh</w>
expedi tion</w>
exam ine</w>
es pe
el abor
e di
dr one</w>
docu mentary</w>
de ad
consen sus</w>
con gre
compu tation</w>
co oper
chec ked</w>
ch at</w>
car ri
break through</w>
bo wl</w>
b ond</w>
b and
au gmented</w>
abund ance</w>
Si erra</w>
Shak espe
Satur n</w>
S im
Pro f
Olymp ics</w>
Kore an</w>
J up
I ran
Gre en</w>
F und</w>
Coun ty</w>
Civi l</w>
Atlan ta</w>
5 5</w>
1 1
0 th</w>
virtu e</w>
v enti
tsun ami</w>
transforma tive</w>
tane ous</w>
t ful</w>
subjec tive</w>
sandw ich</w>
refer red</w>
real ization</w>
pu p
propos al</w>
prescrip tion</w>
perspec tives</w>
perf ection</w>
p ou
oxy to
min ded</w>
mid st</w>
me ga
inte gration</w>
hy dr
hu mility</w>
har sh</w>
ge ar</w>
fol ded</w>
ev in</w>
es cal
end angered</w>
embarras sed</w>
electro des</w>
electr on</w>
dig it</w>
determin es</w>
detec ted</w>
dec reas
contro ll
cont ex
concentr ated</w>
but ter
bu tt
auth ors</w>
assu ming</w>
al ter</w>
U N</w>
N I
M el
K a
John son</w>
Emp ire</w>
Catho lic</w>
C ra
C han
Ar thur</w>
4 7</w>
20 20</w>
woo ds</w>
w ling</w>
vo cal</w>
vi o
vacc in
v ar
ubi quit
twe et</w>
tu p</w>
tiv eness</w>
str ings</w>
sp reads</w>
skep tical</w>
sho e</w>
secon dary</w>
scenari os</w>
s wa
represen ting</w>
re tro
re productive</w>
r ating</w>
ques tioning</w>
po ison</w>
phot o
oxyto cin</w>
op o
o dy</w>
nucle us</w>
man ual</w>
investi gation</w>
insul in</w>
ing er</w>
indi cate</w>
i tively</w>
high- tech</w>
gi vers</w>
for -
fe eds</w>
far ther</w>
ev al</w>
epis ode</w>
en -
emp i
dop amine</w>
discus sing</w>
dis placed</w>
dilem ma</w>
di shes</w>
di gi
den ial</w>
demo cracies</w>
d ental</w>
cur ves</w>
contribu ted</w>
ci vility</w>
bur gh</w>
belon ging</w>
basket ball</w>
ban g</w>
appe al</w>
an ten
Yor ker</w>
W ho
T ali
N ative</w>
Mo z
M ur
H C</w>
Christ op
Ar my</w>
5 0-
wr apped</w>
wor m</w>
wi ves</w>
who ever</w>
week end</w>
w et</w>
vi sion
vas cular</w>
val ley</w>
un happy</w>
ubiquit ous</w>
ty pe
trans fer
to oth
tex ts</w>
sy l
stress ful</w>
sne a
sau ce</w>
re vel
re mot
re land</w>
rain forest</w>
publi shing</w>
prof essors</w>
prac tically</w>
phenomen a</w>
p ad</w>
ous y</w>
or us</w>
ograp hy</w>
off s</w>
miser able</w>
millenni als</w>
me g
ma xim
m .</w>
lif ted</w>
le ct</w>
impro vements</w>
hu mble</w>
go d
gi e</w>
gg ling</w>
g ering</w>
fl ags</w>
fam ously</w>
f ting</w>
ende av
encoun tered</w>
enab ling</w>
destruc tive</w>
der ness</w>
deplo y</w>
deci des</w>
cus sion</w>
cou sins</w>
conver ted</w>
comp ound</w>
comm only</w>
cat tle</w>
bo ther</w>
blin dness</w>
ble w</w>
back yard</w>
autonom y</w>
at ric</w>
ar ding</w>
am ino</w>
ad vi
ac ou
a f</w>
Steph en</w>
Shakespe are</w>
Mil ky</w>
M e</w>
I sa
Hi gh</w>
Gr and</w>
Chi le</w>
A ge</w>
1. 5</w>
. m.</w>
win ners</w>
wa king</w>
visu alize</w>
v ali
univer ses</w>
tw ins</w>
sub- Saharan</w>
su ck</w>
sp her
so oner</w>
se ssions</w>
scan ning</w>
scan ner</w>
rac ist</w>
r us</w>
pros titu
phot osyn
path way</w>
pat ents</w>
p iz
p it</w>
om ics</w>
min us</w>
mi mic</w>
l y-
key board</w>
jell yfish</w>
j et</w>
introduc tion</w>
inf r
i red</w>
home town</w>
h en</w>
guaran te
gras p</w>
fung i</w>
found ations</w>
fol ds</w>
f est</w>
ex ce
ex am</w>
ev apor
ep ic</w>
ei ght-
dro w
distin ction</w>
dec ent</w>
da wn</w>
cu es</w>
cos t-
convic ted</w>
con tem
chemo therapy</w>
ca ine</w>
bo died</w>
aster oid</w>
ar bit
adequ ate</w>
ad dy</w>
a wake</w>
Wh ich</w>
W in
R oc
Prof essor</w>
Jup iter</w>
J ord
J ac
Indone sia</w>
H osp
Egyp tian</w>
Coun cil</w>
C ome</w>
A .</w>
win d
wa sted</w>
uni qu
u ms</w>
tra it</w>
th west</w>
ter rain</w>
s ar
ri cane</w>
rele asing</w>
rec all</w>
real- time</w>
pul se</w>
phan tom</w>
pen alty</w>
on ist</w>
om ed</w>
ol d-
non e
maxim um</w>
man n</w>
ma sters</w>
m ously</w>
live stock</w>
list en
lea f</w>
inher ently</w>
hat red</w>
happi ly</w>
gui ded</w>
go o
glimp se</w>
gl ue</w>
er o</w>
embarras sing</w>
electrom ag
ed it</w>
direc ted</w>
di sh
de als</w>
cre ator</w>
copy right</w>
conf usion</w>
co ded</w>
clu ster</w>
clu es</w>
civiliz ations</w>
chec ks</w>
calcul ations</w>
b os
b ad
autom ated</w>
app lies</w>
anni vers
al pha
ac commod
abund ant</w>
ab s</w>
V -
Tal ks</w>
Se attle</w>
Satur day</w>
P E
N u
Mo ore</w>
Is lands</w>
F ord</w>
D es
Ch il
C ri
A th
6 0,000</w>
201 8</w>
20 0,000</w>
z ation</w>
wei gh</w>
we l</w>
vot es</w>
vic tory</w>
valu ed</w>
tro ops</w>
traffic king</w>
ther lands</w>
theore tical</w>
swe at</w>
supp orts</w>
sug ars</w>
stri p</w>
sli ce</w>
set tle</w>
sea water</w>
s ale</w>
retin a</w>
re ject</w>
ra dar</w>
puzz les</w>
pro vo
par tis
ou gh
orchestr a</w>
ol a</w>
occu p
none theless</w>
na mely</w>
membran e</w>
man s</w>
lo go</w>
kne es</w>
kis s</w>
jo y
jo ining</w>
it ating</w>
inven ting</w>
inter ior</w>
institu tional</w>
insan e</w>
individu ally</w>
in ary</w>
ho ok</w>
gu itar</w>
great ly</w>
fail s</w>
es c
enterpri se</w>
empo wering</w>
ele mentary</w>
du res</w>
dra ma</w>
dom s</w>
disa d
disad vant
demo cra
con spir
co l</w>
co caine</w>
co at</w>
ca ge</w>
bu ry</w>
bot tom
bor ro
bi ased</w>
attrac ted</w>
at oes</w>
antibio tic</w>
ad vis
a im
a esthetic</w>
Ven us</w>
V ene
Republi can</w>
La ke</w>
I reland</w>
Ho ward</w>
Budd hi
Arist ot
Apol lo</w>
3 1</w>
2 5
19 60</w>
wor th
win ner</w>
vo y
tri ump
tex ting</w>
super no
ste am</w>
spe eds</w>
spac e-
sp ite</w>
slu ms</w>
si li
sc ru
ri ses</w>
revolu tion
reflec ts</w>
persi st
perpe tr
per v
p a</w>
over -
ou ts</w>
op tical</w>
modi fied</w>
micro phone</w>
mar ath
lan es</w>
labe led</w>
it an</w>
inv asive</w>
inter views</w>
inter s</w>
inju ries</w>
inci dent</w>
in hi
half way</w>
good bye</w>
gl ori
girl friend</w>
gener ates</w>
entr ance</w>
embrac ing</w>
ed -
disa sters</w>
dis rupt</w>
di gging</w>
def en
d are</w>
cou ch</w>
compar ing</w>
comm ons</w>
chimpanz ee</w>
c tu
bus es</w>
bor row</w>
assemb led</w>
ap plause</w>
and- a-
ali ke</w>
ag e-
addre ssing</w>
T om
Sar ah</w>
Ple ase</w>
O f</w>
Ne therlands</w>
N ick</w>
N ature</w>
N SA</w>
L a</w>
Jer sey</w>
G a
E l</w>
E d</w>
4 2</w>
4 0,000</w>
200 2</w>
tur ally</w>
trans it</w>
thri lled</w>
stu res</w>
sp elling</w>
simp lest</w>
secon d-
se mi
schizophren ia</w>
satis fied</w>
s ounded</w>
reco vered</w>
propag anda</w>
princi pal</w>
op a
n ap
mon ster</w>
mo ld</w>
mat ches</w>
mat ched</w>
ma sses</w>
m apped</w>
lo s</w>
l en</w>
it ly</w>
ing ness</w>
identi fying</w>
ho lo
gr ace</w>
fra mes</w>
extra ordinarily</w>
et al</w>
en sla
el son</w>
dolph in</w>
distingu ish</w>
dis ruption</w>
di arr
cri tically</w>
col n</w>
car es</w>
can opy</w>
bom b
blo cking</w>
avoi ding</w>
aster oids</w>
as set</w>
art work</w>
an der
ambi tion</w>
addic ted</w>
accompli shed</w>
T ro
Shan gha
Por tu
New ton</w>
Lin coln</w>
K ingdom</w>
Hosp ital</w>
H ind
E .
Develop ment</w>
C os
B at
war e
w rist</w>
w ages</w>
vi sibility</w>
ut terly</w>
u h</w>
ti fication</w>
suppor tive</w>
stitu tion</w>
sha king</w>
sen sing</w>
s now
re wards</w>
quali fied</w>
prom oting</w>
process ed</w>
patho gens</w>
p -
or biting</w>
om er
ol ly</w>
ob li
notic ing</w>
no des</w>
mini mize</w>
mat tered</w>
kic ked</w>
intr insi
inter connected</w>
im per
ill nesses</w>
ide o</w>
hemi sphere</w>
gor geous</w>
gen omes</w>
ge sture</w>
g low</w>
fru stration</w>
flu ore
fin i
es sive</w>
er nal</w>
enzy me</w>
ent ro
end ers</w>
distin c
di zed</w>
desi res</w>
deplo yed</w>
deci ding</w>
d enti
consi sts</w>
compos ition</w>
comm on
co operate</w>
be ats</w>
ba il</w>
annivers ary</w>
al pha</w>
ac hu
ab road</w>
V ideo</w>
Tanz ania</w>
Tali ban</w>
Shangha i</w>
S ome
Pe ace</w>
Nig erian</w>
N elson</w>
K evin</w>
K at
Indi ans</w>
I Q</w>
He dge</w>
Dis ney</w>
D V
Canadi an</w>
B run
A T
youn gest</w>
y n</w>
vo id</w>
vio let</w>
vag ina</w>
un -
u ter
tri c</w>
ti zing</w>
thank fully</w>
tal ented</w>
super market</w>
sh rin
sh at
ro oted</w>
resear ching</w>
rec t
re sur
rac ing</w>
r he
pron oun
pro li
pr ay</w>
plan ting</w>
or g</w>
off spring</w>
ob serving</w>
nor m</w>
no vel
man -
mam mo
lif ting</w>
kee pers</w>
je wel
int on</w>
ingredi ent</w>
incarcer ation</w>
imagin able</w>
ill a</w>
fro g</w>
fos ter</w>
flo at</w>
f ers</w>
ever -
eth ics</w>
equi pped</w>
encryp tion</w>
en ters</w>
ear ning</w>
deser ves</w>
cy lin
confron ted</w>
confir med</w>
con ception</w>
co ding</w>
character istic</w>
b ind</w>
ar rest</w>
ar es</w>
anticip ate</w>
analy zing</w>
am ate
ali ens</w>
accep tance</w>
ac compan
Sing ap
Sec re
S wis
S ur
S il
S aud
Ken ne
Je ff</w>
IS IS</w>
Fran k
C ari
B en</w>
B as
A t</w>
7 2</w>
y ards</w>
whe at</w>
wer ment</w>
we t
us cri
tradi tionally</w>
thri ving</w>
te l</w>
susta ined</w>
st are</w>
sp ray</w>
sm u
signific ance</w>
rigi d</w>
respon ding</w>
produc ers</w>
proce dures</w>
poli tician</w>
piz za</w>
philosop hical</w>
pene tr
par achu
p our</w>
p ecu
p ays</w>
mir rors</w>
li ps</w>
jud ges</w>
install ation</w>
in i</w>
id ers</w>
hip po
gh et
far -
exhi bit</w>
eng ths</w>
eless ness</w>
elabor ate</w>
ed iting</w>
e ted</w>
dra gon
distribu te</w>
deman ding</w>
coun ted</w>
cosmo s</w>
cor rupt</w>
compos ed</w>
collabor ators</w>
ch -
campaign s</w>
cal end
boun dary</w>
b i</w>
auti stic</w>
assign ment</w>
ap i
ag ers</w>
acqui red</w>
ac tu
X- ray</w>
U ber</w>
U S
Su per
N ai
Le ban
Har ry</w>
G ore</w>
D .
B ell</w>
A ir</w>
3 8</w>
19 80</w>
wi shes</w>
w ol
tun ed</w>
to es</w>
t abo
sub sequ
ste pping</w>
spher es</w>
sk i</w>
sho wer</w>
sett lement</w>
s thand</w>
s ought</w>
s ance</w>
rom ance</w>
recon ci
qu o</w>
prote sts</w>
pros thetic</w>
pri orities</w>
pre judi
pil es</w>
pi pe</w>
pes tici
ou tra
or ting</w>
nu mb
no ises</w>
nan op
myster ies</w>
man uscri
liter ate</w>
kid ding</w>
it tle</w>
invol ving</w>
inten tions</w>
instin ct</w>
imp acted</w>
ic onic</w>
har assment</w>
glam orous</w>
fu tures</w>
frequ ent</w>
fir sthand</w>
fi ref
fat al</w>
fam ine</w>
enjo ying</w>
dra w
distur bing</w>
dis on</w>
dis gust</w>
cu be</w>
cour ts</w>
cour t
cool ing</w>
convin cing</w>
colli sion</w>
clu sters</w>
clu bs</w>
cir cular</w>
ci an</w>
calcul ated</w>
c opper</w>
c it</w>
bu ff
ber ty</w>
att or
att end</w>
acci dentally</w>
acceler ating</w>
a be
U SA</w>
Po int</w>
P rin
Mis si
Mand ela</w>
M id
Le one</w>
L ong</w>
J as
I .
Hu man</w>
H an
E liz
C E</w>
A M</w>
8 ,000</w>
z zy</w>
z e
vi sc
ven ue</w>
un ting</w>
ultra violet</w>
tri vial</w>
tri ck
tex ture</w>
tat too</w>
sur gical</w>
stri kes</w>
sta kes</w>
st al
se iz
rob i</w>
regul ate</w>
recy cle</w>
re de
pro be</w>
ph al
peri o
particip ating</w>
ori entation</w>
or phan
open ha
ob sole
n om
mot ors</w>
mel ting</w>
low- cost</w>
los es</w>
lif esp
l amp</w>
kin der
it a</w>
int act</w>
im plant</w>
ic y</w>
he ating</w>
har d-
ha z
guil t</w>
gi fts</w>
ger ies</w>
genu ine</w>
g ently</w>
fit ness</w>
fin ite</w>
fe es</w>
exag ger
entro py</w>
e ase</w>
dis comfort</w>
devi l</w>
den ied</w>
d ged</w>
cryst al</w>
cou ra
cont ag
clos ure</w>
cl ing</w>
cha se</w>
be am</w>
b bean</w>
b b
at ch</w>
as th
ans wering</w>
ans as</w>
am bu
al titude</w>
aff airs</w>
V al
T im</w>
Swis s</w>
Singap ore</w>
Que en</w>
Nai robi</w>
Mon day</w>
Del hi</w>
Colle ge</w>
Cari bbean</w>
9 6</w>
199 0</w>
17 th</w>
0 0s</w>
z er</w>
wor n</w>
woo den</w>
voca bul
vocabul ary</w>
vari eties</w>
vari able</w>
unemp loyment</w>
un fortunate</w>
ul tr
tur bul
tri cky</w>
trans gender</w>
tr y
tor ture</w>
toi lets</w>
th ly</w>
t ling</w>
surr ound</w>
stre ams</w>
stereot ypes</w>
st ell
sche me</w>
reve als</w>
resul ting</w>
replac ing</w>
re serves</w>
re production</w>
proble matic</w>
prepar ation</w>
pp i</w>
pic k
passen gers</w>
pass age</w>
p ouring</w>
p ity</w>
op ho
no -
ne tic</w>
mix ture</w>
millen nia</w>
maxi mize</w>
mam mal</w>
ma scul
lon ge
lo ose</w>
light ning</w>
le ments</w>
lay ing</w>
kno ck</w>
kinder gar
j a</w>
in timacy</w>
il er</w>
ge o
fundam ent
fun eral</w>
fol lowers</w>
fant asy</w>
ex otic</w>
empo werment</w>
econom ically</w>
dra g</w>
discus sed</w>
dem o</w>
d runk</w>
d ot
cra p</w>
cos tu
com ics</w>
col i</w>
co verage</w>
blo gs</w>
benef icial</w>
be loved</w>
as y
an gi
advant ages</w>
ac cess
W ar
Vene zu
Than ks</w>
T el
Saud i</w>
R ay</w>
O ff
Net fli
Ne ander
Mic hel
Medi a</w>
M R</w>
La gos</w>
L G
Je ws</w>
Col om
Cl inton</w>
C as
C ape</w>
Bri an</w>
Braz ili
As soci
Aristot le</w>
A -
9 8</w>
3 4</w>
199 9</w>
well- known</w>
vi able</w>
un le
uc k
tu ber
tor n</w>
tim ing</w>
text books</w>
tal ents</w>
t ably</w>
sur ing</w>
struc tured</w>
sta ir
spe ech
sli p</w>
sche dul
ren der</w>
re t
promis es</w>
prefer ences</w>
os ter
opp ed</w>
on- dollar</w>
obst acle</w>
obsole te</w>
never theless</w>
mot h</w>
ma ssively</w>
m are</w>
lo c
k ins</w>
justi fy</w>
jo kes</w>
ji had</w>
j ail
int ent</w>
innov ate</w>
in mates</w>
hy bri
high light</w>
he a</w>
full- time</w>
fru its</w>
form at</w>
fl uc
financi ally</w>
fi x
f ills</w>
explo ded</w>
enhan ce</w>
emer ges</w>
edit ors</w>
detec tor</w>
defin es</w>
de fic
cy ber</w>
crow d
cri ses</w>
conf er
com et</w>
cl er
bo ost</w>
bas ement</w>
az a</w>
arch i
any on</w>
analy zed</w>
al bu
ac res</w>
Wh it
Su preme</w>
S pr
Par kinson</w>
P it
Netfli x</w>
LG B
J a
Ho lo
G l
For ce</w>
D ru
CE Os</w>
Brun o</w>
B il
A L
7 ,000</w>
y ro
wa ste
ver ted</w>
venti l
un ited</w>
un fair</w>
tra il</w>
syste matically</w>
susp ended</w>
survi ving</w>
sur geries</w>
sugg estion</w>
sub mer
ssi ppi</w>
sp ill</w>
shar es</w>
sequ encing</w>
sensi tivity</w>
scrip ts</w>
scienti fically</w>
sc aling</w>
right- hand</w>
re moving</w>
r ant</w>
pun ch</w>
psychi atri
pressu res</w>
pre ten
plan kton</w>
plac ing</w>
philanthro py</w>
pecu liar</w>
pass word</w>
over head</w>
ori ented</w>
od or</w>
occa sion</w>
new ly</w>
mu tual</w>
min or</w>
meas ur
manufac ture</w>
make up</w>
lot tery</w>
li ers</w>
left- hand</w>
lea k</w>
le p
inher ited</w>
infr ared</w>
horizon tal</w>
hero ic</w>
help less</w>
gu est</w>
gover n</w>
gen ic</w>
friend ship</w>
for give</w>
flexi bility</w>
fisher ies</w>
e able</w>
disap pointed</w>
dem enti
d dy</w>
d board</w>
con g
con figur
climb ed</w>
cl oth</w>
chic kens</w>
car diac</w>
can dy</w>
ca us
butt ons</w>
bal anced</w>
att ach</w>
as hamed</w>
apologi ze</w>
ais sance</w>
adi ly</w>
acc used</w>
ac re</w>
T as
S wit
S ir</w>
R B</w>
Missi ssippi</w>
Kenne dy</w>
K or
H ong</w>
Der ek</w>
Chil dren</w>
B us
199 8</w>
will ingness</w>
visu ally</w>
tuber cul
tubercul osis</w>
th read</w>
sty les</w>
stre aming</w>
stag gering</w>
squ ares</w>
spati al</w>
so l</w>
ski p</w>
shi pped</w>
shap ing</w>
sha dows</w>
s cat
replac ement</w>
remin der</w>
rele ases</w>
rela x</w>
rela tivity</w>
rec ur
re serve</w>
pro v
practic ed</w>
portra its</w>
on ically</w>
nation -
mi xing</w>
me mes</w>
ma inten
mainten ance</w>
k est</w>
jun gle</w>
invent or</w>
inf ect</w>
in clusion</w>
il a</w>
hu h</w>
hos tile</w>
hippo campus</w>
gr at
gr ant</w>
fluc tu
fir ing</w>
fif ty</w>
fe t
f s</w>
exist ential</w>
ex clu
embrac ed</w>
elev ator</w>
ec ution</w>
ec ology</w>
doub le-
dementi a</w>
day -to-
day-to- day</w>
d ge
cri ed</w>
contribu tions</w>
col l
cli ff</w>
che at</w>
champ ion</w>
cha sing</w>
ch l
cele bration</w>
car t</w>
c acy</w>
bul l
bul bs</w>
bu mp</w>
ber ry</w>
atmospher ic</w>
at ories</w>
assi stant</w>
aspi rations</w>
alpha bet</w>
all ed</w>
a qu
T .</w>
Sy stem</w>
Swit zer
R ed
R S</w>
Pr ince</w>
P la
P atri
Mic hi
Lu ther</w>
H aw
H all</w>
G O</w>
F ro
Co ast</w>
C li
Be e
Argent ina</w>
1, 500</w>
. A.</w>
war fare</w>
v in</w>
uni on</w>
un intended</w>
typ ing</w>
transpor ted</w>
to oth</w>
to ol
tiz ation</w>
th ful</w>
tan gible</w>
suspic ious</w>
sto cks</w>
se -
schol ar
s i</w>
s car</w>
rot ate</w>
reduc es</w>
quie tly</w>
protec ts</w>
prof itable</w>
point ment</w>
po w
pix els</w>
pe l</w>
os ex
openha gen</w>
open ly</w>
mur dered</w>
min erals</w>
milli meter</w>
mi ly</w>
m mer</w>
lap tops</w>
kel ey</w>
ja zz</w>
integr ity</w>
infl ation</w>
infl am
inde x</w>
in depend
imple mented</w>
hel met</w>
h o</w>
gradu ates</w>
good ness</w>
ge stures</w>
f on
ec ho
diam onds</w>
diag nose</w>
di ence</w>
deliber ately</w>
dec eption</w>
dang ers</w>
d- up</w>
concentr ate</w>
color ful</w>
cl ap</w>
cere mony</w>
cen tered</w>
bo xing</w>
bo ots</w>
bo o</w>
automo bile</w>
ap parent</w>
any time</w>
ai red</w>
ad ds</w>
accep ting</w>
U C
Th en</w>
Switzer land</w>
R ec
Phili pp
Pa ul
P y
O ld</w>
Mc Donald</w>
Lo ve</w>
Li ke</w>
Leon ardo</w>
K in
J eff
Gand hi</w>
C openhagen</w>
C el
Ber keley</w>
B ol
Ar chi
Al bert</w>
2. 5</w>
1 5,000</w>
&apos; all</w>
yl um</w>
writ es</w>
vi bra
ver te
un ks</w>
u l</w>
u ba</w>
tw ist</w>
tur ers</w>
tru st
trigg ers</w>
tor al</w>
tol l</w>
to wers</w>
sus cep
surviv or</w>
stron gest</w>
sp are</w>
sol o</w>
soci etal</w>
sen sa
se al</w>
s wing</w>
rou tes</w>
resc ued</w>
repor ter</w>
recep tor</w>
re tail</w>
program mers</w>
pro position</w>
pra yer</w>
persu ade</w>
pati ence</w>
pa ste</w>
p in</w>
oper ates</w>
n ouri
mit ting</w>
mi gh
med itation</w>
measu rement</w>
lo ck
ligh ter</w>
inher ent</w>
in genu
impre ssed</w>
imp ri
illu stration</w>
honest y</w>
hol der</w>
heli um</w>
h acking</w>
gra ins</w>
ga ze</w>
frustr ating</w>
flo ors</w>
flav or</w>
f ing</w>
experim enting</w>
ex tro
evalu ate</w>
enti ties</w>
emb ar
don ated</w>
di stress</w>
dep ths</w>
dep le
dec om
d ity</w>
coordin ation</w>
claim ing</w>
catastrop hic</w>
car pet</w>
car dboard</w>
ca the
batt le
b ited</w>
arti facts</w>
arran ged</w>
ari ous</w>
accoun ting</w>
absur d</w>
a unt</w>
W ith</w>
Tel es
T ok
T en
S pe
S el
Re public</w>
Q a
N an
Michi gan</w>
J H</w>
I l
I D</w>
Ale x</w>
A bra
2 5,000</w>
world view</w>
w ow</w>
visu alization</w>
vel o
val ence</w>
tri bal</w>
trans mitted</w>
tra de-
top -
ti de</w>
te st
te am
ta stes</w>
t os
syste mic</w>
sub mit</w>
su it
streng ths</w>
stat ue</w>
spar k</w>
sp iders</w>
sou ls</w>
sk ir
sh are
sett ings</w>
sculp tures</w>
sca ff
sc ans</w>
ro lls</w>
ra ins</w>
pursu ing</w>
pros tate</w>
predat or</w>
port able</w>
plac e
pat ch</w>
paras ite</w>
paraly sis</w>
p ond</w>
ot on
or o
obse ssion</w>
obe se</w>
ob sc
mo tions</w>
mar ker</w>
lifel ong</w>
li sted</w>
len ses</w>
la sted</w>
ju ice</w>
it ated</w>
inst all</w>
in form</w>
hi stories</w>
head quarters</w>
he ter
habit ats</w>
h iring</w>
h ack</w>
grab bed</w>
glaci er</w>
gg le</w>
gent le</w>
ga ining</w>
fir mly</w>
explo itation</w>
explan ations</w>
exp ense</w>
excep tions</w>
end ants</w>
empha size</w>
emp ire</w>
ell er</w>
e astern</w>
divor ce</w>
div ine</w>
di mini
determin ation</w>
dan cers</w>
cu ps</w>
coura geous</w>
cor ri
cor relation</w>
condi tioning</w>
colum ns</w>
co her
celebr ating</w>
athle te</w>
astronom y</w>
asse ss
as ylum</w>
ar ro
anno ying</w>
addre ssed</w>
ac ute</w>
ac u
a tively</w>
Wat son</w>
Par ty</w>
Palest inian</w>
Olymp ic</w>
M s.</w>
Li br
K B</w>
Israel i</w>
I BM</w>
Gre eks</w>
Ge ographic</w>
De f
An drew</w>
A sh
A .
6 4</w>
3 -
19 30s</w>
- free</w>
zero- sum</w>
warri or</w>
war mer</w>
veter ans</w>
ver ei
ven s</w>
vari ables</w>
univer s
uniqu ely</w>
un lock</w>
ul ated</w>
u tility</w>
tic kets</w>
tho ven</w>
str ands</w>
so verei
sh ments</w>
sc ope</w>
sa il</w>
rou tin
ri dge</w>
purcha se</w>
progre ssive</w>
phosph orus</w>
ou l
off shore</w>
occu py</w>
nation alism</w>
nan ot
n is</w>
mou ths</w>
mi sts</w>
m un
liber ty</w>
le ans</w>
ir onic</w>
inv itation</w>
in y</w>
in cu
h h</w>
guid ance</w>
gg ers</w>
free zing</w>
foun ders</w>
fossi ls</w>
fl ed</w>
fi xing</w>
explo de</w>
expec tation</w>
ex clusi
er up
ent ary</w>
e an</w>
dre amed</w>
dig its</w>
den y</w>
deli cate</w>
del ay</w>
de press
d rought</w>
cu e</w>
crow ded</w>
cros s
cre ators</w>
coordin ate</w>
cooper ative</w>
conduc ting</w>
comp ati
commod ity</w>
comb ining</w>
ch ers</w>
bri ck</w>
b ag
assa ult</w>
arbit r
appreci ation</w>
ap ples</w>
ambu lance</w>
al ties</w>
ach ment</w>
a wa
Y u
U V</w>
Teles cope</w>
Qa eda</w>
Lou is</w>
K er
Ju li
J our
Hu bble</w>
Ha ve</w>
E du
Christi ans</w>
Char lie</w>
C old</w>
C T</w>
Bee thoven</w>
B A</w>
Austr alian</w>
- in-
yo ga</w>
wh it
visit ors</w>
ur ine</w>
under stand
them es</w>
the irs</w>
tan ks</w>
syste matic</w>
sum mit</w>
sti cking</w>
shi eld</w>
shel ves</w>
sche dule</w>
scar ce</w>
sal ary</w>
sa iling</w>
rel ates</w>
recomm end
ran ging</w>
propor tion
presen ting</w>
ple ased</w>
phr ases</w>
phenomen al</w>
perman ently</w>
pay ment</w>
over l
oper ated</w>
op position</w>
novel ty</w>
nic ity</w>
nee ding</w>
lon gest</w>
less ness</w>
lear ns</w>
laun ching</w>
l ately</w>
kindergar ten</w>
k h</w>
j o</w>
it -
issu ed</w>
ir rit
interven e</w>
instin c
il and</w>
grap hs</w>
gen it
ful filling</w>
fisher men</w>
figh ters</w>
fea thers</w>
fe at
exhau sted</w>
ex it</w>
ex cess</w>
er ran
emer gence</w>
dos es</w>
disrup tive</w>
discipl ines</w>
direc tors</w>
diffic ul
develop ers</w>
deep -
de bris</w>
d ung</w>
cul es</w>
convic tion</w>
constra ined</w>
cock ro
citiz en
brow ser</w>
br us
boy friend</w>
blo cked</w>
ble ssed</w>
bi ol
be aring</w>
b id</w>
automa tic</w>
asse ss</w>
acqu ire</w>
ach s</w>
absor bed</w>
Wom an</w>
Who a</w>
W oo
Tes la</w>
Syri an</w>
R es
R en
Moun t</w>
Mo vement</w>
Libr ary</w>
L ine</w>
K ong</w>
J C</w>
Em ma</w>
Eliz abe
E ll
E con
C ur
Associ ation</w>
An s
Ali ce</w>
198 4</w>
ven tures</w>
u a</w>
tw in</w>
tur b
trac ked</w>
tr ay</w>
tici sm</w>
tic k</w>
ti ghtly</w>
thin kers</w>
t elec
t all
tall er</w>
t ags</w>
super power</w>
success es</w>
statisti cal</w>
stati stic</w>
stat e-
spir al</w>
simul ate</w>
sh a</w>
resp ir
qu is
prom otion</w>
proble m-
pro hi
pri mates</w>
pre frontal</w>
pp y</w>
po or
pic ks</w>
physi ological</w>
perv asive</w>
p h</w>
o o</w>
night mare</w>
na ive</w>
m med</w>
lo cks</w>
le ap
lan e</w>
jo ints</w>
inven tions</w>
instruc tion</w>
ingenu ity</w>
impri son
hi ps</w>
hi o</w>
halluc inations</w>
guarante ed</w>
gra titude</w>
gener osity</w>
g ically</w>
fung us</w>
frighten ed</w>
fil ters</w>
ff ed</w>
fas ci
ex clusive</w>
ex -
er ies</w>
electromag netic</w>
el ines</w>
e- to-
dis per
dis appears</w>
defe at</w>
cru ci
cra stin
coun try
comp ul
com mission
circul ation</w>
ca sca
bru tal</w>
broad cast</w>
bo s</w>
be st-
be ds</w>
author itarian</w>
associ ation</w>
ari um</w>
ar a</w>
ar -
appro val</w>
app y</w>
apart ments</w>
alu min
align ed</w>
al ert</w>
aff air</w>
Zi mb
Y ale</w>
V in
Tok yo</w>
Po li
P ra
P lan
Mu mb
M t</w>
LE D</w>
Jord an</w>
J ones</w>
H or
Colum bia</w>
B ru
Al as
3 50</w>
18 th</w>
0 0
- hour</w>
zer os</w>
wavel ength</w>
w rec
ver b</w>
vari ed</w>
van ia</w>
u min
tom ato</w>
ti tles</w>
text book</w>
test oster
stret ched</w>
ste aling</w>
slo wing</w>
sle ep
sket ch</w>
sili con</w>
si bly</w>
self- driving</w>
se duc
s light</w>
ri chest</w>
respon ds</w>
recru it</w>
re design</w>
poor ly</w>
poli cing</w>
pe ti
part ments</w>
p is
op ar
om ic</w>
o y
na ils</w>
my tho
motiv ate</w>
mom s</w>
metri cal</w>
manufac turers</w>
magn i
longe vity</w>
le ver</w>
le ver
kno cked</w>
jec ting</w>
j an
initi atives</w>
ima l</w>
house holds</w>
hon ey
holi day</w>
habit able</w>
h es
gi gan
frequ encies</w>
free ze</w>
fil es</w>
femin ine</w>
ex quis
en ri
emp ath
don ate</w>
dis cre
dis appearing</w>
diarr hea</w>
deri ved</w>
de pri
cu tt
cong estion</w>
conf ession</w>
com a</w>
cha otic</w>
bu ri
biol umin
bee tle</w>
be side</w>
ballo ons</w>
b am
authenti city</w>
at i</w>
asy m
as i</w>
ar mor</w>
ar ming</w>
ar ena</w>
alumin um</w>
adap tive</w>
a tion
W ol
T I</w>
S to
S or
S har
Ne ws</w>
NG O</w>
Moz art</w>
J S</w>
Green land</w>
Co ke</w>
Christop her</w>
Brazili an</w>
Bl ack
A lab
9 00</w>
8 6</w>
1 30</w>
weigh s</w>
wee kly</w>
we ir
vul tures</w>
un healthy</w>
tw enty</w>
trigg ered</w>
trac es</w>
therap eu
terri fic</w>
ta tives</w>
t enti
tenti mes</w>
syl vania</w>
surve ys</w>
surr oun
sub stances</w>
spir its</w>
sna ke</w>
skele tal</w>
sh -
scre am</w>
ro om
rhyth ms</w>
responsi bilities</w>
re construct</w>
radi o
rac es</w>
qu al</w>
prev ents</w>
pos se
phot ons</w>
ph y
pap er
on ia</w>
ome ter</w>
occu pi
oc top
o ke</w>
nur sing</w>
mat ching</w>
lit ers</w>
lin e
li um</w>
le u
le o</w>
lad der</w>
k ened</w>
it ch</w>
ir rational</w>
intrigu ing</w>
inter f
inten tional</w>
in corpor
human kind</w>
hu t</w>
high- quality</w>
hi ve</w>
gigan tic</w>
fu ri
ey ed</w>
exerci ses</w>
eth nicity</w>
est er</w>
es say</w>
ep h</w>
envel ope</w>
enti tled</w>
en lighten
eigh th</w>
duc k</w>
diagnos tic</w>
dar ity</w>
dan cer</w>
cru de</w>
cri cket</w>
compla in</w>
co ok
cap su
ca ust</w>
broad ly</w>
bri cks</w>
brea th
blood stream</w>
bl ur
biom ass</w>
autom ation</w>
attemp ted</w>
asth ma</w>
ap ol
angi o
ance stor</w>
an ch
ad he
accumul ate</w>
ac cent</w>
a thetic</w>
Zimb ab
W ill</w>
Swe dish</w>
St even</w>
So ci
Sen ate</w>
Sec urity</w>
S and
Pu bli
Ph .D.</w>
Pen n
Par liament</w>
Mumb ai</w>
Me dic
M W</w>
L T</w>
J ama
H ou
E S
Def ense</w>
Cam bodi
199 4</w>
19 50</w>
z ines</w>
x -
wi ped</w>
w ounds</w>
voy age</w>
ur gency</w>
un stable</w>
un necessary</w>
ultr as
tra in
ti pping</w>
surroun dings</w>
stri c
sti cal</w>
so red</w>
sh ut
sh ells</w>
ser vers</w>
sal mon</w>
rul ed</w>
restric ted</w>
rec ession</w>
re tired</w>
re create</w>
quanti ties</w>
protot ypes</w>
projec tion</w>
process or</w>
press es</w>
prescri bed</w>
pos ts</w>
pi pes</w>
pe e</w>
par liament</w>
over seas</w>
out breaks</w>
out -of-
ot ine</w>
os c
of tentimes</w>
o we</w>
non violent</w>
no te
no is
neighbor ing</w>
mon thly</w>
migr ate</w>
metabo lism</w>
me tic</w>
main taining</w>
maga zines</w>
lo b
lea ther</w>
la und
je ans</w>
inten tionally</w>
independ ently</w>
illustr ates</w>
ide als</w>
hu gely</w>
head aches</w>
har bor</w>
h int</w>
h ence</w>
fra gments</w>
fo am</w>
fi ghts</w>
festiv al</w>
fast- forward</w>
ensla ved</w>
der -
dd led</w>
d ors</w>
cust om</w>
cul turally</w>
conta ining</w>
consist ently</w>
conf using</w>
concei ved</w>
comm erce</w>
co c
clos et</w>
cin e
ch y</w>
ch in</w>
cap turing</w>
cap s</w>
ca mel</w>
bud gets</w>
ad option</w>
ad mitted</w>
ad jac
a ked</w>
Ye men</w>
Penn sylvania</w>
P V</w>
Jus tice</w>
Jos eph</w>
Icel and</w>
Hawai i</w>
Go als</w>
D om
D id</w>
Com p
C lar
Au stri
2 ,
199 5</w>
won ders</w>
vo ic
v ast
twe ets</w>
through s</w>
testoster one</w>
ten tion</w>
tatto os</w>
tat or
superno va</w>
substanti al</w>
sti cky</w>
st ated</w>
sp ine</w>
sour cing</w>
soli darity</w>
smart phones</w>
sle pt</w>
shou ting</w>
seven th</w>
routin ely</w>
ris m</w>
ri sts</w>
reve aling</w>
rel uc
reha bil
regi stered</w>
re views</w>
re actors</w>
ques tion
proto col</w>
pen sion</w>
pen is</w>
partner ships</w>
p ts</w>
optimi ze</w>
ol ine</w>
nic ely</w>
negoti ate</w>
migr ants</w>
medi eval</w>
mb les</w>
m i</w>
li zing</w>
labe ls</w>
kid n
iz ations</w>
it or</w>
is a</w>
ir relevant</w>
inter faces</w>
insi sted</w>
infin itely</w>
im pe
hypothe tical</w>
hero in</w>
he ated</w>
ham mer</w>
h ats</w>
gall ery</w>
g age</w>
ful fill</w>
fron tier</w>
fa ti
epi lep
ent able</w>
en ni
easi est</w>
don ors</w>
dis k</w>
dig it
d ough</w>
d ote</w>
d less</w>
curr ents</w>
coo ked</w>
competi tors</w>
compati ble</w>
co di
catastrop he</w>
cardio vascular</w>
be et
bam boo</w>
b read
attor ney</w>
artic ulate</w>
ag en</w>
adm ire</w>
accompan ied</w>
ac tic</w>
V e
Som alia</w>
R an
Po wer
O hio</w>
Medi cal</w>
H im
F O
Ever est</w>
Ed ward</w>
C ho
Ans wer</w>
An y
Alab ama</w>
Al an</w>
4 3</w>
ware house</w>
ur ship</w>
tr unk</w>
there by</w>
t ally</w>
stimul ation</w>
squee ze</w>
sp r
sp a
sor ship</w>
s ali
s ab
regul ated</w>
recogn izes</w>
re jection</w>
re generate</w>
re forms</w>
ra tion
quanti ty</w>
qu ir
prop he
prom in
proli fer
pro crastin
priori tize</w>
premi se</w>
pre served</w>
pol l</w>
physi ology</w>
na tionally</w>
mi ld</w>
mat ernal</w>
marath on</w>
manipul ation</w>
man eu
lo bby</w>
lifesp an</w>
liber als</w>
le ar</w>
kilome ter</w>
jeal ousy</w>
j ar</w>
in al</w>
i si
hur ts</w>
horri fic</w>
ho oked</w>
ho o
gr ound
glam our</w>
gi an</w>
gha n</w>
ge -
fol k</w>
fo ol</w>
fin es</w>
fil med</w>
fic tional</w>
favor ites</w>
ey n
expon entially</w>
execu ted</w>
emplo yed</w>
el ders</w>
drin ks</w>
dri a</w>
do g
distr acted</w>
di se</w>
de sk
d ging</w>
crus hed</w>
coun cil</w>
correspon ds</w>
cop ied</w>
comp ass</w>
co p</w>
co ali
civi lian</w>
cho re
che ering</w>
break throughs</w>
bi kes</w>
bi es</w>
ban ned</w>
ay a</w>
atten ding</w>
an om
an don</w>
al i</w>
ag e
adv ance
ab used</w>
Tw o</w>
Tha iland</w>
Scot land</w>
S pi
S in
P ort
O .
M K</w>
Lar ry</w>
J on
J A</w>
I M
Free dom</w>
Af ghan</w>
9 7</w>
4 4</w>
4 0s</w>
y clo
x y</w>
wor ries</w>
week ends</w>
w a</w>
volu mes</w>
vie w
velo city</w>
v ent</w>
us able</w>
ur i</w>
ul ture</w>
u n</w>
tremend ously</w>
tel omer
t ness</w>
symbo lic</w>
suscep tible</w>
stun ning</w>
state ments</w>
sta dium</w>
spon sor</w>
speci alist</w>
space- time</w>
sp rin
some time</w>
ro w
ro ad
requi rements</w>
repe ating</w>
regi onal</w>
re hear
re acting</w>
pro jected</w>
predic ting</w>
pra ying</w>
per or</w>
pengu in</w>
pe tro
parachu te</w>
ore r</w>
ora do</w>
ob lig
nu mb</w>
no t-
nin e-
neuroscienti sts</w>
n i</w>
memor ial</w>
lec tures</w>
le m</w>
jun k</w>
jud gments</w>
j ar
ir onically</w>
intrigu ed</w>
innov ators</w>
in efficient</w>
imper ative</w>
ice berg</w>
hu g</w>
high ways</w>
hi ves</w>
he l</w>
flouri sh</w>
fl ash
fini shing</w>
fertiliz er</w>
ex ecution</w>
eter nal</w>
entreprene urship</w>
enc yclo
en si
emplo y</w>
e ste
dic tator
de light</w>
cryp to
conta minated</w>
con doms</w>
ci ssi
che f</w>
celebr ity</w>
calend ar</w>
c ke
bi op
bas eline</w>
as sure</w>
arran gement</w>
arch ive</w>
ag on</w>
adap tation</w>
Venezu ela</w>
S us
S am</w>
Republi cans</w>
Per u</w>
N H</w>
Leban on</w>
L ad
Kor an</w>
Jas on</w>
H ur
Gab by</w>
Elizabe th</w>
E D</w>
Demo cratic</w>
Cambodi a</w>
A i
5 8</w>
5 2</w>
199 6</w>
1. 2</w>
zo o</w>
wa sting</w>
vivi d</w>
us e
uri al</w>
ul es</w>
tw el
tril lions</w>
tion ism</w>
ti ans</w>
t arian</w>
sugg es
ste er</w>
so le</w>
sing ular</w>
side walk</w>
secre tly</w>
sea weed</w>
s ound
s log
rou s</w>
regi ster</w>
re invent</w>
publi cation</w>
psych op
projec tions</w>
pop s</w>
pol ls</w>
perfor mers</w>
per sons</w>
pe an
occupi ed</w>
nois y</w>
n omin
metabo lic</w>
measur able</w>
mar vel
lo gging</w>
lo cking</w>
li d</w>
laund ry</w>
la zy</w>
la stly</w>
la kes</w>
jac ket</w>
it ure</w>
incarcer ated</w>
in stances</w>
impos ed</w>
imagin ary</w>
ha ble</w>
gu er
glori ous</w>
g d
g ad
for gi
fo o
fluore scent</w>
fir ms</w>
f ill
exp ands</w>
execu tives</w>
enti ve</w>
enthusi asm</w>
en vision</w>
en su
el and</w>
e med</w>
e ats</w>
dra ws</w>
credi ble</w>
cos tly</w>
cor ti
contex ts</w>
contag ious</w>
cont ents</w>
conduc tor</w>
citizen ship</w>
che ating</w>
carb on-
cap tain</w>
ca bles</w>
br al</w>
beet les</w>
barre l</w>
b yp
b ent</w>
au top
ass y</w>
ari se</w>
ar thri
appe aling</w>
amy gd
albu m</w>
al tered</w>
al li
aggre gate</w>
ag an</w>
adul thood</w>
W right</w>
Tit an</w>
T uni
T K</w>
Sahar a</w>
SE TI</w>
S tation</w>
S ophi
R E
P C</w>
Or leans</w>
M edit
M ass
Lib eria</w>
L ittle</w>
Ken yan</w>
I ma
Gol den</w>
G G</w>
Fran c
F ort
E ri
B ot
B ir
Alas ka</w>
A B</w>
199 7</w>
wi pe</w>
wat er-
war n</w>
war m
vis its</w>
vibr ant</w>
v icious</w>
v ents</w>
v als</w>
un predictable</w>
un familiar</w>
transfer red</w>
tou ches</w>
tabo o</w>
suc ks</w>
stu mbled</w>
sn ap
sick ness</w>
scre w</w>
schol ar</w>
s en</w>
resur rec
respir atory</w>
renew ables</w>
reme mbers</w>
pus hes</w>
pu berty</w>
psychi atric</w>
prob able</w>
preven ted</w>
pos ture</w>
pla usi
pes si
par an
pal e
out si
out door</w>
opti mal</w>
op pression</w>
no vels</w>
net working</w>
nar cissi
mul tin
mos que</w>
mo dest</w>
mid night</w>
lo ver</w>
lo ading</w>
li ans</w>
ir ri
inv asion</w>
influ ences</w>
ine a</w>
in o
in ely</w>
impro ves</w>
ill usions</w>
ill ary</w>
head -
govern or</w>
g ator</w>
fro gs</w>
fore cast</w>
floo ds</w>
fit ting</w>
f lights</w>
extre mism</w>
exp ose</w>
eth ic</w>
erran ean</w>
eri al</w>
entreprene urial</w>
en du
e ager</w>
dis connected</w>
difficul ties</w>
di ves</w>
devast ated</w>
desi r
dama ging</w>
cultiv ate</w>
cr ashing</w>
cou ver</w>
corpor ation</w>
conveni ence</w>
contradic tion</w>
cont est</w>
construc ting</w>
constitu tion</w>
consider ation</w>
conserv atives</w>
com modi
coinci dence</w>
centi meters</w>
catal o
bri um</w>
bl ad
b ay</w>
att acking</w>
ar row</w>
ar range</w>
an ism</w>
adolesc ence</w>
ac es</w>
ab andon</w>
a sts</w>
Zimbab we</w>
Van couver</w>
Ti me</w>
Th ree</w>
Soci ety</w>
S now
P at
Naz i</w>
Medit erranean</w>
M as
Le e</w>
L .A.</w>
K ur
Him al
H mm</w>
G or
G et</w>
De sign</w>
De ep</w>
D -
Bus iness</w>
B hu
A K</w>
9 2</w>
8 7</w>
y e</w>
wrest ling</w>
whis per
wea kness</w>
w iz
vibra tions</w>
veter an</w>
uter us</w>
up date</w>
toler ant</w>
ten th</w>
te dness</w>
t ch</w>
synap ses</w>
streng th
stimul ate</w>
statisti cally</w>
start- up</w>
standar dized</w>
squ ir
speech es</w>
sna kes</w>
sk in
sk ies</w>
sha de</w>
semi -
self- interest</w>
se gment</w>
satis fying</w>
ri p
rewar ded</w>
re solved</w>
re n</w>
re lies</w>
re claim</w>
ran king</w>
publi sh
pu mps</w>
pr one</w>
po ets</w>
plas ma</w>
pil ots</w>
peri ph
pack aging</w>
our se</w>
on to
neuro logical</w>
near -
nanop articles</w>
mush room</w>
multip li
mosquit os</w>
migh ty</w>
metaph ors</w>
mean time</w>
me thodo
master y</w>
margin alized</w>
mar kers</w>
m ity</w>
m ill</w>
low- up</w>
lo yed</w>
lo com
li p</w>
k u
ju mps</w>
jewel ry</w>
j am
introduc ing</w>
incu b
in spec
hos ts</w>
hon ored</w>
ha irs</w>
h ap
h alls</w>
gu ests</w>
gram mar</w>
g ate
fo ol
floo ded</w>
fa me</w>
fa int</w>
eyn man</w>
exc uses</w>
escap ed</w>
epis o
ep er</w>
enor mously</w>
endeav or</w>
emplo yers</w>
educa tors</w>
dur ation</w>
dis plays</w>
dis connect</w>
di ous</w>
desk top</w>
critici sm</w>
corti sol</w>
cop ying</w>
con fined</w>
con clusi
che ap
ch al
calcul us</w>
ca bin
c coli</w>
bus h</w>
buri al</w>
bro ccoli</w>
boun ce</w>
bl end</w>
bl ast</w>
attribu tes</w>
as is</w>
arbitr ary</w>
anesthe sia</w>
and-a- half</w>
adjac ent</w>
ad ren
acade mics</w>
Y oun
W ould</w>
Vic tori
V ol
T ai
T M</w>
Su dan</w>
S R</w>
P l
Ni ke</w>
May be</w>
K os
Jeff er
In stag
I .</w>
Hun g
F eynman</w>
Den mark</w>
Cos ta</w>
Chi ld</w>
C anyon</w>
C R</w>
Abra ham</w>
6 8</w>
4 0
3 00,000</w>
15 0,000</w>
. org</w>
weigh ed</w>
wat ches</w>
val id</w>
v is</w>
v ap
ur us</w>
unemp loyed</w>
under graduate</w>
tu rer</w>
tre ss</w>
tr i</w>
tox ins</w>
ther more</w>
stimul us</w>
spec im
sli me</w>
simul ations</w>
sho ot
sc or
s ounding</w>
s a</w>
roof s</w>
ro yal</w>
ri des</w>
restri al</w>
repli ed</w>
repeti tion</w>
rab bits</w>
prev entable</w>
pow der</w>
pol es</w>
play ful</w>
pas sions</w>
parti ally</w>
par ag
or ph
no de</w>
nic otine</w>
n ies</w>
mush rooms</w>
mul tic
mu st
mon sters</w>
mom ent
mo i
mil it
mi ti
loy alty</w>
liter ary</w>
le vel
l i</w>
k ra
k n
k en
j uni
j am</w>
inv iting</w>
intri cate</w>
inti mid
induc ed</w>
indi cates</w>
in complete</w>
i mb
hy gi
histor ian</w>
high- speed</w>
grass roots</w>
gl ory</w>
gg les</w>
gall ons</w>
foun ding</w>
fo g</w>
explor ers</w>
eni x</w>
emplo yer</w>
du mp</w>
dru ms</w>
dra gged</w>
docu menting</w>
do -
disc ou
dis proportion
diff er</w>
dev oted</w>
de pressing</w>
cylin der</w>
cu red</w>
contrac ts</w>
confer ences</w>
con grat
co workers</w>
co aches</w>
clean er</w>
cl ari
cine ma</w>
chemi st</w>
cent ric</w>
can n
ca m
c i</w>
bor ne</w>
ben ch</w>
be ef</w>
batt les</w>
ban ana</w>
bacter ium</w>
b ill
astronau t</w>
assess ment</w>
anti depress
ang ular</w>
ang el
altru ism</w>
acceler ation</w>
Spr ing</w>
P os
P I
L au
Gran d
F our</w>
E ve</w>
Dan ny</w>
B or
B it
A S
9 .
4 0-
y a
w iring</w>
w an</w>
vir gin</w>
ver ge</w>
vege table</w>
ve y</w>
va e</w>
up ward</w>
un cover</w>
um -
tro pic
treas ure</w>
trans action</w>
to dd
tic es</w>
ti st</w>
threat en</w>
tax i</w>
tal es</w>
sup pos
stu b
str at
ste in</w>
stan ts</w>
stair case</w>
st a</w>
sign aling</w>
si es</w>
sho w
ser oton
seas ons</w>
scre en
scal able</w>
sc rap
s lowed</w>
ro ckets</w>
ri sk
ri gor
rhe tor
restric tions</w>
repor ters</w>
rel ying</w>
ref ra
reci pi
recei ves</w>
real- world</w>
re pa
re generative</w>
ques tioned</w>
pun ish</w>
pre servation</w>
photograp hers</w>
pestici des</w>
perpe tu
over looked</w>
oppon ents</w>
opar dy</w>
off ensive</w>
no tori
mo re
mel an
margin s</w>
ma ble</w>
m und
le op
labor atories</w>
kid neys</w>
j amin</w>
indica tors</w>
in ject</w>
in er
imp aired</w>
im planted</w>
hom a</w>
hall way</w>
ge tic</w>
g y-
forgi veness</w>
fear ed</w>
fa de</w>
explic itly</w>
excep tional</w>
equ ili
du g</w>
develop ments</w>
detec ting</w>
de partments</w>
country side</w>
controver sy</w>
compe tent</w>
collabor ating</w>
chur ches</w>
cen sorship</w>
car ro
c tions</w>
blue print</w>
b are</w>
attr action</w>
asp ir
arri ving</w>
ar i</w>
api ens</w>
an ec
a ver
a b</w>
Z ero</w>
Sou theast</w>
Si de</w>
S AR
Rus sians</w>
P ur
P ho
M ot
M ill
M au
M aria</w>
M ach
Le ague</w>
Holo caust</w>
Hi story</w>
G M</w>
Cor ps</w>
Che ers</w>
Ch ap
Ben jamin</w>
B e</w>
B .</w>
A my</w>
A G</w>
9 3</w>
5 9</w>
3 9</w>
2 -
1 2,000</w>
z ona</w>
x on</w>
war t</w>
w ounded</w>
viol in</w>
ve il</w>
v on</w>
us al
usal em</w>
under way</w>
un seen</w>
un imaginable</w>
un certain</w>
un acceptable</w>
transc end
trans forms</w>
tr act</w>
thir ty</w>
tag ged</w>
tac tics</w>
super ior</w>
stabili ze</w>
spon taneous</w>
speci alists</w>
space ship</w>
sp ouse</w>
simpli fied</w>
shir ts</w>
she pher
se am
se als</w>
scar city</w>
scan ned</w>
sc aled</w>
rul ing</w>
ri ll
requ ests</w>
ren dered</w>
remot ely</w>
refriger ator</w>
reflec ting</w>
recru ited</w>
recomm ended</w>
real izes</w>
re use</w>
re tri
re tain</w>
re define</w>
pro tons</w>
prejudi ce</w>
prefer red</w>
pou red</w>
posi tively</w>
pl ot
pi p
percep tual</w>
pe er-
p lo
or ted</w>
octop us</w>
o zone</w>
nu anced</w>
non sense</w>
no tions</w>
mund ane</w>
mon ia</w>
mis si
ment ors</w>
meaning less</w>
me tals</w>
man- made</w>
lin king</w>
j an</w>
investi gating</w>
in habit
in ability</w>
hybri d</w>
hun g</w>
hu a</w>
h ills</w>
grand ma</w>
gr ounded</w>
gh ost</w>
genu inely</w>
gener ational</w>
foc uses</w>
floo ding</w>
execu te</w>
ex pressing</w>
ex ams</w>
evalu ation</w>
este em</w>
es day</w>
er ec
equili brium</w>
enti ty</w>
en do
eli minated</w>
du m
du de</w>
divi ding</w>
divi des</w>
desc endants</w>
defic it</w>
dec lining</w>
de ss</w>
cu bic</w>
conven tion</w>
cont acted</w>
concei ve</w>
con cussion</w>
compu te</w>
compli cations</w>
co ch
cli cks</w>
check list</w>
ch er
centi meter</w>
categ or
cal ci
block chain</w>
bl os
bl ink</w>
bi ome
bac ked</w>
b ath</w>
ash a</w>
arri val</w>
ar ate</w>
appreci ated</w>
anom al
all ing</w>
all as</w>
ad mi
a ward</w>
a man
Wa it</w>
Vo ice</w>
T ay
S inging</w>
S M</w>
Ro os
Pla to</w>
Mon ter
Mi ami</w>
Mat t</w>
Mar gar
L O
K o
Jer usalem</w>
Instag ram</w>
G ali
F al
Egyp tians</w>
E s
Col orado</w>
C amp
Buddhi st</w>
Bo y</w>
Beat boxing</w>
B ul
Arab ia</w>
A no
5 4</w>
4 00,000</w>
19 70</w>
yp ing</w>
x it</w>
volun tary</w>
vit amin</w>
ur ani
up loaded</w>
u top
tw enty-
tri angles</w>
transi stors</w>
ti des</w>
thir d-
ta h</w>
suppor ters</w>
summar ize</w>
suici dal</w>
stri pped</w>
storytell er</w>
star vation</w>
spon taneously</w>
spar ked</w>
sign ing</w>
shu ff
sh iny</w>
seroton in</w>
sensa tions</w>
sec ular</w>
se di
s no
ro wing</w>
rhetor ic</w>
repeti tive</w>
rep ly</w>
regul atory</w>
re y</w>
re per
pur pos
provi ders</w>
pre valence</w>
poli ce
plan tation</w>
pip eline</w>
pill ars</w>
pill ar</w>
pi geon</w>
photosyn thesis</w>
ph any</w>
partis an</w>
parti al</w>
p acks</w>
p acking</w>
oun ce</w>
or bits</w>
op tic</w>
op ing</w>
objec tives</w>
more over</w>
mir ac
mes h</w>
manufac tured</w>
lu mp</w>
lon g
lo cate</w>
life times</w>
lat eral</w>
juven ile</w>
joy ful</w>
jour neys</w>
j er
is ing</w>
instin cts</w>
in habit</w>
in door</w>
impul se</w>
iP od</w>
i ghts</w>
har ne
har mon
h ec
fu zzy</w>
fl at
fl ames</w>
fat ty</w>
fac e-to-
exclusi vely</w>
exc essive</w>
evel t</w>
ev es</w>
eradi cate</w>
embry o</w>
em bodied</w>
eli minating</w>
edu cating</w>
ech o</w>
dru g-
distor ted</w>
dispos al</w>
digit ally</w>
develop s</w>
deser ts</w>
de x</w>
d ome</w>
cra f
configur ation</w>
comman ds</w>
cogn ition</w>
cock tail</w>
civi lians</w>
che e
ce me
car til
br and-
bo thered</w>
bo iling</w>
bit ter</w>
belon ged</w>
be tra
be ls</w>
be ans</w>
bas ket</w>
b less</w>
atten ded</w>
ar teries</w>
anti bodies</w>
anim ate</w>
ampli fy</w>
ad versity</w>
Ye ar</w>
W ars</w>
Tur k
Th ings</w>
T ed</w>
St asi</w>
Roos evelt</w>
P MS</w>
Nep al</w>
Monter ey</w>
Mon tan
Mari e</w>
M a</w>
L y
K -
Jour nal</w>
I C
G rou
G aza</w>
E r
DV D</w>
D ic
D E
Con stitution</w>
C -
B each</w>
Am ster
Ac tually</w>
A I
9 4</w>
6 6</w>
19 00</w>
-in- law</w>
- year-olds</w>
- F
zi p</w>
y land</w>
y l</w>
worth while</w>
wor ship</w>
vir gin
vibr ating</w>
us et
uset ts</w>
urban ization</w>
urani um</w>
un es</w>
tor tured</w>
tion aries</w>
tempor arily</w>
tempor al</w>
targe ting</w>
t ear
symp hony</w>
sym metrical</w>
swal low</w>
sur ge</w>
su ms</w>
sto ck
snea kers</w>
smar test</w>
shut tle</w>
sett lements</w>
sel ective</w>
sear ched</w>
sc ape</w>
ri pped</w>
resul ted</w>
reflec tive</w>
re viewed</w>
re treat</w>
prosecu tor</w>
priv ation</w>
pre serving</w>
pra g
pot ato</w>
place bo</w>
pl au
pe aks</w>
pain ter</w>
ow ns</w>
os ion</w>
or able</w>
ob server</w>
nee dles</w>
my ce
multin ational</w>
mic r
mi gra
mel ody</w>
marri ages</w>
mani fest</w>
magne ts</w>
ly n
la sts</w>
j i</w>
interrup ted</w>
integr ating</w>
inst ability</w>
influ ential</w>
imp ose</w>
ic ons</w>
iP ad</w>
i or
i g</w>
i est</w>
hur ting</w>
ho g</w>
he ights</w>
h eck</w>
gr as</w>
gover ned</w>
go ats</w>
g eria</w>
fur thermore</w>
fra g
fol low-up</w>
fla wed</w>
face-to- face</w>
f i</w>
exten sive</w>
es a</w>
er to</w>
epi phany</w>
ener gy-
e mul
don ation</w>
disgu sting</w>
discipl inary</w>
dis c</w>
diplom acy</w>
develop mental</w>
desir able</w>
dd ly</w>
dar ker</w>
cur sor</w>
coo kie</w>
continu um</w>
contain er</w>
confli c
conclu ded</w>
com pressed</w>
col lar</w>
cli ps</w>
ci ans</w>
chimp s</w>
ch unk</w>
ch ol
ch o</w>
certi fied</w>
cere bral</w>
cathe dr
care givers</w>
calcul ation</w>
c ited</w>
bur ger</w>
bu mps</w>
bu cket</w>
bre ed</w>
bon us</w>
ble eding</w>
bi polar</w>
be hold</w>
be ar
appe ti
ap plau
ap ar
an ne</w>
an as</w>
amygd ala</w>
ali en
air line</w>
ag nos
ad d
acou stic</w>
aci ties</w>
ach usetts</w>
acceler ated</w>
a .m.</w>
Tu esday</w>
Si b
S ta
S her
R oss</w>
Philipp ines</w>
P ot
Off ice</w>
O reg
O ak
Nor we
Mass achusetts</w>
L ady</w>
Ke pler</w>
J F</w>
I m
H ans</w>
Gol d
Ger mans</w>
Colum bus</w>
Bu ff
Amster dam</w>
5 1</w>
4 .
198 9</w>
y le</w>
work shops</w>
wil derness</w>
wi shed</w>
vol ati
vision ary</w>
visc eral</w>
up load</w>
un pleasant</w>
ul tural</w>
ul ating</w>
tre ats</w>
transl ates</w>
transforma tions</w>
swit ching</w>
susp ected</w>
sugges tions</w>
subur ban</w>
stro kes</w>
si tion</w>
shrin king</w>
short age</w>
sh out</w>
self- esteem</w>
sc ars</w>
rot ating</w>
risk -
revolu tions</w>
represen tatives</w>
rela xed</w>
refer ences</w>
re d-
promin ent</w>
progre ssion</w>
program mer</w>
produc er</w>
pos ters</w>
pedestri an</w>
paras ites</w>
para meters</w>
p neu
p he
p an</w>
outra ge</w>
os h</w>
ob tained</w>
o ven</w>
new s
necess ity</w>
mu til
moder n
mobi lize</w>
min imal</w>
ment ality</w>
me tr
me me</w>
mar ching</w>
lou der</w>
liter al</w>
la tions</w>
k its</w>
invent ors</w>
in hal
in expensive</w>
ill in</w>
hypothe ses</w>
hi d</w>
goo d-
flu ids</w>
fi shes</w>
ff iti</w>
fe tus</w>
fashi oned</w>
extre mes</w>
exten ds</w>
experim entation</w>
et y-
epide mi
elev ated</w>
e Bay</w>
du al</w>
dra in</w>
determin ing</w>
deliber ate</w>
degra ded</w>
deal t</w>
d war
cryst als</w>
cr ashes</w>
cop s</w>
conspir acy</w>
compla ining</w>
colon ial</w>
coher ent</w>
co ined</w>
classi fied</w>
char ts</w>
certi fi
calci um</w>
bur ns</w>
bio logically</w>
be aches</w>
arthri tis</w>
anim ated</w>
an ity</w>
agre ements</w>
Tre k</w>
Th ur
T B</w>
Sy l
Sim on</w>
S hi
S ee</w>
R ick</w>
Pri me</w>
P ost</w>
Oreg on</w>
O l
Moun tain</w>
Mini stry</w>
M B</w>
Lib ya</w>
LGB T</w>
LE GO</w>
K ansas</w>
Jeffer son</w>
H ome</w>
H al
Goo g
Gali leo</w>
G over
Dou g</w>
Da ve</w>
D allas</w>
C ir
Ari zona</w>
Ano ther</w>
A D
1. 3</w>
1 80</w>
wol ves</w>
volcan oes</w>
v ani
under estimate</w>
ultras ound</w>
twel ve</w>
trust worthy</w>
triump h</w>
to s</w>
tion ist</w>
ti re</w>
thr ust</w>
ter minal</w>
ten se</w>
ten ed</w>
syn thesis</w>
subur bs</w>
ste ering</w>
sta ke
ss ly</w>
simul ated</w>
sequ enced</w>
sc and
s apiens</w>
run g</w>
ro tation</w>
ri gh
reven ues</w>
reven ge</w>
respon sive</w>
recogn iz
radi us</w>
ra inf
ra ging</w>
qui z</w>
prostitu tion</w>
prosecu tors</w>
pri cing</w>
preten ding</w>
pres sive</w>
predic ts</w>
poly mer</w>
polar ization</w>
po ols</w>
person alities</w>
perio dic</w>
pe p
pan crea
pancrea tic</w>
oper ator</w>
op ed</w>
om y</w>
nu t</w>
no ble</w>
nic k
new born</w>
ner d</w>
neo cortex</w>
mir acles</w>
mi mic
men u</w>
me tro
mar t</w>
m um</w>
lingu istic</w>
li der</w>
la h</w>
infin ity</w>
inf ants</w>
in geni
improvi sation</w>
imb al
ic illin</w>
hu b</w>
hot ter</w>
hop eless</w>
he dge
harve sting</w>
guid elines</w>
guer rill
gu ts</w>
gra d</w>
go at</w>
gi g
gas oline</w>
gall on</w>
fu tu
fu eled</w>
for ensi
fle e</w>
fit ted</w>
firef lies</w>
fa vel
evol u
evi dent</w>
es a
epilep sy</w>
en ched</w>
empi ri
elec toral</w>
el ites</w>
distr action</w>
dis si
dis missed</w>
dig est</w>
detec tors</w>
de privation</w>
cy cli
cost- effective</w>
conclusi ons</w>
concep tual</w>
con dem
compreh ensive</w>
colli sions</w>
chol era</w>
chemi sts</w>
champ ions</w>
cartil age</w>
capsu le</w>
calcul ating</w>
ca stle</w>
c ali
break down</w>
bo o
aud acious</w>
attemp ting</w>
as tically</w>
ar rows</w>
ang led</w>
an na</w>
an e
an an
al arming</w>
air o</w>
Y NH</w>
V s</w>
Tra de</w>
Ten nes
T ar
St one</w>
S ome</w>
S O
R O
R M</w>
P in
P ic
Montan a</w>
Margar et</w>
Mar ine</w>
M ama</w>
M aga
L uc
L or
L G</w>
K han</w>
Iran ian</w>
E mily</w>
Comp any</w>
C ent
C airo</w>
Bu il
8 8</w>
4 1</w>
15 th</w>
yiel ds</w>
y ou
work shop</w>
with stand</w>
whist le</w>
w ells</w>
un t
u pri
tur tles</w>
transl ator</w>
toler ate</w>
ti tion
thir dly</w>
ten nis</w>
t ones</w>
t at</w>
sub scri
su bor
stra in</w>
str and</w>
sto le</w>
stell ar</w>
st- century</w>
st ap
sol ves</w>
slo ths</w>
sing er</w>
si us</w>
separ ating</w>
sel ls</w>
se tup</w>
scholar ship</w>
sc ra
sat ur
sa il
rus hed</w>
ru in</w>
ru de</w>
rin ge</w>
resi dential</w>
rel ent
rainf all</w>
prosp ect</w>
presen tations</w>
prac tition
plac ement</w>
pen icillin</w>
pay ments</w>
p ic</w>
ou trage
op lan
ona than</w>
on ists</w>
of- the-
o v</w>
neuro transmit
motor cycle</w>
motiv ations</w>
mit es</w>
mind fulness</w>
mind ful</w>
middle- class</w>
mer cy</w>
membran es</w>
mathema tically</w>
mac ro
les bian</w>
le ster
le af
lap se</w>
kilo grams</w>
jud ged</w>
ion ship</w>
intu itively</w>
intro verts</w>
intrinsi c</w>
indica tor</w>
in jection</w>
in cl
imagin ative</w>
her d</w>
govern mental</w>
geograp hic</w>
g lance</w>
fre ak</w>
fli pped</w>
finger print</w>
fer tility</w>
fati gue</w>
expres sive</w>
establi shment</w>
er ase</w>
episo des</w>
epide mics</w>
ep y</w>
encoun ters</w>
ec lip
dri ed</w>
do od
disc ourse</w>
develop er</w>
deter ior
dec ode</w>
dat a-
cri tics</w>
cra wl</w>
cr ush</w>
counter -
coun ty</w>
cor p
concent rations</w>
con ce
compos er</w>
compe t
compar able</w>
commun al</w>
colle ges</w>
class mates</w>
cho lester
char ging</w>
chap ters</w>
bri be</w>
bottom -up</w>
bo ot</w>
ber y</w>
band width</w>
ban k
bal ancing</w>
ay ed</w>
avo id
ati ent</w>
ast ounding</w>
ari th
ar che
al yp
ad ventures</w>
a wards</w>
a esthe
a a</w>
Wor l
W it
Ve gas</w>
V an</w>
U kra
Tennes see</w>
Tas man
Secre tary</w>
SD Gs</w>
S tr
S cr
S P</w>
R adi
Pit ts
Oak land</w>
Nor man</w>
Mo der
Mis s</w>
Maga zine</w>
M ol
M G</w>
L yn
K im</w>
K h
Jo el</w>
J onathan</w>
Ira q
I N
Hind u</w>
Her cules</w>
Haw king</w>
G all
Europe ans</w>
Di ego</w>
D oc
D al
Cu ba</w>
Ch er
Cel sius</w>
Bro ad
B S</w>
Ameri cas</w>
6 0-
21 st-century</w>
19 45</w>
1 40</w>
- year</w>
ye ast</w>
wom b</w>
warri ors</w>
wan der</w>
volcan ic</w>
verte br
us san
ussan i</w>
understand able</w>
un ite</w>
un a</w>
trans actions</w>
tra tion</w>
th al
tex tile</w>
telomer es</w>
t oss</w>
sw ir
st amp</w>
spi ke</w>
sp y</w>
simil arities</w>
sever ely</w>
se mic
se ize</w>
sc are</w>
s miles</w>
ri g</w>
reti re</w>
re su
re sting</w>
rat ings</w>
rab bit</w>
r ated</w>
psychiatri st</w>
prosper ous</w>
pros the
pri stine</w>
pri mate</w>
pri est</w>
poe tic</w>
po orer</w>
pix el</w>
p ine</w>
ow l</w>
orphan age</w>
opho bia</w>
oblig ation</w>
nur turing</w>
myce lium</w>
mu t
mor ally</w>
mo ons</w>
miser y</w>
manuscri pt</w>
man gro
main tained</w>
m ons</w>
loo m</w>
logi stics</w>
lo ops</w>
leu ke
lec ted</w>
le ys</w>
k s
inter viewing</w>
immer sed</w>
igh s</w>
idi ot</w>
i ors</w>
hus bands</w>
hur ricane</w>
human e</w>
horri fied</w>
hil ar
he els</w>
gui des</w>
gener ator</w>
g us
g la
g ance</w>
for bi
fla me</w>
ex hilar
en suring</w>
en di
el der</w>
e mit</w>
dou bling</w>
devi sed</w>
dec entr
de emed</w>
d son</w>
counter intuitive</w>
coordin ated</w>
contribu tes</w>
contem pl
commit tee</w>
co aster</w>
clear ed</w>
cholester ol</w>
ch ill</w>
ce l</w>
bur n
bud dy</w>
bu tter</w>
bra in-
borro wed</w>
bloo dy</w>
blo ws</w>
bit es</w>
be ams</w>
bal con
back pack</w>
b ending</w>
ax es</w>
argu ably</w>
ar ous
appropri ately</w>
anticip ated</w>
analo g</w>
amp u
ambigu ity</w>
all y-
accommod ate</w>
ab usive</w>
Y a
Willi ams</w>
To wer</w>
Syl via</w>
Ste wart</w>
Snow den</w>
O per
Mon go
Michel angel
Medic ine</w>
L HC</w>
Ke ith</w>
H ill</w>
Gi ussani</w>
G K</w>
Frank lin</w>
El on</w>
E very</w>
Di rec
D av
Cap tain</w>
A us
8 0,000</w>
7 6</w>
6 .
z i</w>
yo gur
wel com
vill agers</w>
vers a</w>
ve ins</w>
var ying</w>
une qual</w>
under mine</w>
two- dimensional</w>
tur tle</w>
tim eline</w>
than ol</w>
temp tation</w>
tack ling</w>
swe eping</w>
sur fing</w>
suppos edly</w>
suit case</w>
sub mitted</w>
stret ching</w>
st ined</w>
spa ghet
smo kers</w>
slog an</w>
sl um</w>
si zing</w>
si z
si p</w>
sh allow</w>
ser vo
sel ler</w>
school ing</w>
satis fy</w>
rewar ding</w>
reson ance</w>
ref ers</w>
reason ably</w>
re construction</w>
re adily</w>
rain y</w>
rain forests</w>
radio active</w>
pre sti
pollu tants</w>
pol itan</w>
play ground</w>
plan ners</w>
pha ges</w>
pe ar
par all
organiz ational</w>
oppos ing</w>
one- third</w>
ona ire</w>
offici ally</w>
nur ture</w>
nor mal
neuroscienti st</w>
na il</w>
n ell</w>
mytho logy</w>
mur der
moun ted</w>
moun tain
moi sture</w>
mi zing</w>
mi le
manipul ated</w>
man ages</w>
mag net</w>
lu min
listen ers</w>
leuke mia</w>
la wn</w>
l ur
ke l</w>
it ry</w>
inter medi
int end</w>
inspi res</w>
insi st</w>
inhabit ants</w>
ingeni ous</w>
ing- edge</w>
inflam mation</w>
inf er
inci dentally</w>
im mortality</w>
hyper -
hom ici
hand ling</w>
hac ker</w>
h ically</w>
guess ing</w>
gri m</w>
gra ffiti</w>
gos h</w>
god dess</w>
go -
geome tric</w>
ge ments</w>
ge able</w>
gam ers</w>
fur n
func tionality</w>
fra ming</w>
fl ashing</w>
fi erce</w>
evol ves</w>
esc ence</w>
empha sis</w>
emer gent</w>
e mission</w>
e ag
dur able</w>
dre am
distinc tive</w>
disp arity</w>
dis played</w>
dis man
dic tionaries</w>
di ans</w>
di a</w>
deca y</w>
de t
de stined</w>
d us</w>
d addy</w>
crus hing</w>
cr acked</w>
cou pled</w>
cor respond</w>
cor related</w>
cool ed</w>
construc tive</w>
comp act</w>
commodi ties</w>
clean ed</w>
cla ws</w>
char ter</w>
char is
can dle</w>
ca v
ca -
c it
ben ign</w>
begin nings</w>
b n
audit ory</w>
attribu te</w>
atro cities</w>
at able</w>
am ents</w>
al ge
advo cates</w>
adolesc ents</w>
acknowled ged</w>
achiev ements</w>
ab normal</w>
X- rays</w>
T own</w>
Star bucks</w>
Ser vice</w>
S ene
R am
Portu gal</w>
Pitts burgh</w>
Pe te</w>
Ok la
Mos es</w>
Michelangel o</w>
M A
L isa</w>
K elly</w>
K M</w>
I ri
I mp
Himal ay
Gener ation</w>
Franc is</w>
Fo x</w>
Fl int</w>
Coun try</w>
C O</w>
C N
B .
Antar ctic</w>
Air bn
A h
199 1</w>
y m</w>
win -
war ned</w>
war ms</w>
w is</w>
vie wers</w>
veri fy</w>
v end
up wards</w>
uni fied</w>
un ted</w>
ul ts</w>
u tter</w>
tru sting</w>
trou bling</w>
tr en
tr action</w>
to wel</w>
tic ity</w>
ti ger</w>
tem ples</w>
t u</w>
t t</w>
t asking</w>
syn c</w>
swe at
swe ar</w>
sup press</w>
subor din
stri ve</w>
strat osphere</w>
stran gely</w>
str ous</w>
sti ff</w>
spra wl</w>
spot ted</w>
sp an
slo pe</w>
si e
si de-
sen sible</w>
sea food</w>
se aled</w>
sa ves</w>
s warm</w>
s day</w>
ri p</w>
ri ots</w>
respec tful</w>
requ iring</w>
relev ance</w>
rehabil itation</w>
re pl
re fined</w>
re building</w>
r s.</w>
r hin
que er</w>
pul sion</w>
prom oted</w>
pro ph
pre valent</w>
pot atoes</w>
pol ite</w>
pl um
pir ate</w>
peti tion</w>
perpetr ators</w>
per sec
per -
pa ds</w>
outrage ous</w>
ol factory</w>
oc alyp
navi gation</w>
mun ici
multip lied</w>
mon th-
migr ant</w>
me ster</w>
mal nutrition</w>
like wise</w>
lea ks</w>
le x
lam b</w>
l ings</w>
k ening</w>
juni or</w>
jun ction</w>
interf ere</w>
institu te</w>
insec ure</w>
ing es</w>
ind ul
in corporate</w>
in comes</w>
in adver
i er</w>
hom o
ho o</w>
hear s</w>
he it</w>
ha sh
ha r</w>
h ren
guess ed</w>
gi ver</w>
ge ons</w>
far m
facil itate</w>
fac ulty</w>
exten ding</w>
exquis ite</w>
explos ions</w>
exp en
exi can</w>
ev ed</w>
escap ing</w>
effec tiveness</w>
eff ic
dro p
dro id</w>
domin ate</w>
doc tr
din ing</w>
dictator ship</w>
diagnos tics</w>
dep ended</w>
dele te</w>
d rank</w>
cur se</w>
crow ds</w>
cros ses</w>
cre epy</w>
cr un
correspon ding</w>
cook ies</w>
cont acts</w>
connec tom
commit ments</w>
cho p</w>
centr alized</w>
cataly st</w>
bra very</w>
br on
bo arding</w>
blo gging</w>
bio graphy</w>
beha ves</w>
be having</w>
battle field</w>
bas s</w>
ban anas</w>
at us</w>
arre n</w>
ari al</w>
ar c</w>
amate ur</w>
agre es</w>
addre sses</w>
abo li
W arren</w>
Ta ke</w>
Sy d
SAR S</w>
S po
Ro yal</w>
Ren aissance</w>
R ab
Publi c</w>
Power Point</w>
Patri ck</w>
P ap
Okla homa</w>
N B</w>
M rs.</w>
M exican</w>
M en</w>
M .</w>
Li ve</w>
Kos ov
Jo han
J obs</w>
J .</w>
I P
Ham il
H it
H arri
H ad
Grou p</w>
Fal con</w>
F L</w>
E .</w>
Cra ig</w>
Christi anity</w>
C uri
C lu
Budd ha</w>
Bar ack</w>
8 2</w>
6 7</w>
5 3</w>
10 0-
z uri</w>
z om
y elling</w>
welcom ed</w>
wavel engths</w>
w ob
vast ly</w>
vap or</w>
up right</w>
under -
un know
un folding</w>
un fold</w>
ultra -
ul ted</w>
ul ations</w>
ty po
tra iler</w>
tou rism</w>
to ast</w>
thous and
thor ough
testi mony</w>
tax pay
sun ny</w>
subsequ ent</w>
sub stitute</w>
sta in
squ id</w>
spe eding</w>
sp read
sp er</w>
sol itary</w>
sett ling</w>
seiz ure</w>
segre gated</w>
se ated</w>
ru b</w>
ris dic
requi rement</w>
refer ring</w>
red und
ra ged</w>
problem- solving</w>
pro ves</w>
predic tive</w>
pp le</w>
popul ated</w>
pl un
ph y</w>
persi st</w>
pe tri</w>
pas sport</w>
para dise</w>
par tici
p m</w>
outw ard</w>
on set</w>
ni k</w>
negoti ating</w>
neg lect</w>
mp y</w>
mon k</w>
modi fy</w>
mb o</w>
master piece</w>
mar gin</w>
mag ician</w>
ma dness</w>
le vers</w>
las ers</w>
ju risdic
irri gation</w>
inten sely</w>
influ enz
indi cation</w>
incenti vi
in jected</w>
ign oring</w>
identi fication</w>
ide ally</w>
hygi ene</w>
hun ters</w>
hren heit</w>
hot els</w>
hi j
head ache</w>
h acked</w>
ght ness</w>
free way</w>
for- profit</w>
fle eing</w>
film makers</w>
film maker</w>
fi del
fidel ity</w>
femin ism</w>
fair y</w>
expos ing</w>
ener gi
en coded</w>
el bow</w>
effic acy</w>
do omed</w>
dis se
di re</w>
di cal</w>
desc ent</w>
deman ded</w>
dec o
cutt ing-edge</w>
cool er</w>
com mission</w>
colli de</w>
coll agen</w>
chore ograp
character ized</w>
cha mbers</w>
ce ton</w>
cat ches</w>
capit alist</w>
cam els</w>
ca m</w>
c ture</w>
c ac
but t</w>
bur sts</w>
brigh ter</w>
boun cing</w>
blo b</w>
bin ding</w>
bicy cles</w>
be ll
bas sa
bal lot</w>
back ward</w>
b ust</w>
b ounded</w>
avoi ded</w>
avail ability</w>
av atar</w>
appli ances</w>
ap ocalyp
ang els</w>
am bassa
ali gn</w>
al o</w>
air -
aff ection</w>
advo cacy</w>
adap table</w>
ad er</w>
aby tes</w>
U p</w>
Syd ney</w>
St or
S ho
S .
Rob in</w>
Ro y</w>
Prin ceton</w>
Paul o</w>
O E
Norwe gian</w>
N ar
M ir
L P</w>
K le
K ab
H A
G an
Fro m</w>
Fre u
Fa hrenheit</w>
E E
Demo crats</w>
Con nec
Com pu
Colom bia</w>
Col a</w>
Car l</w>
Can cer</w>
CO V
Bo ok</w>
Bit coin</w>
Bhu tan</w>
An na</w>
8 3</w>
7 1</w>
5 -
4 6</w>
2 ,500</w>
11 th</w>
é s</w>
yogur t</w>
yl an</w>
wonder fully</w>
wea ve</w>
un ra
un aware</w>
ul u</w>
u ts</w>
ty ran
trou bled</w>
treat y</w>
ti more</w>
therapeu tic</w>
therap ists</w>
th ical</w>
th als</w>
ten ded</w>
t- based</w>
symme tries</w>
swit ches</w>
susta ining</w>
sur plus</w>
super powers</w>
suc c
subsi dies</w>
sub marine</w>
streng then</w>
stra ins</w>
spaghet ti</w>
sole ly</w>
soci o
sket ches</w>
skep ticism</w>
simpli stic</w>
seri al</w>
sci ss
scat tered</w>
san g</w>
ri val</w>
revel ation</w>
rect angle</w>
recor dings</w>
reconci le</w>
rain bow</w>
r inging</w>
quot es</w>
qua tic</w>
pu t
pro xim
pro tag
pro pri
prescri be</w>
por n</w>
pl ots</w>
persist ent</w>
penetr ate</w>
ot es</w>
or ch
on co
negoti ations</w>
ne gie</w>
nanot echnology</w>
monit ored</w>
mon opo
min g
mi r</w>
metri cs</w>
mer chan
memor able</w>
marvel ous</w>
ma bly</w>
locom otion</w>
lim itation</w>
li me
li er</w>
legen d</w>
kne sses</w>
k u</w>
ja w</w>
interpre ted</w>
industri alized</w>
impli cit</w>
imm unity</w>
imbal ance</w>
ic k
histor ians</w>
heart beat</w>
hea vens</w>
ham mad</w>
h ale</w>
gri p</w>
grand mothers</w>
gl u
ga tive</w>
g lands</w>
fre e-
fra med</w>
fo li
finger tips</w>
fin e-
fi ve
fear ful</w>
f ences</w>
eye bro
exi le</w>
exha us
exam ining</w>
et ta</w>
er osion</w>
encyclo pedia</w>
e thanol</w>
dra g
domin ance</w>
do ck</w>
divi sions</w>
disp arate</w>
di ce</w>
dec lined</w>
dec l
datab ases</w>
dan ces</w>
d u</w>
d able</w>
cur y</w>
cro codi
cri tic</w>
cr ashed</w>
counsel or</w>
corri dors</w>
continu ity</w>
compu ter-
compreh en
comple xi
commit ting</w>
commission ed</w>
cockro ach</w>
cli ch
circu itry</w>
ch ant</w>
car i
cap tures</w>
can cer
bul k</w>
black -
bla de</w>
billi on
bi onic</w>
bal let</w>
back up</w>
assu mes</w>
ass ass
as ser
arri ves</w>
arran gements</w>
ar ch</w>
all er
air ports</w>
ag ging</w>
adap ting</w>
accumul ated</w>
abstr action</w>
Tor onto</w>
Tit anic</w>
Th ird</w>
So cial</w>
S ci
S achs</w>
S A
R on
Pol and</w>
Pho enix</w>
O pen</w>
O liver</w>
Nat asha</w>
N ami
Mu hammad</w>
Mat the
Ma dison</w>
I II</w>
H igh
Gar den</w>
G ive</w>
En lighten
E lec
Cy rus</w>
Con tro
Chri st</w>
Car negie</w>
Bri dge</w>
B la
B ec
Airbn b</w>
AL S</w>
A ar
8 4</w>
5 7</w>
196 8</w>
y ota</w>
witne sses</w>
whist ling</w>
wh ites</w>
wel coming</w>
wat t</w>
wal kable</w>
univers ally</w>
u x</w>
u re
u mb
u el</w>
tropic s</w>
tri ple</w>
tra gically</w>
tic ut</w>
ti res</w>
thro ws</w>
thou ghtful</w>
the id</w>
th yro
th yl
tab let</w>
ta sted</w>
t our
synthe size</w>
symp tom</w>
surpri ses</w>
super computer</w>
sti ll
st op
sna p</w>
scre wed</w>
sc uba</w>
san ctu
sal es
rub ble</w>
rigor ous</w>
restor ative</w>
repli cating</w>
ren ted</w>
ren dering</w>
recru iting</w>
recru it
re sort</w>
re servo
random ness</w>
quanti tative</w>
qu al
puni shed</w>
pul ses</w>
prote sters</w>
program mable</w>
presu mably</w>
presi dents</w>
port al</w>
po ker</w>
plausi ble</w>
perpe tual</w>
p raise</w>
p li
p ale</w>
over lap</w>
od y
occup ation</w>
obsc ure</w>
o logically</w>
o le
o bos</w>
ni cal</w>
nes ota</w>
mort al</w>
mo ck
min eral</w>
mic ally</w>
methodo logy</w>
menstru ation</w>
memor ize</w>
mar sh
mar ched</w>
man tra</w>
man date</w>
mam moth</w>
lon ging</w>
lo os
ligh twe
laugh s</w>
la in</w>
kill ers</w>
k it
journ als</w>
inv aded</w>
incre mental</w>
in visibility</w>
hur ry</w>
hedge hog</w>
he av
happi est</w>
h yp
gr ace
glo ves</w>
gl y
gi ants</w>
gen omics</w>
ge ological</w>
fresh water</w>
fre ed
fo ie</w>
flouri shing</w>
flo wn</w>
fl y
figh ter</w>
fi s
fe e</w>
f law</w>
explic it</w>
ex os
er on</w>
environ mentally</w>
enti als</w>
ent ine</w>
e ms</w>
e h</w>
dri ft</w>
dragon flies</w>
din burgh</w>
dict ator</w>
diam ond</w>
di ets</w>
desc ended</w>
deli ghted</w>
def ending</w>
decentr alized</w>
dec ei
cul t</w>
counsel ing</w>
contin ually</w>
comp ens
collec tions</w>
collap ses</w>
collabor ator</w>
co co
circum stance</w>
cho ir</w>
ch im
ch ari
car pen
cabin et</w>
ca sts</w>
ca fe</w>
bre w</w>
bo il</w>
ble ssing</w>
ble ed</w>
blad der</w>
be ta</w>
be dro
basi cs</w>
aw ned</w>
att achment</w>
athle tic</w>
astronom ical</w>
associ ations</w>
ap e
analy tical</w>
ambigu ous</w>
alle vi
addic tive</w>
accompli shments</w>
ac ron
a urus</w>
a quatic</w>
a gos</w>
a e</w>
a a
Wil son</w>
W hole</w>
Uni verse</w>
U. K</w>
T her
Sus an</w>
St age</w>
Sophi e</w>
S K</w>
S -
Rom ans</w>
Ro ger</w>
R ep
R .</w>
Ph ot
P lay
Neander thals</w>
Min nesota</w>
Ma j
M ul
Le wis</w>
K en</w>
Jos hua</w>
John ny</w>
Jen ni
In tel
In dus</w>
I ce</w>
I A</w>
Hou ston</w>
Hit ler</w>
HI V-
H ello</w>
F ul
F iel
F I
E dinburgh</w>
E D
De ath</w>
D ylan</w>
D un
D ig
D R</w>
Connec ticut</w>
Com mission</w>
Co ca-
Bal timore</w>
B et
An ne</w>
Al len</w>
A C
A A</w>
9 1</w>
8 0-
5 00,000</w>
4 9</w>
197 5</w>
1 25</w>
ã o</w>
wr ink
wa x</w>
w ing
ven om</w>
v ec
us s</w>
ul a</w>
u tes</w>
tun nels</w>
tough est</w>
tou rist</w>
tic als</w>
thre ads</w>
thou se</w>
thorough ly</w>
te or
ta kers</w>
t ently</w>
symp athy</w>
sy nes
swa p</w>
sun set</w>
summar y</w>
sul fi
su ited</w>
star tling</w>
stake holders</w>
son ic</w>
socio economic</w>
so ils</w>
small -scale</w>
sle x
sing ers</w>
seri ousness</w>
sel ec
sear ches</w>
se wage</w>
sciss ors</w>
sc r
s- on</w>
s word</w>
ru ins</w>
ri ghtly</w>
resp ects</w>
regul ating</w>
reg arded</w>
refle x</w>
recogniz able</w>
re served</w>
ra il</w>
r ina</w>
propos ing</w>
predat ory</w>
pra yers</w>
power less</w>
power fully</w>
pop -up</w>
poli cy
pione ers</w>
p opping</w>
p opped</w>
over coming</w>
ori cal</w>
oper ational</w>
old- fashioned</w>
o e</w>
nucle i</w>
non- zero-sum</w>
no tation</w>
ni ece</w>
muni cations</w>
mis understood</w>
min ent</w>
migr ated</w>
mess aging</w>
mb a</w>
may ors</w>
mas ks</w>
manufac turer</w>
mal e-
m our
liz ation</w>
lightwe ight</w>
lean ing</w>
l acking</w>
l ac
ke eper</w>
jan itor</w>
invent ory</w>
inv ade</w>
in stan
in security</w>
in puts</w>
imprison ed</w>
imm un
im mu
hor se
holi stic</w>
hi ma</w>
har med</w>
gr in
glo wing</w>
gan gs</w>
furi ous</w>
fore ign
fli r
fir stly</w>
fin ances</w>
fil ed</w>
fif teen</w>
f uc
f u</w>
exp ort</w>
exhau sting</w>
es -
equ itable</w>
environ ment
enthusi astic</w>
ener getic</w>
en der</w>
embarr assment</w>
ell ular</w>
e z</w>
dy slex
dy e</w>
du ci
drow ning</w>
do o</w>
di ary</w>
di al
de par
day light</w>
cur ator</w>
critici zed</w>
cra wling</w>
cos ting</w>
cor ona
contain ers</w>
con soli
compla ined</w>
compan ion</w>
col s</w>
col der</w>
co w
cli cking</w>
cle ver
cl apping</w>
ci a</w>
cent ri
ce ly</w>
casca de</w>
car ved</w>
butter flies</w>
bul lying</w>
bu ys</w>
bra kes</w>
br ink</w>
bo os
bo ils</w>
bio -
bel ts</w>
aw i</w>
audit orium</w>
atmospher es</w>
astronom er</w>
as sign</w>
ari anism</w>
app er</w>
ap pointment</w>
ap agos</w>
announ cement</w>
ance stry</w>
air y</w>
aim ing</w>
after ward</w>
ad or</w>
ad ers</w>
a il</w>
Worl d
Wi de</w>
U N
T uring</w>
T ou
R ou
R as
Palest ine</w>
N Y
Mo del</w>
Mc C
Ma c</w>
Lin ux</w>
Li sten</w>
LE Ds</w>
L es
L C</w>
Jenni fer</w>
Isa ac</w>
Harri et</w>
Ham let</w>
H ot
H ir
Gu inea</w>
Gal apagos</w>
Ga me</w>
Enlighten ment</w>
Edu cation</w>
Ear th-
E ven</w>
E i
Coca- Cola</w>
C P
C M
C .
Bru ce</w>
Bre xit</w>
Bat man</w>
Ath ens</w>
Ar m
An droid</w>
Alexan dria</w>
A bed</w>
199 3</w>
y able</w>
x en
wrec k</w>
whit e-
wea ving</w>
warm th</w>
volunte ered</w>
volcan o</w>
ven ues</w>
vaccin ated</w>
v in
tre adm
treadm ill</w>
trau ma
transc end</w>
trade- offs</w>
thin ner</w>
thi est</w>
th orium</w>
swal lowed</w>
stun t</w>
stret ches</w>
stor ing</w>
sti cally</w>
ster ing</w>
stat ues</w>
star ving</w>
star d</w>
squ ared</w>
sli p
skele tons</w>
six -year-old</w>
simpli fy</w>
si ghted</w>
shepher d</w>
seas onal</w>
se xi
rus hing</w>
ro pes</w>
rein forced</w>
regre ts</w>
rec y</w>
re tr
re mit
ra ms</w>
r ally</w>
quic ker</w>
prof iles</w>
prefer ence</w>
post- traumatic</w>
por a</w>
pois oning</w>
po op</w>
pla que</w>
pedi atri
pedestri ans</w>
partici pat
paper work</w>
p ins</w>
oul der</w>
op er</w>
one- on-
om ers</w>
o xide</w>
nos tal
ner dy</w>
nec tar</w>
n as
mu tually</w>
moder ate</w>
mod ules</w>
mod ular</w>
mista ken</w>
mer it
mean ings</w>
mb le
mat s</w>
ma id</w>
m its</w>
lo wer
lo id</w>
lit t
liber ation</w>
ke en</w>
it re
it ative</w>
instinc tively</w>
inadver tently</w>
in nate</w>
in doors</w>
in adequate</w>
imagin ations</w>
im plants</w>
ignor ant</w>
ic ked</w>
hy dra
hu m
hos ting</w>
hom osex
hip -
han dy</w>
h h
gui ding</w>
gre ed</w>
ge ek</w>
gall eries</w>
ga me-
g ous</w>
fre aking</w>
fran ch
fra gmented</w>
fore most</w>
for bid</w>
flo ck</w>
ff ing</w>
f use</w>
extrac ted</w>
exam ined</w>
ex cer
es y</w>
es tive</w>
equ ator</w>
ener gies</w>
end uring</w>
ema iled</w>
el astic</w>
e ps</w>
e po
e man
duc ks</w>
down loaded</w>
don ations</w>
distur bed</w>
distri cts</w>
disc oun
differenti ate</w>
di lu
di ge
descrip tions</w>
dec e
de fi
de er</w>
cur ved</w>
cr at</w>
counter parts</w>
costu me</w>
commerci ally</w>
ce phal
carb on
car ve</w>
car ni
bul lets</w>
bu zz
brand- new</w>
bom bing</w>
bom bar
bodi ly</w>
biot echnology</w>
bi osphere</w>
b bing</w>
b -
au g
assu red</w>
as pora</w>
ar sen
appeti te</w>
apar theid</w>
anthropo logy</w>
anthropo logist</w>
anno yed</w>
anci es</w>
amp hi
al izes</w>
agnos tic</w>
aggre ssion</w>
ag a</w>
aff lu
aesthe tics</w>
adi c</w>
ad verse</w>
accompli shment</w>
ab uses</w>
ab sent</w>
Youn g</w>
Y el
W on
W o
V el
UC LA</w>
Ta h
Sene gal</w>
Re ally</w>
R A</w>
Phili p</w>
PE T</w>
O t
Nor den</w>
Ne il</w>
Mon key</w>
M en
M all</w>
M D
Lad en</w>
Kat rina</w>
K ri
Ju lian</w>
Je opardy</w>
J ack
Iri sh</w>
ID -
ID- 19</w>
Gir l</w>
Fin land</w>
E A</w>
De an</w>
De ad</w>
Con ference</w>
COV ID-19</w>
C H
Bu t
B y</w>
Au gu
Au dience</w>
Al lan</w>
African- Americans</w>
A gency</w>
A G
7 8</w>
3- D</w>
2 50,000</w>
19 20s</w>
-F i</w>
zer oes</w>
work places</w>
wh ir
wh il
whil st</w>
wea knesses</w>
wan a</w>
w ears</w>
vi an</w>
ver tically</w>
vege tation</w>
vag ue</w>
v il
un g
tur n
transi stor</w>
tra de
top- down</w>
thyl ac
thu mb
thi um</w>
temp ting</w>
t ted</w>
t ches</w>
swe pt</w>
sustain ably</w>
super massive</w>
super heroes</w>
sub set</w>
su pre
su itable</w>
stub born</w>
state- of-the-
state-of-the- art</w>
start- ups</w>
so cks</w>
smil ed</w>
sli ces</w>
sion ately</w>
sil ently</w>
si ghts</w>
sho res</w>
sho cks</w>
seven -
sec recy</w>
schedul ed</w>
run ner</w>
ro de</w>
revolution ize</w>
restor ation</w>
rein force</w>
reci pro
reci pes</w>
ra v
quanti fy</w>
provi der</w>
prov ince</w>
protot yping</w>
proto cols</w>
proph ec
pro ving</w>
pri zes</w>
policy makers</w>
pir ates</w>
pin point</w>
person nel</w>
perfec tionism</w>
pat ches</w>
p ad
ort al</w>
oppon ent</w>
ome ters</w>
o live</w>
o is</w>
no ted</w>
nin th</w>
negoti ation</w>
na h</w>
multi verse</w>
multi tasking</w>
modi fication</w>
moder n-
mini sters</w>
middle- aged</w>
mel ted</w>
me se</w>
m alls</w>
lo wing</w>
lo be</w>
listen er</w>
lim iting</w>
li ation</w>
lef to
kilo s</w>
kic ks</w>
jail s</w>
isol ate</w>
inv ites</w>
inter ference</w>
inser t</w>
inno c
indi cated</w>
in forma
in ate</w>
impul ses</w>
impli cation</w>
imm ortal</w>
ide ological</w>
hor n</w>
ho bby</w>
hip- hop</w>
heavi er</w>
heart breaking</w>
he el</w>
har ming</w>
gy m</w>
gri ev
gran dd
grab bing</w>
gra ders</w>
gen ital</w>
gal actic</w>
g gy</w>
g ar</w>
fund raising</w>
ful filled</w>
friend ships</w>
for getting</w>
for fe
foot -
fluctu ations</w>
feat ured</w>
fami li
fa x</w>
f ty</w>
explo rer</w>
ex clusion</w>
eradi cation</w>
er nity</w>
end lessly</w>
em its</w>
ed ited</w>
e mitting</w>
e dy</w>
dra gging</w>
dis son
dis agreement</w>
depri ved</w>
degra dation</w>
defin itions</w>
defe ated</w>
deb ates</w>
de grade</w>
d ull</w>
d ingly</w>
cru el
cro ws</w>
coo lest</w>
constitu tional</w>
con sol
commerci als</w>
comm u
colon i
coc cus</w>
cl ed</w>
ck -
che fs</w>
chan ger</w>
cen sus</w>
casu alties</w>
carto onist</w>
ca ve
ca f
buil der</w>
bru tality</w>
brilli ance</w>
brigh test</w>
br ac
bom bed</w>
bl acks</w>
biome dical</w>
be ard</w>
barre ls</w>
ban kers</w>
avi an</w>
athe ist</w>
ate mal
assi st</w>
as sed</w>
arti fact</w>
ar tery</w>
ap pointed</w>
anthropo logists</w>
announ ce</w>
ambi a</w>
algorith mic</w>
al ine</w>
ag on
adap tability</w>
accumul ating</w>
W hi
U r
Tuni sia</w>
Ti bet</w>
TED x</w>
T ran
T T</w>
Sk ype</w>
Sib eria</w>
S R
Ric a</w>
Red wood</w>
R over</w>
Paki stan
P ros
OE CD</w>
N ation</w>
Matthe w</w>
Mar yland</w>
Mach ine</w>
L im
Kosov o</w>
J M</w>
In dex</w>
Har lem</w>
H ear
Gu atemal
G ri
F ive</w>
En viron
D. C.</w>
D y
Contro l</w>
Clu b</w>
Ch uck</w>
CE R
C ru
C ro
C oper
C amp</w>
Bro thers</w>
Bra d</w>
Bo ard</w>
Bal i</w>
B P</w>
Aar on</w>
A venue</w>
A ges</w>
7 7</w>
5 6</w>
5 .
0 1</w>
wo ven</w>
war d
virtu ous</w>
vibr ate</w>
ventil ation</w>
vel ing</w>
val ve</w>
v om
up er</w>
un sustainable</w>
un s</w>
ty- five</w>
turbul ence</w>
trou ble
tra ded</w>
tom atoes</w>
thic kness</w>
temp t</w>
techno logists</w>
tec ton
te ddy</w>
t- shirt</w>
sulfi de</w>
suff ers</w>
su al</w>
storytell ers</w>
spi kes</w>
sor ted</w>
smu gg
sin king</w>
shat tered</w>
sh ire</w>
se u
sc roll</w>
satur ated</w>
s sional</w>
s ors</w>
rele ssly</w>
rela tional</w>
rede mption</w>
recei ver</w>
re stra
re mo
re active</w>
ra ff
r é
pu mping</w>
pri mal</w>
pre school</w>
pr inters</w>
pneu monia</w>
pit ched</w>
photograp hing</w>
persu asive</w>
persu aded</w>
pack aged</w>
p its</w>
over fishing</w>
outw ards</w>
out dated</w>
ori st</w>
org asm</w>
op es</w>
one-on- one</w>
ok o</w>
occa sional</w>
ob iles</w>
o ch
n eling</w>
mor ph
mon soon</w>
mon ks</w>
modern- day</w>
mo on
milli meters</w>
millenni um</w>
micro wave</w>
merit o
memb ership</w>
mascul ine</w>
mag ically</w>
ma ths</w>
ly ri
lo cal
li thic</w>
leop ard</w>
legen dary</w>
lear ners</w>
le is
kn it</w>
k not</w>
k ingly</w>
investi gative</w>
investi gations</w>
inci dents</w>
in ated</w>
i fied</w>
horri fying</w>
honey bees</w>
hom elessness</w>
heart break</w>
harm less</w>
guess es</w>
gre y</w>
gr it</w>
glob alized</w>
gene tici
ge ology</w>
gam ing</w>
ga it</w>
ful fill
fore head</w>
fle et</w>
five -year-old</w>
fil ming</w>
fi er
ff y</w>
extr action</w>
exter n
excell ence</w>
ex oplan
establi shing</w>
est rogen</w>
er otic</w>
ec o-
ec es</w>
dy nam
dri ver
dri lling</w>
dre sses</w>
down stairs</w>
doub ts</w>
disp arities</w>
demon strations</w>
demo graphics</w>
dedi cate</w>
da unting</w>
d is</w>
d der</w>
cust oms</w>
cur b</w>
cri es</w>
credi bility</w>
cra fted</w>
cra b</w>
cour ty
cor rup
controll er</w>
conqu ered</w>
connec tedness</w>
confir m</w>
conf use</w>
concer ts</w>
concep tions</w>
comp ose</w>
communi cated</w>
common place</w>
co ins</w>
co aching</w>
clin icians</w>
cli mat
ch up</w>
ch ord</w>
cell ul
butter fly</w>
brow sing</w>
broad casting</w>
blu e-
bl aming</w>
biot ech</w>
b lowers</w>
autom obiles</w>
aspir in</w>
ar ose</w>
ar mies</w>
anti dote</w>
angio genesis</w>
anch or</w>
anatom ical</w>
am ous</w>
align ment</w>
ag ne</w>
ag as
advi sed</w>
acci dental</w>
abor tion</w>
Z uc
W ed
W ales</w>
Ven ice</w>
Ukra ine</w>
Tai wan</w>
T ell</w>
T .
Sp eci
Sp ace
S uper</w>
S put
S T</w>
S MS</w>
R L</w>
Plan et</w>
Pi cas
P ep
P at</w>
Nami bia</w>
N avy</w>
Moun tains</w>
Mil o</w>
Mar shall</w>
Ma ke</w>
M om
M o</w>
L ama</w>
J r</w>
J az
I V</w>
Hy per
Hur ricane</w>
Hel en</w>
He brew</w>
Hamil ton</w>
H is</w>
Gu ar
Fort une</w>
Doc tor</w>
Des ert</w>
D M</w>
D AR
Cor por
Con ven
CER N</w>
C up</w>
C at
Austri a</w>
Arm strong</w>
4 50</w>
197 3</w>
16 th</w>
1 -
whist le-
whi sper</w>
wea ker</w>
wa ving</w>
viol ently</w>
viol ation</w>
vi g
ver sa
uti lized</w>
under go</w>
un thin
un finished</w>
un covered</w>
u ma</w>
type face</w>
two- year-old</w>
two- way</w>
transl ating</w>
tou rists</w>
til t</w>
ti ers</w>
thin ess</w>
ther ing</w>
theore tically</w>
telec om
te amed</w>
sy non
sur f</w>
substanti ally</w>
su perf
stric tly</w>
str apped</w>
sti r
ster oids</w>
stand point</w>
st ling</w>
st am
st al</w>
st acked</w>
sp rings</w>
sol vable</w>
sol ar-
sne ak</w>
snap shot</w>
sle eve</w>
side ways</w>
sho ots</w>
sho ok</w>
shi p
see ks</w>
sco red</w>
sche mes</w>
sal ad</w>
sacri fic
s ings</w>
ru m
ro cke
rip ples</w>
ri pe</w>
ri ad</w>
reson ate</w>
re imagine</w>
re fin
re connect</w>
ran ks</w>
ran ges</w>
ran g</w>
rab ies</w>
ra mp
purcha sed</w>
pu ri
protec tions</w>
prop elled</w>
pro voca
pre mature</w>
posi tioned</w>
pher om
performan ces</w>
per sever
pean ut</w>
particip ated</w>
p H</w>
oxy gen
over load</w>
out doors</w>
ou l</w>
or is</w>
or i</w>
optimi st</w>
opo li
op tics</w>
one- to-
on ary</w>
off line</w>
occu pa
o logies</w>
nutri tious</w>
note book</w>
nor theast</w>
neutr ons</w>
neuros ur
ner gy</w>
na use
n on</w>
n an</w>
mp er</w>
mind- wandering</w>
min orities</w>
mi d</w>
mer ge</w>
meas les</w>
ma ize</w>
m mm</w>
m at</w>
limit less</w>
lime stone</w>
liber ating</w>
lan der</w>
iter ation</w>
invol vement</w>
investi gated</w>
inter rupt</w>
integr al</w>
install ations</w>
inf eri
in gu
im perfect</w>
ill es</w>
hyper tension</w>
humili ation</w>
hier arch
han ding</w>
h en
gu el</w>
grab s</w>
gan g
gam ma</w>
g le
fulfill ment</w>
freed oms</w>
forensi c</w>
forbi dden</w>
for k</w>
fool ed</w>
fil tered</w>
fac ade</w>
f le</w>
f MRI</w>
extre mist</w>
es cent</w>
er ased</w>
enhan ced</w>
end or
en vy</w>
en code</w>
el o
dre ad</w>
divi d
devast ation</w>
desper ation</w>
def ici
deci ph
de tention</w>
dar kest</w>
dar ing</w>
cus sions</w>
cu res</w>
cu bes</w>
cruel ty</w>
cran e</w>
contradic tions</w>
contrac ep
con science</w>
comp elled</w>
comm ute</w>
come dian</w>
clin ically</w>
cli mbers</w>
cl ama
che mo</w>
che er</w>
chal k</w>
ch arities</w>
cere mon
cell phone</w>
cell ed</w>
can ni
ca id</w>
c one</w>
bran ded</w>
bo re
blin dly</w>
blan ket</w>
ber ries</w>
ban jo</w>
ar ises</w>
anticip ation</w>
an gible</w>
an gel</w>
an ge
alter nate</w>
alge bra</w>
aim ed</w>
ag ile</w>
adverti se
adver s
adv ancing</w>
adap tations</w>
aci di
accumul ation</w>
a zz
a mo
a ka</w>
a hu
Win dows</w>
V C</w>
Turk ish</w>
TED Talk</w>
T C</w>
Sto ck
Sput nik</w>
Sh ir
S top</w>
S how</w>
Ro b</w>
Picas so</w>
P ope</w>
O ri
Nic hol
N in
N ev
Mon tre
Mi guel</w>
Medi caid</w>
Mal awi</w>
M ore</w>
M I</w>
La wr
Ki ri
Ka h
K al
Jer ry</w>
J on</w>
J im
In no
In formation</w>
I van</w>
He a
H W</w>
Guatemal a</w>
Gl ass</w>
G il
Euro pa</w>
E thic</w>
E U</w>
D é
Cli mate</w>
Af ter</w>
Ad mini
A mend
A man
A id</w>
A di
A R</w>
8 9</w>
6 1</w>
2. 0</w>
18 00s</w>
12 th</w>
12 -
10 th</w>
wr on
wor thiness</w>
with draw
wal let</w>
volati le</w>
vis or</w>
vi ous</w>
v ory</w>
v et</w>
unthin kable</w>
un ky</w>
ul ls</w>
transforma tional</w>
tough er</w>
tin iest</w>
ti tled</w>
threat ens</w>
tear ing</w>
tal lest</w>
tail -
tab le
synes the
susp ects</w>
survi ves</w>
surve yed</w>
sur render</w>
supp liers</w>
super hero</w>
suc ked</w>
stre sses</w>
stimul ating</w>
sti cker</w>
ste ep</w>
sp ok
soverei gn</w>
so lem
so da</w>
simil arity</w>
si ca</w>
separ ately</w>
segre gation</w>
se mester</w>
sca ven
sc rap</w>
sanctu ary</w>
s nee
s ands</w>
retr osp
repl en
reli eved</w>
reg arding</w>
refu ge</w>
recruit ment</w>
recommend ations</w>
reco vering</w>
re inventing</w>
ran ked</w>
rab bi</w>
que ens</w>
quali fy</w>
psycho tic</w>
profession ally</w>
prin cess</w>
pos it
pit ches</w>
pil gri
pharm ac
persu asion</w>
perfor mer</w>
per me
pe dal</w>
participat ory</w>
parag rap
pac kets</w>
p seu
p om
p .m.</w>
over weight</w>
out lets</w>
ol er
off ense</w>
occa sions</w>
ob o</w>
nutri tional</w>
neg lected</w>
nation- state</w>
nation wide</w>
n es</w>
mou th
mor pho
mirac ulous</w>
milli on
menstru al</w>
mel ts</w>
mel o
me a
mb ly</w>
mass -
los er</w>
lo wered</w>
ligh ted</w>
leis ure</w>
law suit</w>
lar vae</w>
land fill</w>
k l
k ar
invest or</w>
intimid ating</w>
inter sec
inter nationally</w>
int oler
int angible</w>
insul t</w>
inher it</w>
in ha
in da</w>
imp acting</w>
ici ally</w>
human ities</w>
hu mbling</w>
hi es</w>
hi de
hand some</w>
ha ul</w>
gy m
gr ind</w>
gi raff
gen cies</w>
fung al</w>
fri dge</w>
four -year-old</w>
for mal
foot steps</w>
flav ors</w>
f laws</w>
extre mists</w>
esti al</w>
enter taining</w>
ent y
enhan cing</w>
encryp ted</w>
en force</w>
en ey</w>
empath ize</w>
el -
dragon fly</w>
dom esti
do s</w>
dis miss</w>
del ayed</w>
decreas es</w>
cur tain</w>
cu bic
cruci ally</w>
cran k</w>
cr abs</w>
court room</w>
counter fe
conqu er</w>
con dom</w>
compos ite</w>
complexi ties</w>
compet ence</w>
communi st</w>
communi ca
clo cks</w>
ci ent</w>
champ agne</w>
ch unks</w>
certifi cate</w>
cel estial</w>
cel ad
cathedr al</w>
casu al</w>
car go</w>
car cin
cap acities</w>
camp fire</w>
byp ass</w>
buil ders</w>
bu yers</w>
brea st
bit ten</w>
billi on-dollar</w>
bi got
bel lion</w>
bat i</w>
aw ning</w>
automo tive</w>
assi sted</w>
asp ire</w>
appar atus</w>
anima tions</w>
ak in</w>
ai ds</w>
admini str
activ ating</w>
ach oma</w>
acade mia</w>
ab i
a x</w>
a ha</w>
a erial</w>
Wh at
Wed nes
W is
W est
Vo y
Vin ci</w>
V ill
Tro y</w>
Tr ans
T echnology</w>
Su m
Sor ry</w>
Si x
S ão</w>
S T
Re agan</w>
R ac
R -
Pu erto</w>
P as
P .
O ver</w>
Mal dives</w>
M P
Lat ino</w>
La k
L ast</w>
Kiri bati</w>
K A</w>
Jos h</w>
Intel lig
In tel</w>
I M</w>
I -
H op
H as
H ai
H D</w>
Gir ls</w>
G ro
G od
E le
Del ta</w>
Dal ai</w>
D ick</w>
Compu ter</w>
C ou
Bro w
B ay
Ar ts</w>
Ar ch
Any way</w>
Amend ment</w>
Al li
9 9.
9 ,000</w>
7 .
2 7
198 5</w>
196 9</w>
15 -year-old</w>
14 -year-old</w>
wi sh
whi p</w>
well ness</w>
waste water</w>
wan na</w>
wa kes</w>
vul ture</w>
vot er</w>
val ves</w>
v o</w>
v esti
v ent
under going</w>
un conventional</w>
u rely</w>
tw enty
ti tan
ti mber</w>
ten sions</w>
t z
t ty</w>
t man</w>
sw am</w>
sub jected</w>
stri es</w>
str al</w>
stimul i</w>
stimul ated</w>
steri le</w>
stere o</w>
sp it</w>
smo oth
sm elling</w>
skir ts</w>
sh op
sent enced</w>
self- assembly</w>
scar es</w>
sali va</w>
sal aries</w>
rul er</w>
ru ined</w>
ru g</w>
ris en</w>
respon ders</w>
rese mble</w>
requ est
represen tations</w>
repli cated</w>
rep tiles</w>
ren owned</w>
re tail
re mix</w>
re l</w>
re au</w>
r enti
pur ity</w>
provoca tive</w>
progre ssively</w>
pri mor
premi um</w>
popul arity</w>
pollu ting</w>
philanthro pi
pha ses</w>
persist ence</w>
partner ed</w>
pale onto
p end
p ace
overwhel mingly</w>
oun d-
or ded</w>
ol ding</w>
ob by</w>
numb ered</w>
night mar
neurotransmit ters</w>
net t</w>
nega tively</w>
nee dless</w>
ne phe
navi gating</w>
nation ality</w>
na ï
must ache</w>
motiv ating</w>
monopo ly</w>
monit ors</w>
mis information</w>
min ary</w>
mb er
ma ge</w>
m ite</w>
los ers</w>
lo vers</w>
lit ter</w>
li king</w>
lever aging</w>
lean ed</w>
l ure</w>
l ing
l iness</w>
l as</w>
kno cking</w>
kill ings</w>
k les</w>
ju ggling</w>
jeal ous</w>
it ors</w>
is ons</w>
inf amous</w>
iner tia</w>
in as</w>
il literate</w>
id ity</w>
ic ity</w>
ic e-
high- resolution</w>
head phones</w>
he h</w>
gradu ation</w>
gradu al</w>
gi ous</w>
gi fted</w>
ge eks</w>
gar ment</w>
fron t-
fre ed</w>
for wards</w>
fin ancing</w>
fi er</w>
fi able</w>
fer tile</w>
fascin ation</w>
f in</w>
eye -
exclu ded</w>
ev a</w>
eter nity</w>
eradi cated</w>
enjo yable</w>
enc er</w>
el usive</w>
el ect</w>
duc tion</w>
drow ned</w>
driver less</w>
dre ad
disrup ted</w>
disc arded</w>
disadvant aged</w>
di vers</w>
depos it</w>
depend ency</w>
den ser</w>
den ed</w>
def ensive</w>
decl are</w>
dec on
da ho</w>
cred ited</w>
cr acking</w>
counter ing</w>
cor r
contin ental</w>
consist ency</w>
connectom e</w>
confir mation</w>
conf ess
con vul
comple ting</w>
comm entary</w>
coali tion</w>
cli cked</w>
clari fy</w>
child birth</w>
che er
celad us</w>
campaign ing</w>
ca ste</w>
c kers</w>
bureau cracy</w>
bri ghtness</w>
brea sts</w>
bos on</w>
bo ws</w>
bl amed</w>
bio fuels</w>
be t
be gging</w>
be ac
bas king</w>
bar k</w>
b ital</w>
b ends</w>
avi ation</w>
at al</w>
ast on
are foot</w>
are -
anten na</w>
alter ing</w>
al ore</w>
ai res</w>
advis or</w>
adop ting</w>
adju st
ad mit
ad mission</w>
activ ation</w>
a ties</w>
Wi -Fi</w>
W ater</w>
T ami
St and
Some times</w>
Sol om
Sol ar</w>
Scot tish</w>
S ir
R H</w>
Py th
Pot ter</w>
Portu gu
P ear
O dys
O W
Nic ole</w>
N 1</w>
Montre al</w>
M art</w>
Lawr ence</w>
Lar ge</w>
L as</w>
Kore ans</w>
K an
Jus tin</w>
Joh ns</w>
Jack son</w>
J ill</w>
I daho</w>
Himalay as</w>
H S</w>
G ene</w>
Fu tur
Fe deral</w>
En celadus</w>
E lli
E ff
E dison</w>
Du ke</w>
Du ba
Dre am</w>
Dom i
De pression</w>
Dar w
D M
Chan nel</w>
Cam eron</w>
CP U</w>
CA R</w>
C la
Bon o</w>
Bang alore</w>
B ey
B BC</w>
Admini stration</w>
6 2</w>
3 ,
199 2</w>
198 8</w>
z zing</w>
yo to</w>
yl on</w>
woo d
wit ch</w>
win- win</w>
weap on
vol tage</w>
vo red</w>
virtu es</w>
viol ated</w>
vi bration</w>
v ices</w>
up grade</w>
un safe</w>
ul ously</w>
turbul ent</w>
tr achoma</w>
tooth brush</w>
ti l</w>
thyro id</w>
thin ker</w>
the on</w>
ter min
t ;</w>
sy r
swe ating</w>
sul fur</w>
subsequ ently</w>
sub atomic</w>
stra w</w>
star ed</w>
stan d-up</w>
spon sored</w>
speci alty</w>
so m</w>
sna il</w>
slo ws</w>
sl oth</w>
sil enced</w>
shel ters</w>
sandw ic
s warms</w>
ri bs</w>
revel ations</w>
reluc tant</w>
reli ably</w>
regul ators</w>
refra me</w>
reconci liation</w>
recipi ent</w>
re medi
re acted</w>
rain water</w>
ra tionality</w>
r ounds</w>
puzz ling</w>
proto cell</w>
profes sions</w>
primor dial</w>
post cards</w>
pos ting</w>
pollu ted</w>
plum me
plu gged</w>
pl ague</w>
pl ag
pione ering</w>
per y</w>
pe el</w>
patho gen</w>
pas sively</w>
origin ated</w>
organiz ers</w>
op t</w>
oni o</w>
o ddly</w>
nar ro
na ment</w>
mon e
miti gate</w>
missi le</w>
mini at
miniat uri
mini -
milli seconds</w>
mi sses</w>
meta st
mega -
mechan ically</w>
me try</w>
me des</w>
mascul inity</w>
manipul ating</w>
manife station</w>
ma ze</w>
lon ged</w>
loc als</w>
lif ts</w>
li ath</w>
left- handed</w>
l engths</w>
l acks</w>
k nit
jar gon</w>
ir rever
interro gation</w>
intern ally</w>
inter viewer</w>
inspi rational</w>
insec tici
influenz a</w>
incl ined</w>
in trac
in timately</w>
in ner
in effective</w>
improvi se</w>
impos ing</w>
imp lies</w>
immen sely</w>
ic -
hot test</w>
hol low</w>
high- risk</w>
he dr
hard working</w>
hal t</w>
gradu ating</w>
gra ded</w>
gen der-
ge ars</w>
gather ings</w>
g ators</w>
fresh man</w>
forfe iture</w>
fish ery</w>
fertiliz ers</w>
fel lows</w>
fea ther</w>
fea sible</w>
f onio</w>
exp end
ex changes</w>
evolu tion
ev o
enlighten ed</w>
empi res</w>
embry os</w>
eclip se</w>
du mped</w>
dri fted</w>
dre ssing</w>
dow ns</w>
divor ced</w>
dev ote</w>
dem ons</w>
degra ding</w>
defen ses</w>
de human
cra ving</w>
cr ust</w>
cop ing</w>
conver ting</w>
consul ting</w>
consul tant</w>
consu mer
conf ess</w>
condi tioned</w>
compar isons</w>
comp en
communi cates</w>
commun ity-
coch lear</w>
clos es</w>
clama tion</w>
cl it
ci p
che deli
cere al</w>
cer vi
centri fu
cele bri
calcul ator</w>
ca fe
c key</w>
c et</w>
brain stor
bon obos</w>
bon ding</w>
blo ggers</w>
blin d
biolumin escence</w>
bio grap
bin ds</w>
bi g-
ben ch
be ast</w>
be a
atten dance</w>
att ac
at orial</w>
at er
as er</w>
archi ves</w>
ar ized</w>
aqu ac
app renti
announ cing</w>
an i</w>
al tar</w>
al izations</w>
agas car</w>
ag ged</w>
after math</w>
adren aline</w>
adolesc ent</w>
admit tedly</w>
addic ts</w>
acc us
a o</w>
Zuc ker
W ei
W G</w>
Vir gin</w>
Un cle</w>
U s</w>
To yota</w>
Thur sday</w>
TED sters</w>
T s</w>
St ella</w>
Speci al</w>
Se bas
Sam uel</w>
S wa
S can
Res er
Radi o</w>
R G</w>
Qu i
Portugu ese</w>
Poli ce</w>
Pi er
O S</w>
O -
Nu mber</w>
Neander thal</w>
Nat ural</w>
N ol
N ight</w>
N et</w>
N L</w>
Mis sion</w>
Mad agascar</w>
Ma x</w>
Ma h
M zuri</w>
M ans
M M</w>
Le a
L en
K yoto</w>
Ju an</w>
Jes sica</w>
Gre g</w>
F li
Duba i</w>
Dig ital</w>
D I
Corpor ation</w>
Char lot
Ch allen
CN N</w>
C er
C S
C P</w>
Bos nia</w>
Ber n
Ar du
6 3</w>
5 th</w>
3 60</w>
198 6</w>
198 2</w>
1, 100</w>
1 10</w>
z oning</w>
wr ong
world- class</w>
wee ds</w>
wear able</w>
vo res</w>
vivi dly</w>
viol ations</w>
vi sh</w>
vi gor
ver b
valu ing</w>
val leys</w>
uti lize</w>
up dated</w>
under cover</w>
un ts</w>
un related</w>
u mann</w>
twi sted</w>
tw enti
tun ing</w>
tri bo
trans fers</w>
trac ed</w>
tr aps</w>
top lan
todd ler</w>
to- peer</w>
to e</w>
tic king</w>
tic -
the st</w>
th ou</w>
th fully</w>
territ ories</w>
ter restrial</w>
ten derness</w>
telecom munications</w>
tele phones</w>
tee ming</w>
take -
t- in</w>
t ent
surr ounds</w>
suffici ently</w>
suc cu
stri ving</w>
st acks</w>
ss a</w>
specim ens</w>
sp ins</w>
soverei gn
sour ced</w>
solem n</w>
sm elled</w>
sli pped</w>
simul ator</w>
sign atures</w>
side walks</w>
short cut</w>
sho ck
senti ent</w>
self- worth</w>
seiz ures</w>
seam lessly</w>
scru tiny</w>
scrat ching</w>
sa me-
s wana</w>
righ te
ri vals</w>
ri ch
rever sing</w>
rever sed</w>
rem n
real- life</w>
re jecting</w>
re bels</w>
re ar</w>
re a</w>
rac i
quir y</w>
quar ant
pun ctu
psych ic</w>
psy chedeli
prou dly</w>
projec ting</w>
proce ed</w>
pre di
prag matic</w>
practition ers</w>
pos ing</w>
port foli
pione ered</w>
pione er</w>
pi gment</w>
persec ution</w>
periph ery</w>
peer- to-peer</w>
pe pper</w>
pe ek</w>
pay load</w>
par ked</w>
p ots</w>
p ong</w>
p est</w>
p ar</w>
ou n</w>
ori a</w>
or n</w>
ol ites</w>
ob itu
n as</w>
my stical</w>
mu stard</w>
mu ff
monu ment</w>
month- old</w>
mo b</w>
mis leading</w>
mind- blowing</w>
min ed</w>
milli on-
micros copes</w>
micro organisms</w>
mi mics</w>
metaph orical</w>
me teor
master ed</w>
market places</w>
manu el</w>
mal low</w>
ma x</w>
m in</w>
lo cker</w>
l end</w>
l acked</w>
kidn apped</w>
ket chup</w>
k ele
jud ging</w>
j ets</w>
is ot
intu itions</w>
intrinsi cally</w>
inter sections</w>
inter -
intellec tu
innoc ence</w>
in significant</w>
in directly</w>
in appropriate</w>
im probable</w>
hyper bo
hous ed</w>
hormon al</w>
high er-
hi king</w>
helicop ters</w>
he igh
gover ning</w>
gl as</w>
gi ga
ght fully</w>
fron tiers</w>
fron t
fri ed</w>
for um</w>
for ty</w>
fasci sm</w>
f us</w>
extro verts</w>
extrac ting</w>
expedi tions</w>
ex changing</w>
ex cav
est -
enterpri ses</w>
enri ched</w>
en rolled</w>
empiri cal</w>
embry onic</w>
em body</w>
ef in</w>
edi ble</w>
ed man</w>
ear nings</w>
e mitted</w>
don ating</w>
dom a
do om</w>
distribu ting</w>
distr act</w>
disproportion ately</w>
dis solved</w>
dis solve</w>
dis crete</w>
di ze</w>
destro ys</w>
desi red</w>
demo li
dece ased</w>
d rou
d in</w>
d ash
d as</w>
custom ed</w>
cru ise</w>
cri p
crea tively</w>
cor ner
conver gence</w>
con den
compul sive</w>
com plac
com bus
co worker</w>
clu t
che w</w>
chat ting</w>
charis matic</w>
char coal</w>
cha ble</w>
celebri ties</w>
ce -based</w>
carbon ate</w>
bu ll</w>
bot t
bor g</w>
blu efin</w>
benef ited</w>
beli ever</w>
bel ls</w>
beha ved</w>
barre n</w>
bar a</w>
ban ker</w>
b our
b aff
awar ded</w>
aston ished</w>
assemb ling</w>
aquac ulture</w>
ani e</w>
ance stral</w>
an- American</w>
ampli fied</w>
aer ody
advance ment</w>
acqui sition</w>
acidi fication</w>
ac customed</w>
Wal mart</w>
W K</w>
U tah</w>
Tou ret
Te am</w>
Tasman ian</w>
T ree</w>
Stor y
Sk y
Sebas tian</w>
Sa int</w>
Sa fe
S TE
Rus sell</w>
Ros etta</w>
R ap
Port land</w>
O scar</w>
No thing</w>
Nep tune</w>
Mos cow</w>
Mo MA</w>
Mill enni
Mar cus</w>
M D</w>
M BA</w>
L ev
L est
Kh mer</w>
Iraq i</w>
I ni
I P</w>
Hon dur
Ho ly</w>
Goo d
G race</w>
G ary</w>
Futur a</w>
Fl or
Fa ther</w>
Every one</w>
EE G</w>
E st
E aster</w>
Di se
Dav is</w>
D J</w>
Co hen</w>
Ca use</w>
C ross</w>
C DC</w>
Buil ding</w>
B O</w>
B L</w>
B J</w>
Archi medes</w>
A y
198 7</w>
10- year-old</w>
10 1</w>
1 60</w>
z ler</w>
x t
withdraw al</w>
water fall</w>
wa ke
w en</w>
w els</w>
veter in
ver bs</w>
vari ability</w>
v ase</w>
v aries</w>
uri ties</w>
up stream</w>
unle ash</w>
under estimated</w>
unbeliev ably</w>
un limited</w>
umb rel
tw o
tu cky</w>
tribu te</w>
tre aties</w>
tour nament</w>
tori al</w>
tor ing</w>
toplan kton</w>
ti gh
ti al</w>
three- year-old</w>
the ft</w>
tex tiles</w>
ter n</w>
sw amp</w>
sus pension</w>
submer sible</w>
su bli
stun ned</w>
stu ffed</w>
ste ak</w>
star k</w>
st les</w>
speci alize</w>
sp ans</w>
sp ades</w>
sni p
sl aughter</w>
sie ge</w>
si ves</w>
si fy</w>
share holders</w>
sett lers</w>
serv ant</w>
senti ment</w>
se us</w>
scor pi
scand al</w>
sal ty</w>
s op
s low-
s -</w>
ris king</w>
ris ked</w>
resurrec tion</w>
resp ective</w>
remo val</w>
regi mes</w>
ref ine</w>
recommend ation</w>
re public</w>
re gain</w>
re ception</w>
re bellion</w>
rail road</w>
propor tions</w>
prom p
prev ail
pr o</w>
pollin ators</w>
point ments</w>
plu ri
pi geons</w>
pi er
phy toplankton</w>
pessi mi
pessimi stic</w>
persever ance</w>
pe tals</w>
pas sionately</w>
par t-
p iled</w>
overl apping</w>
outsi ders</w>
or bital</w>
op pressed</w>
on ica</w>
on able</w>
oc ta
o z
nom adic</w>
no zz
nan o-
n uns</w>
mos ques</w>
mod eled</w>
mo s</w>
mis use</w>
mini ature</w>
micro be</w>
mi zed</w>
meta data</w>
mess ing</w>
mar ches</w>
mar ble</w>
mammo graphy</w>
ma tive</w>
loy al</w>
lou dly</w>
lock down</w>
lo oting</w>
lo bes</w>
liber ated</w>
li thium</w>
legi timacy</w>
lau re
l or</w>
k ling</w>
k ery</w>
judi cial</w>
j elly</w>
interpre ter</w>
intern ship</w>
in take</w>
imple menting</w>
imp over
imp air
hundre d-
hun ter-
hos tage</w>
ho b
heter osex
he mo
hat ch</w>
ha unted</w>
gi o</w>
genit alia</w>
geni uses</w>
ge ese</w>
g ec
foot prints</w>
fon ts</w>
fo cal</w>
fl ush</w>
fi xes</w>
ff e
fe at</w>
fabri cation</w>
f ury</w>
explo ited</w>
explo ding</w>
ex changed</w>
eri e</w>
ent agon</w>
end ure</w>
embar ked</w>
em peror</w>
ed dy</w>
e uro
e th</w>
e ter</w>
drou ghts</w>
disson ance</w>
disap pointing</w>
dig estive</w>
differ ential</w>
diagnos es</w>
di aspora</w>
deser ved</w>
des ks</w>
deple ted</w>
deli vers</w>
dead line</w>
de sal
dat as
d airy</w>
cultiv ated</w>
cu sto
cre ations</w>
cor tical</w>
conver sely</w>
consi sted</w>
condi tional</w>
con es</w>
comprom ised</w>
compen sation</w>
combus tion</w>
com ets</w>
clou dy</w>
clear ing</w>
clear er</w>
cl ams</w>
champ ionship</w>
centi grade</w>
ceme teries</w>
carri er</w>
care giver</w>
car ers</w>
cann ab
can dles</w>
cal ori
cafe ter
ca vi
ca bin</w>
bu ck
bron ze</w>
bore dom</w>
bo oth</w>
blo wer</w>
blin king</w>
bl ur</w>
bir ths</w>
bee hives</w>
be at
batt ling</w>
bat ch</w>
bas es</w>
bar be
ba thing</w>
ba ked</w>
ay la</w>
attrac ting</w>
aspi ration</w>
antidepress ants</w>
annu ally</w>
anec dot
ambassa dor</w>
all- time</w>
ais le</w>
aff ili
advo cating</w>
acknowled ging</w>
accor dingly</w>
access ing</w>
ab ad</w>
Wednes day</w>
Vi en
U ru
U NI
Th ink</w>
T KM</w>
Solom on</w>
Sam ar
R s</w>
R ose</w>
R on</w>
R al
Pi x
P and
Or well</w>
Nichol as</w>
Nev ada</w>
N FL</w>
Mc G
May or</w>
Marti an</w>
Mal i</w>
M organ</w>
M atri
Le go</w>
L ei
Ken tucky</w>
K y
K ir
K am
Ju lia</w>
Had ron</w>
G am
Freu d</w>
Fo od</w>
F il
E li
Dan ish</w>
Com muni
Col lider</w>
Ch op
C H</w>
C G</w>
Bar ry</w>
Bab bage</w>
Ba gh
B obby</w>
B lo
B and-
An dy</w>
Aman da</w>
A w
A ch
8 .
8 -
7 3</w>
7 0,000</w>
3 r
2 6
197 6</w>
15 -
1. 4</w>
1, 200</w>
yro foam</w>
y mous</w>
y ell</w>
xt apos
wo o</w>
wiz ards</w>
whist le
w ri
w ls</w>
virgin ity</w>
vi sibly</w>
vari an</w>
val ry</w>
vacc ination</w>
v apor
utop ian</w>
upri sing</w>
up stairs</w>
under ing</w>
un realistic</w>
un common</w>
un ch</w>
ul arity</w>
twe ak</w>
turb ines</w>
tu b</w>
tri pled</w>
transmit ting</w>
tr unks</w>
to ire</w>
thr one</w>
th en
th am</w>
tan ces</w>
t ying</w>
t apping</w>
swe ep</w>
sur ance</w>
superf icial</w>
sun shine</w>
sum med</w>
suc king</w>
sub surface</w>
stereot ype</w>
star ve</w>
star tup</w>
star ter</w>
spra ying</w>
spir itu
spec t
sp or
sor ting</w>
son ar</w>
sof tly</w>
sm en</w>
skin ny</w>
sin cer
si um</w>
si los</w>
si bling</w>
sex ting</w>
sex ism</w>
separ ates</w>
seduc tive</w>
scrap ers</w>
sc ari
san itary</w>
sam pling</w>
sacrif ices</w>
s lot</w>
s late</w>
ru ci
room mate</w>
ris ed</w>
ri ka</w>
ri e</w>
rever ber
resour ce
repli cation</w>
reper toire</w>
remit tances</w>
reli ed</w>
re united</w>
re stored</w>
quot ed</w>
question na
prosthe tics</w>
prolifer ation</w>
prohi bi
prob es</w>
pri ests</w>
pre cursor</w>
portra yed</w>
por ous</w>
ple ts</w>
plan et
pharmaceu ticals</w>
perfor ms</w>
per fu
pal li
palli ative</w>
over ly</w>
over dose</w>
ou twe
ot er</w>
opi oid</w>
opa que</w>
o varian</w>
o on</w>
nick name</w>
new est</w>
murder er</w>
motiv ates</w>
mot to</w>
monu ments</w>
mon d</w>
mo dule</w>
mil ls</w>
metro politan</w>
mess ed</w>
medic inal</w>
marsh mallow</w>
mar vel</w>
manuscri pts</w>
m align
long- distance</w>
lic ted</w>
li ti
le ction</w>
le ague</w>
know -
ket t</w>
jus tices</w>
jo ins</w>
inv ari
inf er</w>
indi cating</w>
in quiry</w>
in ks</w>
in correct</w>
in coming</w>
impre ss</w>
imp orted</w>
hydro thermal</w>
hu mid
holi days</w>
ho oks</w>
high lights</w>
high lighted</w>
her tz</w>
he im</w>
hat ma</w>
harve sted</w>
harne ssing</w>
hard wired</w>
h ill
gu m</w>
great- great-
gra ves</w>
gh os
ger ms</w>
ge y
ge opoli
gard ening</w>
g land</w>
g au
frac tions</w>
for war
for mid
foo lish</w>
fl atten
fin est</w>
fan ta
f ir</w>
extr apol
explo iting</w>
exhilar ating</w>
exc ruci
ev ange
es op
erec tus</w>
el f</w>
dys function</w>
down hill</w>
distin gui
disap pointment</w>
dis placement</w>
dis closure</w>
dict ate</w>
diag rams</w>
denti st</w>
demonstr ating</w>
decon struc
de x
de be
de an</w>
dar ed</w>
danger ously</w>
dan ced</w>
d ant</w>
custom ized</w>
critici ze</w>
cou gh
cor ds</w>
convic tions</w>
conver sion</w>
conven tions</w>
contem plate</w>
consu mes</w>
constra int</w>
condem ned</w>
competi tions</w>
comp rised</w>
comfor tably</w>
co ating</w>
clos e-
clo ck
clit oris</w>
clas h</w>
ci us</w>
chi efs</w>
chemic ally</w>
che ated</w>
ch ester</w>
carri ers</w>
carcin o
ca ution</w>
bur sting</w>
bre e
bor ns</w>
bol t</w>
bio tic</w>
ber a</w>
be ts</w>
ban i
bag gage</w>
ba thro
ba ker</w>
b red</w>
b ish</w>
assign ments</w>
as hi
artif icially</w>
arch s</w>
ar in</w>
ap hor
ap athy</w>
anomal y</w>
an kle</w>
ami e</w>
ambi tions</w>
amate urs</w>
acron ym</w>
a version</w>
X u</w>
Wal ter</w>
W H
Victori an</w>
Un der
Tw enty-
Tes zler</w>
T en</w>
St yrofoam</w>
Rep ort</w>
Re be
R I
Pro te
Pand ora</w>
Pan ama</w>
P D
Nol lywood</w>
Ni k
Naz is</w>
N ancy</w>
N BA</w>
Mur ray</w>
Me mor
Ma ine</w>
Ma hatma</w>
M ess
Le o</w>
Lat ina</w>
L abor
L B</w>
Ini ti
Il lin
IM F</w>
Hu dson</w>
He al
He ad</w>
H ei
H .
Guar dian</w>
Gover n
Go gh</w>
F ire</w>
F GM</w>
Every body</w>
Ell a</w>
E van</w>
E R</w>
Dé ci
Domi tia</w>
Do aa</w>
De af</w>
Darw inian</w>
D ur
Conven tion</w>
Bal k
B ou
B oo
B MW</w>
B CE</w>
An ton
An des</w>
Al i</w>
Ab u</w>
A ur
A P
9 11</w>
8 1</w>
7 4</w>
5 0th</w>
3 5,000</w>
200 0s</w>
2 D</w>
194 0s</w>
190 0s</w>
13 th</w>
1. 6</w>
1 70</w>
zom bie</w>
y- based</w>
y ar
writ ings</w>
worth less</w>
wo ol</w>
witne ssing</w>
wit z</w>
wil dly</w>
wil debe
wat ch
wal k
w elling</w>
w ay
vulner abilities</w>
vo c</w>
v or
v ine</w>
unexp lored</w>
un wanted</w>
un natural</w>
un ic
u ber
typ ed</w>
tw ined</w>
tro ll</w>
ton ian</w>
ti tan</w>
ti que</w>
ti fy</w>
thu mbs</w>
thodo x</w>
techn icians</w>
team mates</w>
te es</w>
te ase</w>
tap ed</w>
ta i
t ore</w>
synthe sized</w>
synesthe sia</w>
stri ps</w>
strength ening</w>
stra tive</w>
sti ff
ste p-
stabili zed</w>
sp ines</w>
sour i</w>
sophisti cation</w>
smooth ly</w>
slip pery</w>
sle eves</w>
sl am
si ded</w>
sha ming</w>
sh ly</w>
self- help</w>
selec tively</w>
sel ess</w>
same- sex</w>
sa ti
s well</w>
ré sum
rot ten</w>
rot ates</w>
roof top</w>
ro tting</w>
ro cky</w>
ro cking</w>
ri ver
ri bb
revol ving</w>
revi ve</w>
resu me</w>
repe ats</w>
reme dy</w>
re discover</w>
re built</w>
ra ined</w>
qu ity</w>
pyrami ds</w>
puzz led</w>
psych e</w>
pre domin
pra h</w>
po d</w>
pleas ures</w>
pi g
pharm acy</w>
pay off</w>
patho logy</w>
par aph
paraph r
out let</w>
os ter</w>
os copy</w>
orchestr as</w>
oran gu
obe y</w>
ob tain</w>
nos es</w>
non lethal</w>
nightmar es</w>
never -
neutr on</w>
neuro genesis</w>
ne sts</w>
na mese</w>
n acle</w>
my corr
mycorr hi
muc us</w>
mo des</w>
mer ly</w>
mar king</w>
manag eable</w>
man ic</w>
lyri cs</w>
long- lasting</w>
lo gues</w>
light bulbs</w>
life- threatening</w>
let tu
lear ner</w>
le gged</w>
lay ered</w>
laun ches</w>
la g</w>
l ord</w>
ju xtapos
ir o</w>
inv asi
inter dependence</w>
inter acts</w>
intellectu als</w>
intel lect</w>
instruc tor</w>
ini ans</w>
infl ate</w>
inferi or</w>
inf il
in ex
impre ssions</w>
impover ished</w>
imple mentation</w>
im moral</w>
illu minate</w>
identi fies</w>
hunter- gather
hun ted</w>
humid ity</w>
hop elessness</w>
hom eland</w>
hil i</w>
head- tail-
hash tag</w>
ha voc</w>
h our
guerrill as</w>
gre eted</w>
gra zing</w>
gra di
gos sip</w>
go ggles</w>
gene alo
gate way</w>
fron ts</w>
frag ility</w>
formid able</w>
fore ground</w>
for merly</w>
for mats</w>
for ged</w>
fla p</w>
fisher man</w>
fi ssion</w>
fe cal</w>
favel as</w>
facil it
fa kes</w>
f ats</w>
extra -
experim enter</w>
exos kele
excer pt</w>
ex hal
evi den
es sions</w>
eri als</w>
endu red</w>
endeav ors</w>
en compas
emp athetic</w>
emb ro
eigh ty</w>
educa tor</w>
echo es</w>
earthqua kes</w>
e- cigarettes</w>
dri fting</w>
doma ins</w>
do l</w>
do do</w>
disp ens
discri minate</w>
disadvant age</w>
diplom atic</w>
dimini shed</w>
dilem mas</w>
dig estion</w>
diff usion</w>
dic ally</w>
di p</w>
di lig
di e
deser tification</w>
dep loyment</w>
den i
degra dable</w>
de tri
de por
de ed</w>
cyber criminals</w>
craf ts
conver ts</w>
contempl ating</w>
conserv ation
congrat ulations</w>
conflic ting</w>
con ju
com press</w>
collap sing</w>
cogn itively</w>
choos es</w>
cho res</w>
chi ds</w>
cheap est</w>
che wing</w>
cha sed</w>
[...]
