#version: 0.2
我 们</w>
o t
q u
qu ot
quot ;</w>
& quot;</w>
一 个</w>
他 们</w>
这 个</w>
可 以</w>
这 些</w>
什 么</w>
因 为</w>
就 是</w>
如 果</w>
没 有</w>
所 以</w>
问 题</w>
但 是</w>
知 道</w>
自 己</w>
现 在</w>
这 样</w>
不 是</w>
它 们</w>
需 要</w>
你 们</w>
开 始</w>
可 能</w>
这 是</w>
时 候</w>
一 些</w>
世 界</w>
笑 声</w>
看 到</w>
人 们</w>
非 常</w>
然 后</w>
那 些</w>
一 种</w>
已 经</w>
工 作</w>
这 种</w>
所 有</w>
很 多</w>
东 西</w>
认 为</w>
发 现</w>
或 者</w>
如 何</w>
时 间</w>
事 情</w>
一 样</w>
孩 子</w>
发 生</w>
不 同</w>
生 活</w>
研 究</w>
那 么</w>
通 过</w>
重 要</w>
国 家</w>
还 有</w>
能 够</w>
这 里</w>
改 变</w>
起 来</w>
方 式</w>
地 方</w>
美 国</w>
- -</w>
0 0</w>
部 分</w>
告 诉</w>
而 且</w>
人 类</w>
以 及</w>
其 他</w>
大 家</w>
并 且</w>
掌 声</w>
不 会</w>
为 什么</w>
故 事</w>
使 用</w>
只 是</w>
进 行</w>
系 统</w>
一 起</w>
关 于</w>
应 该</w>
任 何</w>
成 为</w>
觉 得</w>
来 说</w>
一 次</w>
不 能</w>
一 下</w>
希 望</w>
必 须</w>
甚 至</w>
那 个</w>
正 在</w>
. .
帮 助</w>
设 计</w>
数 据</w>
得 到</w>
还 是</w>
技 术</w>
对 于</w>
因 此</w>
真 的</w>
方 法</w>
信 息</w>
公 司</w>
社 会</w>
学 家</w>
每 个</w>
影 响</w>
想 要</w>
存 在</w>
其 中</w>
为 了</w>
作 为</w>
同 时</w>
今 天</w>
大 脑</w>
一 直</w>
喜 欢</w>
情 况</w>
之 后</w>
谢 谢</w>
这 么</w>
一 点</w>
有 人</w>
完 全</w>
了 解</w>
选 择</w>
怎 么</w>
当 然</w>
决 定</w>
真 正</w>
找 到</w>
两 个</w>
意 识</w>
来 自</w>
最 后</w>
那 里</w>
2 0
生 命</w>
事 实
实 际
想 法</w>
创 造</w>
城 市</w>
只 有</w>
也 许</w>
相 信</w>
细 胞</w>
实际 上</w>
变 得</w>
出 来</w>
如 此</w>
简 单</w>
产 生</w>
发 展</w>
过 去</w>
过 程</w>
事实 上</w>
无 法</w>
感 觉</w>
女 性</w>
组 织</w>
未 来</w>
结 果</w>
其 实</w>
下 来</w>
有 些</w>
之 前</w>
比 如</w>
许 多</w>
仅 仅</w>
一 切</w>
理 解</w>
拥 有</w>
地 球</w>
同 样</w>
出 现</w>
能 力</w>
环 境</w>
原 因</w>
之 间</w>
整 个</w>
政 府</w>
生 物</w>
想 象</w>
提 供</w>
解 决</w>
朋 友</w>
动 物</w>
当 时</w>
项 目</w>
看 看</w>
的 话</w>
之 一</w>
方 面</w>
于 是</w>
学 习</w>
经 历</w>
而 是</w>
一 位</w>
变 成</w>
行 为</w>
变 化</w>
1 9
1 0</w>
例 子</w>
照 片</w>
健 康</w>
科 学</w>
音 乐</w>
是 否</w>
2 0</w>
成 功</w>
经 济</w>
思 考</w>
身 体</w>
她 们</w>
声 音</w>
关 系</w>
学 生</w>
感 到</w>
不 过</w>
意 味
意味 着</w>
全 球</w>
更 好</w>
教 育</w>
展 示</w>
怎 样</w>
意 思</w>
学 校</w>
机 会</w>
运 动</w>
带 来</w>
医 生</w>
一 天</w>
目 标</w>
是 因为</w>
一 件</w>
利 用</w>
他 人</w>
网 络</w>
尝 试</w>
科 技</w>
意 义</w>
建 立</w>
世 纪</w>
非 洲</w>
最 终</w>
历 史</w>
社 区</w>
有 趣</w>
获 得</w>
巨 大</w>
几 个</w>
美 元</w>
主 义</w>
我 会</w>
疾 病</w>
治 疗</w>
语 言</w>
空 间</w>
接 受</w>
完 成</w>
多 数</w>
食 物</w>
我 要</w>
那 样</w>
文 化</w>
作 用</w>
进 入</w>
安 全</w>
然 而</w>
更 加</w>
5 0</w>
多 少</w>
自 然</w>
家 庭</w>
复 杂</w>
包 括</w>
电 脑</w>
实 验</w>
回 到</w>
或 是</w>
继 续</w>
第 二
机 器
才 能</w>
活 动</w>
实 现</w>
小 时</w>
看 起来</w>
几 乎</w>
特 别</w>
一 定</w>
答 案</w>
机器 人</w>
联 系</w>
基 因</w>
控 制</w>
游 戏</w>
保 护</w>
分 享</w>
宇 宙</w>
不 到</w>
做 到</w>
努 力</w>
确 实</w>
做 出</w>
数 字</w>
大 学</w>
计 划</w>
一 部分</w>
个 人</w>
首 先</w>
演 讲</w>
三 个</w>
容 易</w>
参 与</w>
听 到</w>
叫 做</w>
超 过</w>
每 天</w>
大 多数</w>
事 实</w>
机 器</w>
科 学家</w>
制 造</w>
工 具</w>
即 使</w>
中 心</w>
地 区</w>
力 量</w>
领 域</w>
不 断</w>
视 频</w>
0 00</w>
总 是</w>
合 作</w>
中 国</w>
第 一个</w>
解 释</w>
一 名</w>
挑 战</w>
政 治</w>
像 是</w>
别 人</w>
重 新</w>
反 应</w>
讨 论</w>
电 影</w>
曾 经</w>
3 0</w>
病 人</w>
另 外</w>
准 备</w>
各 种</w>
导 致</w>
最 好</w>
建 筑</w>
最 大</w>
通 常</w>
观 察</w>
大 约</w>
模 式</w>
产 品</w>
支 持</w>
现 实</w>
不 要</w>
行 动</w>
想 到</w>
处 理</w>
关 注</w>
作 品</w>
大 概</w>
里 面</w>
分 钟</w>
非 常
艺 术</w>
唯 一</w>
认 识</w>
a r
虽 然</w>
这 一</w>
寻 找</w>
女 孩</w>
资 源</w>
结 构</w>
母 亲</w>
第 一次</w>
观 点</w>
年 代</w>
大 量</w>
越 来
主 要</w>
注 意</w>
大 部分</w>
价 值</w>
将 会</w>
有 关</w>
尽 管</w>
父 母</w>
十 年</w>
鼓 掌</w>
持 续</w>
病 毒</w>
形 成</w>
代 表</w>
世 界
a n
程 度</w>
身 上</w>
不 再</w>
直 到</w>
有 着</w>
正 是</w>
观 众</w>
时 代</w>
考 虑</w>
不 仅仅</w>
分 子</w>
结 束</w>
一 张</w>
接 下来</w>
仍 然</w>
用 来</w>
事 物</w>
十 分</w>
市 场</w>
战 争</w>
么 样</w>
类 似</w>
印 度</w>
制 作</w>
明 白</w>
不 仅</w>
一 条</w>
一 年</w>
感 受</w>
自 由</w>
物 质</w>
其 它</w>
一 步</w>
死 亡</w>
男 人</w>
药 物</w>
区 域</w>
所 有人</w>
服 务</w>
团 队</w>
离 开</w>
最 近</w>
真 实</w>
记 得</w>
越来 越</w>
或 许</w>
很 大</w>
T E
海 洋</w>
计 算
理 论</w>
模 型</w>
i n
机 构</w>
e r
正 确</w>
以 前</w>
能 量</w>
神 经
速 度</w>
知 识</w>
感 谢</w>
1 5</w>
实 验
自 我</w>
手 机</w>
兴 趣</w>
那 时</w>
名 字</w>
达 到</w>
清 楚</w>
证 明</w>
女 人</w>
办 法</w>
直 接</w>
放 在</w>
增 长</w>
人 口</w>
造 成</w>
媒 体</w>
在 于</w>
令 人</w>
父 亲</w>
生 产</w>
显 示</w>
增 加</w>
哪 里</w>
减 少</w>
例 如</w>
几 年</w>
那 种</w>
有 点</w>
随 着</w>
这 件</w>
比 较</w>
人 员</w>
看 着</w>
目 前</w>
面 对</w>
概 念</w>
足 够</w>
错 误</w>
艺 术
记 录</w>
受 到</w>
电 话</w>
移 动</w>
愿 意</w>
到 底</w>
只 要</w>
要 求</w>
材 料</w>
坐 在</w>
表 现</w>
试 图</w>
具 有</w>
有 效</w>
传 统</w>
20 0
1 00</w>
而 言</w>
失 去</w>
回 答</w>
内 容</w>
N A</w>
实验 室</w>
基 本</w>
永 远</w>
建 造</w>
来 到</w>
经 常</w>
汽 车</w>
数 量</w>
一 只</w>
TE D</w>
看 见</w>
方 案</w>
谈 论</w>
设 备</w>
范 围</w>
生 物
图 片</w>
能 源</w>
相 关</w>
其 他人</w>
交 流</w>
充 满</w>
测 试</w>
o s
如 今</w>
至 少</w>
保 持</w>
危 险</w>
解 决
进 化</w>
一 项</w>
人 生</w>
一 场</w>
上 面</w>
位 置</w>
全 世界</w>
探 索</w>
e r</w>
这 项</w>
现 象</w>
儿 童</w>
不 想</w>
医 疗</w>
年 前</w>
只 能</w>
后 来</w>
发 明</w>
植 物</w>
本 身</w>
不 可
根 本</w>
投 资</w>
接 着</w>
担 心</w>
形 式</w>
提 出</w>
某 些</w>
风 险</w>
不 得
年 轻</w>
癌 症</w>
不 管</w>
根 据</w>
称 为</w>
D NA</w>
物 种</w>
基 本
时 刻</w>
事 件</w>
遇 到</w>
面 临</w>
应 用</w>
突 然</w>
很 快</w>
明 显</w>
困 难</w>
相 同</w>
体 验</w>
每 年</w>
使 得</w>
规 模</w>
利 亚</w>
角 度</w>
英 国</w>
有 时</w>
创 新</w>
严 重</w>
预 测</w>
暴 力</w>
样 子</w>
4 0</w>
a p
百 分
好 像</w>
任 务</w>
压 力</w>
恐 惧</w>
功 能</w>
加 入</w>
肯 定</w>
伟 大</w>
不得 不</w>
老 师</w>
的 确</w>
这 张</w>
定 义</w>
计算 机</w>
医 院</w>
由 于</w>
周 围</w>
智 能</w>
男 性</w>
信 号</w>
1 2</w>
快 乐</w>
眼 睛</w>
连 接</w>
状 态</w>
分 析</w>
共 同</w>
正 常</w>
描 述</w>
百 万</w>
数 学</w>
各 位</w>
患 者</w>
妈 妈</w>
多 年</w>
令 人
除 了</w>
梦 想</w>
尤 其</w>
参 加</w>
关 键</w>
强 大</w>
基 础</w>
6 0</w>
收 入</w>
方 向</w>
似 乎</w>
确 定</w>
完 美</w>
传 播</w>
第 一
相 当</w>
黑 人</w>
太 阳
欧 洲</w>
手 术</w>
等 等</w>
行 星</w>
以 后</w>
组 成</w>
因 素</w>
网 站</w>
细 菌</w>
基 于</w>
法 律</w>
以 来</w>
角 色</w>
飞 机</w>
调 查</w>
消 息</w>
提 高</w>
当 地</w>
生 存</w>
另 一
上 去</w>
表 达</w>
房 间</w>
企 业</w>
. .</w>
需 求</w>
o r
训 练</w>
假 设</w>
联 网</w>
糟 糕</w>
过 来</w>
一 旦</w>
纽 约</w>
.. .</w>
记 忆</w>
某 个</w>
来 看</w>
危 机</w>
管 理</w>
收 集</w>
& #
&# 9
各 地</w>
表 明</w>
痛 苦</w>
民 主</w>
权 利</w>
.. ..
工 作
o n
这 儿</w>
实 际</w>
刚 刚</w>
宗 教</w>
基本 上</w>
还 要</w>
用 于</w>
计 算</w>
精 神</w>
下 面</w>
系 列</w>
是 不是</w>
1 1</w>
开 发</w>
a n</w>
经 济
多 么</w>
是 从</w>
说 明</w>
阶 段</w>
标 准</w>
有 个</w>
从 而</w>
自 身</w>
无 论</w>
失 败</w>
研 究
效 果</w>
互 联网</w>
经 过</w>
我 能</w>
一 家</w>
消 失</w>
正 如</w>
到 达</w>
接 触</w>
艺术 家</w>
专 家</w>
8 0</w>
目 的</w>
新 闻</w>
时 期</w>
政 策</w>
a t
奇 怪</w>
处 于</w>
提 到</w>
它 会</w>
一 般</w>
.... ..</w>
群 体</w>
图 像</w>
软 件</w>
水 平</w>
质 量</w>
对 话</w>
两 种</w>
房 子</w>
距 离</w>
不 用</w>
颜 色</w>
一 段</w>
同 事</w>
情 绪</w>
地 图</w>
年 轻
出 生</w>
所 说</w>
想 想</w>
威 胁</w>
对 此</w>
下 去</w>
如 说</w>
可 是</w>
进 步</w>
回 来</w>
有 时候</w>
创 造
某 种</w>
彼 此</w>
os ;</w>
ap os;</w>
& apos;</w>
第 一</w>
英 里</w>
从 来</w>
不 错</w>
程 序</w>
建 筑
平 等</w>
e n
避 免</w>
思 想</w>
允 许</w>
2 5</w>
拍 摄</w>
全 部</w>
规 则</w>
一 半</w>
建 议</w>
值 得</w>
运 用</w>
快 速</w>
害 怕</w>
聪 明</w>
相 反</w>
这 次</w>
美 丽</w>
比 如说</w>
能 性</w>
感 染</w>
特 定</w>
结 合</w>
成 长</w>
空 气</w>
i c
年轻 人</w>
婴 儿</w>
什 么样</w>
经 验</w>
属 于</w>
家 人</w>
之 中</w>
非常 感谢</w>
o o
打 开</w>
当 中</w>
尼 亚</w>
上 帝</w>
神 经</w>
星 球</w>
真 是</w>
会 议</w>
道 德</w>
运 作</w>
人 民</w>
领 导
感 兴趣</w>
一 群</w>
本 书</w>
表 面</w>
话 题</w>
降 低</w>
绝 对</w>
土 地</w>
i t
性 别</w>
革 命</w>
森 林</w>
工 程
a c
一 个
去 年</w>
行 业</w>
显 然</w>
兴 奋</w>
花 费</w>
7 0</w>
气 候</w>
成 本</w>
吸 引</w>
一 份</w>
状 况</w>
o n</w>
神 奇</w>
那 儿</w>
监 狱</w>
之 为</w>
证 据</w>
克 里
每 次</w>
以 为</w>
确 保</w>
并 非</w>
总 统</w>
妇 女</w>
中 间</w>
情 感</w>
太 阳</w>
称 之为</w>
身 份</w>
一 系列</w>
男 孩</w>
条 件</w>
小 孩</w>
介 绍</w>
停 止</w>
学 到</w>
公 民</w>
一 代</w>
a m
可 能性</w>
9 0</w>
所 谓</w>
商 业</w>
责 任</w>
四 个</w>
可 怕</w>
讲 述</w>
思 维</w>
幸 运</w>
关 心</w>
保 证</w>
之 外</w>
视 觉</w>
创 作</w>
物 体</w>
现 代</w>
女 儿</w>
儿 子</w>
美 好</w>
国 际</w>
很 难</w>
试 验</w>
特 殊</w>
转 变</w>
晚 上</w>
生 长</w>
别 的</w>
心 理
社 交</w>
a l
再 次</w>
信 任</w>
体 系</w>
学 会</w>
不 起</w>
包 含</w>
长 大</w>
绿 色</w>
形 状</w>
设 计
投 入</w>
针 对</w>
阅 读</w>
就 是
学 院</w>
先 生</w>
负 责</w>
表 演</w>
动 作</w>
不 够</w>
不 多</w>
见 到</w>
种 族</w>
斯 坦</w>
收 到</w>
家 里</w>
内 部</w>
百分 之
智 慧</w>
1 8</w>
自 然
测 量</w>
就是 说</w>
动 力</w>
第二 个</w>
电 视</w>
任 何
氧 化
段 时间</w>
说 话</w>
权 力</w>
大 小</w>
r i
从 未</w>
人 群</w>
记 住</w>
人 会</w>
普 通</w>
移 民</w>
5 00</w>
逐 渐</w>
怎 么样</w>
第 二</w>
飞 行</w>
气 候
常 常</w>
认 知</w>
听 说</w>
信 仰</w>
身 边</w>
表 示</w>
成 员</w>
人 工
限 制</w>
阻 止</w>
相 似</w>
出 去</w>
引 起</w>
哪 些</w>
看 待</w>
邀 请</w>
疯 狂</w>
障 碍</w>
难 以
办 公
运 行</w>
英 尺</w>
承 认</w>
不 幸</w>
伤 害</w>
警 察</w>
下 降</w>
回 家</w>
公 共</w>
背 景</w>
取 得</w>
o u
一 生</w>
所 在</w>
惊 讶</w>
鼓 励</w>
早 期</w>
文 章</w>
接 近</w>
比 赛</w>
武 器</w>
冲 突</w>
互 动</w>
教 授</w>
发 出</w>
在 座</w>
电 子
呼 吸</w>
e l
银 行</w>
积 极</w>
电 子</w>
物 理</w>
很 棒</w>
同 意</w>
世界 各地</w>
资 金</w>
神经 元</w>
幸 福</w>
太 空</w>
算 法</w>
检 测</w>
气候 变化</w>
微 生物</w>
依 然</w>
第 三
社 会
差 不多</w>
工程 师</w>
高 兴</w>
石 油</w>
一 块</w>
相 比</w>
重 复</w>
火 星</w>
对 待</w>
红 色</w>
拯 救</w>
独 立</w>
精 神
屏 幕</w>
留 下</w>
亿 美元</w>
往 往</w>
开 放</w>
应 对</w>
发 表</w>
无 论
惊 人</w>
看 来</w>
差 异</w>
稳 定</w>
西 方</w>
粒 子</w>
理 由</w>
二 氧化
面 前</w>
设 施</w>
蛋 白
破 坏</w>
克里 斯</w>
循 环</w>
任何 人</w>
放 弃</w>
这 位</w>
疫 苗</w>
改 善</w>
解决 方案</w>
年 龄</w>
分 之一</w>
居 住</w>
位 于</w>
诊 断</w>
有 没有</w>
就 要</w>
平 均</w>
领 导</w>
阿 拉
释 放</w>
蛋白 质</w>
蓝 色</w>
文 明</w>
大 型</w>
多 样
两 年</w>
上 升</w>
白 人</w>
太阳 能</w>
报 道</w>
贫 穷</w>
二氧化 碳</w>
装 置</w>
某 种
长 期</w>
给 予</w>
终 于</w>
办公 室</w>
刚 才</w>
假 如</w>
制 度</w>
1 6</w>
美 国
互 相</w>
部 门</w>
记 者</w>
怎 么
这 场</w>
必 要</w>
i l
1 4</w>
道 路</w>
节 目</w>
平 台</w>
享 受</w>
相 互</w>
看 上去</w>
工 程</w>
博 物
元 素</w>
人工 智能</w>
至 于</w>
特 征</w>
员 工</w>
皮 肤</w>
网 上</w>
妻 子</w>
污 染</w>
利 益</w>
等 待</w>
博物 馆</w>
获 取</w>
温 度</w>
有 意思</w>
报 告</w>
燃 料</w>
全 球
价 格</w>
一 点
英 语</w>
相 对</w>
塑 料</w>
物 理
公 园</w>
一 边</w>
习 惯</w>
s t
C A</w>
本 质</w>
背 后</w>
熟 悉</w>
平 衡</w>
核 心</w>
拒 绝</w>
结 论</w>
做 些</w>
注 意
基 因
2 00</w>
适 应</w>
不 好</w>
设计 师</w>
公 开</w>
看 法</w>
注意 力</w>
化 学</w>
r e
没 错</w>
思 议</w>
和 平</w>
不可 思议</w>
选 举</w>
生 态
恐 怖
这 会</w>
不 了</w>
邮 件</w>
提 醒</w>
打 算</w>
愤 怒</w>
家 伙</w>
中 有</w>
一 片</w>
恢 复</w>
并 不
那 天</w>
英 雄</w>
器 官</w>
卫 星</w>
秘 密</w>
星 期</w>
满 足</w>
好 处</w>
细 节</w>
原 理</w>
创 建</w>
技 能</w>
体 内</w>
财 富</w>
类 型</w>
百 万
很 少</w>
女 士</w>
医 学</w>
难 民</w>
艾 滋
走 进</w>
职 业</w>
效 率</w>
1 7</w>
星 系</w>
杂 志</w>
广 告</w>
创造 力</w>
人 体</w>
垃 圾</w>
心 脏</w>
原 则</w>
也 就是说</w>
运 动
衣 服</w>
竞 争</w>
究 竟</w>
最 初</w>
检 查</w>
成 果</w>
原 子</w>
穿 过</w>
化 学
进 一步</w>
迅 速</w>
课 程</w>
漂 亮</w>
19 9
贡 献</w>
模 拟</w>
采 用</w>
肌 肉</w>
爆 炸</w>
日 本</w>
态 度</w>
之 所以</w>
观 念</w>
心 理</w>
得 以</w>
内 心</w>
全 新</w>
用 户</w>
旅 行</w>
层 面</w>
这 点</w>
组 合</w>
有 用</w>
感 知</w>
一 刻</w>
马 上</w>
展 现</w>
专 业</w>
攻 击</w>
公 共
传 递</w>
谈 谈</w>
贫 困</w>
独 特</w>
沟 通</w>
期 间</w>
仔 细</w>
放 到</w>
试 着</w>
成 就</w>
机 制</w>
团 体</w>
免 费</w>
文 字</w>
从 事</w>
工 厂</w>
公 平</w>
l e</w>
比 亚</w>
将 来</w>
以 上</w>
谷 歌</w>
生 产
源 于</w>
将 要</w>
创 意</w>
一 句</w>
1 3</w>
血 液</w>
很 小</w>
剩 下</w>
识 别</w>
肿 瘤</w>
症 状</w>
富 有</w>
找 出</w>
坚 持</w>
专 注</w>
音 乐
真 相</w>
后 面</w>
科 学
带 到</w>
安 德
交 谈</w>
交 易</w>
一 段时间</w>
食 品</w>
自 动</w>
附 近</w>
要 么</w>
著 名</w>
区 别</w>
气 体</w>
怀 疑</w>
后 果</w>
一 台</w>
准 确</w>
公 众</w>
上 万</w>
少 年</w>
所 知</w>
反 对</w>
即 便</w>
二 十
超 级</w>
电 视
成 千
今 年</w>
人 物</w>
l e
集 中</w>
更 大</w>
早 上</w>
农 业</w>
20 00</w>
理 念</w>
为 止</w>
个 体</w>
左 右</w>
举 个</w>
生物 学</w>
寻 求</w>
各 样</w>
罗 斯</w>
比 例</w>
案 例</w>
提 升</w>
主 题</w>
重 大</w>
策 略</w>
主 意</w>
欢 迎</w>
完 整</w>
1 9</w>
脆 弱</w>
深 入</w>
猩 猩</w>
消 耗</w>
忘 记</w>
约 翰</w>
联 合
没 什么</w>
期 待</w>
旅 程</w>
事 业</w>
老 鼠</w>
成千 上万</w>
一 致</w>
说 法</w>
而 已</w>
操 作</w>
对 方</w>
1 ;</w>
&#9 1;</w>
震 惊</w>
犯 罪</w>
左 边</w>
具 体</w>
3 ;</w>
&#9 3;</w>
维 持</w>
常 见</w>
丰 富</w>
搜 索</w>
大 规模</w>
高 度</w>
进 来</w>
五 年</w>
丈 夫</w>
购 买</w>
小 说</w>
全 国</w>
偏 见</w>
黑 暗</w>
性 恋</w>
尊 重</w>
好 奇</w>
哪 个</w>
一 座</w>
种 族
理 想</w>
开 心</w>
者 说</w>
置 信</w>
照 顾</w>
或 者说</w>
如 同</w>
还 会</w>
军 队</w>
倾 向</w>
作 者</w>
一 部</w>
2 1</w>
追 求</w>
执 行</w>
慢 慢</w>
判 断</w>
要 是</w>
睡 眠</w>
极 端</w>
回 应</w>
克 斯</w>
灭 绝</w>
各 个</w>
刺 激</w>
l i
掌 握</w>
培 养</w>
人 士</w>
不 停</w>
激 励</w>
恒 星</w>
德 国</w>
建 设</w>
不 见</w>
领 袖</w>
适 合</w>
取 决
取决 于</w>
加 上</w>
相 当
消 费
强 烈</w>
安 全
爸 爸</w>
场 景</w>
途 径</w>
法 国</w>
拿 到</w>
变 革</w>
C h
多样 性</w>
谈 话</w>
歧 视</w>
为 何</w>
u r
长 时间</w>
路 上</w>
穿 着</w>
电 池</w>
实 在</w>
受 害
缺 乏</w>
相 机</w>
伦 敦</w>
e t
说 服</w>
各 种
艰 难</w>
来 源</w>
旋 转</w>
对 象</w>
字 母</w>
前 进</w>
难以 置信</w>
小 小
主 义
难 以</w>
渴 望</w>
数 据
年 人</w>
主义 者</w>
1 8
面 积</w>
小小 的</w>
重 点</w>
纽 约
现 场</w>
构 成</w>
斯 林</w>
工 业</w>
艾滋 病</w>
热 情</w>
患 有</w>
太 多</w>
却 是</w>
即 将</w>
1 000</w>
斗 争</w>
居 民</w>
进 去</w>
激 动</w>
引 发</w>
合 适</w>
调 整</w>
依 赖</w>
演 奏</w>
旁 边</w>
农 民</w>
涉 及</w>
排 放</w>
技 巧</w>
古 老</w>
博 士</w>
舞 台</w>
相当 于</w>
广 泛</w>
作 家</w>
隐 藏</w>
发 展
到 处</w>
不 可</w>
e n</w>
图 书
合 理</w>
医 疗
人 性</w>
为 此</w>
趋 势</w>
聚 集</w>
美 金</w>
外 面</w>
右 边</w>
不 久</w>
手 段</w>
墨 西
共 享</w>
资 料</w>
有 所</w>
呈 现</w>
倾 听</w>
简 直</w>
瞬 间</w>
承 诺</w>
对 抗</w>
复 制</w>
价 值
以 下</w>
解决 问题</w>
前 面</w>
做 法</w>
穆 斯林</w>
措 施</w>
单 词</w>
原 始</w>
人 数</w>
普 遍</w>
拉 克</w>
得 出</w>
合 成</w>
受害 者</w>
驾 驶</w>
除 非</w>
采 取</w>
有 点
推 动</w>
想 起</w>
打 电话</w>
图书 馆</w>
围 绕</w>
修 复</w>
毫 无
投 票</w>
同 一个</w>
大 众</w>
地 位</w>
文 件</w>
各种 各样</w>
2 4</w>
麻 烦</w>
远 镜</w>
谈 到</w>
望 远镜</w>
客 户</w>
伊 斯
西 班
画 面</w>
昆 虫</w>
我 来</w>
a s
阿 富
一 本</w>
血 管</w>
种 类</w>
版 本</w>
依 靠</w>
优 秀</w>
一 百
设 想</w>
看 过</w>
彻 底</w>
地 点</w>
青 少年</w>
走 向</w>
管 理
灾 难</w>
混 乱</w>
转 移</w>
矛 盾</w>
律 师</w>
处 在</w>
典 型</w>
赋 予</w>
蚂 蚁</w>
按 照</w>
o l
明 确</w>
无论 是</w>
培 训</w>
辩 论</w>
自 由
能 否</w>
最 高</w>
公 里</w>
进 展</w>
达 成</w>
逻 辑</w>
祖 先</w>
很 长</w>
之 类</w>
轨 道</w>
紧 张</w>
基 础
超 越</w>
浪 费</w>
当 作</w>
流 行</w>
死 去</w>
某种 程度</w>
好 消息</w>
诞 生</w>
从 中</w>
r a
自 行
深 刻</w>
构 建</w>
改 革</w>
几 天</w>
e b
盒 子</w>
赢 得</w>
要 说</w>
疟 疾</w>
极 其</w>
寿 命</w>
一点 点</w>
h a
练 习</w>
理 性</w>
效 应</w>
便 宜</w>
一 套</w>
e s</w>
指 出</w>
启 发</w>
力 于</w>
制 定</w>
兄 弟</w>
他 会</w>
阿富 汗</w>
邻 居</w>
致 力于</w>
生态 系统</w>
期 望</w>
士 兵</w>
原 来</w>
高 中</w>
蜜 蜂</w>
看 不到</w>
促 进</w>
一 面</w>
遭 受</w>
观 看</w>
政 治
扫 描</w>
印 象</w>
伙 伴</w>
了 不起</w>
现 有</w>
有 限</w>
意 见</w>
安德 森</w>
大 自然</w>
重 建</w>
决 策</w>
一 无
随 后</w>
相 互
没 法</w>
同 性恋</w>
可 行</w>
教 堂</w>
恐 龙</w>
忽 视</w>
发 布</w>
五 个</w>
工 人</w>
密 码</w>
关 联</w>
. 5</w>
衡 量</w>
样 本</w>
成 立</w>
名 叫</w>
会 儿</w>
黑 洞</w>
部 落</w>
街 道</w>
放 大</w>
基因 组</w>
地 面</w>
蚊 子</w>
潜 力</w>
忽 略</w>
价值 观</w>
以 至于</w>
飞 行
顺 便</w>
评 估</w>
教 会</w>
强 调</w>
件 事</w>
一 遍</w>
报 纸</w>
演 员</w>
最 佳</w>
播 放</w>
我 用</w>
千 年</w>
符 合</w>
消费 者</w>
心 脏
开 车</w>
带 给</w>
加 拿
闭 症</w>
自 闭症</w>
物 品</w>
合 物</w>
发 挥</w>
关 键
估 计</w>
i n</w>
3 00</w>
视 角</w>
袭 击</w>
打 破</w>
历 史
华 盛
动 机</w>
送 到</w>
巴 西</w>
天 空</w>
o m
研 发</w>
疑 问</w>
回 收</w>
卫 生
做 好</w>
焦 虑</w>
标 记</w>
援 助</w>
大 陆</w>
形 态</w>
几 十年</w>
边 缘</w>
实 践</w>
固 定</w>
化 石</w>
付 出</w>
饼 干</w>
治 愈</w>
支 付</w>
与 此
三 年</w>
u b
美 洲</w>
沙 漠</w>
怎么 办</w>
回 事</w>
陌 生
微 小</w>
代 价</w>
评 论</w>
疼 痛</w>
抑 郁</w>
输 入</w>
覆 盖</w>
良 好</w>
灵 感</w>
改 造</w>
小 组</w>
奇 妙</w>
名 为</w>
量 子</w>
要 性</w>
实 施</w>
咖 啡</w>
光 线</w>
i s
S t
金 钱</w>
行 走</w>
肯 尼亚</w>
称 作</w>
直 觉</w>
摄 像
一 篇</w>
生 素</w>
潜 在</w>
毕 业</w>
勇 气</w>
现 状</w>
漫 画</w>
成 分</w>
意 外</w>
冒 险</w>
共 同
优 势</w>
交 通</w>
适 用</w>
种 植</w>
加 速</w>
上 学</w>
e l</w>
随 机</w>
编 辑</w>
损 失</w>
扩 大</w>
联合 国</w>
有 力</w>
庞 大</w>
万 美元</w>
集 体</w>
运动 员</w>
第 三个</w>
尽 可能</w>
奇 迹</w>
头 发</w>
公 正</w>
特 性</w>
擅 长</w>
19 8
私 人</w>
爆 发</w>
灵 魂</w>
万 人</w>
结 婚</w>
穷 人</w>
埃 及</w>
陌生 人</w>
教 室</w>
奖 励</w>
回 去</w>
可 见</w>
保 护
体 现</w>
乐 观</w>
预 防</w>
美 妙</w>
短 信</w>
毕 竟</w>
基础 设施</w>
土 壤</w>
企 业
抓 住</w>
反 馈</w>
便 是</w>
陷 入</w>
玩 具</w>
应 当</w>
基 金
创 伤</w>
交 通
一 颗</w>
一 周</w>
论 文</w>
本 来</w>
保 留</w>
一 辆</w>
费 用</w>
精 确</w>
热 爱</w>
沮 丧</w>
村 庄</w>
日 常
吸 收</w>
发展 中
发展中 国家</w>
人 心</w>
之 内</w>
黑 猩猩</w>
致 命</w>
保 健</w>
作 出</w>
一 幅</w>
电 力</w>
消 除</w>
打 印</w>
引 力</w>
博 客</w>
两 者</w>
驱 动</w>
无 限</w>
哪 儿</w>
克 服</w>
领导 者</w>
立 刻</w>
根 本
建筑 师</w>
与此 同时</w>
难 题</w>
重 要性</w>
过 度</w>
视 为</w>
整 体</w>
展 开</w>
之 下</w>
改 进</w>
总 结</w>
地 说</w>
重 视</w>
这 时</w>
自行 车</w>
标 签</w>
存 活</w>
代 码</w>
额 外</w>
难 道</w>
毒 品</w>
曲 线</w>
教 师</w>
取 代</w>
保 存</w>
追 踪</w>
洛 杉
毫 无</w>
悲 伤</w>
加拿 大</w>
每 当</w>
无 人
就 算</w>
采 访</w>
道 理</w>
规 律</w>
正 义</w>
控 制
手 指</w>
心脏 病</w>
度 过</w>
尼 日
大 气</w>
只 会</w>
认 真</w>
标 志</w>
当 今</w>
启 动</w>
分 布</w>
反 映</w>
伊 拉克</w>
氧 气</w>
斯 特</w>
发 射</w>
高 效</w>
爱 情</w>
日 子</w>
无 数</w>
想 像</w>
多 种</w>
企业 家</w>
足 以</w>
摆 脱</w>
可 爱</w>
农 场</w>
产 业</w>
不 止</w>
生 意</w>
猴 子</w>
影 响
年 里</w>
姐 妹</w>
加 州</w>
一 组</w>
t h
e s
认 同</w>
白 色</w>
消 费</w>
活 着</w>
杀 死</w>
影响 力</w>
图 表</w>
变 暖</w>
不 同
这 条</w>
角 落</w>
演 示</w>
清 晰</w>
死 亡
月 球</w>
感 情</w>
意 大
规 划</w>
生 成</w>
4 00</w>
自 杀</w>
婚 姻</w>
品 牌</w>
争 论</w>
激 发</w>
换 句
学 者</w>
同 情</w>
南 非</w>
i a</w>
隔 离</w>
阳 光</w>
神 秘</w>
大 象</w>
千 万</w>
oo k</w>
防 止</w>
讨 厌</w>
流 动</w>
开 展</w>
单 位</w>
自 信</w>
工 业
塑 造</w>
去 世</w>
以 此</w>
质 疑</w>
带 有</w>
差 距</w>
夏 天</w>
说 道</w>
少 数</w>
在 一起</w>
不 论</w>
c h
非常 简单</w>
这 份</w>
火 箭</w>
澳 大
寻 常</w>
商 业
参 与
做 成</w>
一 大
话 说</w>
第 三</w>
指 数</w>
差 别</w>
多 次</w>
分 裂</w>
专 门</w>
4 5</w>
点 子</w>
服 务
有点 像</w>
抗 生素</w>
基金 会</w>
到 来</w>
在 乎</w>
代 人</w>
一 小
面 包</w>
金 属</w>
至 今</w>
分 配</w>
分 离</w>
做 过</w>
这 片</w>
疗 法</w>
活 跃</w>
扮 演</w>
卫 生</w>
十 亿</w>
in g</w>
走 出</w>
节 奏</w>
礼 物</w>
日 常</w>
工作 者</w>
以 色
不 必</w>
禁 止</w>
昂 贵</w>
换句 话说</w>
定 性</w>
苹 果</w>
片 段</w>
爱 因
爱因 斯坦</w>
日常 生活</w>
感 器</w>
商 品</w>
传 感器</w>
仪 器</w>
之 处</w>
深 处</w>
洛杉 矶</w>
显 著</w>
干 细胞</w>
- --</w>
这 样
这 方面</w>
诊 所</w>
海 岸</w>
哺 乳
靠 近</w>
这 句</w>
混 合</w>
来 讲</w>
安 排</w>
俄 罗斯</w>
以色 列</w>
u n
统 计
玻 璃</w>
摧 毁</w>
携 带</w>
基 金</w>
国 会</w>
前 往</w>
伴 随</w>
亿 年</w>
7 5</w>
非 洲
表 情</w>
舞 蹈</w>
翻 译</w>
珊 瑚
沿 着</w>
模 仿</w>
机 械</w>
承 担</w>
承 受</w>
好 事</w>
多 个</w>
严 肃</w>
统 计</w>
玩 耍</w>
引 导</w>
密 度</w>
孤 独</w>
信 念</w>
性 化</w>
宣 传</w>
a b
着 手</w>
护 士</w>
对 比</w>
子 里</w>
勇 敢</w>
频 率</w>
预 期</w>
规 定</w>
极 大</w>
手 臂</w>
小 型</w>
几 百
一 层</w>
ac eb
这 部</w>
提 取</w>
掌 控</w>
头 脑</w>
华盛 顿</w>
再 也</w>
aceb ook</w>
蛋 白</w>
正 好</w>
指 导</w>
愿 者</w>
当 下</w>
定 律</w>
受 伤</w>
至 关
而 来</w>
影 片</w>
布 鲁
不 安</w>
i P
至关 重要</w>
录 像</w>
庆 祝</w>
平 面</w>
商 店</w>
反 而</w>
跨 越</w>
生 涯</w>
澳大 利亚</w>
形 象</w>
平 均
同 一</w>
以 外</w>
a g
那 一刻</w>
远 远</w>
给 出</w>
愿 望</w>
志 愿者</w>
家 长</w>
家 庭
奴 隶</w>
大 卫</w>
远 离</w>
这 座</w>
统 治</w>
第二 天</w>
书 籍</w>
转 化</w>
融 合</w>
纤 维</w>
精 彩</w>
精 力</w>
更 为</w>
北 部</w>
免 疫
个 月</w>
A n
种 子</w>
幻 灯
出 色</w>
出 版</w>
体 会</w>
老 人</w>
编 码</w>
石 头</w>
看 出</w>
景 象</w>
惊 奇</w>
屋 顶</w>
在 线</w>
否 则</w>
另一 方面</w>
原 本</w>
亚 马
个 人
饮 食</w>
象 力</w>
词 汇</w>
民 族</w>
某 人</w>
摄 影
持 续
投 资
打 造</w>
想 象力</w>
全球 化</w>
专 利</w>
5 000</w>
鸟 类</w>
胜 利</w>
经济 学家</w>
祖 母</w>
染 色
幻灯 片</w>
尼日 利亚</w>
印 度
不 去</w>
物理 学家</w>
椅 子</w>
墨西 哥</w>
回 报</w>
厨 房</w>
几 周</w>
储 存</w>
讽 刺</w>
腐 败</w>
繁 荣</w>
着 迷</w>
年 级</w>
地 下</w>
图 案</w>
F acebook</w>
阿 尔
数 以
挣 扎</w>
懂 得</w>
众 多</w>
一 根</w>
黄 色</w>
说 出</w>
缺 陷</w>
正 式</w>
成 年人</w>
宣 布</w>
不 少</w>
询 问</w>
场 所</w>
不 知</w>
一 切
销 售</w>
象 征</w>
营 养</w>
民 众</w>
所 未
成 绩</w>
得 知</w>
地 上</w>
世 上</w>
而 易
空 中</w>
生 命
法 庭</w>
死亡 率</w>
愚 蠢</w>
小 心</w>
增 强</w>
区 分</w>
信 心</w>
突 破</w>
珊 瑚</w>
染色 体</w>
无 聊</w>
担 忧</w>
引 擎</w>
希 腊</w>
听 众</w>
中 学</w>
i r
跟 着</w>
舒 服</w>
罗 马</w>
想 着</w>
怀 孕</w>
先 进</w>
亚 洲</w>
跟 踪</w>
自 从</w>
看 不见</w>
申 请</w>
由 此</w>
树 木</w>
技 术
心 里</w>
家 族</w>
大 楼</w>
喜 爱</w>
单 一</w>
仪 式</w>
3 5</w>
雕 塑</w>
郁 症</w>
遥 远</w>
运 转</w>
身 处</w>
沉 默</w>
意大 利</w>
写 作</w>
以 便</w>
资 本</w>
玩 笑</w>
探 讨</w>
年 间</w>
安 装</w>
好 好</w>
噪 音</w>
命 运</w>
公 路</w>
两 次</w>
餐 厅</w>
顺 利</w>
阿拉 伯</w>
透 明</w>
运 输</w>
步 骤</w>
敌 人</w>
只 不过</w>
不 行</w>
a v
I S
预 算</w>
贸 易</w>
生物 学家</w>
清 洁</w>
气 味</w>
国 际
伴 侣</w>
亚马 逊</w>
鱼 类</w>
辐 射</w>
秒 钟</w>
异 常</w>
后 代</w>
合 法</w>
发 起</w>
南 部</w>
事 儿</w>
J o
里 克</w>
海 水</w>
教 学</w>
传 达</w>
人 权</w>
药 品</w>
法 案</w>
折 磨</w>
延 伸</w>
崩 溃</w>
大 气
国 人</w>
含 有</w>
出 于</w>
关 闭</w>
亿 人</w>
交 换</w>
一 所</w>
r o
首 次</w>
饥 饿</w>
繁 殖</w>
法 官</w>
框 架</w>
未 知</w>
层 次</w>
一个 月</w>
一 间</w>
转 向</w>
稍 微</w>
目 睹</w>
每 周</w>
敏 感</w>
之 上</w>
雄 性</w>
见 证</w>
网 络
牺 牲</w>
拿 出</w>
坚 信</w>
哺乳 动物</w>
全球 性</w>
保 障</w>
依 旧</w>
G oo
3 D</w>
转 换</w>
符 号</w>
穿 越</w>
玩 家</w>
犹 太
欣 赏</w>
拥 抱</w>
战 斗</w>
情 形</w>
困 境</w>
领导 人</w>
非 凡</w>
阻 碍</w>
葡 萄
环 保</w>
此 类</w>
查 看</w>
制 造
人 工</w>
争 议</w>
此 刻</w>
最 新</w>
既 然</w>
情 心</w>
实 时</w>
各 自</w>
吃 惊</w>
参与 者</w>
前 所未
从 没</w>
一 员</w>
s on</w>
a d
手 中</w>
广 场</w>
天 文
同 情心</w>
融 入</w>
确 信</w>
特 点</w>
放 进</w>
坐 下</w>
哲 学</w>
告 知</w>
反 射</w>
作 物</w>
乐 器</w>
两 倍</w>
不 像</w>
遭 遇</w>
绝 望</w>
生 理</w>
珊瑚 礁</w>
整 合</w>
房 屋</w>
不 足</w>
隐 私</w>
队 伍</w>
这 幅</w>
激 情</w>
演 讲
接 收</w>
将 近</w>
困 扰</w>
资 助</w>
编 程</w>
移 植</w>
留 在</w>
燃 烧</w>
液 体</w>
河 流</w>
三 种</w>
g le</w>
e d</w>
达 尔
概 率</w>
极 了</w>
四 年</w>
免 疫</w>
e d
贷 款</w>
此 外</w>
构 造</w>
心 中</w>
小 时候</w>
完 全
员 会</w>
风 格</w>
这 有</w>
职 业
综 合
显 得</w>
数 字
尔 斯</w>
保 罗</w>
t er</w>
1 50</w>
研究 者</w>
眼 前</w>
生 气</w>
现 今</w>
欢 呼</w>
极 度</w>
扩 展</w>
恐 怖</w>
委 员会</w>
全 都</w>
抗 议</w>
惩 罚</w>
宝 宝</w>
在 我
可 靠</w>
利 润</w>
促 使</w>
使 用
ub e</w>
资 本
证 实</w>
缺 少</w>
紧 密</w>
碰 到</w>
摄 影</w>
成 熟</w>
设 置</w>
纳 米</w>
激 素</w>
游 泳</w>
渐 渐</w>
感 官</w>
微 笑</w>
命 名</w>
共 和
三 分之一</w>
黑 色</w>
进 程</w>
见 过</w>
聆 听</w>
生 态</w>
影 像</w>
干 净</w>
失 望</w>
发 光</w>
具 备</w>
乐 队</w>
看 作</w>
流 行
活 力</w>
格 兰</w>
底 部</w>
定 位</w>
太阳 系</w>
首 歌</w>
重 量</w>
边 界</w>
旧 金
帝 国</w>
安 静</w>
含 义</w>
厕 所</w>
几 率</w>
专 业
下 一代</w>
Y ou
洞 穴</w>
民 主
服 用</w>
新 闻
数 百万</w>
建筑 物</w>
伊 朗</w>
鲨 鱼</w>
镜 头</w>
那 位</w>
遗 传
连 续</w>
谢 谢
读 者</w>
自 豪</w>
最 早</w>
替 代</w>
并不 知道</w>
十 年代</w>
内 在</w>
a l</w>
6 00</w>
骨 头</w>
这 类</w>
老 板</w>
确 认</w>
现 实
测 器</w>
比 起</w>
新 型</w>
扩 张</w>
所 能</w>
总 会</w>
去 过</w>
事 故</w>
一 会儿</w>
M ar
顾 客</w>
遵 循</w>
轻 松</w>
诗 人</w>
认 可</w>
被 迫</w>
般 的</w>
目 前
目前 为止</w>
本 地</w>
描 绘</w>
当 前</w>
A l
联 合</w>
算 是</w>
科 医生</w>
已 有</w>
天 气</w>
基 督
句 子</w>
分 类</w>
冰 川</w>
何 时</w>
睡 觉</w>
点 击</w>
显 微
推 广</w>
引 用</w>
已 知</w>
一 千
金 融</w>
街 头</w>
监 控</w>
桌 子</w>
悲 剧</w>
开 启</w>
娱 乐</w>
on e</w>
请 求</w>
诗 歌</w>
议 员</w>
火 车</w>
推 特</w>
拉 丁
我 花</w>
心理 学家</w>
岩 石</w>
学 位</w>
供 应</w>
Goo gle</w>
飞行 器</w>
部 位</w>
膨 胀</w>
等 于</w>
最 为</w>
明 天</w>
推 进</w>
很 酷</w>
万 个</w>
用 到</w>
海 底</w>
单 独</w>
协 议</w>
人 类
街 上</w>
缓 慢</w>
碰 撞</w>
皮 层</w>
物理 学</w>
气 球</w>
斯 坦
小 女孩</w>
大 笑</w>
多 久</w>
信 息
u s
飞 船</w>
过 于</w>
深 度</w>
有 机</w>
显微 镜</w>
形 容</w>
尴 尬</w>
家 乡</w>
大气 层</w>
在我 看来</w>
咖 啡
一 首</w>
一 把</w>
19 6
都 是</w>
腺 癌</w>
法 则</w>
棒 了</w>
当 成</w>
太 棒了</w>
外 部</w>
味 道</w>
充 分</w>
D P</w>
消 灭</w>
旧金 山</w>
护 理</w>
干 预</w>
国 王</w>
回 顾</w>
及 其</w>
一 想</w>
一 堆</w>
2 3</w>
阶 级</w>
遗 传</w>
货 币</w>
负 担</w>
联 盟</w>
生 活
炸 弹</w>
演 出</w>
温 室</w>
有 过</w>
时 光</w>
无 比</w>
数 百
巴 黎</w>
大 多</w>
国 内</w>
反 复</w>
创 立</w>
免疫 系统</w>
课 堂</w>
芝 加
而易 见</w>
约 会</w>
海 中</w>
水 中</w>
水 下</w>
昨 天</w>
心理 学</w>
屠 杀</w>
不 在</w>
虐 待</w>
聊 天</w>
显 而易见</w>
姆 斯</w>
墙 上</w>
困 惑</w>
化学 物质</w>
雇 佣</w>
重 力</w>
起 源</w>
观 测</w>
无 线
心 灵</w>
始 终</w>
复 杂
前所未 有</w>
出 发</w>
体 制</w>
临 床</w>
部 件</w>
赚 钱</w>
花 园</w>
抑 郁症</w>
成 像</w>
成 人</w>
尺 寸</w>
大 胆</w>
传 染
企 鹅</w>
不 太</w>
一 方面</w>
o b
a s</w>
a k
19 7
鼻 子</w>
逃 离</w>
罪 犯</w>
监 管</w>
探 测</w>
拉 斯</w>
司 机</w>
六 个</w>
人 口
一 支</w>
魅 力</w>
负 面</w>
讲 话</w>
笔 记
流 感</w>
无 关</w>
巴 基
宇 航
发 送</w>
分 别</w>
其 次</w>
不 太
钢 琴</w>
贫 民
缩 小</w>
海 豚</w>
普 通
数 学家</w>
排 列</w>
巴基 斯坦</w>
国 家
动 态</w>
分 开</w>
众 人</w>
o m</w>
20 10</w>
1 0
镜 子</w>
这 边</w>
虚 拟</w>
植 入</w>
方 便</w>
换 成</w>
干 扰</w>
哲 学家</w>
协 调</w>
停 下来</w>
人 才</w>
下 午</w>
自 我
机 遇</w>
打 击</w>
年 来</w>
士 们</w>
i m
资本 主义</w>
芯 片</w>
聚 会</w>
流 程</w>
对 手</w>
几 分钟</w>
伊斯 兰</w>
i d
2 2</w>
谢谢 你们</w>
耳 朵</w>
界 面</w>
数据 库</w>
恐怖 主义</w>
化 合物</w>
全 面</w>
T h
G DP</w>
设 定</w>
街 区</w>
组 装</w>
第 一步</w>
眼 镜</w>
毫无 疑问</w>
来 源于</w>
整 整</w>
教 育
感 激</w>
基 地</w>
向 前</w>
占 据</w>
举 办</w>
一 类</w>
讲 故事</w>
有 权</w>
持续 性</w>
想 一想</w>
好 奇
力 学</w>
再 生</w>
作 业</w>
仿 佛</w>
事 是</w>
乐 趣</w>
一 同</w>
评 价</w>
西班 牙</w>
莱 坞</w>
第 一件</w>
机 场</w>
工 资</w>
展 览</w>
尸 体</w>
对 应</w>
好奇 心</w>
大 会</w>
周 期</w>
保 持
伯 特</w>
争 取</w>
主 流</w>
与 其</w>
那 边</w>
自 主</w>
满 意</w>
收 获</w>
扩 散</w>
成 年</w>
幻 想</w>
布 朗</w>
含 量</w>
卡 车</w>
博 拉</w>
使 命</w>
会 想</w>
这 才</w>
时 报</w>
无 处
对 称</w>
写 下</w>
从 来
一 来</w>
马 拉
陆 地</w>
链 接</w>
适 应
达尔 文</w>
虚 拟
笑 话</w>
相 应</w>
生 病</w>
捕 捉</w>
慈 善</w>
市 长</w>
多 人</w>
地 理</w>
以 往</w>
上 来</w>
黑 客</w>
随 时</w>
自然 界</w>
绝 大多数</w>
祈 祷</w>
真 实
正 面</w>
无 法
抱 歉</w>
所 处</w>
巴 马</w>
动 画</w>
决 心</w>
依 赖
从来 不</w>
i k
e v
这 块</w>
舒 适</w>
脑 海中</w>
绘 制</w>
模 糊</w>
市 场
天 才</w>
发 现
公 寓</w>
充 满
不 让</w>
一小 部分</w>
采 取
走 上</w>
资 产</w>
童 年</w>
猜 测</w>
深 深</w>
时 间
政 客</w>
挖 掘</w>
指 令</w>
平 方
小 孩子</w>
变 为</w>
加 利
分 解</w>
交 给</w>
20 15</w>
高 级</w>
非 法</w>
独 自</w>
支 撑</w>
字 体</w>
否 认</w>
发 育</w>
主 动</w>
中 东</w>
三 角
限 于</w>
考 试</w>
福 利</w>
祖 父</w>
激 进</w>
游 行</w>
波 士
投资 者</w>
序 列</w>
外 界</w>
哥 伦
和 谐</w>
匹 配</w>
前 提</w>
克 力</w>
人 造</w>
人 人</w>
u s</w>
脑 部</w>
画 家</w>
男 子</w>
欲 望</w>
损 伤</w>
抽 象</w>
史 蒂
叙 利亚</w>
万 年</w>
9 9</w>
200 8</w>
金 融
这 段</w>
立 即</w>
星 人</w>
巧 克力</w>
审 视</w>
完 善</w>
妹 妹</w>
团 结</w>
可 不是</w>
上 班</w>
S h
2 7</w>
风 暴</w>
走 路</w>
神 圣</w>
真 理</w>
现 代
比 尔</w>
歌 曲</w>
放 入</w>
接 到</w>
带 领</w>
官 员</w>
女 士们</w>
在 家</w>
乔 治</w>
C E
音乐 家</w>
遗 憾</w>
遇 见</w>
访 问</w>
窗 户</w>
碎 片</w>
牙 齿</w>
比 喻</w>
斯 特
很 多年</w>
在 场</w>
四 处</w>
双 手</w>
举 手</w>
醒 来</w>
相 连</w>
癌 细胞</w>
没 人</w>
愉 快</w>
受 欢迎</w>
路 线</w>
脱 离</w>
看 似</w>
激 活</w>
注 射</w>
标 题</w>
有 害</w>
无处 不在</w>
教 练</w>
教 导</w>
学 科</w>
北 极</w>
助 于</w>
公 布</w>
不 如</w>
e c
am p
集 团</w>
设 立</w>
西班 牙
芝加 哥</w>
竟 然</w>
杰 出</w>
暴 露</w>
手 里</w>
意 图</w>
恶 心</w>
开 来</w>
就 让</w>
天 然</w>
大 麻</w>
听 见</w>
协 作</w>
分 成</w>
体 重</w>
人 种</w>
亲 密</w>
一 头</w>
遭 到</w>
选 项</w>
脂 肪</w>
糖 尿
短 暂</w>
清 理</w>
浏 览</w>
注 入</w>
推 出</w>
抱 怨</w>
幻 觉</w>
家 中</w>
天 堂</w>
回 复</w>
乡 村</w>
连 接
诚 实</w>
词 语</w>
脸 上</w>
绘 画</w>
线 索</w>
精 英</w>
数字 化</w>
审 查</w>
哪 怕</w>
发现 自己</w>
医疗 保健</w>
分 散</w>
3 000</w>
采 集</w>
透 过</w>
身 为</w>
起 到</w>
色 彩</w>
派 对</w>
无论 如何</w>
患 上</w>
尊 严</w>
存 储</w>
大 声</w>
夜 晚</w>
城 市
地 震</w>
制 成</w>
鲸 鱼</w>
过 滤</w>
血 压</w>
好 玩</w>
外 线</w>
在 意</w>
e t</w>
H I
1 .
走 过</w>
界 限</w>
用 水</w>
查 德</w>
更 新</w>
早 晨</w>
抑 制</w>
强 迫</w>
岗 位</w>
呼 吁</w>
保 险</w>
众 不同</w>
举 行</w>
与 众不同</w>
一 路</w>
Ch ri
跳 舞</w>
详 细</w>
警 告</w>
被 称作</w>
职业 生涯</w>
监 视</w>
瑞 典</w>
波士 顿</w>
指 标</w>
惊 叹</w>
工作 人员</w>
回 忆</w>
反 应
从 不</w>
e m
a u
诺 贝
脑 袋</w>
聚 焦</w>
经济 学</w>
糖尿 病</w>
第 四
灵 活</w>
激 光</w>
毁 灭</w>
此 时</w>
有 幸</w>
揭 示</w>
探 测器</w>
拜 访</w>
抵 抗</w>
当 做</w>
存 者</w>
你 好</w>
今 日</w>
上 千</w>
一 分钟</w>
面 部</w>
轨 迹</w>
自 动
网 页</w>
摄影 师</w>
摄像 机</w>
搭 建</w>
按 钮</w>
干 什么</w>
常 规</w>
反 抗</w>
加 强</w>
任 意</w>
代 替</w>
产 物</w>
不 该</w>
上 方</w>
a r</w>
非洲 人</w>
解 读</w>
经 营</w>
纯 粹</w>
粮 食</w>
竞 争
突 变</w>
最 小</w>
得 多</w>
外 星人</w>
各 国</w>
亲 爱</w>
一 代人</w>
i s</w>
黄 金</w>
退 休</w>
误 解</w>
试 试</w>
简 化</w>
激 烈</w>
支 持
我 家</w>
想 过</w>
引 入</w>
小 镇</w>
合 作
劳 动力</w>
六 个月</w>
不 然</w>
下 载</w>
三 维</w>
u m
amp ;</w>
200 9</w>
& amp;</w>
青 年</w>
计算 机
解 释
解 放</w>
种 种</w>
有 益</w>
更 是</w>
帮 忙</w>
尼 亚
对 面</w>
依赖 于</w>
一切 都是</w>
阿拉 伯
遍 布</w>
超 出</w>
营 销</w>
竞 选</w>
欺 骗</w>
时 常</w>
抛 弃</w>
战 略</w>
年 纪</w>
囚 犯</w>
A S
肤 色</w>
疫 情</w>
电 脑
生 育</w>
案 件</w>
无 知</w>
政治 家</w>
捐 赠</w>
情 景</w>
实 话</w>
天 生</w>
十 个</w>
共 鸣</w>
依 据</w>
中 央</w>
a d</w>
麦 克
雨 林</w>
酒 店</w>
英 文</w>
然 不同</w>
智 力</w>
时 尚</w>
幸 存者</w>
实 体</w>
另一 边</w>
协 助</w>
农 村</w>
o w
鼓 舞</w>
高 速
长 度</w>
规 范</w>
蝙 蝠</w>
航 天
神 话</w>
留 给</w>
清 单</w>
本 能</w>
晚 餐</w>
强 奸</w>
地 表</w>
土 耳
分 数</w>
全 是</w>
马 克</w>
言 之</w>
监 禁</w>
环 境
无人 机</w>
太 平
口 袋</w>
减 轻</w>
借 助</w>
P S</w>
0 .
高 尔
随 意</w>
科学 研究</w>
残 疾</w>
星 期
方 形</w>
收 益</w>
家 园</w>
威 尔</w>
午 餐</w>
两 位</w>
银 河
重 新
这 家</w>
轮 椅</w>
栖 息
提 议</w>
宗 教
唱 片</w>
友 好</w>
十 万</w>
势 力</w>
副 作用</w>
偶 然</w>
代 谢</w>
从 那
一 整
h one</w>
T ube</w>
I n
雌 性</w>
返 回</w>
积 极
犯 罪
特 质</w>
栖息 地</w>
放 松</w>
尚 未</w>
小 行星</w>
富 裕</w>
劳 动</w>
传 输</w>
严 格</w>
6 5</w>
骨 骼</w>
韩 国</w>
银河 系</w>
邪 恶</w>
言 论</w>
维 护</w>
结 尾</w>
经 典</w>
纽约 时报</w>
研究 所</w>
真 菌</w>
理 查德</w>
术 语</w>
有 意识</w>
数 目</w>
奶 奶</w>
地 带</w>
咨 询</w>
原 子
厌 恶</w>
厉 害</w>
单 纯</w>
包 容</w>
加利 福
做 点</w>
保 守</w>
例 外</w>
交 配</w>
为 例</w>
i v
i e</w>
革 新</w>
那 次</w>
谋 杀</w>
解释 一下</w>
美 分</w>
步 行</w>
有 机
有 所
文 学</w>
意 愿</w>
张 图</w>
发 作</w>
南 极</w>
今 晚</w>
人 能</w>
顺 序</w>
路 径</w>
终 结</w>
相 处</w>
演 化</w>
方 块</w>
拍 照</w>
开 玩笑</w>
尼 斯</w>
圣 经</w>
司 法</w>
分 之
优 雅</w>
休 息</w>
骄 傲</w>
西 部</w>
脑 海</w>
罕 见</w>
确 切</w>
相互 作用</w>
温 暖</w>
海 报</w>
法 院</w>
样 才能</w>
月 份</w>
戏 剧</w>
怎么 回事</w>
怎 样才能</w>
平 常</w>
字 典</w>
大 西
喜 剧</w>
可 持续性</w>
临 床
两 周</w>
不 论
200 7</w>
页 面</w>
随 便</w>
运 营</w>
读 书</w>
肢 体</w>
玛 丽</w>
权 威</w>
智 能
撞 击</w>
排 除</w>
扭 曲</w>
恰 恰</w>
床 上</w>
入 侵</w>
不 变</w>
u t
除 此
选 人</w>
议 会</w>
系 统
狮 子</w>
灯 光</w>
深 海</w>
最 快</w>
康 复</w>
底 下</w>
大 战</w>
共同 点</w>
CE O</w>
2 6</w>
验 证</w>
音 符</w>
边 境</w>
荷 兰</w>
耐 心</w>
神经 系统</w>
生产 力</w>
添 加</w>
永 久</w>
早 就</w>
强 度</w>
弄 清楚</w>
在 世界
在世界 上</w>
哥 哥</w>
参 观</w>
创造 性</w>
准 则</w>
停 车
不可 避免</w>
一 道</w>
an d
短 期</w>
海 滩</w>
抵 达</w>
好 比</w>
垃 圾
变 异</w>
出 售</w>
供 应
之 地</w>
主 导</w>
两 天</w>
a m</w>
7 00</w>
随 之</w>
部 队</w>
那 条</w>
那 年</w>
贫民 窟</w>
调 节</w>
诸 如</w>
解 答</w>
联 邦</w>
翅 膀</w>
确 定性</w>
用 途</w>
漫 长</w>
有 名</w>
旺 达</w>
无 所
排 放
战 胜</w>
惊 喜</w>
恐怖 分子</w>
工作 室</w>
头 上</w>
场 合</w>
听 过</w>
卢 旺达</w>
不 管
一 对</w>
o r</w>
这 台</w>
车 辆</w>
谎 言</w>
肥 胖</w>
群 岛</w>
水 资源</w>
根本 上</w>
景 观</w>
忍 受</w>
太平 洋</w>
大西 洋</w>
体 育
从 根本上</w>
丧 失</w>
上 述</w>
i g
a y</w>
You Tube</w>
视 野</w>
西班牙 语</w>
荣 幸</w>
有 史
有史 以来</w>
放 下</w>
操 纵</w>
我 刚</w>
市 民</w>
射 线</w>
导 师</w>
宇航 员</w>
宇 宙
奥 巴马</w>
声 明</w>
受 益</w>
发 电</w>
印 机</w>
上 网</w>
o p
高 速</w>
食 用</w>
视 力</w>
蔬 菜</w>
统 一</w>
精神 疾病</w>
积 累</w>
比 特</w>
极 限</w>
斯 蒂
意 料</w>
幽 默</w>
奥 斯
同 步</w>
分 辨</w>
写 道</w>
假 装</w>
不 出</w>
HI V</w>
A I</w>
马 斯</w>
深 远</w>
某种 意义</w>
新 鲜</w>
性 质</w>
孩 儿</w>
好 莱坞</w>
女 权
双 方</w>
几 次</w>
公 式</w>
兄 弟
保护 区</w>
交 道</w>
通 讯</w>
账 户</w>
试 想</w>
融 化</w>
艺术 品</w>
细 胞
纪 录</w>
研究 生</w>
目 的
潜 水
整 理</w>
教 训</w>
操 控</w>
很 多
录 音</w>
媒 介</w>
夸 张</w>
天 赋</w>
受 过</w>
医 师</w>
包 围</w>
主 人</w>
业 务</w>
一 看</w>
19 5
阶 层</w>
适 当</w>
见 面</w>
核 武器</w>
校 园</w>
最 高
推 测</w>
开 发
大 人</w>
复杂 性</w>
北 美</w>
偶 尔</w>
T w
难 民
表 格</w>
纪 念
理 所
没 能</w>
来 临</w>
杀 害</w>
有 助于</w>
数 学
排放 量</w>
处 理
分 歧</w>
共 振</w>
人 均</w>
不 知
iP hone</w>
i p
问 问</w>
越来 越
财 务</w>
讲 讲</w>
竞 赛</w>
生 日</w>
灯 泡</w>
折 叠</w>
截 然不同</w>
天 体</w>
塑 料
同 学</w>
发 电
发 明
传 到</w>
伊斯 兰
人 际
交 互</w>
i d</w>
食 者</w>
非 政府</w>
通 信</w>
这样 一来</w>
维 度</w>
现实 生活</w>
犹太 人</w>
特 律</w>
热 量</w>
检 验</w>
暴 力
普通 人</w>
教 徒</w>
摄像 头</w>
损 害</w>
底 特律</w>
应 用
山 脉</w>
姐 姐</w>
失 明</w>
天 然
品 质</w>
向 上</w>
化 成</w>
伊斯兰 教</w>
亚 当</w>
不 清</w>
一 架</w>
频 繁</w>
阴 影</w>
蛋 糕</w>
箱 子</w>
管 道</w>
演讲 者</w>
海 地</w>
星 星</w>
无 需</w>
微 型</w>
奋 斗</w>
地 下
圣 诞
周 边</w>
只 用</w>
协 会</w>
包 装</w>
Chri s</w>
震 动</w>
钥 匙</w>
迹 象</w>
超 市</w>
触 摸</w>
蜘 蛛</w>
联 邦
经 理</w>
第二 次</w>
目 光</w>
的 是</w>
牛 奶</w>
焦 点</w>
根 源</w>
捕 鱼</w>
学 术</w>
姿 势</w>
前 景</w>
关 节</w>
关 乎</w>
事实 证明</w>
主 角</w>
临 时</w>
不 住</w>
不 上</w>
a y
20 12</w>
部 长</w>
通 道</w>
迷 人</w>
达 国家</w>
路 里</w>
营 养
立 场</w>
眼 中</w>
现 出</w>
消 化</w>
最 有</w>
最 多</w>
暂 停</w>
收 缩</w>
挽 救</w>
开 关</w>
带 上</w>
家 可
发 达国家</w>
发 声</w>
及 时</w>
卡 路里</w>
刚 好</w>
候 选人</w>
侵 犯</w>
人 为</w>
亚 历
书 写</w>
一 小</w>
e y</w>
酒 吧</w>
遵 守</w>
逮 捕</w>
辈 子</w>
缺 失</w>
精 子</w>
等 到</w>
病 例</w>
水 果</w>
更 糟</w>
巨 型</w>
尽 量</w>
吸 引力</w>
同 理</w>
发 行</w>
匿 名</w>
创 业</w>
五 岁</w>
一无 所知</w>
错 过</w>
采取 行动</w>
身 后</w>
航 行</w>
纽约 市</w>
硅 谷</w>
盈 利</w>
百万 年</w>
电 话
爱 尔
溯 到</w>
暂 时</w>
无 家可
成 百
心 态</w>
弯 曲</w>
开 头</w>
多样 化</w>
土耳 其</w>
反应 堆</w>
千 个</w>
初 期</w>
再 生
充 斥</w>
仇 恨</w>
为 人
一 共</w>
u l
领导 力</w>
詹 姆斯</w>
蔓 延</w>
色 情</w>
第 一位</w>
硬 件</w>
百分 之</w>
潜 能</w>
潜 水</w>
渠 道</w>
水 源</w>
曼 哈
撒 哈
打 交道</w>
战 士</w>
头 部</w>
周 末</w>
古 代</w>
危 害</w>
似 的</w>
令人 兴奋</w>
3 2</w>
重 塑</w>
通 往</w>
轻 易</w>
要 素</w>
氏 度</w>
提 问</w>
客 观</w>
地 址</w>
可 怜</w>
取 出</w>
原 型</w>
南 方</w>
二 十年</w>
个 性</w>
三 天</w>
万 物</w>
万 年前</w>
飓 风</w>
顶 端</w>
过 时</w>
翻 译
电子 游戏</w>
漂 浮</w>
浪 漫</w>
汤 姆</w>
永 恒</w>
水 面</w>
树 林</w>
成百 上千</w>
想 不到</w>
廉 价</w>
并 未</w>
地 板</w>
冬 天</w>
修 改</w>
不 确定性</w>
c h</w>
麻 省
麻省 理
迫 使</w>
称 呼</w>
生 于</w>
玉 米</w>
滥 用</w>
智能 手机</w>
搜 寻</w>
打 印机</w>
总 之</w>
居 然</w>
宝 贵</w>
善 于</w>
哈 佛</w>
名 单</w>
军 事</w>
传 染</w>
乐 意</w>
i t</w>
2 8</w>
魔 术</w>
金 字
金字 塔</w>
西 亚</w>
综 合</w>
级 别</w>
磁 共振</w>
消 极</w>
沃 尔
模 一样</w>
操 作
探 险</w>
托 马斯</w>
恶 化</w>
在 内</w>
即 兴</w>
克 林</w>
不 通</w>
一 模一样</w>
20 11</w>
高 科技</w>
集 合</w>
除此 之外</w>
车 祸</w>
特 权</w>
演 变</w>
总 共</w>
很多 很多</w>
孤 立</w>
处 境</w>
凌 晨</w>
内 战</w>
保 守
产 量</w>
产 出</w>
两 件事</w>
9 5</w>
聚 在一起</w>
空 气
看 成</w>
登 上</w>
电 流</w>
清 醒</w>
桥 梁</w>
构 想</w>
早 已</w>
撒 谎</w>
愿 景</w>
当 代</w>
延 长</w>
底 层</w>
并 非
墨西 哥
培 育</w>
全 身</w>
伤 口</w>
不 算</w>
N AS
A r
鞋 子</w>
青 春
难民 营</w>
遗 产</w>
追 寻</w>
这 颗</w>
起 初</w>
购 物</w>
笔记 本
笔记本 电脑</w>
社 群</w>
直 线</w>
监 测</w>
毕 业
比 方
比方 说</w>
最 具</w>
放 置</w>
挑 选</w>
手 上</w>
很 久
宪 法</w>
大 海</w>
图 形</w>
冲 击</w>
六 年</w>
使用 者</w>
体 积</w>
从 小</w>
不同 于</w>
三 倍</w>
一 封</w>
C R
高速 公路</w>
阴 道</w>
辆 车</w>
能 源
结 局</w>
紫 外线</w>
秩 序</w>
生 动物</w>
气 泡</w>
残 酷</w>
核 能</w>
朝 着</w>
最 低</w>
无 线</w>
抗 争</w>
受 损</w>
发 生
原 料</w>
剥 夺</w>
剂 量</w>
冠 军</w>
共 识</w>
兄弟 姐妹</w>
优 先</w>
不 愿</w>
下 次</w>
上 下</w>
e p
An d
4 000</w>
英 寸</w>
苏 联</w>
脑 中</w>
程 序
破 碎</w>
没 关系</w>
欧 盟</w>
无家可 归</w>
旅 途</w>
我 试</w>
官 方</w>
好 几个</w>
奇 特</w>
医 学院</w>
动 性</w>
剧 院</w>
八 个</w>
党 派</w>
克 尔</w>
做 事</w>
人际 关系</w>
乘 客</w>
个 性化</w>
u d
o t</w>
E D</w>
200 5</w>
魔 法</w>
马 丁</w>
顾 问</w>
音 频</w>
这 首</w>
第 一天</w>
电视 节目</w>
浓 度</w>
暗 物质</w>
女 孩子</w>
大 大
外 科医生</w>
坏 事</w>
地 铁</w>
四 周</w>
品 种</w>
叔 叔</w>
加 快</w>
九 个</w>
乐 部</w>
S p
8 00</w>
非常 复杂</w>
非 裔</w>
运 算</w>
诺贝 尔
纳 米
瘫 痪</w>
独 一无
独一无 二</w>
每 秒</w>
棕 色</w>
枪 支</w>
推 荐</w>
所 见</w>
性 格</w>
引 领</w>
干 达</w>
埃 塞
台 上</w>
叙 述</w>
全 力</w>
俱 乐部</w>
互 相
乌 干达</w>
一 人</w>
o c
NAS A</w>
论 者</w>
观 众
自动 化</w>
目的 地</w>
熟 知</w>
次 数</w>
文 化
批 评</w>
当 地
导 演</w>
女 子</w>
回 归</w>
发 掘</w>
再 说</w>
做 个</w>
传 说</w>
人 有</w>
乳 腺癌</w>
P R</w>
Jo h
20 14</w>
骚 扰</w>
锻 炼</w>
说 起</w>
设 法</w>
虚 假</w>
硬 币</w>
激 动
有 毒</w>
曼哈 顿</w>
更 少</w>
暗 示</w>
挑 战
持 有</w>
所 用</w>
德 拉</w>
尔 德</w>
始 于</w>
天然 气</w>
啤 酒</w>
周 知</w>
值 得
五 十</w>
业 者</w>
不论 是</w>
七 个</w>
一 款</w>
一 副</w>
2 9</w>
青春 期</w>
这样 的话</w>
这 时候</w>
议 题</w>
继 续
直 升
环 绕</w>
海 平面</w>
沉 浸</w>
桌 上</w>
明 星</w>
拿 走</w>
情 境</w>
很 感兴趣</w>
建 成</w>
工业 革命</w>
对 付</w>
室 内</w>
大 学
因 子</w>
同 伴</w>
印 第
之 旅</w>
一 杯</w>
1 7
香 蕉</w>
通 用</w>
透 明
追 溯到</w>
装 备</w>
荒 谬</w>
老 年
精神 病</w>
粉 丝</w>
电子 邮件</w>
瑞 士</w>
理所 当然</w>
橄 榄
村 子</w>
有 利</w>
批 准</w>
战 场</w>
广 阔</w>
带 回</w>
市 中心</w>
屋 子</w>
尾 巴</w>
尔 蒙</w>
回 想</w>
四 岁</w>
传染 病</w>
从 前</w>
in e</w>
c om</w>
I T</w>
餐 馆</w>
预 计</w>
转 变成</w>
调 查
说 实话</w>
电 影
海 洋
有 太多</w>
救 援</w>
搜 集</w>
抚 养</w>
性 能</w>
心 情</w>
封 信</w>
姑 娘</w>
好 多</w>
大 师</w>
命 令</w>
佛 罗
优 化</w>
亚历 山
不 足
上 瘾</w>
一 万
it ter</w>
X 光</w>
C ar
2 .
首 席</w>
颗 粒</w>
野 生动物</w>
这 使</w>
花 粉</w>
纹 身</w>
种族 歧视</w>
珍 贵</w>
环 节</w>
烹 饪</w>
消 防
测 序</w>
格 斯</w>
把 手</w>
必 然</w>
局 限</w>
尊 敬</w>
子 宫</w>
好 了</w>
善 良</w>
受 体</w>
几 何</w>
光 明</w>
二 战</w>
G PS</w>
B r
降 落</w>
陌 生</w>
阐 述</w>
选 民</w>
财 产</w>
航 空
脸 书</w>
直 播</w>
捕 捞</w>
找 寻</w>
所 周知</w>
开 采</w>
并非 如此</w>
奴 隶
大 街</w>
声 称</w>
埃塞 俄
制 品</w>
众 所周知</w>
不 良</w>
不 曾</w>
一点 儿</w>
一 番</w>
D av
20 16</w>
诸 如
诸如 此类</w>
苍 蝇</w>
船 上</w>
肠 道</w>
维 尔</w>
痕 迹</w>
电 路</w>
猜 想</w>
特 网</w>
明 智</w>
新 生</w>
指 挥</w>
录 片</w>
当 年</w>
开 源</w>
始 人</w>
垂 直</w>
吃 掉</w>
前 行</w>
出 口</w>
停 下</w>
下 方</w>
m an</w>
19 4
1 20</w>
面 包
长 远</w>
许 可</w>
衰 老</w>
行 驶</w>
老 年人</w>
百 科</w>
火 山</w>
注 定</w>
武 装</w>
架 构</w>
拉丁 美洲</w>
慈 善
想 看</w>
想 想看</w>
思 路</w>
德 里</w>
强 壮</w>
延 续</w>
平 静</w>
帽 子</w>
对 不起</w>
好 人</w>
天文 学家</w>
大 门</w>
合作 伙伴</w>
博 士
加 拉
公 斤</w>
修 建</w>
人 来</w>
主 持
不 适</w>
不 敢</w>
三 十</w>
一百 年</w>
一 门</w>
一 处</w>
200 6</w>
2 50</w>
驱 使</w>
马 里</w>
首 都</w>
顶 部</w>
队 员</w>
那 会</w>
踏 上</w>
起 点</w>
走 廊</w>
补 充</w>
紧 急</w>
空 白</w>
活 性</w>
死 刑</w>
档 案</w>
时 机</w>
提 前</w>
当 初</w>
实 行</w>
头 顶</w>
多 样</w>
史蒂 夫</w>
发 给</w>
加 密</w>
分 支</w>
众 笑</w>
之 心</w>
三角 形</w>
鼠 标</w>
足 球</w>
解决 办法</w>
荧 光</w>
英 格兰</w>
膝 盖</w>
胚 胎</w>
羞 耻</w>
美 味</w>
知 觉</w>
盖 茨</w>
疑 惑</w>
流行 病</w>
泡 沫</w>
殖 民
此 时
排 名</w>
强 有力</w>
属 性</w>
太 好了</w>
商 人</w>
吃 饭</w>
古 怪</w>
供 给</w>
二十 世纪</w>
不 但</w>
三 十年</w>
o g
i on</w>
an d</w>
集 中
防 御</w>
问 道</w>
错 觉</w>
送 给</w>
进 而</w>
转 化成</w>
经济 体</w>
牧 师</w>
更 长</w>
更 进一步</w>
支持 者</w>
指 责</w>
应用 程序</w>
巨 人</w>
封 面</w>
埃塞俄 比亚</w>
坏 消息</w>
可 用</w>
可 乐</w>
动 物
利 于</w>
再生 能源</w>
何 处</w>
主 张</w>
中 期</w>
上 传</w>
u c
高 于</w>
装 饰</w>
蚊 帐</w>
荷 尔蒙</w>
脉 冲</w>
白 天</w>
爱尔 兰</w>
楼 梯</w>
极 为</w>
无 视</w>
搞 清楚</w>
接 种</w>
捕 获</w>
担 任</w>
带 入</w>
崛 起</w>
大 致</w>
大 厦</w>
哭 泣</w>
保 险
低 于</w>
事 会</w>
一 大</w>
量 子
转 动</w>
老 实</w>
美国 政府</w>
棘 手</w>
政 权</w>
提 示</w>
推 移</w>
手 工</w>
总 体</w>
微 妙</w>
录 制</w>
小 学</w>
坚 定</w>
圆 形</w>
唱 歌</w>
听 听</w>
古 希腊</w>
半 球</w>
加 纳</w>
几 种</w>
冲 动</w>
停车 场</w>
低 收入</w>
五 分钟</w>
中 来</w>
不 在乎</w>
o d
i l</w>
h a</w>
20 13</w>
高 中
震 撼</w>
零 件</w>
雨 水</w>
长 达</w>
这 部分</w>
迁 移</w>
课 题</w>
许 多
视 网
科 技
用 作</w>
查 尔斯</w>
果 蝇</w>
服 装</w>
数 年</w>
提 及</w>
指 示</w>
微 软</w>
得 不到</w>
废 物</w>
尼亚 州</w>
安 置</w>
多 岁</w>
厘 米</w>
化 疗</w>
剧 本</w>
分之 二</w>
冰 箱</w>
军 人</w>
借 口</w>
体 型</w>
一大 堆</w>
a h</w>
难 过</w>
降 到</w>
辅 助</w>
跟 随</w>
荣 誉</w>
缓 解</w>
男 士</w>
理 智</w>
特 朗
枪 鱼</w>
条 线</w>
有 种</w>
无 助</w>
新 兴</w>
放 射
慷 慨</w>
性 行为</w>
弹 性</w>
巴 勒
学 术
充 分
假 肢</w>
以 为
介 入</w>
主持 人</w>
不 怎么</w>
一 股</w>
金 枪鱼</w>
郊 区</w>
过 后</w>
视网 膜</w>
组 成
组成 部分</w>
突 出</w>
磁 场</w>
直 至</w>
球 场</w>
特朗 普</w>
照 明</w>
清 除</w>
揭 露</w>
探 究</w>
振 奋</w>
挪 威</w>
拉 里</w>
带 走</w>
布 莱
尔 特</w>
安 慰</w>
头 痛</w>
外 表</w>
基督 教</w>
团 结
变 量</w>
十 分
亿 个</w>
不 时</w>
七 年</w>
th e</w>
A m
驾 驶
颠 覆</w>
长 久</w>
这 太</w>
组 建</w>
简 短</w>
神经 科学</w>
相 对
此时 此刻</w>
更 具</w>
旋 律</w>
效 益</w>
弟 弟</w>
广 播</w>
年 内</w>
屋 子里</w>
尼 尔</w>
小 男孩</w>
寒 冷</w>
天 花</w>
多 元
四 种</w>
名 声</w>
卧 室</w>
华 尔
动 脉</w>
共 有</w>
从 此</w>
麦 克</w>
苹 果
肝 脏</w>
肚 子</w>
肉 眼</w>
短 片</w>
直 径</w>
病 菌</w>
生物 体</w>
浮 游
污 染
案 子</w>
柏 林</w>
有 钱</w>
捕 食者</w>
拼 写</w>
恶 劣</w>
峡 谷</w>
就 此</w>
封 闭</w>
宣 称</w>
安 娜</w>
太 空
多 元</w>
包 裹</w>
创 新
亲 自</w>
不 光</w>
一 瞬间</w>
o s</w>
i f
9 11</w>
3 7</w>
3 3</w>
银 行
那 段</w>
输 出</w>
车 里</w>
讯 息</w>
船 只</w>
而 言之</w>
考 验</w>
百 年</w>
畏 惧</w>
电 极</w>
演 说</w>
注 册</w>
有机 体</w>
更 高</w>
排 斥</w>
排 序</w>
执 行
成 效</w>
感 谢
息 息
征 服</w>
实 用</w>
大 脑
参 考</w>
印 刷</w>
卓 越</w>
促 成</w>
住 房</w>
令人 惊叹</w>
从 未
仅 如此</w>
人 脑</w>
不 好
上 百万</w>
三 分之二</w>
一 页</w>
一 百万</w>
Tw itter</w>
远 程</w>
进 化
谨 慎</w>
虚 构</w>
苦 难</w>
自 私</w>
罗 伯特</w>
综合 症</w>
维 基
维基 百科</w>
统计 数据</w>
绝 不</w>
约 束</w>
移 除</w>
种族 主义</w>
社 交
礼 貌</w>
电 波</w>
球 员</w>
点 儿</w>
毫 米</w>
残 忍</w>
棉 花</w>
有 色
无线 电</w>
无 形</w>
无 人</w>
教 给</w>
故 意</w>
指 控</w>
息息 相关</w>
审 判</w>
因 而</w>
同 行</w>
创 始人</w>
刚 果</w>
列 表</w>
内 心
养 育</w>
义 务</w>
为人 知</w>
两 条</w>
r y</w>
ar d</w>
19 60</w>
麦克 风</w>
阿拉伯 语</w>
遗 忘</w>
造 就</w>
违 反</w>
运 送</w>
语 音</w>
让 人</w>
触 发</w>
被 动</w>
聚 变</w>
羽 毛</w>
置 于</w>
线 性</w>
种 群</w>
着 陆</w>
法 语</w>
束 缚</w>
替 换</w>
普 及</w>
春 天</w>
数 码</w>
数 十
招 募</w>
总 的
彗 星</w>
岛 上</w>
就 业</w>
季 节</w>
奶 酪</w>
复 兴</w>
呼 吸
同 等</w>
号 码</w>
卡 尔</w>
加 热</w>
克 萨
充 足</w>
举 起</w>
中 央
不 仅如此</w>
一 艘</w>
ic h
3 6</w>
20 50</w>
选 择
诉 讼</w>
萤 火
萤火 虫</w>
股 票</w>
细 微</w>
线 条</w>
科 幻
病 症</w>
海 啸</w>
来 回</w>
月 亮</w>
曲 子</w>
智 商</w>
支 出</w>
提 琴</w>
折 纸</w>
慢 性</w>
情 节</w>
恢 复
恐 慌</w>
恐 怕</w>
尼 古
宗教 信仰</w>
孩 童</w>
妥 协</w>
处理 器</w>
地 去</w>
回 头</w>
响 应</w>
发 性</w>
出 版
主 观</w>
主 管</w>
不 禁</w>
TE D
8 5</w>
鸿 沟</w>
飞行 员</w>
频 道</w>
问 到</w>
选 出</w>
运 气</w>
转 换成</w>
贝 尔</w>
论 点</w>
角 度
药 性</w>
老年 痴
结 果
线 路</w>
立 法</w>
电 线</w>
生 殖
汽 车
水 母</w>
无 尽</w>
斯 顿</w>
挑战 性</w>
总 和</w>
强 化</w>
尺 度</w>
家 具</w>
卡 片</w>
分 为</w>
准 确
养 殖</w>
公 交
克 拉
停 留</w>
传 送</w>
两 只</w>
三 次</w>
三 十
b er
200 4</w>
200 1</w>
饥 荒</w>
还 给</w>
辨 别</w>
肩 膀</w>
而 出</w>
维 亚</w>
甲 烷</w>
热 带
早 餐</w>
我 读</w>
意 识
尽 力</w>
如 下</w>
大 厅</w>
喜 悦</w>
吸 烟</w>
压 缩</w>
升 级</w>
制造 商</w>
仍 旧</w>
人 道
习 惯
举 动</w>
ic a</w>
M a
飞 过</w>
隧 道</w>
野 生</w>
连接 起来</w>
这 能</w>
这 套</w>
谈 判</w>
节 省</w>
脑 子里</w>
职 位</w>
知 识
盲 人</w>
瓶 子</w>
灰 色</w>
淹 没</w>
活 动
时 会</w>
无 疑</w>
文 献</w>
感 应</w>
愉 悦</w>
强 制</w>
废 弃</w>
工 学院</w>
实 质</w>
在 外</w>
嘲 笑</w>
商 场</w>
单 元</w>
几 岁</w>
关 爱</w>
债 务</w>
佛罗 里
伦 理</w>
令人 震惊</w>
人道 主义</w>
中 风</w>
高尔 夫
高 达</w>
高 质量</w>
食 物
非 暴力</w>
迈 克尔</w>
脚 步</w>
羞 辱</w>
繁 衍</w>
等 级</w>
直 观</w>
画 画</w>
波 长</w>
旅 游</w>
撒哈 拉</w>
打 败</w>
总的 来说</w>
心 想</w>
当 天</w>
尽 快</w>
大 选</w>
大 于</w>
多 余</w>
坚 强</w>
地 狱</w>
土 星</w>
四 分之一</w>
向 下</w>
名 词</w>
可 不</w>
升 高</w>
医 学
冰 层</w>
伯 格</w>
亿 美金</w>
不管 怎样</w>
不 已</w>
上 次</w>
CR IS
C O
1 500</w>
面 上</w>
酒 精</w>
车 道</w>
跑 步</w>
舞 者</w>
绳 子</w>
管 如此</w>
玩 游戏</w>
棒 极了</w>
本 人</w>
斯 克</w>
指 向</w>
持 久</w>
感 动</w>
患 病</w>
干 旱</w>
尽 管如此</w>
少 量</w>
外 交
坦 白</w>
喂 养</w>
原 体</w>
加 工</w>
创 办</w>
划 分</w>
冥 想</w>
伸 出</w>
上 课</w>
一 笔</w>
一 方</w>
t o</w>
at h
an n
CRIS PR</w>
200 3</w>
阿 波
量子 力学</w>
量 化</w>
远 处</w>
起 诉</w>
诱 惑</w>
角度 看</w>
装 满</w>
衰 退</w>
脑 子</w>
第二 种</w>
第 一种</w>
痴 迷</w>
画 作</w>
激动 人心</w>
海 藻</w>
水 里</w>
棒 球</w>
星 际</w>
授 权</w>
意 味</w>
彼 得</w>
干 燥</w>
岛 屿</w>
因 特网</w>
发 音</w>
反 过来</w>
千 万
十 二
兰 克</w>
亨 利</w>
中 产
世界 银行</w>
不 定</w>
一 度</w>
首 要</w>
风 景</w>
顶 尖</w>
雇 员</w>
配 对</w>
那 场</w>
逃 避</w>
起 床</w>
记 忆
认 出</w>
见 解</w>
虫 子</w>
花 钱</w>
艾 伦</w>
美 的</w>
签 署</w>
病 情</w>
球 队</w>
洛 克</w>
歌 唱</w>
榜 样</w>
核 聚变</w>
服务 器</w>
普 遍
明 年</w>
时 空</w>
数 十年</w>
投 票
得 起</w>
并不 需要</w>
女 生</w>
听 觉</w>
吓 人</w>
反 思</w>
医 药</w>
加 以</w>
分 辨
出 错</w>
兔 子</w>
侵 蚀</w>
低 成本</w>
事 务</w>
临床 试验</w>
in g
雕 像</w>
难 度</w>
退 化</w>
这 笔</w>
责 任
胞 胎</w>
纪 录片</w>
紫 色</w>
科 研</w>
破 坏
眼 神</w>
登 陆</w>
用 处</w>
朝 鲜</w>
最 棒</w>
新 生
思 想
幸 福
局 面</w>
富 人</w>
太 大</w>
多 巴
城 镇</w>
在 此
刚 开始</w>
刚 刚开始</w>
分 化</w>
写 出</w>
关 掉</w>
倾 斜</w>
住 民</w>
低 估</w>
亲 眼
些 时候</w>
饮 料</w>
问 过</w>
身 体
要 花</w>
节 点</w>
编 织</w>
等 同
等同 于</w>
直升 机</w>
百分之 九
犯 错</w>
犯 人</w>
漏 洞</w>
沙 发</w>
毕业 生</w>
每 月</w>
残 疾
棵 树</w>
有色 人种</w>
最 先</w>
明 亮</w>
感 染
意识 形态</w>
恰 当</w>
恰 好</w>
心 碎</w>
引 人
巧 妙</w>
崭 新</w>
失 业</w>
声 波</w>
厨 师</w>
原 住民</w>
占 领</w>
侵 入</w>
体 育</w>
丢 失</w>
不好 意思</w>
一 眼</w>
R NA</w>
C A
4 7</w>
讲 座</w>
草 原</w>
职 责</w>
考 察</w>
短 缺</w>
猎 物</w>
涂 鸦</w>
海 里</w>
残疾 人</w>
模 块</w>
摄 入</w>
接 纳</w>
感 到
彻 底
尼 克</w>
多 德</w>
墙 壁</w>
后 悔</w>
口 气</w>
原 谅</w>
千 禧</w>
十 字
两 点</w>
l y</w>
鸡 蛋</w>
骆 驼</w>
陷 阱</w>
门 口</w>
避 开</w>
退 出</w>
连 结</w>
路 易
言 语</w>
行 道</w>
行 不通</w>
脖 子</w>
精 准</w>
粪 便</w>
监 督</w>
现 金</w>
独 裁
爱 德
爱 好</w>
煤 炭</w>
火 灾</w>
歌 手</w>
检 察
更 快</w>
推 特
指 引</w>
性 感</w>
帕 特</w>
尖 叫</w>
对 立</w>
容 忍</w>
夫 妇</w>
叫 作</w>
取 消</w>
压 迫</w>
卡 罗
分辨 率</w>
分 泌</w>
分 割</w>
人 格</w>
亚 特
乐 团</w>
世界 观</w>
不 断
一 下
i m</w>
B C</w>
近 期</w>
诠 释</w>
访 谈</w>
触 及</w>
联 想</w>
综合 征</w>
终 点</w>
画 出</w>
电 梯</w>
爱 人</w>
浮 现</w>
洪 水</w>
泥 土</w>
树 上</w>
明 治</w>
无 可
数 千</w>
收 藏</w>
振 动</w>
托 邦</w>
所 学</w>
戏 剧
当地 人</w>
座 椅</w>
常 人</w>
帐 篷</w>
定 制</w>
嫉 妒</w>
大 屠杀</w>
增 长
地 理
圈 子</w>
发 言</w>
反 正</w>
印第 安
创造 者</w>
几 千年</w>
健 康
修 正</w>
优 点</w>
交通 工具</w>
交 响
乳 房</w>
不 满</w>
三 件</w>
s h
r a</w>
E m
食物 链</w>
预 言</w>
青 蛙</w>
逃 跑</w>
迎 接</w>
裂 缝</w>
苏 格兰</w>
胰 岛
群 众</w>
纪 念</w>
祖 父母</w>
现 存</w>
犹 太</w>
泡 泡</w>
旨 在</w>
德 里克</w>
容 器</w>
大 城市</w>
多 于</w>
在 生活
叫 声</w>
半 个</w>
出 自</w>
六 岁</w>
光 谱</w>
交 叉</w>
亚历山 大</w>
二 十</w>
三 明治</w>
in d
19 90</w>
马拉 松</w>
隔 绝</w>
阿 根
重 组</w>
道 歉</w>
解 开</w>
获 胜</w>
终 身</w>
病 原体</w>
界 线</w>
用 以</w>
灌 输</w>
注 重</w>
没 用</w>
水 分</w>
毫 不</w>
有点 儿</w>
有 意</w>
无 意</w>
斯 拉</w>
斯 托
斯 州</w>
摄 氏度</w>
抗 体</w>
抉 择</w>
当 今
应 付</w>
幼 儿
干 嘛</w>
察 觉</w>
孤 单</w>
培 养
城市 化</w>
在生活 中</w>
叶 子</w>
叙 事</w>
发 挥
区 块</w>
助 理</w>
加利福 尼亚</w>
位 数</w>
人 中</w>
乘 坐</w>
东 部</w>
世界 大战</w>
三 岁</w>
一 行</w>
ic k
an g
an a</w>
Joh n</w>
19 80</w>
麻 醉</w>
面 对面</w>
诸 多</w>
解 剖
虚拟 现实</w>
种族 隔离</w>
点 燃</w>
源 自</w>
渔 业</w>
深 层</w>
最 大
无人 驾驶</w>
文 本</w>
性 爱</w>
开 端</w>
大 学生</w>
国 民</w>
千 米</w>
再 也
养 活</w>
具 体
储 备</w>
以 南</w>
代 表
人 性化</w>
享 有</w>
与 否</w>
不 起
el l</w>
4 2</w>
隐 喻</w>
阿根 廷</w>
选 手</w>
说 真的</w>
落 后</w>
脊 髓</w>
耶 稣</w>
罢 了</w>
第一 批</w>
相 遇</w>
盲 目</w>
用 品</w>
瓦 尔</w>
牛 顿</w>
灵 长
混 凝
混凝 土</w>
毫 不
校 长</w>
杀 手</w>
有 者</w>
晶 体
意 志</w>
工程 学</w>
射 击</w>
大脑 皮层</w>
多元 化</w>
圣 战</w>
启 示</w>
另一 端</w>
北 极
删 除</w>
出 名</w>
交 易
中 是</w>
不 相同</w>
不 及</w>
一 次
一 体</w>
键 盘</w>
逃 脱</w>
设计 者</w>
解 剖</w>
薪 水</w>
葬 礼</w>
自 愿</w>
而 成</w>
绝 大部分</w>
立 方
程 式</w>
礼 拜</w>
知 晓</w>
真 空</w>
癫 痫</w>
杯 子</w>
拇 指</w>
扫 描
总 量</w>
心 跳</w>
广 告
容 纳</w>
天 主
多巴 胺</w>
多 种
夏 威
哈 佛
另一 半</w>
取 得
双 胞胎</w>
八 年</w>
像 素</w>
储 蓄</w>
人 行道</w>
亲 人</w>
上 演</w>
一 日</w>
Dav id</w>
20 30</w>
风 能</w>
音 机</w>
雇 主</w>
长 期
长 寿</w>
选 票</w>
费 城</w>
负 责
编 写</w>
继 承</w>
纠 正</w>
第二 点</w>
科幻 小说</w>
秃 鹫</w>
白 宫</w>
男 女</w>
玩 意
玩意 儿</w>
滑 板</w>
海 上</w>
活动 家</w>
时 起</w>
散 步</w>
教 科
手 势</w>
意 想不到</w>
性 别
幼儿 园</w>
并 用</w>
尽 全力</w>
尔 顿</w>
寄 生
女 孩儿</w>
头 盔</w>
太 太</w>
地 球
图 书</w>
哥伦 比亚</w>
可 惜</w>
友 善</w>
去 掉</w>
即 时</w>
先 前</w>
从 头
中产 阶级</w>
中 世纪</w>
一个 个</w>
L e
4 8</w>
1 6
高 潮</w>
革 命
非 营
长 得</w>
野 外</w>
这 比</w>
轻 微</w>
货 物</w>
觅 食</w>
蘑 菇</w>
艾滋 病毒</w>
胳 膊</w>
肺 部</w>
老 化</w>
管理 局</w>
祖 国</w>
研 制</w>
病 毒
特 人</w>
爱德 华</w>
淡 水</w>
海 盗</w>
沙 子</w>
水 泥</w>
横 跨</w>
检察 官</w>
最大 化</w>
无 力</w>
数 十亿</w>
放 慢</w>
撰 写</w>
摇 滚</w>
推特 上</w>
德 克萨
很久 以前</w>
开 放
平 线</w>
平 民</w>
布鲁 克林</w>
密 集</w>
好 看</w>
好 了
太 过</w>
复 苏</w>
后 期</w>
吉 他</w>
发挥 作用</w>
北 京</w>
制 药</w>
共和 国</w>
克 兰</w>
付 钱</w>
乌 托邦</w>
个 世纪</w>
丛 林</w>
au l</w>
am p</w>
a w
M IT</w>
A R
5 5</w>
20 17</w>
陈 述</w>
过 渡</w>
记 录
纳 州</w>
类 别</w>
研究 员</w>
病 患</w>
流 逝</w>
泄 露</w>
污染 物</w>
每 隔</w>
欧 洲
果 说</w>
有 效率</w>
族 群</w>
敬 畏</w>
敞 开</w>
救 助</w>
政 党</w>
搞 笑</w>
心理 健康</w>
开 普
应 有</w>
希 腊
巧 合</w>
孙 子</w>
如 果说</w>
天 使</w>
外 国</w>
去 除</w>
全 职</w>
便 会</w>
供应 链</w>
亲 戚</w>
不 信</w>
高尔夫 球</w>
骨 架</w>
震 荡</w>
陈 代谢</w>
里 斯</w>
路 程</w>
足 迹</w>
贫 困
谜 题</w>
表 达
虫 剂</w>
纳 德</w>
篇 文章</w>
简 洁</w>
立 学校</w>
突 触</w>
程序 员</w>
看 清</w>
相 结合</w>
百 个</w>
狂 热</w>
灵长 类</w>
海 马</w>
活 在</w>
没 人会</w>
根 除</w>
日 益</w>
新 陈代谢</w>
推 理</w>
授 予</w>
感 恩</w>
子 女</w>
奴 役</w>
夏威 夷</w>
周 五</w>
合 同</w>
双 眼</w>
十 岁</w>
北 方</w>
前 额</w>
兴 起</w>
信 件</w>
亚特 兰
中 文</w>
一 月</w>
er s</w>
en t
W h
魔 力</w>
马 路</w>
香 烟</w>
过 多</w>
越 过</w>
诺贝尔 奖</w>
讲 台</w>
获 益</w>
脑 细胞</w>
肾 脏</w>
经 费</w>
约 翰
累 积</w>
简 称</w>
等 教育</w>
眼 光</w>
看 得
看 做</w>
皮 质</w>
爱 上</w>
温 和</w>
测 验</w>
汽 油</w>
杀 虫剂</w>
更 深</w>
无 神
无 意识</w>
新 西
拿 来</w>
报 酬</w>
总 部</w>
总 有</w>
性 欲</w>
心 智</w>
平 凡</w>
工业 化</w>
客 人</w>
子 弹</w>
好了 吗</w>
奥 林
头 条</w>
大 片</w>
填 满</w>
否 是</w>
名 人</w>
全 人类</w>
保守 派</w>
会 为</w>
两 件</w>
不 用
不 堪</w>
一 栋</w>
i r</w>
A le
0 000</w>
高 血压</w>
静 止</w>
铅 笔</w>
这 栋</w>
辅 导</w>
赫 拉</w>
贩 卖</w>
话 语</w>
而 然</w>
而 后</w>
精 灵</w>
短 短</w>
生 来</w>
波 动</w>
没 想到</w>
正 当</w>
最 难</w>
是 非</w>
是 否是</w>
无 穷
新 奇</w>
情 报
微 不足
微不足 道</w>
开 创</w>
对 称
宠 物</w>
婚 礼</w>
奥林 匹
外 科</w>
墨 水</w>
坏 人</w>
否 定</w>
史 上</w>
单 个</w>
前 沿</w>
冷 却</w>
其 余</w>
付 诸
举 例
丹 麦</w>
世 代</w>
万 美金</w>
一 辈子</w>
P aul</w>
领 先</w>
避 孕
进 制</w>
车 子</w>
走 到</w>
认 定</w>
触 动</w>
英 国人</w>
节 约</w>
胰岛 素</w>
肖 像</w>
空 间
真 心</w>
男 生</w>
涵 盖</w>
注 视</w>
比 率</w>
极 具</w>
月 经</w>
更 能</w>
施 加</w>
斯 加</w>
摩 托
提 交</w>
探 险
把 握</w>
想 出</w>
忠 诚</w>
山 顶</w>
实 力</w>
威 廉</w>
头 骨</w>
多 地</w>
墨西哥 湾</w>
固 醇</w>
压 抑</w>
加 仑</w>
前 线</w>
几百 年</w>
内 向</w>
会 用</w>
亲 近</w>
乘 以</w>
乐 高</w>
不 足以</w>
一整 天</w>
一 般
一 批</w>
r an
or g
il l</w>
A p
3 8</w>
2 .5</w>
饮 用水</w>
配 合</w>
逐 步</w>
适应 性</w>
迁 徙</w>
赞 同</w>
语 言
自由 主义</w>
脚 下</w>
游 客</w>
海洋 生物</w>
海 外</w>
汉 堡</w>
柔 软</w>
极 端
本 土</w>
木 星</w>
木 头</w>
新 加
所 为</w>
总 值</w>
影 子</w>
形 势</w>
引 进</w>
布 什</w>
好 者</w>
女权 主义者</w>
失 调</w>
塞 尔</w>
地下 室</w>
吉 姆</w>
可 笑</w>
发 达</w>
军 事
公共 卫生</w>
儿 童
催 产
催产 素</w>
令人 激动</w>
从那 时起</w>
事 先</w>
中 部</w>
不 能
i c</w>
ar t
P et
L ED</w>
马 尔
飞 跃</w>
隐 形</w>
逆 转</w>
身 高</w>
贯 穿</w>
记 载</w>
议 院</w>
计 划
莎 士
莎士 比亚</w>
自然 而然</w>
纠 结</w>
第二 件</w>
穿 梭</w>
禁 忌</w>
病 房</w>
爱 好者</w>
浏 览
沙 滩</w>
有 生
晶体 管</w>
日 期</w>
无 辜</w>
新加 坡</w>
很 漂亮</w>
年 长</w>
寄生 虫</w>
容 量</w>
夫 人</w>
天 性</w>
外 星</w>
国 界</w>
呆 症</w>
听 力</w>
单 单</w>
切 实</w>
切 割</w>
分 娩</w>
关 怀</w>
光 子</w>
何 种</w>
上 周</w>
一 圈</w>
一 倍</w>
m a</w>
er son</w>
题 目</w>
跳 动</w>
说 谎</w>
被 困</w>
翻译 成</w>
紧 紧</w>
秘 诀</w>
知 名</w>
直 面</w>
益 于</w>
王 子</w>
特 斯拉</w>
爷 爷</w>
照 料</w>
树 枝</w>
智 利</w>
新生 儿</w>
数以 千
数以千 计</w>
故 障</w>
摩托 车</w>
摆 在</w>
我 该</w>
感 性</w>
恰 相反</w>
恰 恰相反</w>
德 尔</w>
归 功
归功 于</w>
对称 性</w>
壮 大</w>
历 程</w>
剩 余</w>
前 后</w>
削 弱</w>
切 断</w>
减 缓</w>
做 饭</w>
亚特兰 大</w>
两 人</w>
不用 说</w>
一 时间</w>
一 会</w>
y p
o w</w>
o v
H ar
B G</w>
3 4</w>
3 1</w>
20 20</w>
面 试</w>
铁 路</w>
部 署</w>
适 宜</w>
财 政</w>
负责 人</w>
语 法</w>
范 畴</w>
花 朵</w>
自 发</w>
聊 聊</w>
罪 行</w>
第 一条</w>
碱 基</w>
碰 巧</w>
破 解</w>
砍 伐</w>
百万 美元</w>
留 言</w>
电 台</w>
玻 璃
温 柔</w>
流 失</w>
法 规</w>
氨 基
标 准
机 械
未 曾</w>
期 刊</w>
新 星</w>
摩 擦</w>
扫描 仪</w>
手 腕</w>
所 作
所作 所为</w>
恐怖 袭击</w>
彼 此
弗 兰克</w>
密 西
客 厅</w>
学 金</w>
大 幅</w>
地 被</w>
土 著</w>
吸 入</w>
另 一只</w>
发生 变化</w>
华尔 街</w>
化 学家</w>
冰 岛</w>
养 分</w>
共和 党</w>
全 美</w>
俱 来</w>
主 权</w>
主 宰</w>
e f
B l
19 70</w>
1 .5</w>
飞 翔</w>
面 孔</w>
里 士
这 门</w>
越 大</w>
起 飞</w>
视 线</w>
被 忽视</w>
蜻 蜓</w>
艰 苦</w>
能 为</w>
者 之间</w>
缩 短</w>
策 划</w>
看 一看</w>
盘 子</w>
生 俱来</w>
玩 乐</w>
王 国</w>
火 焰</w>
每 人</w>
模 样</w>
桑 尼亚</w>
曼 德拉</w>
支 配</w>
提 起</w>
戈 尔</w>
怪 异</w>
快 要</w>
忧 虑</w>
必 需</w>
常 用</w>
布 拉
巴勒 斯坦</w>
将 军</w>
导 航</w>
宝 贝</w>
奖 学金</w>
夺 走</w>
塔 利
塔利 班</w>
坦 桑尼亚</w>
地 形</w>
图 画</w>
名 称</w>
加 贝</w>
创 业者</w>
偏 好</w>
侮 辱</w>
传 承</w>
五 千</w>
严 峻</w>
世 纪
与 生俱来</w>
不同 寻常</w>
il li
ic k</w>
Th e</w>
M c
I S</w>
G e
A b
面 向</w>
陪 伴</w>
那 片</w>
迷 失</w>
远 见</w>
还 好</w>
象 棋</w>
西 雅
行 人</w>
艺术 作品</w>
航 空</w>
自 问</w>
群 落</w>
组 织
粗 糙</w>
管 子</w>
离 婚</w>
真 寺</w>
物 件</w>
源 头</w>
清 真寺</w>
水 域</w>
杰 克</w>
新西 兰</w>
扔 掉</w>
手 稿</w>
怪 物</w>
工作 岗位</w>
小 提琴</w>
奴隶 制</w>
天 文</w>
大 大</w>
多 重</w>
多 大</w>
四 天</w>
和 平
吞 噬</w>
可 悲</w>
召 集</w>
南 亚</w>
兰 经</w>
假 定</w>
专 辑</w>
不 动</w>
不 利</w>
D B</w>
麦 当
降 解</w>
阿 姆
追 逐</w>
这 本</w>
转 型</w>
车 上</w>
资 格</w>
试 者</w>
评 判</w>
自 行</w>
脑 震荡</w>
胎 儿</w>
考 虑
缺 点</w>
紧 要</w>
离 子</w>
真 是
生产 总值</w>
版 权</w>
烟 草</w>
滑 雪</w>
泄 漏</w>
毒 素</w>
条 约</w>
最 坏</w>
时 不时</w>
探 寻</w>
捉 到</w>
批 判</w>
手 法</w>
所 有权</w>
悲 惨</w>
尽 头</w>
小 事</w>
射 器</w>
安全 感</w>
学 习
孕 育</w>
大 地</w>
多 亏</w>
嘴 里</w>
嗅 觉</w>
厌 倦</w>
前 方</w>
决 策
共 产
共 事</w>
仿 真</w>
亚 人</w>
为 重要</w>
不 得</w>
万 亿美元</w>
一 英里</w>
ra m</w>
e w
R ob
饱 受</w>
雷 达</w>
集 会</w>
随 之
随之 而来</w>
阿波 罗</w>
闻 到</w>
里士 多德</w>
都 市</w>
进化 论</w>
轮 子</w>
车 站</w>
身 于</w>
赞 美</w>
赞 助</w>
谷 物</w>
谜 团</w>
西雅 图</w>
蟑 螂</w>
藻 类</w>
蒸 汽</w>
肮 脏</w>
肥 胖
耗 费</w>
索 马里</w>
益 处</w>
电视 剧</w>
甘 地</w>
犹 豫</w>
爵 士</w>
渔 民</w>
深 深
海 域</w>
浮游 生物</w>
治 理</w>
氨基 酸</w>
查 理</w>
有 利于</w>
旅 馆</w>
斯坦 福</w>
数 个</w>
推 断</w>
才 华</w>
手 边</w>
手 表</w>
手 册</w>
户 外</w>
悖 论</w>
恶 魔</w>
总 理</w>
忽 然</w>
引 出</w>
布 斯</w>
巴 布
局 限于</w>
宣 言</w>
奥 尔
夫 妻</w>
天 花
坟 墓</w>
地 平线</w>
化学 反应</w>
前 列
前 例</w>
列 出</w>
党 人</w>
偏 远</w>
倡 议</w>
估 算</w>
传 奇</w>
会 面</w>
令人 吃惊</w>
亚 里士多德</w>
两 组</w>
三 角</w>
一下 子</w>
P A</w>
7 2</w>
20 18</w>
19 50</w>
音 调</w>
这 群</w>
过 量</w>
身 心</w>
路 德</w>
越来越 少</w>
螺 旋</w>
英 国
肯 尼
纳 粹</w>
等 式</w>
盟 友</w>
电 站</w>
生 动</w>
独 裁</w>
照 射</w>
海 岸
流 入</w>
没 事</w>
每 种</w>
死 于</w>
步 伐</w>
标 识</w>
旗 帜</w>
斯 科
指 望</w>
指 挥
抬 头</w>
打 赌</w>
恋 爱</w>
巨 大
山 上</w>
小 小</w>
实 在
处 方</w>
基督 徒</w>
坚 持
原子 核</w>
历史 学家</w>
动物 园</w>
加 勒
削 减</w>
分 裂
几 十
农 作物</w>
兰 花</w>
入 口</w>
充 电</w>
停 车</w>
仓 库</w>
书 中</w>
举例 来说</w>
不 远</w>
一 对
B o
间 接</w>
闪 烁</w>
锁 定</w>
途 中</w>
递 给</w>
迈 出</w>
过 分</w>
达 州</w>
转 折
超 新星</w>
起 源于</w>
走 动</w>
请 举手</w>
西 斯</w>
羞 愧</w>
终 极</w>
第三 点</w>
租 车</w>
破 产</w>
电视 台</w>
电 网</w>
生命 体</w>
现代 化</w>
献 给</w>
热 带</w>
海 浪</w>
流 传</w>
样 品</w>
柬 埔
有 创造力</w>
无 前例</w>
政 府
损 坏</w>
捕 捉到</w>
拥 挤</w>
打 断</w>
我 敢</w>
思 索</w>
忘 了</w>
开 支</w>
开 口</w>
平 方</w>
巴 尔
密 切</w>
实在 在</w>
实 实在在</w>
安全 性</w>
孟 买</w>
孕 妇</w>
好 友</w>
坚 固</w>
史 无前例</w>
变 换</w>
升 起</w>
动 词</w>
别 忘了</w>
击 者</w>
倡 导</w>
信 用
代 之</w>
买 卖</w>
也 门</w>
不 必要</w>
上 海</w>
三 点</w>
七 岁</w>
一 辆车</w>
一 丝</w>
u g
e g
T 恤</w>
S c
B F</w>
6 000</w>
200 2</w>
麻 痹</w>
非常 容易</w>
重 叠</w>
躲 避</w>
资 讯</w>
谴 责</w>
证 书</w>
观 察
衰 竭</w>
表 述</w>
胡 子</w>
考虑 一下</w>
筛 选</w>
真 诚</w>
百分 之一</w>
留 下来</w>
画 像</w>
琼 斯</w>
特 区</w>
照 亮</w>
激 起</w>
潜 意识</w>
液 态</w>
气 温</w>
毁 灭
概 括</w>
格 尔</w>
核 磁共振</w>
显 示
方 程</w>
教科 书</w>
抽 搐</w>
手 术
所 在
悲 痛</w>
彩 色</w>
弥 补</w>
平 行</w>
富 翁</w>
家庭 成员</w>
定 期</w>
大 洋</w>
夜 空</w>
国 外</w>
呼 声</w>
名 言</w>
变 形</w>
发 动</w>
努 力
加 剧</w>
内心 深处</w>
八 岁</w>
八 十</w>
光 学</w>
元 前</w>
信 赖</w>
作 弊</w>
佛罗里 达</w>
伙 计</w>
五 百</w>
九 岁</w>
两 边</w>
一 谈</w>
一 是</w>
T S
L in
3 .
黎 巴
鸟 儿</w>
透 露</w>
追 溯</w>
辩 护</w>
转折 点</w>
路 边</w>
越 南</w>
质 子</w>
读 取</w>
许多 多</w>
许 许多多</w>
警 察
触 觉</w>
被 捕</w>
蓝 图</w>
蒙 特
置 疑</w>
罗 斯
纤 维
第三 种</w>
疲 力
理 想
照 相机</w>
热 衷
灾 害</w>
沉 重</w>
比 方</w>
每 日</w>
机 能</w>
服 从</w>
插 入</w>
提 倡</w>
推 翻</w>
换 个</w>
拓 展</w>
抵 御</w>
归 属
归属 感</w>
平 时</w>
差 点</w>
宿 主</w>
容 性</w>
定 罪</w>
天花 板</w>
境 地</w>
填 补</w>
填 充</w>
坚 硬</w>
地 毯</w>
回 路</w>
四 十</w>
哈佛 大学</w>
可 卡
印度 人</w>
占 用</w>
助 手</w>
动 手</w>
加 州
制造 业</w>
分 校</w>
关键 在于</w>
光 速</w>
假 说</w>
仔 细
交 往</w>
主 席</w>
不 妨</w>
不 久
下 雨</w>
一对 一</w>
一 侧</w>
u p
en n
H e
B M</w>
鳄 鱼</w>
鲍 勃</w>
音乐 会</w>
革命 性</w>
降 临</w>
速 率</w>
这 要</w>
账 号</w>
论 坛</w>
表 演
获 得
肉 类</w>
联 结</w>
而 生</w>
而 代之</w>
结 核</w>
精 细</w>
相对 论</w>
相 似
涌 现</w>
洗 手</w>
求 助</w>
民 族
每 晚</w>
毁灭 性</w>
毁 掉</w>
早 些时候</w>
新 泽
料 到</w>
改 变
收 音机</w>
据 说</w>
报 导</w>
扭 转</w>
很 久</w>
开 设</w>
崇 拜</w>
少 数
宣 扬</w>
壮 观</w>
回 馈</w>
合 法
各 个
可卡 因</w>
取 而代之</w>
发明 家</w>
华盛 顿
利 斯</w>
公 元前</w>
假 期</w>
住 所</w>
一 阵</w>
一 提</w>
o d</w>
c e</w>
a h
A d
1 30</w>
鼓 舞
风 力</w>
颤 抖</w>
预 料</w>
难 性</w>
阻 挡</w>
路 口</w>
越 是</w>
责任 感</w>
误 导</w>
警 方</w>
解剖 学</w>
行 者</w>
血 糖</w>
螺 旋
蜂 蜜</w>
苏 丹</w>
舌 头</w>
职 场</w>
耻 辱</w>
耳 机</w>
耗 尽</w>
而 上</w>
考 古
结 构
管 制</w>
第 一年</w>
立 马</w>
矩 阵</w>
眼 里</w>
百分 比</w>
电视 机</w>
用 力</w>
猜 猜</w>
独裁 者</w>
热衷 于</w>
热带 雨林</w>
深深 地</w>
浏览 器</w>
正 要</w>
树 懒</w>
板 球</w>
板 块</w>
杂 货
显 现</w>
掩 盖</w>
承 载</w>
怀 特</w>
座 位</w>
度 假</w>
废 墟</w>
平均 值</w>
工 艺</w>
商业 模式</w>
各 处</w>
口 音</w>
口 号</w>
发 短信</w>
勃 勃</w>
公交 车</w>
作 战</w>
伤 心</w>
二 进制</w>
二 维</w>
丑 陋</w>
en t</w>
ac k</w>
D A</w>
199 9</w>
鼓舞 人心</w>
麦当 劳</w>
骨 髓</w>
顶 级</w>
非营 利</w>
随 处
随处 可见</w>
银行 家</w>
里 亚</w>
通 知</w>
选择 性</w>
违 法</w>
远 远
过 滤
迄 今
迄今 为止</w>
边 上</w>
贪 婪</w>
读 过</w>
虚拟 世界</w>
蒸 发</w>
著 作</w>
自然 选择</w>
肥 皂</w>
联邦 政府</w>
细 小</w>
窗 口</w>
神经 网络</w>
神经 细胞</w>
真是 太</w>
王 星</w>
特 技</w>
烦 恼</w>
漫 步</w>
深 层次</w>
永 不</w>
此 事</w>
次 世界大战</w>
林 肯</w>
村 民</w>
未 能</w>
未 经</w>
木 材</w>
新 世界</w>
教 学
支 架</w>
控 器</w>
得 通</w>
彻底 改变</w>
当今 世界</w>
弹 奏</w>
幸福 感</w>
幅 度</w>
常 态</w>
小 东西</w>
头 来</w>
天文 学</w>
大 洲</w>
场 地</w>
圣诞 节</w>
合 并</w>
史 密
原 先</w>
印第安 人</w>
印 刷
半 小时</w>
分裂 症</w>
介 意</w>
今 后</w>
习惯 于</w>
之 年</w>
两 张</w>
不太 好</w>
三 位</w>
u m</w>
le y</w>
am a</w>
a z
麻省理 工学院</w>
预 见</w>
阿姆 斯特
阿 瑟</w>
通 向</w>
走 来</w>
说 服
说服 力</w>
裤 子</w>
补 贴</w>
英 亩</w>
背 叛</w>
肯尼 迪</w>
老 兵</w>
经 受</w>
管理 员</w>
第 五</w>
特 有</w>
牢 房</w>
消 亡</w>
海 面</w>
海 拔</w>
洗 衣
治 疗
没 收</w>
氢 气</w>
民主 党</w>
比 较
步 入</w>
橡 胶</w>
根本 无法</w>
权 衡</w>
无 能
新 颖</w>
斯 诺</w>
放射 性</w>
操作 系统</w>
搞 砸</w>
抬 起</w>
悬 崖</w>
总 能</w>
怜 悯</w>
很 强</w>
年 底</w>
帕 金
嵌 入</w>
奇 怪
失 败
大 事</w>
培养 皿</w>
喜 好</w>
后 者</w>
台 阶</w>
友 谊</w>
卫生 组织</w>
劳 工</w>
利 昂</w>
出 门</w>
几 秒钟</w>
共 存</w>
充满 活力</w>
充 实</w>
健康 状况</w>
值得 注意</w>
修 女</w>
信用 卡</w>
作 曲
传 统
人类 学家</w>
人 家</w>
上 角</w>
一 双</w>
A I
麻 木</w>
魔 鬼</w>
高 层</w>
高 出</w>
非洲 大陆</w>
镜 片</w>
过 得</w>
边 缘
超 级
起 步</w>
购 物
要 点</w>
行 了</w>
腐 烂</w>
肾 上
美 德</w>
精神 分裂症</w>
签 名</w>
磁 铁</w>
确 诊</w>
真实 世界</w>
男 孩子</w>
瑜 伽</w>
犹太 教</w>
爆 炸
灾 难性</w>
渗 透</w>
洗 手
每 一件</w>
欢 乐</w>
柬埔 寨</w>
某 处</w>
末 日</w>
替 代
无能 为
无能为 力</w>
数 值</w>
排 队</w>
指 定</w>
拜 托</w>
抗 拒</w>
当 选</w>
弱 点</w>
废 料</w>
幸 存</w>
并不 一定</w>
常 识</w>
巴 士</w>
屋 里</w>
就 行了</w>
寂 静</w>
宏 观</w>
威 尔
多 达</w>
增 大</w>
坦 白
图 中</w>
围 栏</w>
嘴 巴</w>
各 类</w>
只 好</w>
发 出
华 丽</w>
包 容性</w>
击 中</w>
全 书</w>
免 受</w>
充分 利用</w>
从那 以后</w>
两 分钟</w>
专业 人士</w>
y n
it y</w>
a t</w>
E M</w>
9 8</w>
4 4</w>
19 0
黑 帮</w>
高 等教育</w>
顶 峰</w>
露 出</w>
长 久
重 生</w>
这 辆</w>
这 事</w>
转 录</w>
议 程</w>
譬 如</w>
观 主义</w>
行 程</w>
蒂 固</w>
肥胖 症</w>
绝 妙</w>
绑 架</w>
管 用</w>
笔记 本</w>
科学 界</w>
生殖 器</w>
潮 流</w>
渺 小</w>
海 豹</w>
殖 民</w>
正 方形</w>
歌 剧</w>
欺 诈</w>
橙 色</w>
模 拟
条 款</w>
星 体</w>
斯 科</w>
摩 擦
推 销</w>
指 纹</w>
投 影</w>
找 回</w>
我 见</w>
想 得到</w>
总 数</w>
弄 清</w>
委 内
委内 瑞
天 线</w>
外 交</w>
图 标</w>
合 作者</w>
合 作用</w>
取 向</w>
双 腿</w>
南 极
出 租车</w>
冒 犯</w>
克 林
光 合作用</w>
先 知</w>
人 力</w>
习 俗</w>
乌 鸦</w>
举 例</w>
两 样</w>
两 岁</w>
不 及
万 亿</w>
一 千</w>
o f
S k
C D</w>
9 6</w>
高 峰</w>
迷 惑</w>
近 乎</w>
跨 过</w>
走 神</w>
财 政
诸 位</w>
观 者</w>
西 非</w>
表 层</w>
蜡 烛</w>
董 事会</w>
营 地</w>
草 地</w>
统 治
组 件</w>
第 四</w>
真实 性</w>
百 科
病 学</w>
生 生</w>
生 理
现 如今</w>
牛 津</w>
流 体</w>
洛 斯</w>
歌 声</w>
歇 尔</w>
橄榄 球</w>
根 深
标 注</w>
极 好</w>
杂货 店</w>
杀 人</w>
最高 法院</w>
更 强</w>
无神 论者</w>
整 天</w>
救 赎</w>
搞 定</w>
怀 着</w>
微 博</w>
应 激</w>
幸 运
布 满</w>
布 尔</w>
巴 克</w>
岁 月</w>
屁 股</w>
小 于</w>
导 向</w>
密 切
好 笑</w>
奏 效</w>
奇 异</w>
失 控</w>
外 观</w>
外 来</w>
复 活</w>
墓 地</w>
塞 拉
固 有</w>
哈 根</w>
周 年</w>
呈 现出</w>
可 视
叛 逆</w>
发 觉</w>
发 动机</w>
压 制</w>
十 分之一</w>
前 来</w>
利 比亚</w>
列 举</w>
出 新</w>
凯 特</w>
几 位</w>
冷 静</w>
冷 战</w>
其 为</w>
关 押</w>
公 主</w>
全 国
信 徒</w>
作曲 家</w>
传 给</w>
优 美</w>
三 周</w>
一 口气</w>
一 口</w>
d e</w>
199 8</w>
麻省理 工</w>
马 里
马 达</w>
雕 刻</w>
错 误
销 售
重 现</w>
配 方</w>
诊 室</w>
蜂 巢</w>
船 长</w>
致 死</w>
致 敬</w>
背 上</w>
肺 结核</w>
聚 合物</w>
老 年</w>
继续 前进</w>
统计 学</w>
素 材</w>
粉 色</w>
类 比</w>
秋 天</w>
福 特</w>
祷 告</w>
破坏 性</w>
破 裂</w>
略 性</w>
瑞 克</w>
烟 雾</w>
深 入
流 量</w>
此 处</w>
歌 颂</w>
模 特</w>
根深 蒂固</w>
本 哈根</w>
无 情</w>
旁 白</w>
数 月</w>
提 供
抽 烟</w>
打 动</w>
憎 恨</w>
怪 兽</w>
急 剧</w>
微 弱</w>
弗 吉
开 会</w>
布鲁 诺</w>
左 侧</w>
尼 安
小 儿
密西 西
实 地</w>
宝 石</w>
安 妮</w>
好 转</w>
太 小</w>
境 内</w>
基 石</w>
圆 圈</w>
噩 梦</w>
哥 本哈根</w>
可视 化</w>
古 巴</w>
变 性</w>
单 是</w>
协 定</w>
十 倍</w>
十 五</w>
医疗 系统</w>
剥 削</w>
击 败</w>
出 乎
几 百万</w>
公 立学校</w>
光 源</w>
光 亮</w>
使 人</w>
住 宅</w>
仿 生</w>
代表 性</w>
买 下</w>
主 体</w>
为 生</w>
业 余</w>
不 着</w>
万 名</w>
一 顿</w>
一 棵</w>
一 幕</w>
一 声</w>
t er
N et
4 3</w>
高 温</w>
驱 逐</w>
靠 着</w>
阿 姨</w>
配 偶</w>
通 过
迫 切</w>
进 食</w>
这 么
近 距离</w>
迎 来</w>
迈 克</w>
转 身</w>
负 面
象 征
谈 及</w>
说 唱</w>
行 为
获 利</w>
芬 奇</w>
脊 髓
紧 急
箭 头</w>
笔 记</w>
章 鱼</w>
章 节</w>
特 例</w>
消防 员</w>
没 见</w>
氛 围</w>
毒 性</w>
段 话</w>
标 本</w>
有生 之年</w>
有所 不同</w>
最 少</w>
无 关
新 一代</w>
斯科 特</w>
放 出来</w>
捐 款</w>
抑 或</w>
执 法</w>
感 受
彩 票</w>
庇 护</w>
布 兰
学 业</w>
女 神</w>
奔 跑</w>
奉 献</w>
奇怪 的是</w>
太 高</w>
大 国</w>
夜 间</w>
增长 率</w>
塞拉 利昂</w>
堵 塞</w>
唤 醒</w>
后 院</w>
同 一时间</w>
另一 面</w>
口 味</w>
反 驳</w>
华 德</w>
勒 斯</w>
分 布
冰 淇
元 件</w>
偏 差</w>
借 鉴</w>
体 温</w>
亲 身</w>
为 主</w>
世纪 末</w>
不久 前</w>
不 复
不 受</w>
一 角</w>
一 百</w>
i z
i on
el l
d a</w>
V er
M A</w>
2 500</w>
黎巴 嫩</w>
马 克
韧 性</w>
霍 华德</w>
陪 审
针 头</w>
避 难
道 德
远 比</w>
辛 苦</w>
质 炎</w>
质 数</w>
贝 拉</w>
调 研</w>
讨 论
警察 局</w>
萧 条</w>
菲 利
艾 米</w>
脊髓 灰
脊髓灰 质炎</w>
缩 写</w>
纸 张</w>
系统 性</w>
管理 者</w>
第 四个</w>
立 体</w>
稍 后</w>
社 团</w>
睡 着</w>
眼 球</w>
看 电视</w>
相 关
百万 计</w>
画 廊</w>
电子 设备</w>
电 图</w>
生 存
特 勒</w>
热 门</w>
流 通</w>
泳 池</w>
泰 国</w>
水 流</w>
条 例</w>
晚 期</w>
方 向
指 南</w>
执行 官</w>
手 提
手 套</w>
我 称</w>
感 应
心 率</w>
循 环
往 前</w>
州 长</w>
尘 埃</w>
审 讯</w>
宏 大</w>
完全 相同</w>
委内瑞 拉</w>
外 婆</w>
外 出</w>
塞 尔
坦 诚</w>
国 旗</w>
喝 彩</w>
后 续</w>
句 话</w>
原 有</w>
博士 学位</w>
刑 事</w>
出乎 意料</w>
再也 不会</w>
便 利</w>
价 钱</w>
令人 振奋</w>
从未 见过</w>
人 去</w>
书 上</w>
世界 卫生组织</w>
上 涨</w>
一 滴</w>
B ar
阴 茎</w>
闪 光</w>
钻 石</w>
释 金</w>
邮 箱</w>
遗传 学</w>
追 随</w>
远远 不够</w>
输 送</w>
较 大</w>
认 证</w>
计算 器</w>
袋 子</w>
表 现
补 助</w>
葡 萄</w>
自由 派</w>
自 足</w>
美 食</w>
经 验
细 致</w>
纳 入</w>
立 联系</w>
税 收</w>
矿 物</w>
睾 丸</w>
电 缆</w>
狗 狗</w>
物 资</w>
澄 清</w>
港 口</w>
清 晨</w>
流 感
次 方</w>
标 志
无关 紧要</w>
无 害</w>
新 鲜
斯 基</w>
文 档</w>
摒 弃</w>
捕 食</w>
拥 堵</w>
抵 制</w>
找 个</w>
扼 杀</w>
打 个
慰 剂</w>
感应 器</w>
性 人</w>
弗 里
建 立联系</w>
废 除</w>
广 播
居 住
就 业
安 慰剂</w>
孤 儿
孤儿 院</w>
女 王</w>
哪 种</w>
参 数</w>
卡 通</w>
南极 洲</w>
午 夜</w>
剑 桥</w>
别 无
公 海</w>
保 释金</w>
会 以</w>
乐 于</w>
主 持</w>
两 者之间</w>
一次 性</w>
le s</w>
it h</w>
i an</w>
a st
D V
非常 高兴</w>
长久 以来</w>
违 背</w>
转 基因</w>
训 练
警 官</w>
视 作</w>
观众 们</w>
装 有</w>
荣 耀</w>
肥 料</w>
老年痴 呆症</w>
维 空间</w>
篮 球</w>
笼 子</w>
窗 外</w>
空 调</w>
百科 全书</w>
百分之九 十</w>
画 布</w>
电 击</w>
玛 丽
杀 掉</w>
本 性</w>
晶 体</w>
无 声</w>
数以 百万计</w>
救 护
握 手</w>
挡 住</w>
护 者</w>
打 扰</w>
或 少</w>
感谢 您</w>
情 愿</w>
心 血管</w>
微 观</w>
待 遇</w>
开 销</w>
庆 幸</w>
对 照</w>
察 觉
安全 局</w>
孟 加拉
头 衔</w>
太 快</w>
外 向</w>
埃 隆</w>
地 产</w>
在 读</w>
土 卫
国 度</w>
善 意</w>
周 期
名 义</w>
同 胞</w>
可 口
卵 子</w>
协 同</w>
动 者</w>
剧 烈</w>
剧 场</w>
切 换</w>
分 子
出 行</w>
冰 冷</w>
做 爱</w>
偏 离</w>
亲 吻</w>
丹 尼尔</w>
下 班</w>
一 端</w>
一 秒</w>
ur a</w>
il l
b er</w>
as s
I BM</w>
And erson</w>
4 6</w>
198 4</w>
默 认</w>
黏 液</w>
马 拉</w>
饲 料</w>
颜 料</w>
非 盈利</w>
非 同
避 孕</w>
遥 控器</w>
造 出</w>
连 串</w>
进 口</w>
记忆 力</w>
认 真
西 州</w>
血 统</w>
萎 缩</w>
英 镑</w>
节 能</w>
胸 部</w>
胜 过</w>
罚 款</w>
答 应</w>
空间 站</w>
秘 鲁</w>
看 不
用 药</w>
球 体</w>
点 亮</w>
清 洗</w>
混 合物</w>
淀 粉</w>
流 向</w>
活 生生</w>
正 常人</w>
格 林</w>
机 率</w>
术 师</w>
有 罪</w>
昨 晚</w>
方 方
捷 径</w>
截 肢</w>
或 多
感 冒</w>
想 像
总 而言之</w>
性别 歧视</w>
广 义</w>
害 虫</w>
娜 塔
奖 项</w>
大 道</w>
四 点</w>
响 起</w>
呼 气</w>
后 退</w>
午 饭</w>
分 析
凭 借</w>
减 弱</w>
冰淇 淋</w>
再 见</w>
克林 顿</w>
何 方</w>
事 上</w>
严 重
一 连串</w>
一 致
u st
or g</w>
P h
DV D</w>
5 2</w>
199 4</w>
食 品
顺 着</w>
非 正式</w>
重 重</w>
造 型</w>
辍 学</w>
路易 斯</w>
超 人</w>
贝 多
贝多 芬</w>
谈 一谈</w>
评 级</w>
论 家</w>
觉 醒</w>
葡萄 糖</w>
荒 唐</w>
脸 部</w>
背 包</w>
而 不见</w>
网 格</w>
纪念 碑</w>
紧 接着</w>
糖 果</w>
第 一点</w>
短 时间</w>
留 意</w>
电 荷</w>
电 动
理 发
淘 汰</w>
洗衣 机</w>
毁 坏</w>
数 千
改 良</w>
携 手</w>
招 呼</w>
我 妈</w>
愈 合</w>
德 国人</w>
层 楼</w>
宇宙 飞船</w>
固 体</w>
喉 咙</w>
咱 们</w>
司 法
可 信</w>
发 放</w>
双 重</w>
卡罗 来
功 夫</w>
切 除</w>
凯 文</w>
共 处</w>
充满 希望</w>
停 滞</w>
依 照</w>
你 家</w>
伤 痛</w>
亿 吨</w>
人 用</w>
产 权</w>
二 者</w>
之 多</w>
东 京</w>
世 人</w>
一 惊</w>
i b
ar d
St ev
R ich
K B</w>
C T</w>
3 50</w>
鲁 士</w>
魔 术师</w>
饲 养</w>
预 知</w>
降 落
问 题
金 星</w>
那 张</w>
透明 度</w>
选 举
辉 煌</w>
调查 局</w>
视 而不见</w>
被 判</w>
薄 膜</w>
联合 国
耳 蜗</w>
简 单
筹 款</w>
积 木</w>
积 分</w>
直 到
直到 现在</w>
电 能</w>
电 动</w>
瓦 解</w>
狩 猎</w>
演 唱</w>
滚 动</w>
波 浪</w>
民 权
民权 运动</w>
毫无 意义</w>
毛 病</w>
毛 发</w>
每 件事</w>
格 子</w>
标 语</w>
柏 拉
柏拉 图</w>
构 思</w>
暴 风
暴 行</w>
时 钟</w>
散 布</w>
救护 车</w>
支 柱</w>
拖 延</w>
报 警</w>
或多 或少</w>
我 想</w>
年 度</w>
少 于</w>
小 屋</w>
小 伙
家 门</w>
安全 带</w>
大 吃
外 形</w>
地 步</w>
图 上</w>
国 防
咨 询
右 侧</w>
原 油</w>
卖 淫</w>
协 力</w>
创 作者</w>
克 莱
假 想</w>
信 不信</w>
伯 克
九 年</w>
举 报</w>
不 公</w>
上 空</w>
一 步
k a</w>
an t
al l
TS D</w>
P TSD</w>
C or
C o
6 4</w>
香 港</w>
零 售
难 受</w>
降落 伞</w>
长 者</w>
长 的</w>
通过 观察</w>
过 山
过山 车</w>
赤 道</w>
误 会</w>
诉 说</w>
见 识</w>
衍 生</w>
药 片</w>
脊 椎</w>
联邦 调查局</w>
线 上</w>
米 尔</w>
突 破
研究 院</w>
真 主</w>
看 护</w>
疲 劳</w>
电 源</w>
电 器</w>
牲 畜</w>
牛 仔
灌 溉</w>
滑 稽</w>
溶 解</w>
深 信</w>
海 军</w>
浪 费
津 巴布
津巴布 韦</w>
沙 丘</w>
气 氛</w>
残 障</w>
桌 面</w>
样 式</w>
树 叶</w>
栅 栏</w>
揭 开</w>
描 写</w>
指 着</w>
拆 除</w>
抵 消</w>
所 要</w>
我 以</w>
恐 惧
德克萨 斯州</w>
年 龄
带 动</w>
尼安 德</w>
尼 西亚</w>
小伙 子</w>
宽 容</w>
安 东
孟加拉 国</w>
好 运</w>
奥 秘</w>
失败 者</w>
外 壳</w>
备 受</w>
地 利</w>
土 豆</w>
商业 化</w>
哈 勃</w>
吸 毒</w>
君 子</w>
同 感</w>
史密 斯</w>
叠 加</w>
动 员</w>
减 速</w>
减 排</w>
写 信</w>
内 疚</w>
关 注
公 民
光 灯</w>
五 种</w>
五 十年</w>
书 本</w>
不复 存在</w>
下 角</w>
一 课</w>
一 团</w>
一 到</w>
t ube</w>
R o
J os
In st
IS IS</w>
B e
9 7</w>
10 000</w>
0 0
- ---</w>
鸽 子</w>
驾驶 员</w>
马 修</w>
风 险
面 面</w>
面 具</w>
除 去</w>
鉴 于</w>
遗 址</w>
进 攻</w>
软 骨</w>
轮 廓</w>
躯 体</w>
谋 生</w>
观众 席</w>
西 斯
裙 子</w>
菲 律
自 恋</w>
而 战</w>
罗 马
绳 索</w>
简 历</w>
第一 代</w>
研究 成果</w>
看 吧</w>
百万 个</w>
男 女
特 色</w>
混 淆</w>
浴 室</w>
治疗 师</w>
每 分钟</w>
歌 词</w>
标准 化</w>
杠 杆</w>
普 林
既 有</w>
方方 面面</w>
斯 达
数 码
敌 意</w>
招 聘</w>
投 射</w>
扮 演
扇 门</w>
成 功
性 生活</w>
念 头</w>
微 粒</w>
得 来</w>
得 分</w>
往 常</w>
当 有</w>
当 局</w>
强 迫
异 性</w>
开 拓</w>
建筑 学</w>
幻 肢</w>
导 弹</w>
寺 庙</w>
察觉 到</w>
实 习</w>
学 过</w>
奥 运
奖 金</w>
堆 积</w>
场 上</w>
地 质
在此 之前</w>
四 倍</w>
吓 坏</w>
可口 可乐</w>
召 唤</w>
卖 掉</w>
单 身</w>
匮 乏</w>
初 衷</w>
初 始</w>
出 身</w>
出 席</w>
决 定性</w>
克 隆</w>
信 条</w>
会 员</w>
仅 只是</w>
仅 仅只是</w>
义 肢</w>
中 心
丢 弃</w>
世 间</w>
上 时</w>
一 词</w>
一 团
u li
i o</w>
b y</w>
X 射线</w>
N e
E n
D e
5 4</w>
1 40</w>
鸭 子</w>
颠 倒</w>
面 团</w>
霉 菌</w>
队 友</w>
长 长的</w>
重 复
进 度</w>
还 原</w>
过滤 器</w>
辨 识</w>
车 库</w>
身 材</w>
谈 起</w>
诅 咒</w>
记录 下来</w>
视 觉
葡萄 酒</w>
莫 扎
莫扎 特</w>
自我 意识</w>
脚 趾</w>
罗 毕</w>
结果 表明</w>
糖 分</w>
竞争 对手</w>
空 洞</w>
稍 稍</w>
灰 尘</w>
澳 洲</w>
海岸 线</w>
海 吉</w>
活 得</w>
洗 澡</w>
每 位</w>
死 者</w>
欧洲 人</w>
核 电站</w>
标志 性</w>
服 役</w>
有 天</w>
最 能</w>
最 深</w>
更 换</w>
新 药</w>
撇 子</w>
摇 摆</w>
拉 罕</w>
护 照</w>
扎 克</w>
必 不可
归 根
庸 置疑</w>
广 大</w>
席 卷</w>
山 羊</w>
展 出</w>
尔 曼</w>
家 务</w>
完 美
围 着</w>
团结 起来</w>
器 械</w>
号 召</w>
发 酵</w>
反 之</w>
双 向</w>
千 人</w>
勉 强</w>
加 尔</w>
冷 漠</w>
再 有</w>
内 罗毕</w>
关 联
光 照</w>
作 画</w>
余 生</w>
伯 拉罕</w>
传 来</w>
介 于</w>
产 卵</w>
亚 伯拉罕</w>
云 层</w>
乐 谱</w>
中 国
丢 掉</w>
上 个世纪</w>
一 首歌</w>
一 枚</w>
k er</w>
ic e</w>
er t</w>
S e
S E
9 00</w>
黎 加</w>
高 压</w>
马 桶</w>
领 土</w>
雅 典</w>
难 忘</w>
限 度</w>
闻 名</w>
钢 铁</w>
重 返</w>
避难 所</w>
跳 跃</w>
跨 度</w>
跨 国</w>
蛛 丝</w>
葡萄 牙</w>
营养 不良</w>
菲律 宾</w>
莎 白</w>
节 日</w>
航天 局</w>
航天 器</w>
自 给
自给 自足</w>
翻 转</w>
统治 者</w>
终 止</w>
简 易</w>
第 一张</w>
私 人
祝 福</w>
皇 家</w>
疲 惫</w>
用 过</w>
用 心</w>
狭 隘</w>
爪 子</w>
漫 画家</w>
海 伦</w>
洛 伊
法 律
汇 报</w>
每 刻</w>
母 语</w>
极 少</w>
有 多
最 长</w>
暴力 行为</w>
无法 控制</w>
无 趣</w>
方 程式</w>
推 行</w>
捍 卫</w>
振 奋
拉 各
拉各 斯</w>
承 担
打个 比方</w>
慈善 机构</w>
情 绪
快 感</w>
帕 特
布莱 恩</w>
巴 拉
尿 液</w>
尖 锐</w>
对 性</w>
宁 愿</w>
失 落</w>
失 效</w>
天 上</w>
复 原</w>
地球 表面</w>
唤 起</w>
周 围
同 类</w>
合 体</w>
变 动</w>
原 材料</w>
原 创</w>
历 经</w>
动 荡</w>
制 性</w>
关 上</w>
公共 交通</w>
做 梦</w>
借 用</w>
倒 退</w>
信 奉</w>
会 谈</w>
会 议
仰 望</w>
从 何
人类 文明</w>
亲 身
争 辩</w>
中 等</w>
中 立</w>
中 断</w>
一 封信</w>
一 则</w>
y m
or e</w>
P M</w>
D H</w>
199 6</w>
199 5</w>
麻 痹
高 昂</w>
飞 天</w>
非常 低</w>
问题 所在</w>
长 方形</w>
野 蛮</w>
转 而</w>
身 受</w>
跳 伞</w>
超 能力</w>
赖 以
赖以 生存</w>
译 注</w>
评 分</w>
规 矩</w>
蝴 蝶</w>
虔 诚</w>
落 下</w>
菲利 普</w>
艰 巨</w>
美国 国家
美 好
绝 佳</w>
纸 质</w>
红 酒</w>
看得 见</w>
相 片</w>
目 击者</w>
皮 质
百分之 百</w>
电 邮</w>
电 磁
申 请
用 户
生 殖</w>
瓦 特</w>
环境 保护</w>
瀑 布</w>
演 变成</w>
游 戏
深 受</w>
流 浪
沉 迷
毋 庸置疑</w>
柱 子</w>
极端 主义</w>
暴 乱</w>
景 色</w>
政府 部门</w>
放 射</w>
攀 爬</w>
摩 尔</w>
摄 取</w>
拼 图</w>
抗 药性</w>
扰 乱</w>
成 型</w>
思 考
心 怀</w>
式 各样</w>
并不 认为</w>
市场 营销</w>
巴 斯</w>
工 具
局 势</w>
尼 泊
学 费</w>
孤 儿</w>
嫁 给</w>
娱 乐
奶 牛</w>
女权 主义</w>
夜 里</w>
塔 尔</w>
地 质</w>
地 域</w>
嘈 杂</w>
哮 喘</w>
周 遭</w>
吉 尔</w>
各 式各样</w>
古 典
变 老</w>
发 誓</w>
发 言
反 击</w>
占 有</w>
半 岛</w>
加 斯</w>
功 能性</w>
制 服</w>
出 路</w>
其 一</w>
共同 努力</w>
公 元</w>
光 年</w>
借 此</w>
修 理</w>
保持 沉默</w>
享 用</w>
交 互
争 吵</w>
之 道</w>
丝 毫</w>
不 难</w>
不 介意</w>
万 吨</w>
一般 来说</w>
一小 块</w>
一 试</w>
一 瓶</w>
一 束</w>
s p
o f</w>
R e
D E
5 8</w>
麻痹 症</w>
骗 局</w>
马 斯克</w>
首 领</w>
预 先</w>
阵 子</w>
闪 电</w>
邻 居
这 篇</w>
过 世</w>
贸 易
负面 影响</w>
证 人</w>
融 资</w>
菌 体</w>
节 拍</w>
肥 皂
耕 种</w>
继续 下去</w>
绝 不会</w>
纽约 州</w>
红 杉</w>
筹 集</w>
竞争 力</w>
空气 质量</w>
空气 污染</w>
石 油
眼 泪</w>
病 率</w>
疯 子</w>
番 茄
电 路
生命 周期</w>
生 计</w>
牛仔 裤</w>
潜 入</w>
源 泉</w>
湿 地</w>
湖 泊</w>
游 说</w>
涌 入</w>
泪 水</w>
沃尔 玛</w>
水 池</w>
比 里亚</w>
每 时
每时 每刻</w>
正 确
格 雷
树 立</w>
本 应</w>
最 差</w>
散 播</w>
散 发</w>
敢 于</w>
效 力</w>
放 心</w>
改变 现状</w>
撕 裂</w>
摔 倒</w>
搜 索
提 案</w>
推 文</w>
掠 夺</w>
技术 人员</w>
扭 动</w>
或 缺</w>
戏剧 性</w>
恶 性
急 需</w>
怀 有</w>
开 办</w>
平 板</w>
市 区</w>
左 派</w>
局 部</w>
导 体</w>
家庭 暴力</w>
实 例</w>
好 吃</w>
好 几
奥运 会</w>
奥 地利</w>
天 真</w>
大 到</w>
外 太空</w>
复 发</w>
坦白 说</w>
地 中
噬 菌体</w>
品 尝</w>
周围 环境</w>
向 往</w>
变 小</w>
取得 成功</w>
即 可</w>
化 身</w>
加 拉</w>
利 比里亚</w>
利 性</w>
利 亚人</w>
初 级</w>
冷 冻</w>
共 生</w>
公 认</w>
入 狱</w>
先 驱</w>
健 全</w>
做 手术</w>
信 用</w>
佛 教</w>
传 授</w>
付 给</w>
亲身 经历</w>
乔 纳
乏 味</w>
之 大</w>
义 词</w>
久 性</w>
主 人
中 东
两 到</w>
不 计
不 容
上 台</w>
上 个月</w>
一 棵树</w>
一 两个</w>
h e
G l
F l
B A</w>
A T
6 8</w>
预 示</w>
面 纱</w>
雇 用</w>
随 身
重 心</w>
迪 斯
轰 炸</w>
走 近</w>
贿 赂</w>
费 曼</w>
负 担
诺 曼</w>
诱 人</w>
误 差</w>
警 惕</w>
角 落
角落 里</w>
规 划
行 政</w>
行 性</w>
行 得通</w>
能源 消耗</w>
聪 明
考古 学家</w>
美 学</w>
终 将</w>
紧 密
第三 方</w>
站 立</w>
立方 体</w>
瞄 准</w>
相似 之处</w>
白 血
珠 宝</w>
珍 惜</w>
玩 意</w>
牌 子</w>
灵 活性</w>
消 逝</w>
测 出</w>
汇 集</w>
殖民 地</w>
殆 尽</w>
权 益</w>
斯达 黎加</w>
数百 个</w>
收 拾</w>
排 出</w>
授 粉</w>
按 下</w>
拉 斯
抱 负</w>
抛 开</w>
手 掌</w>
手 可
惧 怕</w>
思 绪</w>
张 力</w>
尼泊 尔</w>
尼古 丁</w>
小儿 麻痹症</w>
小 朋友</w>
寄 给</w>
室 外</w>
失 踪</w>
喜 马拉
哨 声</w>
哥 斯达黎加</w>
周 日</w>
右 手</w>
史 诗</w>
半 数</w>
升 温</w>
十 足</w>
办 公</w>
制 定
刊 登</w>
做 不了</w>
修 正
俄 亥
供应 商</w>
作 出
体 上</w>
伦 斯</w>
伊 丽
从何 而来</w>
人 力
些 许</w>
事 后</w>
之 力</w>
两 千</w>
不太 可能</w>
不同 之处</w>
不 堪
一 晚</w>
一 块
k e</w>
iP od</w>
ar t</w>
J am
Ge org
9 .
3 9</w>
199 7</w>
1 4
默 德</w>
高 风险</w>
音 量</w>
静 下来</w>
附 着</w>
遗 弃</w>
速 器</w>
迫 害</w>
运 输
辞 职</w>
赞 成</w>
责 怪</w>
说 不定</w>
论 证</w>
讨论 一下</w>
衬 衫</w>
行 事</w>
菜 单</w>
英 语
自 家</w>
背 部</w>
股 票
罐 子</w>
绕 过</w>
紊 乱</w>
穿 透</w>
福 大学</w>
社会 性</w>
番茄 酱</w>
热 烈</w>
演 奏
游 击
渴 求</w>
清 洁
海 龟</w>
海 洛
海洛 因</w>
浓 缩</w>
活 下去</w>
注 目</w>
注 射器</w>
波 斯
波 兰</w>
池 塘</w>
汇 聚</w>
水 准</w>
武 力</w>
植 物
杰 夫</w>
杰 作</w>
村 里</w>
晚 饭</w>
时 代
无 用</w>
新闻 报道</w>
新 奥尔
斯坦 福大学</w>
教 义</w>
放 进去</w>
摩 尔
摔 跤</w>
推 向</w>
接 口</w>
振奋 人心</w>
拼 命</w>
报 复</w>
把 戏</w>
我 爱
慈 悲</w>
悬 浮</w>
性 工作者</w>
忍 不住</w>
必不可 少</w>
建 模</w>
度 量</w>
幼 虫</w>
并 发
并发 症</w>
年 初</w>
带 回家</w>
就业 机会</w>
女 朋友</w>
大吃 一惊</w>
多 得多</w>
埃 里克</w>
地 雷</w>
回 避</w>
四 肢</w>
咖啡 馆</w>
周 六</w>
发 型</w>
印 记</w>
卫生 间</w>
十 九
医 保</w>
加利福 尼亚州</w>
刹 车</w>
制定 者</w>
关 节
六 十</w>
全 息</w>
入 睡</w>
入 手</w>
克 鲁
光 滑</w>
倒 塌</w>
修 补</w>
伸 展</w>
会 长</w>
伊丽 莎白</w>
仔细 观察</w>
人 生
交 织</w>
互 联</w>
不可 或缺</w>
三 条</w>
一 线</w>
o u</w>
o l</w>
iP ad</w>
ac h
W or
P E
M ic
9 2</w>
1 80</w>
黄 蜂</w>
高尔 夫</w>
预 防
阻 力</w>
钱 包</w>
金 额</w>
量 级</w>
遗 体</w>
逃 逸</w>
运 到</w>
身 旁</w>
跟 上</w>
超 大</w>
起 舞</w>
起 义</w>
账 单</w>
谈 过</w>
请 问</w>
译 者</w>
许 多年</w>
计 时</w>
莉 莉</w>
草 图</w>
艾 瑞克</w>
色 素</w>
肺 癌</w>
股 东</w>
翻 倍</w>
罗 德</w>
维 多
结 核
纷 纷</w>
精 密</w>
篇 章</w>
科学 技术</w>
科 罗
社会 学家</w>
瘾 君子</w>
疏 远</w>
生 死</w>
生 机</w>
独 立
犯 下</w>
火 星
火星 车</w>
潜水 器</w>
潜 艇</w>
海 量</w>
海 湾</w>
浪费 时间</w>
流 动性</w>
洗手 间</w>
水 质</w>
服 刑</w>
有 一天</w>
最 让人</w>
曝 光</w>
普 尔</w>
明 尼
无 穷</w>
无 一
新奥尔 良</w>
断 裂</w>
收 费</w>
搬 到</w>
探险 家</w>
拉 丁</w>
我 本</w>
感 同
感同 身受</w>
总 有一天</w>
性 取向</w>
性 交</w>
急 诊室</w>
心 协力</w>
得 益于</w>
开普 勒</w>
建 了</w>
少 女</w>
富 含</w>
密 歇
宾 夕
宾夕 法
宏 伟</w>
孙 女</w>
多 一点</w>
坐 标</w>
地 想</w>
国 会
商 学院</w>
哈 哈</w>
和 解</w>
吸 取</w>
听 从</w>
同 性</w>
各 不相同</w>
口 中</w>
反 对
去 往</w>
历史 性</w>
卡罗来 纳州</w>
卡 特</w>
单 细胞</w>
化 剂</w>
匈 牙
切 片</w>
净 化</w>
冠 状
共产 主义</w>
兰 人</w>
光 芒</w>
偶 数</w>
偏 向</w>
信息 技术</w>
体 化</w>
传染 性</w>
人 想</w>
争 夺</w>
乔 治
东 非</w>
七 十</w>
一个 点</w>
一 时</w>
g o</w>
ar a</w>
U ber</w>
Rich ard</w>
P V</w>
I s
E d
8 8</w>
8 000</w>
5 1</w>
骗 子</w>
驾 驭</w>
驾 车</w>
餐 桌</w>
雷 特</w>
阿拉 斯加</w>
铭 记</w>
鉴 定</w>
重 大
那 州</w>
连 续
过 往</w>
边缘 化</w>
越 发</w>
赶 紧</w>
走 开</w>
赞 扬</w>
负担 得起</w>
解 脱</w>
袜 子</w>
蜣 螂</w>
至 上</w>
老 虎</w>
罪 恶</w>
维多 利亚</w>
经 前</w>
纸 片</w>
红 线</w>
端 粒</w>
突破 性</w>
突 尼斯</w>
稀 有</w>
科罗 拉
着 眼
相 比
百 姓</w>
琢 磨</w>
理 应</w>
球 鞋</w>
特 拉</w>
深 渊</w>
淡 化</w>
流 血</w>
沉迷 于</w>
欢 呼声</w>
橡 皮
枪 击</w>
极 小</w>
杀 戮</w>
机 关</w>
本 该</w>
本 杰
日 记</w>
教 书</w>
抵 抗
披 萨</w>
抗 抑郁</w>
扮演 着</w>
打 扮</w>
才 智</w>
感 觉
悲 观</w>
必 定</w>
德 州</w>
得 主</w>
弗 里</w>
弗 朗
延 迟</w>
店 里</w>
应 急</w>
幸运 地</w>
小 规模</w>
天 天</w>
大 火</w>
大 叫</w>
处 决</w>
境 界</w>
地 里</w>
受 到
发电 厂</w>
原 始
协 商</w>
十九 世纪</w>
加勒 比
加 深</w>
力 气</w>
刻 板</w>
判 决</w>
切 需要</w>
几百 个</w>
冰 山</w>
内 存</w>
修正 案</w>
保 密</w>
保 卫</w>
保 佑</w>
伪 装</w>
仿 制</w>
仁 慈</w>
中 子</w>
世界 级</w>
不 感兴趣</w>
不 为人知</w>
上 下
三 到</w>
一大 群</w>
一 秒钟</w>
一 夜
一 分
b o
a b</w>
R os
O K</w>
M R
J im</w>
H C</w>
G r
F re
C l
4 9</w>
麦 片</w>
首 相</w>
首 个</w>
面 貌</w>
随 者</w>
限 性</w>
附 加</w>
阵 营</w>
阴 谋</w>
阳 性</w>
问 卷</w>
金融 危机</w>
邻 里</w>
造 福</w>
通 货
远 不止</w>
过 身</w>
载 荷</w>
轻 轻</w>
赢 家</w>
赛 车</w>
贵 族</w>
贝 卡</w>
谦 逊</w>
读 完</w>
说 些</w>
语 气</w>
规 模
莎 拉</w>
草 坪</w>
自然 资源</w>
腺 素</w>
能 比</w>
维 斯</w>
纺 织
纳 税
精 心</w>
移 动
神经 学家</w>
神 庙</w>
相 邻</w>
目 录</w>
电影 院</w>
生 学</w>
理 会</w>
班 级</w>
特 效</w>
牛 肉</w>
片 断</w>
焚 烧</w>
游 世界</w>
温 哥
温哥 华</w>
沼 泽</w>
沸 腾</w>
没 人能</w>
水 量</w>
水 管</w>
民族 主义</w>
查 询</w>
来 时</w>
本杰 明</w>
未 必</w>
更 难</w>
晚 宴</w>
日 语</w>
日 复
日复 一日</w>
无 数
收 购</w>
摆 动</w>
搜索 引擎</w>
描 绘
排 泄
挫 折</w>
挤 压</w>
批 判
手 语</w>
所 作</w>
战 役</w>
战 后</w>
我 发</w>
成 真</w>
惯 例</w>
志 愿</w>
异 议</w>
开放 式</w>
开 着</w>
建 起</w>
底 线</w>
庄 稼</w>
平均 寿命</w>
平 和</w>
干 涉</w>
尽 情</w>
小 狗</w>
害 羞</w>
定 居</w>
孟 加拉</w>
字 胡</w>
娜塔 莎</w>
好 坏</w>
大 奖</w>
埋 葬</w>
四 十年</w>
呆 子</w>
受 试者</w>
去 向</w>
博 弈</w>
十 五年</w>
刻 意</w>
别 处</w>
刑 事
函 数</w>
出 人
冲 浪</w>
写 给</w>
写 成</w>
再 用</w>
兽 医</w>
八 字胡</w>
八 十年代</w>
全 身心</w>
偷 走</w>
侵 害</w>
供 电</w>
会议 室</w>
久 远</w>
主人 公</w>
专 心</w>
不 经
万 一</w>
一整 套</w>
一团 糟</w>
y n</w>
ed ia</w>
ag e</w>
ac k
I P
I D</w>
8 7</w>
6 7</w>
5 9</w>
198 9</w>
难 得</w>
陪审 团</w>
门 外</w>
钞 票</w>
遗 迹</w>
遍 及</w>
进 到</w>
起 因</w>
赶 上</w>
质 性</w>
谦 卑</w>
说 来</w>
莱 斯特</w>
范 例</w>
苹果 公司</w>
航 班</w>
脑 电波</w>
联 络</w>
罗斯 福</w>
结果 显示</w>
纽 带</w>
纳税 人</w>
精 美</w>
精 疲力
等 候</w>
离 破碎</w>
着眼 于</w>
皮质 醇</w>
生 化</w>
现 成</w>
特 里</w>
爬 行</w>
炎 热</w>
漩 涡</w>
满 意
深 奥</w>
汲 取</w>
气 息</w>
比 利</w>
武 装
杂 耍</w>
最 最</w>
更 有
暴力 事件</w>
易 于</w>
无 止
族 人</w>
文 艺
支 离破碎</w>
摇 晃</w>
搭 档</w>
排泄 物</w>
捐 赠
指 甲</w>
戴 上</w>
成 品</w>
恐 吓</w>
性 命</w>
心 扉</w>
强 暴</w>
废 水</w>
应 得</w>
幸 好</w>
年 复
年复 一年</w>
常 说</w>
布 料</w>
工 会</w>
山 谷</w>
小 心
小 岛</w>
对 外</w>
实 用
奥林匹 克</w>
太 久</w>
天主 教</w>
多 长时间</w>
夏 季</w>
回 忆
商 务</w>
售 卖</w>
哥伦 布</w>
只 想</w>
变 迁</w>
双 臂</w>
南 美</w>
医 护
加 沙</w>
制 片
初 步</w>
关节 炎</w>
光 纤</w>
先 锋</w>
伤 性</w>
传 导</w>
价 格
亚 州</w>
乳 腺</w>
书 里</w>
乡 下</w>
中 年</w>
两 项</w>
东 方</w>
世 俗</w>
不起 作用</w>
不知 所
不 开</w>
七 十年代</w>
一 条线</w>
一 家人</w>
ic s</w>
ak e</w>
ag ram</w>
T om</w>
P r
F O
8 6</w>
7 000</w>
4 1</w>
龄 化</w>
马 车</w>
饮 用</w>
颅 骨</w>
音乐 厅</w>
集中 营</w>
集 成</w>
重 申</w>
配 置</w>
酋 长</w>
遇 上</w>
迫 不及
迫不及 待</w>
较 为</w>
转 过身</w>
路 撒
路撒 冷</w>
责 备</w>
负 荷</w>
计算机 科学</w>
解 码</w>
见 光</w>
衣 物</w>
蜘 蛛
蕴 含</w>
芬 兰</w>
背 面</w>
耶 路撒冷</w>
考 量</w>
美 观</w>
维 修</w>
竞争 者</w>
种族 灭绝</w>
碳 水
碳水 化合物</w>
研 讨
相比 之下</w>
的 确
百分之 八十</w>
登 录</w>
痛 恨</w>
画 书</w>
用 法</w>
玉 米
狭 窄</w>
熟 练</w>
然 大
演讲 时</w>
满 是</w>
海 默
海 边</w>
海 绵</w>
流 域</w>
法 学院</w>
没 想</w>
永 生</w>
气 概</w>
民 间</w>
星 盘</w>
时 速</w>
攻 克</w>
播 出</w>
摩尔 定律</w>
握 住</w>
拉丁 语</w>
抽 取</w>
所在 地</w>
忙 碌</w>
忙 于</w>
忘 掉</w>
弱 势</w>
开发 者</w>
开 辟</w>
开 罗</w>
建 设
建 构</w>
并 肩</w>
干 脆</w>
帕金 森
布 置</w>
展 现出</w>
展 品</w>
实 物</w>
存 储
字 符</w>
好 得多</w>
好 似</w>
奥斯 卡</w>
奢 侈</w>
头 疼</w>
失 误</w>
天 晚上</w>
大学 毕业</w>
城 里</w>
垄 断</w>
圣 保罗</w>
四 次</w>
囚 禁</w>
告 别</w>
听 闻</w>
参 议院</w>
半 年</w>
医护 人员</w>
北极 熊</w>
动 摇</w>
别 说</w>
军 官</w>
内 涵</w>
关 系
共 性</w>
全国 性</w>
做 生意</w>
假 象</w>
余 下</w>
传 遍</w>
会 场</w>
付 费</w>
人 要</w>
产 生
买 单</w>
举 措</w>
为 期</w>
严 谨</w>
两 百万</w>
不 敢
下 车</w>
上 市</w>
一千 个</w>
一 千年</w>
t on</w>
t a</w>
ou n
g t</w>
d y</w>
You tube</w>
S K</w>
F ran
F DA</w>
9 4</w>
龙 头</w>
高中 生</w>
高 空</w>
骑 士</w>
领 地</w>
预 料到</w>
障 碍
阿姆斯特 丹</w>
阐 明</w>
长 出</w>
酗 酒</w>
那 样
那 晚</w>
迷 思</w>
迷 宫</w>
迟 到</w>
迈 向</w>
软 件
贫民 区</w>
论 自由</w>
言 论自由</w>
薪 资</w>
芬 尼</w>
自然 灾害</w>
编 辑
绩 效</w>
结核 病</w>
组织 者</w>
组 学</w>
简 而言之</w>
禽 流感</w>
神 殿</w>
研讨 会</w>
知 情</w>
眼 界</w>
相 近</w>
痢 疾</w>
田 纳
生产 率</w>
特 别
泰 勒</w>
毅 力</w>
欧 元</w>
格 陵
某 天</w>
暴风 雨</w>
是 如此</w>
映 射</w>
无 效</w>
改 成</w>
提 名</w>
推 迟</w>
控制 权</w>
探 索
换 言之</w>
抽 出</w>
打 字</w>
打 个</w>
我爱 你</w>
意大 利
情 报</w>
思想 家</w>
征 兆</w>
录 取</w>
屏 障</w>
小 到</w>
对 策</w>
客 观
完全 全</w>
完 完全全</w>
威 力</w>
夸 大</w>
太阳 光</w>
大 使</w>
大 不了</w>
壁 画</w>
塑料 袋</w>
地中 海</w>
地 向</w>
国际 象棋</w>
国会 议员</w>
国 籍</w>
喝 酒</w>
哥伦 比
召 开</w>
十 多年</w>
十 分钟</w>
医 用</w>
助 者</w>
动 量</w>
剪 辑</w>
几 点</w>
农 田</w>
典 范</w>
六 十年代</w>
全 体</w>
偶 像</w>
倒 下</w>
侄 女</w>
使 馆</w>
伦 比</w>
传 粉</w>
伊 朗
他 用</w>
人 节</w>
五 天</w>
事 关</w>
乐 观主义</w>
丽 莎</w>
专 利
丑 闻</w>
不 自
不 懈</w>
不 大
一 排</w>
u x</w>
an i
ac e</w>
T ed</w>
Stev e</w>
N I
M o
M at
M S</w>
Inst agram</w>
B ri
B I</w>
9 3</w>
6 6</w>
19 00</w>
黑 白</w>
鲜 花</w>
风 筝</w>
预 约</w>
顿 悟</w>
霍 乱</w>
雄 心
院 子</w>
阿 密</w>
问 世</w>
门 槛</w>
重 症</w>
部 份</w>
那 好</w>
迫 切需要</w>
这 辈子</w>
迈 阿密</w>
达 到
踏 入</w>
越 高</w>
超 乎</w>
贬 低</w>
貌 似</w>
让 你
蠕 虫</w>
虚 弱</w>
脂 肪
老 龄化</w>
紧 迫</w>
第二 条</w>
稳 定性</w>
相 符</w>
登 记</w>
登 月</w>
电 信号</w>
瑟 夫</w>
环 形</w>
玛 利亚</w>
牢 固</w>
片 子</w>
烤 箱</w>
激 增</w>
海 峡</w>
永 久性</w>
民 意
正 因
正因 如此</w>
楼 房</w>
棍 子</w>
检 查
查 克</w>
来 得</w>
本 世纪</w>
服 饰</w>
替代 品</w>
无 时
文艺 复兴</w>
文 学
接 管</w>
抽 象
护 所</w>
投 放</w>
手术 室</w>
德 语</w>
德 斯</w>
彼此 之间</w>
彩 虹</w>
引人 注目</w>
异 性恋</w>
开 除</w>
庇 护所</w>
年 幼</w>
布 局</w>
左 手</w>
局 限性</w>
宽 恕</w>
安全 套</w>
字 节</w>
女 友</w>
大 面积</w>
壁 虎</w>
均 收入</w>
十 几岁</w>
十 二</w>
医 药
加勒比 海</w>
制片 人</w>
农 业
公 约</w>
免 于</w>
催 化剂</w>
保 姆</w>
俄 州</w>
侧 面</w>
佩 戴</w>
会 计</w>
会 花</w>
以 防</w>
人类 学</w>
人 造
人 时</w>
人 文
人 均收入</w>
亲 眼</w>
交响 乐</w>
五 次</w>
书 呆子</w>
之 情</w>
临 近</w>
两 难</w>
不知所 措</w>
不 道德</w>
不 见
不 相
不 前</w>
上 层</w>
万 计</w>
一致 性</w>
一 扇</w>
一 串</w>
ur e</w>
it t
in a</w>
at ion</w>
a f
G O</w>
E v
B ill</w>
B i
A c
5 6</w>
鱼 群</w>
风险 投资</w>
预 想</w>
顶 层</w>
韵 律</w>
雏 形</w>
随 地</w>
阅 读
间 断</w>
门 前</w>
长 相</w>
野 心</w>
那样 的话</w>
那 才</w>
通 话</w>
选 中</w>
连 在一起</w>
远 古</w>
轮 胎</w>
转 过</w>
跳 过</w>
起 码</w>
赛 鲁士</w>
谦 虚</w>
警 示</w>
解 雇</w>
观察 者</w>
要 花费</w>
芭 蕾
艾 滋</w>
自然 环境</w>
脊 椎
能 用</w>
肆 虐</w>
老 爸</w>
维 生素</w>
约翰 逊</w>
篝 火</w>
第二 次世界大战</w>
笑 容</w>
竭 尽全力</w>
空 军</w>
稳 固</w>
示 威</w>
知 之
直 立</w>
盛 行</w>
白血 病</w>
病毒 感染</w>
电 量</w>
生 不
玩 儿</w>
猎 鹰</w>
特 尔</w>
牙 医</w>
点 钟</w>
潮 湿</w>
浪 潮</w>
活 率</w>
洋 葱</w>
毒 害</w>
杆 菌</w>
有 何</w>
最 强</w>
无 所谓</w>
方向 盘</w>
数以 万计</w>
故 乡</w>
放 映</w>
改 写</w>
撞 机</w>
摸 索</w>
摩 西</w>
摄影 机</w>
掌 管</w>
捕 猎</w>
手 机
微 积分</w>
徘 徊</w>
得 上</w>
往 后</w>
强 子</w>
强 力</w>
弱 势
弱势 群体</w>
张 开</w>
左 撇子</w>
工 匠</w>
峰 值</w>
对 劲</w>
字 面</w>
娃 娃</w>
大 桥</w>
士 学位</w>
塔 西</w>
城 堡</w>
场 面</w>
在 历史
在历史 上</w>
商 家</w>
周 刊</w>
叮 咬</w>
取 悦</w>
发 病</w>
半 径</w>
半 夜</w>
加 速器</w>
加 大</w>
刺 猬</w>
出 发
冒 出来</w>
养 院</w>
共和 党人</w>
共 用</w>
公 交</w>
儿 时</w>
停 顿</w>
会 变</w>
优 质</w>
从未 有过</w>
争 执</w>
之 际</w>
两 大</w>
专 栏</w>
不起 眼</w>
不经 意</w>
上 百</w>
三 项</w>
一夜 之间</w>
一 阵子</w>
一 米</w>
一 旁</w>
一 岁</w>
一 夜</w>
o p</w>
d e
T e
S W</w>
P l
M e
Georg e</w>
G B
F or
E l
D J</w>
19 45</w>
鲜 明</w>
高中 毕业</w>
食 谱</w>
领 悟</w>
领 养</w>
静 态</w>
雷 斯</w>
随 机
降 雨</w>
银 河</w>
金 斯</w>
金 属
采 纳</w>
配 备</w>
造 影</w>
送 入</w>
迪斯 尼</w>
这 间</w>
这 层</w>
轻 而易
轻而易 举</w>
跑 道</w>
超 声波</w>
起 伏</w>
谢 天
谢天 谢
谢天谢 地</w>
课 本</w>
计 数</w>
解 析</w>
规模 化</w>
观 止</w>
行 进</w>
血 清
血清 素</w>
蓬 勃
落 到</w>
营 造</w>
菌 丝</w>
花 上</w>
航 天</w>
能 活</w>
能 以</w>
育 儿</w>
老年痴 呆</w>
老 婆</w>
维 基</w>
终 生</w>
约 旦</w>
红 外线</w>
算 出</w>
第三 次</w>
穿 行</w>
神 父</w>
示 范</w>
矿 物质</w>
眨 眼</w>
真 人</w>
百分之 十</w>
百分之 五十</w>
痊 愈</w>
电话 号码</w>
电子 产品</w>
电 池
电 力
生产 商</w>
甚 少</w>
玫 瑰</w>
爵 士
焦 虑
灭 亡</w>
濒 临
漆 黑</w>
淋 巴
流 层</w>
汉 密
死 后</w>
棕 榈
栖 息</w>
树 脂</w>
查 找</w>
某 件事</w>
果 树</w>
极 高</w>
显示 器</w>
昏 迷</w>
无 与
无与 伦比</w>
文 物</w>
教 士</w>
收 养</w>
据 估计</w>
批判 性</w>
托 尼</w>
扔 进</w>
扎 根</w>
所 指</w>
戴 着</w>
得 出
得出 结论</w>
很 糟</w>
开 阔</w>
废 弃
广 泛
平方 米</w>
幕 后</w>
帮 派</w>
希 伯
巢 穴</w>
展 望</w>
层 层</w>
尼 克
对 准</w>
审 核</w>
定 决心</w>
存 活率</w>
好 几年</w>
太 晚</w>
天 呐</w>
大 猩猩</w>
大 使馆</w>
声 响</w>
基 督</w>
坚 韧</w>
均 衡</w>
图 景</w>
喜 剧
喂 食</w>
哈 里</w>
呐 喊</w>
启 迪</w>
向 外</w>
叹 为
叹为 观止</w>
史蒂 芬</w>
可 观</w>
发电 机</w>
发明 者</w>
原子 弹</w>
卷 入</w>
化学 成分</w>
制 止</w>
到 位</w>
利 桑
初 创</w>
创新 者</w>
分之 三</w>
分 发</w>
出 轨</w>
出 生
几 小时</w>
凝 聚</w>
傲 慢</w>
倘 若</w>
信 服</w>
保险 公司</w>
保持 联系</w>
俄亥 俄州</w>
便 捷</w>
伦 理
产 品
亚 利桑
五 十万</w>
之 路</w>
之 快</w>
乃 至</w>
丧 生</w>
两 名</w>
两 千
专业 知识</w>
不 谈</w>
不 至于</w>
不 丹</w>
下 定决心</w>
上 会</w>
三角 洲</w>
一 轮</w>
一 堵</w>
ha t</w>
h i</w>
f li
W illi
W ik
T K</w>
T I</w>
MR I</w>
Lin ux</w>
J C</w>
E S
A t
7 6</w>
.. ..</w>
麻 醉
麦 迪
马 特</w>
飞 到</w>
非常 明显</w>
霉 素</w>
难 怪</w>
隐 秘</w>
陨 石</w>
陈 旧</w>
闲 置</w>
长 官</w>
金 子</w>
重 构</w>
都 行</w>
那 有</w>
通货 膨胀</w>
逆 转录</w>
述 者</w>
远 方</w>
这 话</w>
这 组</w>
边 形</w>
身 而出</w>
越来越 快</w>
议 者</w>
订 阅</w>
触 角</w>
触 碰</w>
西 藏</w>
蒂 姆</w>
莱 特</w>
艰 辛</w>
船 员</w>
自 称</w>
脱 欧</w>
而 下</w>
羞 耻
维 加斯</w>
米 开
米开 朗
第 六
竹 子</w>
稀 缺</w>
祸 首</w>
神 秘
看 重</w>
相关 性</w>
生命 危险</w>
特 阿拉伯</w>
片 刻</w>
烧 掉</w>
炎 症</w>
游 动</w>
液 态
法 西斯
法 国人</w>
沥 青</w>
沙 特阿拉伯</w>
污 水</w>
毫 秒</w>
每 条</w>
殴 打</w>
此 后</w>
植 被</w>
格 言</w>
格 式</w>
木 板</w>
木 偶</w>
服 药</w>
有 序</w>
更 多地</w>
暗 喻</w>
旗 子</w>
斯蒂 芬尼</w>
数据 分析</w>
数学 模型</w>
数 量级</w>
教 皇</w>
教 条</w>
敏 锐</w>
收 回</w>
收 取</w>
攀 岩</w>
搭 配</w>
拉 登</w>
报 社</w>
抢 劫</w>
抓 狂</w>
我 画</w>
意 料
性 病</w>
怎么 着</w>
很 早</w>
废弃 物</w>
幻 象</w>
年 时</w>
对 撞机</w>
安德 烈</w>
学 期</w>
字 母
姿 态</w>
失 业
大大 的</w>
大 家庭</w>
外 套</w>
增 多</w>
堕 胎</w>
城 区</w>
圣 诞</w>
国防 部</w>
喝 咖啡</w>
哥伦比 亚
哈 姆
右 派</w>
可 控</w>
可 不
另一 组</w>
反 向</w>
印度 尼西亚</w>
印 尼</w>
卖 出</w>
华 氏度</w>
动 器</w>
加 油
利 略</w>
分 心</w>
几 千
冰 块</w>
克里 斯托
光 束</w>
债 券</w>
信 封</w>
俄 国</w>
佩 奇</w>
作出 反应</w>
伽 利略</w>
会 上</w>
众 神</w>
份 额</w>
代 理</w>
人 脸</w>
五 分之一</w>
事 务
乔纳 森</w>
临 界
东 南亚</w>
业 绩</w>
不知 情</w>
不 来</w>
不 易</w>
一 粒</w>
u e</w>
ik e</w>
fli x</w>
an i</w>
Rob ert</w>
P ro
P ar
Net flix</w>
M y
L GB
A P
龄 人</w>
黑 板</w>
鸡 尾
香 味</w>
颠 覆
顺 从</w>
非同 寻常</w>
难以 想象</w>
阿 里</w>
阶 梯</w>
长 成</w>
链 条</w>
避孕 套</w>
透明 化</w>
迷 恋</w>
进 出</w>
转 到</w>
路 面</w>
赶 到</w>
请 来</w>
诱 因</w>
认 知
西 方
表 皮</w>
蜗 牛</w>
菜 园</w>
菌 落</w>
花 生</w>
脱 节</w>
胰 腺癌</w>
胆 固醇</w>
肺 炎</w>
耐 克</w>
考 古</w>
缩 减</w>
结 底</w>
纵 观</w>
索 沃</w>
精 确
类 固醇</w>
第二 年</w>
第一 台</w>
第一 份</w>
窒 息</w>
穆 罕
科 索沃</w>
着 火</w>
皇 后</w>
百分之 二十</w>
用 手</w>
环 球</w>
猎 人</w>
特 意</w>
特 兰</w>
牡 蛎</w>
燃 料
火 花</w>
濒 危</w>
游 泳池</w>
深 陷</w>
深 夜</w>
液态 水</w>
流 浪</w>
法西斯 主义</w>
沼 泽
民意 调查</w>
残 暴</w>
树 干</w>
构 架</w>
村 落</w>
末 期</w>
期 内</w>
有所 作为</w>
有 效
有 位</w>
普 里</w>
晋 升</w>
时间 段</w>
数 千年</w>
敏 捷</w>
摩 天
控制 器</w>
接 收
挺 身而出</w>
拷 贝</w>
所 示</w>
所 得</w>
我 成</w>
戈 斯</w>
惊 异</w>
性 骚扰</w>
性 激素</w>
急 救</w>
归根 结底</w>
归 类</w>
平 衡
平 流层</w>
市 郊</w>
巴 厘
巴厘 岛</w>
层 级</w>
射 杀</w>
家 属</w>
宜 居</w>
完 好</w>
婚 外
头 巾</w>
大 米</w>
大 喊</w>
壁 垒</w>
塞 进</w>
同 龄人</w>
可 行性</w>
古 典</w>
变 性人</w>
变 大</w>
参 议员</w>
利 尔</w>
出人 意料</w>
几 十亿</w>
兴 奋
六 月</w>
克 逊</w>
充 气</w>
偷 偷</w>
俄 勒
以 求</w>
付 款</w>
仍 会</w>
亮 度</w>
交 叉
云 彩</w>
举 止</w>
两 极
两 侧</w>
与 世
不 带</w>
丁 堡</w>
一百 个</w>
or d
in s</w>
SE TI</w>
R M</w>
N B</w>
M in
M A
K e
H an
G K</w>
E ri
B er
4 0
196 8</w>
魁 祸首</w>
马 州</w>
馆 长</w>
食 堂</w>
飞 速</w>
飞 去</w>
零 下</w>
阿 基
阴 蒂</w>
阐 释</w>
闭 上
闪 亮</w>
长期 以来</w>
酸 盐</w>
酸 奶</w>
那 本书</w>
遵 从</w>
退 伍
退伍 军人</w>
轻 重</w>
身 份
超级 计算机</w>
费 力</w>
货 币
该 死</w>
诡 异</w>
诗 意</w>
试 看</w>
词 是</w>
讲 解</w>
警 钟</w>
解 放出来</w>
西 伯
西伯 利亚</w>
表演 者</w>
螺旋 桨</w>
蝙 蝠
蜂 群</w>
蓬勃 发展</w>
菲 尔德</w>
苏 珊</w>
自 尊</w>
自 大</w>
膀 胱</w>
肾上 腺素</w>
耐 药性</w>
老 旧</w>
置 身于</w>
罪 魁祸首</w>
绕 着</w>
纤维 素</w>
管 弦
竞 技
穿 戴</w>
空 虚</w>
空 地</w>
穆罕 默德</w>
移 居</w>
硫 化
知识 产权</w>
真 想</w>
真 切</w>
相 较</w>
相 爱</w>
相 传</w>
皮 肤
百 计</w>
界 定</w>
电路 板</w>
用 尽</w>
甜 甜</w>
理 疗</w>
现 代人</w>
特 鲁
照 看</w>
激 进
漫 画书</w>
演 唱
满 足
渔 场</w>
清 晰
流感 病毒</w>
洛伊 德</w>
洛 伊</w>
水 龙头</w>
水 道</w>
气 流</w>
核 弹</w>
枯 燥</w>
朱 丽
本 国</w>
更 让人</w>
暴 动</w>
无 休
改 动</w>
支 援</w>
攀 登</w>
摆 弄</w>
提 炼</w>
推 进
换 取</w>
捐赠 者</w>
捐 献</w>
挫 败</w>
按 时</w>
拍 手</w>
执 政</w>
打 着</w>
打 猎</w>
惊 恐</w>
恶 意</w>
性 关系</w>
怀 抱</w>
心 思</w>
心 底</w>
微 米</w>
弹 簧</w>
年 老</w>
平均 水平</w>
崇 高</w>
尖 端</w>
小 麦</w>
密切 相关</w>
室 友</w>
实 现
官 僚</w>
完美 主义</w>
完全 正确</w>
学术 界</w>
学 着</w>
子 孙</w>
姓 名</w>
妓 女</w>
奥 克</w>
奖 赏</w>
太 难</w>
大 不相同</w>
够 了</w>
多 彩</w>
外 科
塑 性</w>
基 层</w>
坍 塌</w>
国 务
回 声</w>
四 分之三</w>
器 材</w>
呼 叫</w>
后 台</w>
合 唱
右 翼</w>
台 词</w>
可 言</w>
可 兰经</w>
口 语</w>
受 够了</w>
反 面</w>
参 照</w>
厚 度</w>
危 及</w>
刷 牙</w>
别无 选择</w>
利 用
利 安</w>
创 性</w>
出发 点</w>
出 乎</w>
几 张</w>
几 内
军 方</w>
再 来</w>
典 礼</w>
其 数</w>
全 程</w>
克 勒斯</w>
光 是</w>
偏 爱</w>
信 任
体 外</w>
但 愿</w>
休 息
休 假</w>
以为 常</w>
亲眼 目睹</w>
亲 切</w>
些 年来</w>
互 助</w>
书 店</w>
习 以为常</w>
乌 克兰</w>
中东 地区</w>
中 间
个 案</w>
东 欧</w>
与世 隔绝</w>
一 氧化
一 段
一 号</w>
yp e</w>
s e</w>
r at
k o</w>
an e</w>
a k</w>
I C
G re
A ir
A C
9 1</w>
8 3</w>
199 1</w>
1 60</w>
麦迪 逊</w>
高 山</w>
高 尚</w>
骨 折</w>
马 萨
香 水</w>
饱 和</w>
飞 越</w>
顶 上</w>
霍 金</w>
障碍 物</w>
降 温</w>
阻 断</w>
间 隔</w>
长 于</w>
金 色</w>
那 座</w>
遥 控</w>
造 访</w>
透 了</w>
逆 境</w>
追 随者</w>
迷 茫</w>
这 头</w>
运 河</w>
过 渡
达 拉斯</w>
载 体</w>
跳 出</w>
路 过</w>
货 架</w>
贝 壳</w>
谚 语</w>
试 试看</w>
识 字</w>
螃 蟹</w>
蝙蝠 侠</w>
花 掉</w>
腹 泻</w>
胜 出</w>
耗 时</w>
美 军</w>
维 系</w>
经济 衰退</w>
纳 斯</w>
红 树林</w>
精 通</w>
精 致</w>
粉 碎</w>
答 复</w>
第二 步</w>
积极 分子</w>
离 失
离失 所</w>
福 音</w>
神经 学</w>
社会 变革</w>
短 语</w>
相 关联</w>
监 听</w>
电 场</w>
甲 虫</w>
甲 状
珍 视</w>
猫 咪</w>
独 有</w>
状 物</w>
牙 买
消 融</w>
流 离失所</w>
沿 海</w>
沼泽 地</w>
汉密 尔顿</w>
水 位</w>
母 乳</w>
残 骸</w>
此 地</w>
正 规</w>
模拟 器</w>
格 外</w>
本 科</w>
星 巴克</w>
日 历</w>
无止 境</w>
旁 观</w>
方 位</w>
新 书</w>
效 仿</w>
放 学</w>
摄 像</w>
携 带
携带 者</w>
推 崇</w>
掌 权</w>
指 尖</w>
拍 打</w>
拉 比</w>
手 头</w>
感到 恐惧</w>
很 想</w>
弗 洛伊德</w>
废 品</w>
幼 稚</w>
平 原</w>
布 拉</w>
小 姐</w>
对 照
宽 度</w>
审 美</w>
守 卫</w>
宇航 局</w>
宁 静</w>
婚外 情</w>
威 尼斯</w>
好 象</w>
奥 克兰</w>
外科 手术</w>
复 合</w>
塞 内
坠 入</w>
团结 一致</w>
哈 欠</w>
咀 嚼</w>
呕 吐</w>
后 方</w>
各个 方面</w>
可不 可以</w>
可 见光</w>
古 人</w>
口 哨</w>
受 精</w>
即 便
即便 如此</w>
卡 通
南 美洲</w>
千 万美元</w>
动 症</w>
加油 站</w>
功 课</w>
力 度</w>
剪 刀</w>
前 途</w>
制造 者</w>
利 他
初 次</w>
切 开</w>
出版 社</w>
出 柜</w>
养 老
兰 岛</w>
公 顷</w>
光 波</w>
先 是</w>
先 天</w>
信 片</w>
低 廉</w>
传 教士</w>
伊朗 人</w>
以 内</w>
代 数</w>
代 代</w>
人 间</w>
人 死于</w>
亚 瑟</w>
事 人</w>
也 好</w>
之 久</w>
主 导
中 毒</w>
专 用</w>
不计 其数</w>
不 觉</w>
不 知道</w>
不 由
下 落</w>
三 大</w>
一 盘</w>
v e</w>
on n
W al
S ha
R a
Mic ha
J ef
J A</w>
E S</w>
D an</w>
5 3</w>
3 60</w>
1 10</w>
鸡尾 酒</w>
鸡 肉</w>
高 管</w>
马尔 代
马尔代 夫</w>
顽 固</w>
非 得</w>
雷 德</w>
集 群</w>
陷 入
错 综
错综 复杂</w>
里 程
追 赶</w>
这 根</w>
辨 认</w>
身 影</w>
跳 进</w>
货 车</w>
象征 性</w>
读 到</w>
试 点</w>
认 罪</w>
计划 生育</w>
警 报</w>
西 红
西红 柿</w>
表 亲</w>
街 角</w>
血 流</w>
蚁 穴</w>
获 取
腹 部</w>
胶 囊</w>
胯 部</w>
罗 德
罗 宾</w>
网 球</w>
结 晶</w>
经济 危机</w>
纳米 比亚</w>
红 利</w>
纠 缠</w>
精 度</w>
粗 鲁</w>
类 推</w>
竞技 场</w>
空 隙</w>
穆 朗
稀 少</w>
种 植
私 营
神 灵</w>
祈 求</w>
知之 甚少</w>
着 陆
看 得</w>
相 乘</w>
监 护
疗 程</w>
瓶 颈</w>
琐 碎</w>
猎 杀</w>
独 处</w>
牙买 加</w>
热 点</w>
点 点</w>
灵 光</w>
满 怀</w>
滋 养</w>
洁 净</w>
汇 款</w>
正 视</w>
正 向</w>
梯 子</w>
梦 想
格 雷</w>
格 局</w>
格 伦</w>
染 料</w>
杏 仁
杏仁 核</w>
末 端</w>
有 的是</w>
有 待</w>
最 受</w>
普 查</w>
星 空</w>
探 访</w>
捐 助</w>
拍 下</w>
打 招呼</w>
我 先</w>
戏 法</w>
感谢 上帝</w>
愈 发</w>
快 点</w>
忧 郁</w>
必 需
循环 系统</w>
很 近</w>
往 返</w>
当 事人</w>
开 枪</w>
库 里</w>
希 特勒</w>
州 政府</w>
就 象</w>
对照 组</w>
富 兰
富兰 克林</w>
实 感</w>
实 实</w>
定 理</w>
存 放</w>
字 眼</w>
妨 碍</w>
如 此
夸 克</w>
太 少</w>
大 赛</w>
大 峡谷</w>
大 众
多 伦
外 语</w>
外 人</w>
塞内 加尔</w>
堪 萨
图 里</w>
喷 射</w>
喜剧 演员</w>
吻 合</w>
启 蒙</w>
向 着</w>
各 项</w>
各 行
可 疑</w>
只 花</w>
口 技</w>
发 自
反 恐</w>
卫生 保健</w>
匈牙 利</w>
动 力学</w>
办 到</w>
前 走</w>
列 车</w>
切 尔</w>
分 形</w>
分 工</w>
几 何
减 肥</w>
准确 性</w>
冻 结</w>
再 度</w>
关键 点</w>
兰 德</w>
全 力
充 当</w>
侵 略</w>
伯克 利</w>
伪 造</w>
传 播
优 先
产生 共鸣</w>
五 倍</w>
了 个</w>
买 不起</w>
九 月</w>
乙 醇</w>
乐 园</w>
主 任</w>
个人 化</w>
两 面</w>
不管 怎么</w>
不敢 相信</w>
不 应</w>
不 列
下 而上</w>
下 沉</w>
上 而下</w>
三 维空间</w>
万 能</w>
万 事
一无 所有</w>
一个 男孩</w>
一个 多</w>
一个 半</w>
v er</w>
t ab
s k
r os
m er</w>
l t</w>
i us</w>
en d
ani el</w>
Th om
K M</w>
H er
Em ma</w>
Al p
5 7</w>
3 .5</w>
19 75</w>
零售 商</w>
隐 之心</w>
随 时
阳 台</w>
间 隙</w>
错 失</w>
销 量</w>
重 拾</w>
里 根</w>
酸 化</w>
那 块</w>
道 而
适应 能力</w>
迪 伦</w>
连接 体</w>
连 线</w>
这 段话</w>
这 名</w>
运动 会</w>
轿 车</w>
转 发</w>
身体 健康</w>
跨 国
足 球
起 身</w>
赚 取</w>
购物 中心</w>
贫 瘠</w>
调 动</w>
诺 顿</w>
说 完</w>
记 下</w>
解 救</w>
覆 盖
被 告</w>
衰 落</w>
萝 卜</w>
莱 斯</w>
脊椎 动物</w>
胶 带</w>
胜 任</w>
缠 绕</w>
维 京</w>
约 瑟夫</w>
系统 地</w>
糊 口</w>
精 髓</w>
窃 取</w>
突 发</w>
称 赞</w>
砖 块</w>
省 下</w>
百分之 三十</w>
疗 养院</w>
男 朋友</w>
电 厂</w>
生态 学</w>
生 日
珠 穆朗
献 者</w>
犯罪 率</w>
熄 灭</w>
点 头</w>
游 荡</w>
海默 症</w>
洛 夫</w>
泛 滥</w>
沃 森</w>
民主 化</w>
民 权</w>
毒 液</w>
标 示</w>
极 地</w>
有 色</w>
更有 意义</w>
更 近</w>
晶 石</w>
明 信片</w>
时 才</w>
日 志</w>
斯 塔</w>
数 百万年</w>
救 世
支 票</w>
按 键</w>
拦 截</w>
拥 护</w>
抓 取</w>
战 术</w>
成 就
成 因</w>
必需 品</w>
开发 商</w>
开 门</w>
帕特 里克</w>
希腊 人</w>
左 上角</w>
岩 洞</w>
山 一角</w>
屏 蔽</w>
就 行</w>
尤 为</w>
封 锁</w>
实现 目标</w>
安 定</w>
字母 表</w>
大 都</w>
大 幅度</w>
多 尔</w>
坠 落</w>
地 盘</w>
土 著
嘴 唇</w>
喇 嘛</w>
咳 嗽</w>
咨询 师</w>
周 一</w>
合法 化</w>
合 格</w>
合 成
各行 各
各行各 业</w>
右 脑</w>
可 塑性</w>
古 兰经</w>
受 邀</w>
取 样</w>
反 感</w>
反 复
千万 别</w>
勇 士</w>
劳 作</w>
动 画
加州 大学</w>
分 解
凶 手</w>
几 百万年</w>
几 千个</w>
减 小</w>
冰 山一角</w>
写 过</w>
兹 堡</w>
关注 点</w>
做 起</w>
偏 执</w>
假 若</w>
俄 克拉
低 下</w>
伤 疤</w>
优 步</w>
付诸 行动</w>
人造 卫星</w>
人 文</w>
二十 几岁</w>
乌 贼</w>
丽 特</w>
丹 尼</w>
临床 实验</w>
专 制</w>
不列 颠</w>
不 胜
不 朽</w>
不 尽
不 合理</w>
下 潜</w>
下 滑</w>
一 万</w>
s u
on y</w>
on g</w>
o o</w>
n e
i st
i ri
R S</w>
P re
P C</w>
Mar t
7 1</w>
18 00</w>
龙 虾</w>
首 位</w>
颠覆 性</w>
随时 随地</w>
长 途
长 河</w>
镇 上</w>
重 获</w>
重 回</w>
邻居 们</w>
邮 报</w>
道 具</w>
透 镜</w>
逆 向</w>
迷 因</w>
这 些年来</w>
过 敏</w>
足 轻重</w>
超 自然</w>
走 遍</w>
许 可
警 卫</w>
观 赏</w>
西 海岸</w>
装 载</w>
表 示
蝾 螈</w>
藏 品</w>
蓝 鲸</w>
蓝 光</w>
落 实</w>
艾 斯克</w>
航 线</w>
自 传</w>
脱 落</w>
老 式</w>
老 天</w>
美国国家 安全局</w>
缘 故</w>
给 我发</w>
绅 士</w>
糊 涂</w>
粮 食
米 德</w>
算 术</w>
笨 重</w>
笛 子</w>
竞 技</w>
离 去</w>
社 区
畅 销</w>
甲 壳
生物 科技</w>
生命 力</w>
爱 情
焦虑 症</w>
潜 伏</w>
源 源
混 蛋</w>
深入 研究</w>
浩 瀚</w>
流行 病学</w>
活 儿</w>
洋 流</w>
泰 坦
法 令</w>
油 漆</w>
河 里</w>
气 管</w>
比 作</w>
此 类推</w>
果 实</w>
林 中</w>
条 纹</w>
材 质</w>
朵 花</w>
最 酷</w>
最 低
更 多人</w>
昭 著</w>
明尼 苏
无时 无
无时无 刻</w>
无 限
新泽 西州</w>
斗 士</w>
文化 背景</w>
故 事
摩擦 力</w>
揭 晓</w>
挨 饿</w>
挥 舞</w>
挚 爱</w>
指 导
拥 有者</w>
拉斯 维加斯</w>
投资 人</w>
投 身</w>
技 艺</w>
批 评
扪 心
扪心 自问</w>
手 无
战 队</w>
我 去</w>
我 俩</w>
成 不变</w>
恰 巧</w>
恐惧 症</w>
总 监</w>
急 性</w>
得 好</w>
张 纸</w>
引 力
式 化</w>
开 场</w>
平方 英尺</w>
平 稳</w>
平 权</w>
带 我去</w>
帝 国
布 里
巩 固</w>
峰 会</w>
履 行</w>
尼古 拉斯</w>
小 球</w>
实 质性</w>
好 极了</w>
奥 威尔</w>
奇 数</w>
头 绪</w>
失业 率</w>
失 聪</w>
大 腿</w>
多伦 多</w>
多 一些</w>
外 围</w>
塞 塔</w>
塑料 瓶</w>
基 罗</w>
坐 落</w>
场 主</w>
圣诞 老人</w>
圆 点</w>
圆 柱</w>
哈姆 雷特</w>
名 片</w>
同 性
各 州</w>
发 病率</w>
反 响</w>
参 军</w>
原 地</w>
原 则
却 说</w>
升 华</w>
十字 路口</w>
十 月</w>
匹 兹堡</w>
加 重</w>
加 油</w>
前 去</w>
前 一天</w>
出 血</w>
出 狱</w>
几内 亚</w>
决策 者</w>
冲 破</w>
具体 来说</w>
关键 时刻</w>
克里斯托 弗</w>
兆 瓦</w>
假 新闻</w>
体育 馆</w>
低 音</w>
传 媒</w>
休 闲</w>
今 年
人口 数量</w>
人 际</w>
五 万</w>
事 例</w>
书 面</w>
乔 布斯</w>
乌 云</w>
之 初</w>
不 准</w>
不 便</w>
上 午</w>
三 分钟</w>
万 分</w>
一 趟</w>
一 成不变</w>
ur i</w>
k s</w>
iv e</w>
ip edia</w>
h t</w>
ar e</w>
ab b
Wik ipedia</w>
Thom as</w>
S U
Pet er</w>
Jo el</w>
Jam es</w>
8 4</w>
7 8</w>
4 .
199 3</w>
1 200</w>
麻 疹</w>
高 水平</w>
高 效率</w>
高 大</w>
高 估</w>
马萨 诸
飞 快</w>
音 速</w>
青 春</w>
隔 阂</w>
隔 壁</w>
阿 曼</w>
镇 压</w>
里 约
里约 热
里约热 内
里约热内 卢</w>
里 头</w>
通 风</w>
送 上</w>
退 学</w>
远 地区</w>
近 来</w>
迈 进</w>
达 芬奇</w>
跑 步
跑步 机</w>
走 入</w>
质 问</w>
调 和</w>
读 写</w>
诱 导</w>
该 国</w>
试 一试</w>
评 论家</w>
认 清</w>
西方 人</w>
英 勇</w>
花 园
航天 飞机</w>
臭 名
自 觉</w>
群 人</w>
网 民</w>
缺 口</w>
缅 甸</w>
结 实</w>
纸 巾</w>
纸 上</w>
纯 洁</w>
紧密 联系</w>
米开朗 基罗</w>
站 点</w>
立 面</w>
立 法
稀 释</w>
移动 电话</w>
硫化 氢</w>
码 头</w>
短 短
睡 眠
省 钱</w>
相 识</w>
皇 帝</w>
白 鲨</w>
登 山
疗 效</w>
甲状 腺</w>
用 语</w>
生产 者</w>
甚 么</w>
理 人</w>
环 绕着</w>
玛 格
特 殊
牛 仔</w>
牙 刷</w>
爱 心</w>
照 相</w>
满意 度</w>
消 化
浮 动</w>
测 试
测 绘</w>
活 到</w>
洞 察</w>
波斯 尼亚</w>
汉 斯</w>
毕 生</w>
检 视</w>
检 测器</w>
梅 隆</w>
架 子</w>
本 意</w>
木 舟</w>
朝 向</w>
最 底层</w>
最 令</w>
普 拉</w>
易 懂</w>
时 段</w>
时 所</w>
日 落</w>
无线 电波</w>
斯蒂 芬</w>
数十 亿年</w>
救 济</w>
放 出</w>
攻 读</w>
攻 击
改 编</w>
推 动力</w>
拥 护者</w>
拉 近</w>
拉 伸</w>
拆 开</w>
报 名</w>
托 姆</w>
打 架</w>
打 来</w>
打 包</w>
所 想</w>
我 常</w>
我 国</w>
成就 感</w>
成 群</w>
成 瘾</w>
愧 疚</w>
想 念</w>
情 侣</w>
悲 哀</w>
恋 者</w>
怪 人</w>
性 暴力</w>
心 存</w>
徒 步</w>
往 下</w>
弗吉 尼亚州</w>
幽 默
岸 边</w>
山 峰</w>
小 船</w>
实验 者</w>
实 习
定 价</w>
守 护</w>
存 款</w>
威 廉
妇 人</w>
天 地</w>
多 名</w>
外 行星</w>
塔 拉</w>
垃圾 桶</w>
坦 克</w>
土卫 六</w>
回 首</w>
回 顾
器 时代</w>
唾 液</w>
唐 纳德</w>
哪 些
哈 利</w>
咖啡 厅</w>
同性 恋者</w>
可 视</w>
变 好</w>
友 情</w>
原 生</w>
卡 罗</w>
卡 塔尔</w>
单 单是</w>
十 一月</w>
动 人</w>
加 索</w>
前列 腺癌</w>
前 者</w>
刚 果
列 为</w>
切 成</w>
分解 成</w>
分 手</w>
凝 视</w>
减 慢</w>
冰 盖</w>
冬 季</w>
再 现</w>
养 成</w>
公 平
全 食</w>
充满 热情</w>
僵 尸</w>
催 生</w>
偷 偷
修 饰</w>
便 于</w>
体 检</w>
低 落</w>
传 送
伊 利
企 图</w>
云 端</w>
买 来</w>
乐 曲</w>
之 手</w>
丽 贝卡</w>
为 一体</w>
丰 富
个 州</w>
严 厉</w>
不 难
不 对劲</w>
不 吃</w>
下 周</w>
下 台</w>
三 百万</w>
万 种</w>
一步 步</w>
一 堂</w>
w h
p s</w>
ot t</w>
im a</w>
f f
d er</w>
ber t</w>
a i</w>
T r
S m
Ch ar
B u
And re
8 2</w>
1 5
黎 明</w>
黄 金
鲜 活</w>
骑 车</w>
零 售</w>
难 看</w>
隔 开</w>
陆 战队</w>
阿基 米德</w>
间 谍</w>
长 城</w>
邻 国</w>
那 会儿</w>
道 夫</w>
造 物
逝 去</w>
选举 权</w>
适应 环境</w>
退 回</w>
退 一步</w>
迪 士
迪士 尼</w>
软 弱</w>
车 轮</w>
超 重</w>
贾 丝
贾丝 婷</w>
贫困 线</w>
贫 富
调 控</w>
说 家</w>
试 验
试 管</w>
诉 求</w>
讲 完</w>
讲 个</w>
解 除</w>
表达 方式</w>
表 象</w>
行 政
虎 鲸</w>
蒙 古</w>
萨 克</w>
莫 斯科</w>
荒 野</w>
英 雄
花园 里</w>
花 蜜</w>
自行 车道</w>
自 学</w>
自 如</w>
自 主权</w>
脱 口
胶 片</w>
肥皂 剧</w>
职 员</w>
而 过</w>
网 状</w>
编 排</w>
粉 末</w>
米 歇尔</w>
签 订</w>
科学 知识</w>
福 祉</w>
短 期内</w>
知识 分子</w>
睿 智</w>
相 伴</w>
皮 革</w>
白 尼</w>
登 革
瘟 疫</w>
疲 倦</w>
电脑 游戏</w>
电池 板</w>
生态 圈</w>
生产 线</w>
瓦 纳</w>
珍 珠</w>
玛格 丽特</w>
狡 猾</w>
状 体</w>
特 洛伊</w>
爵士 乐</w>
爱 丽
炫 耀</w>
灵 敏</w>
火 山
潮 汐</w>
演唱 会</w>
溪 流</w>
深 呼吸</w>
消 退</w>
海 军
派 出</w>
水 族
气 象</w>
概 念
柔 性</w>
某 一</w>
来 来
权 势</w>
机 密</w>
本 领</w>
朝 鲜
最 远</w>
时间 推移</w>
时 髦</w>
无 条件</w>
旁 观者</w>
方 达</w>
新泽 西</w>
斯 图
效 用</w>
撒哈 拉
撒哈拉 沙漠</w>
掀 起</w>
捐 给</w>
挥 之
挥之 不去</w>
指挥 官</w>
拘 留</w>
抬 高</w>
打 碎</w>
打 扫</w>
房 地产</w>
截 止</w>
戒 指</w>
悬 挂</w>
恻 隐之心</w>
怀 疑
快 餐</w>
彼此 间</w>
强 硬</w>
强 烈
弗 斯</w>
开普 敦</w>
开 个</w>
幽默 感</w>
常 数</w>
巴尔 的
巴 拿
左 脑</w>
巅 峰</w>
屏 住</w>
尔 森</w>
小 米</w>
小 点</w>
小 家伙</w>
宇宙 学</w>
子 孙
大 拇指</w>
大 得多</w>
大 体上</w>
多 钱</w>
多 万</w>
外 国人</w>
填 写</w>
堕 落</w>
坚 守</w>
困 住</w>
喜马拉 雅
哥 白尼</w>
呼 喊</w>
合 约</w>
吃 药</w>
可 再生</w>
口 罩</w>
发出 声音</w>
发 了</w>
原 教
厌 烦</w>
印度 河</w>
募 集</w>
加拿 大人</w>
到 此
切 实际</w>
出版 商</w>
几 条</w>
农 夫</w>
农 场主</w>
公 开
入 学</w>
充 沛</w>
充 实感</w>
侵 者</w>
侦 探</w>
住 院</w>
低 效</w>
任何 事物</w>
以 致
令人 不安</w>
代 谢
从头 开始</w>
亿 万
人 体
二十 一</w>
二 月</w>
中 性</w>
个人 信息</w>
世界 纪录</w>
世界 末日</w>
不 怕</w>
不 在意</w>
不 切实际</w>
下 山</w>
下 个</w>
七 八
u r</w>
t h</w>
es t</w>
b n
at e</w>
ap p
an t</w>
al l</w>
W at
U n
T re
M on
J uli
J er
J H</w>
I N
I I</w>
CO 2</w>
Ab ed</w>
6 2</w>
6 1</w>
1 600</w>
1 100</w>
齿 轮</w>
鲑 鱼</w>
高 音</w>
香 肠</w>
馅 饼</w>
饭 店</w>
领导 层</w>
颁 发</w>
顾 虑</w>
面 板</w>
零 食</w>
阿 拉</w>
镜 像</w>
钟 爱</w>
野 兽</w>
酵 母</w>
逻 辑
逗 号</w>
送 往</w>
转 折</w>
路 途</w>
跌 倒</w>
跋 涉</w>
资 深</w>
贴 纸</w>
说 过</w>
说 到底</w>
语 境</w>
证 词</w>
许可 证</w>
计算 能力</w>
要 紧</w>
西 欧</w>
裸 体</w>
表 面积</w>
行 李</w>
血 液
蜂 鸟</w>
虽 说</w>
蕴 藏</w>
蒙特 利尔</w>
获得 者</w>
草 根</w>
至 今日</w>
脑 电图</w>
脂肪 酸</w>
胶 原
肉 体</w>
聘 请</w>
翼 翼</w>
美 化</w>
罗 西</w>
继 而</w>
纹 理</w>
繁 忙</w>
糟 透了</w>
精 心
精 华</w>
粗 略</w>
管 辖</w>
笨 拙</w>
立 大学</w>
科 研
私 刑</w>
离 子
离 不开</w>
祭 司</w>
社交 圈</w>
石 块</w>
着 想</w>
真 有</w>
看 病</w>
登革 热</w>
理发 店</w>
球 大战</w>
珊瑚 虫</w>
犀 牛</w>
爱 滋
燃料 电池</w>
滥 调</w>
游 走</w>
清洁 工</w>
流 过</w>
河 水</w>
气 质</w>
气 压</w>
每 天晚上</w>
母 体</w>
此 次</w>
正 值</w>
欺 凌</w>
条 件
有 钱
星 球大战</w>
时 至今日</w>
时 性</w>
无穷 无尽</w>
无休 止</w>
无 缝</w>
旅 游
斯 汀</w>
斯 密</w>
斯 卡</w>
整 年</w>
敏 感
播 放
抗 议者</w>
投 身于</w>
执 着</w>
手 写</w>
战 火</w>
我 想
戏剧 化</w>
感染 率</w>
悠 久</w>
性 侵</w>
很 差</w>
年龄 段</w>
常 理</w>
巴尔的 摩</w>
巨 头</w>
左 翼</w>
崩 塌</w>
屈 服</w>
就 会</w>
尔 逊</w>
小心 翼翼</w>
小 路</w>
小 丑</w>
导 者</w>
对 错</w>
寡 妇</w>
富 足</w>
宣 告</w>
实验 性</w>
定 向</w>
学 龄
学 说</w>
好 多年</w>
套 装</w>
失 眠</w>
太 远</w>
天 后</w>
多 功能</w>
多 出</w>
声 誉</w>
增 生</w>
境 况</w>
基 质</w>
城 墙</w>
地 马拉</w>
圣 地
图 象</w>
固 执</w>
合唱 团</w>
台 湾</w>
叫 醒</w>
口 头</w>
受 益
反 弹</w>
卡 内
单 调</w>
北 边</w>
北 卡罗来纳州</w>
北 半球</w>
副 产品</w>
前列 腺</w>
制 约</w>
利他 主义</w>
分 隔</w>
分 离
出 手</w>
几 千</w>
准 时</w>
公共 服务</w>
公共 场所</w>
公共 场合</w>
停车 位</w>
偏 远地区</w>
倒 闭</w>
体 细胞</w>
体 液</w>
传 递
任 职</w>
以 致</w>
他 来</w>
从头 到
从 业者</w>
仁 爱</w>
亿万 富翁</w>
亮 光</w>
交 汇</w>
亚利桑 那州</w>
买 家</w>
九 十年代</w>
之 歌</w>
两 半</w>
东 海岸</w>
不知 不觉</w>
不 良
不 小</w>
上 线</w>
上 司</w>
三 者</w>
一 集</w>
一 年级</w>
一 亿</w>
z uri</w>
r e</w>
qu ot</w>
o le</w>
n e</w>
m ama</w>
in t</w>
h an</w>
e in</w>
T M</w>
S us
S T</w>
S S</w>
S B</w>
Pet e</w>
Micha el</w>
L I
C al
C N
Br un
Air bn
7 7</w>
6 3</w>
黑 夜</w>
黎 各</w>
高 处</w>
高 地</w>
预 警</w>
预 见到</w>
顾 四周</w>
音 响</w>
靠 性</w>
非常 少</w>
露 天</w>
隐 瞒</w>
阿拉伯 人</w>
问 起</w>
长 话
长话 短
长话短 说</w>
长 袍</w>
铃 声</w>
钓 鱼</w>
针 对性</w>
配 件</w>
邻 近</w>
那 首</w>
逼 迫</w>
选 定</w>
迷 你</w>
近 年来</w>
过 高</w>
过 早</w>
达 赖
达赖 喇嘛</w>
轻 视</w>
越 好</w>
赌 注</w>
费 解</w>
谣 言</w>
词 典</w>
讲 述者</w>
言 辞</w>
视 频
被 遗弃</w>
袖 子</w>
血 腥</w>
萨 拉</w>
苦 苦</w>
苦 恼</w>
花 瓶</w>
节 食</w>
航空 航天局</w>
舞 会</w>
臭名 昭著</w>
臭 氧
自 一人</w>
臀 部</w>
膜 炎</w>
脾 气</w>
聚 到</w>
耳 边</w>
耀 眼</w>
羞耻 感</w>
羊 毛</w>
编 剧</w>
维 拉</w>
结 冰</w>
经 纪
经纪 人</w>
经 由</w>
纸 板</w>
繁 多</w>
紧急 情况</w>
素 质</w>
精 巧</w>
科 生</w>
科 尔</w>
离 心
福 德</w>
矿 井</w>
石 灰
睡 衣</w>
盔 甲</w>
皱 纹</w>
的确 如此</w>
百分 点</w>
痛 心</w>
疑 虑</w>
男 友</w>
田 地</w>
用户 界面</w>
班 卓
班卓 琴</w>
班 加
珠穆朗 玛
珠穆朗玛 峰</w>
环 顾四周</w>
独 自一人</w>
狂 犬
牧 场</w>
爱 河</w>
爱 是</w>
爱 丁堡</w>
煤 矿</w>
潜水 员</w>
漠 化</w>
满足 感</w>
深 知</w>
流浪 汉</w>
波 多
波多 黎各</w>
气 囊</w>
毒 药</w>
正 轨</w>
正 以</w>
欺 负</w>
横 向</w>
格陵 兰岛</w>
根 基</w>
查 阅</w>
林 冠</w>
极 力</w>
来 信</w>
杂 音</w>
机 翼</w>
机 智</w>
木 薯</w>
朝 上</w>
最 美</w>
更 改</w>
更 久</w>
更 为重要</w>
时 装</w>
时 刻
日 程</w>
日 渐</w>
无线 网络</w>
无所 畏惧</w>
旅 行者</w>
斯 托</w>
数百 年</w>
数十 亿美元</w>
数 不清</w>
放 手</w>
放 开</w>
摇 滚
摇 摇
搬 进</w>
捡 起</w>
手 枪</w>
所 爱</w>
所 有者</w>
战 神</w>
我 举</w>
慈善 事业</w>
感到 高兴</w>
意 志
悉 尼</w>
恶性 循环</w>
怒 火</w>
怀 念</w>
快 到</w>
往 来</w>
强迫 症</w>
弗朗 西斯</w>
平 滑</w>
干 活</w>
席 之地</w>
带 宽</w>
帕 戈斯</w>
巴 拉克</w>
巨 星</w>
工 艺
居住 地</w>
尽 早</w>
就 够</w>
富 豪</w>
密西西 比
寄 生</w>
家 谱</w>
定 位
安 心</w>
安 局</w>
安 宁</w>
安 保</w>
宇宙 空间</w>
孵 化</w>
嫌 疑
女 巫</w>
失 常</w>
太 酷</w>
大 程度</w>
大 相
多种 多样</w>
处 女</w>
基 里
地下 水</w>
圣地 亚
围 墙</w>
回 响</w>
四 轴</w>
喷 发</w>
喂 饱</w>
响 声</w>
品 味</w>
味 觉</w>
周期 表</w>
向 导</w>
同 盟</w>
另一 侧</w>
古典 音乐</w>
口 哨声</w>
取 笑</w>
及 利亚</w>
卡 拉</w>
南 半球</w>
医疗 机构</w>
匹 林</w>
化 为</w>
务 人员</w>
加拉 帕戈斯</w>
刺 穿</w>
分 给</w>
出 院</w>
几 句</w>
写 字</w>
内心 世界</w>
内 置</w>
养 蜂
养 家
关键 问题</w>
关联 性</w>
关 进</w>
六 种</w>
全力 以
全力以 赴</w>
僵 局</w>
偏 头痛</w>
俯 瞰</w>
保 有</w>
依 存</w>
传递 信息</w>
会 见</w>
伐 木</w>
交 朋友</w>
五 百万</w>
二 世</w>
争 端</w>
争 斗</w>
中 西部</w>
两 段</w>
两 块</w>
专 长</w>
不 许</w>
不 爽</w>
不 合
上 游</w>
上 映</w>
三 千</w>
一 队</w>
一 章</w>
一 流</w>
一 株</w>
一 新</w>
一 扇门</w>
一 席之地</w>
z i</w>
u in
n ey</w>
ha h
e st
ber g</w>
TED x</w>
Sk ype</w>
S ar
S a
S A
R O
PE T</w>
Mar y</w>
D om
Ale x</w>
Ale x
199 2</w>
198 6</w>
198 2</w>
197 3</w>
0 .5</w>
鲜 为人知</w>
马 戏
零 开始</w>
难 堪</w>
限 制性</w>
里程 碑</w>
逃 走</w>
逃 出</w>
退 后</w>
退 休
迷 幻</w>
迫 在
迫在 眉
迫在眉 睫</w>
迪 拜</w>
这 艘</w>
迎 合</w>
过 头来</w>
辞 去</w>
车 库里</w>
车 厢</w>
身 着</w>
跨国 公司</w>
趋 向
趋向 于</w>
走 来
走来 走
走来走 去</w>
贴 近</w>
贴 片</w>
谢 丽
诚 然</w>
装 成</w>
装 在</w>
蒙 特</w>
芥 末</w>
艘 船</w>
至 此</w>
自 杀
自 下而上</w>
自 上而下</w>
胶原 蛋白</w>
胡 萝卜</w>
背 着</w>
股票 市场</w>
股 市</w>
肋 骨</w>
联 系
美国 国会</w>
罗马 帝国</w>
缓 和</w>
维 奇</w>
终 究</w>
纬 度</w>
约 定</w>
索 菲</w>
简 陋</w>
等 等等</w>
等 等等等</w>
空 闲</w>
空 前</w>
福 克斯</w>
磨 损</w>
磁 性</w>
石 器时代</w>
着 实</w>
看 守</w>
相 像</w>
目 击</w>
病 变</w>
番 茄</w>
甸 园</w>
电 报</w>
生 出</w>
瑕 疵</w>
爱滋 病</w>
爱情 故事</w>
燃 油</w>
煎 熬</w>
热 衷</w>
热 能</w>
热 线</w>
烧 毁</w>
深 思</w>
浪 漫
洞 察
洞察 力</w>
波 斯</w>
油 画</w>
没 听
沉 积
正 直</w>
棋 盘</w>
梅 琳</w>
档 案
格 拉
核 酸</w>
极 其
板 子</w>
权 者</w>
机 体</w>
朱 利安</w>
有 远见</w>
有 次</w>
有 件事</w>
旨 主义</w>
无 须</w>
无 罪</w>
族 裔</w>
方 言</w>
斯 堡</w>
整 数</w>
救世 主</w>
掘 出</w>
据 我
据我 所知</w>
挣 钱</w>
拿 破
拼 接</w>
抗 击</w>
技术 性</w>
手提 电脑</w>
手 持</w>
所 欲</w>
懒 惰</w>
慰 藉</w>
感 触</w>
悄 悄
总 裁</w>
总 在</w>
急 速</w>
急 切</w>
很 深</w>
归 还</w>
强 加</w>
弗里 奇</w>
引 向</w>
建设 性</w>
建筑 材料</w>
幽 灵</w>
年 份</w>
帆 船</w>
市场 经济</w>
巨 变</w>
巡 逻</w>
小 子</w>
小 区</w>
密西西 比</w>
实 地
完 工</w>
安德 鲁</w>
安 卓</w>
威尔 士</w>
妮 弗</w>
头 像</w>
天 敌</w>
多 米
声 带</w>
增 进</w>
坚 决</w>
地 看</w>
在 其中</w>
圣地亚 哥</w>
国 土</w>
回 过</w>
喷 洒</w>
喇 叭</w>
呵 呵</w>
同 僚</w>
右 手边</w>
发自 内心</w>
发 邮件</w>
双 赢</w>
原教 旨主义</w>
原始 数据</w>
南 边</w>
十 天</w>
医 治</w>
化 肥</w>
勇 于</w>
劳 拉</w>
务 员</w>
剔 除</w>
创新 性</w>
划 圈</w>
分 散
减 去</w>
冲 向</w>
农 产品</w>
内 陆</w>
全 景</w>
入 侵者</w>
僵 硬</w>
候 选</w>
倒 计时</w>
信 贷</w>
保 留
保 安</w>
侦 测</w>
作 响</w>
体 能</w>
住 在一起</w>
会 令</w>
伊 甸园</w>
以致 于</w>
从 零开始</w>
亲 手</w>
产 妇</w>
交响 乐团</w>
于 众</w>
之 谜</w>
临界 点</w>
个人 电脑</w>
个 别</w>
世界 性</w>
不 当</w>
不 休</w>
下 巴</w>
上 诉</w>
七 千</w>
一块 儿</w>
一 路上</w>
一 艘船</w>
一 现</w>
一 期</w>
一 手</w>
一 再</w>
u k
t r
s a</w>
ow s</w>
ir l
if tab
ha m</w>
es s</w>
ar y</w>
ann y</w>
an o</w>
S n
S iftab
S ch
R om
P at
J on
F ut
D i
CA R</w>
C om
C S
C M
Airbn b</w>
7 4</w>
1 5000</w>
默 默
鸦 片</w>
高 端</w>
骼 肌</w>
骨 骼肌</w>
驱 动力</w>
马 达
马达 加
马达加 斯加</w>
颈 鹿</w>
音 高</w>
面 罩</w>
静 脉</w>
集中 精力</w>
隐 蔽</w>
阻 塞</w>
阴 暗</w>
队 长</w>
阅读 障碍</w>
长 颈鹿</w>
长 生不
销 毁</w>
银 行业</w>
钢 琴
里 程</w>
都 会</w>
那 头</w>
那 件事</w>
造 出来</w>
递 质</w>
适应 力</w>
退 缩</w>
迷 航</w>
远 距离</w>
这 所</w>
转 弯</w>
起 草</w>
谢丽 尔</w>
读 出</w>
诺 娜</w>
试 一下</w>
访 者</w>
覆 地</w>
装 配</w>
装 箱</w>
血液 循环</w>
蜂 箱</w>
薪 酬</w>
薇 诺娜</w>
萨 克斯</w>
菲 尔</w>
获取 信息</w>
草 莓</w>
茶 壶</w>
节 性</w>
艺术 节</w>
航空 公司</w>
臭氧 层</w>
脚 踏
能 及</w>
胸 前</w>
翻 天
翻天 覆地</w>
美 景</w>
罹 患</w>
罢 工</w>
罗 尔</w>
结构 性</w>
纯 净</w>
约 书
约书 亚</w>
紧 凑</w>
类 动物</w>
离 家</w>
神经 递质</w>
神经 纤维</w>
社会 科学</w>
社会 化</w>
硬 盘</w>
硕 士</w>
破 译</w>
矿 工</w>
短短 的</w>
睡眠 不足</w>
真实 情况</w>
看 不出</w>
相 差</w>
登山 者</w>
生 育
生 肖</w>
现 场
狱 中</w>
狭 小</w>
独 木舟</w>
物 流</w>
版 权
爱 着</w>
爱 国
火 柴</w>
濒临 灭绝</w>
濒 临</w>
激 怒</w>
演 绎</w>
渔 船</w>
深 蓝</w>
涅 狄
流 淌</w>
河 边</w>
没听 说过</w>
每 件</w>
止 步</w>
标 出</w>
某 事</w>
枪 杀</w>
枪 声</w>
来 过</w>
有 素</w>
有 引力</w>
有 不同</w>
最 小
无数 次</w>
整 齐</w>
数以 百计</w>
数 亿</w>
救 生
掩 饰</w>
挑 剔</w>
拼 凑</w>
拓 宽</w>
拉 德</w>
承担 责任</w>
承 包
执 照</w>
手 肘</w>
手 动</w>
房 车</w>
成 见</w>
感受 器</w>
感 叹</w>
情 人</w>
忠 于</w>
心理 医生</w>
心 肌
得 体</w>
往 下
录 像
当 场</w>
强 势</w>
强 健</w>
康 涅狄
年 期</w>
年 头</w>
平方 英里</w>
平方 公里</w>
布拉 德</w>
工作 量</w>
小 巷</w>
对 折</w>
家 用</w>
实 践
宗 旨</w>
学 徒</w>
字 游戏</w>
字 幕</w>
子孙 后代</w>
奥林匹 克
塔 斯</w>
基里 巴斯</w>
坚持 不懈</w>
图 纸</w>
因 果
回 过头来</w>
噪 声</w>
喷 出</w>
哺乳 类</w>
咖啡 店</w>
吸 管</w>
听 器</w>
后 座</w>
合 剂</w>
可 靠性</w>
另一 头</w>
变 态</w>
单 车</w>
华盛顿 州</w>
千 名</w>
力 所
列 入</w>
分 组</w>
击 打</w>
出 头</w>
凸 显</w>
几 百</w>
几 代人</w>
冠状 病毒</w>
冈 州</w>
养家 糊口</w>
共同 之处</w>
克 拉</w>
停 电</w>
信 给</w>
侵 略性</w>
何 地</w>
体 面</w>
传 单</w>
会 试</w>
会 先</w>
人工 合成</w>
交 替</w>
五 月</w>
云 朵</w>
二 元</w>
事 事</w>
之 物</w>
丰 田</w>
中 美洲</w>
世界 地图</w>
不可 及</w>
万 有引力</w>
一 片
一 性</w>
一 例</w>
p er</w>
ol l
o k
o h</w>
n a</w>
f or</w>
f or
er o</w>
e z</w>
e m</w>
c o</w>
as h</w>
Z ip
V ID</w>
R H</w>
O p
G i
Eri c</w>
Alp ha</w>
4 50</w>
2. 0</w>
198 8</w>
198 7</w>
198 5</w>
1 70</w>
黑 客
驾 照</w>
驱 动器</w>
马戏 团</w>
风 车</w>
颁 布</w>
面 体</w>
青 霉素</w>
露 营</w>
雨 季</w>
难 关</w>
隐 身</w>
随 心
随心 所欲</w>
陈 词
陈词 滥调</w>
阿 司
阿司 匹林</w>
问 及</w>
锋 利</w>
采 购</w>
配 有</w>
那 幅</w>
遗传 信息</w>
遗 漏</w>
造物 主</w>
选 取</w>
逃 亡</w>
连 锁</w>
这 趟</w>
这 般</w>
这 就是说</w>
过 剩</w>
车 鱼</w>
踪 迹</w>
赞 比亚</w>
贫富 差距</w>
质 地</w>
语言 学家</w>
试 用</w>
训练 有素</w>
让你 在</w>
观 测
观 世界</w>
要 用</w>
西 蒙</w>
裸 露</w>
补 偿</w>
薄 薄
若 干</w>
若 干
色 子</w>
舞 蹈
自 来
自 拔</w>
耶 鲁</w>
耕 作</w>
耐 用</w>
翻 车鱼</w>
罗 宾
统计 数字</w>
经 期</w>
细胞 核</w>
线 图</w>
纳米 技术</w>
纳 尔逊</w>
红 细胞</w>
精神 分裂</w>
米 洛</w>
筛 查</w>
第二 阶段</w>
第三 世界</w>
笨 蛋</w>
穹 顶</w>
积极 参与</w>
私 有</w>
离 职</w>
离 奇</w>
社会 关系</w>
破 旧</w>
知 论</w>
瞩 目</w>
瞄 准
瞄准 器</w>
睁 睁</w>
眼 睁睁</w>
眼 下</w>
相互 影响</w>
相 撞</w>
盐 水</w>
病 因</w>
男 孩儿</w>
生物 医学</w>
瑟 琳</w>
班加 罗尔</w>
珍 妮</w>
率 地</w>
猛 犸</w>
犯罪 现场</w>
特 拉
特 兹
牧 羊
照 着</w>
潜水 服</w>
滞 不前</w>
深 思
消 防</w>
消 耗
流 经</w>
流 利</w>
波 特</w>
沙 拉</w>
水 上</w>
比 伦</w>
毒 瘾</w>
止 痛
欣 慰</w>
次 序</w>
格 林
根本 性</w>
根 部</w>
核 战争</w>
核 反应堆</w>
柜 台</w>
机 理</w>
本 科生</w>
木 炭</w>
服务 生</w>
普遍 性</w>
时刻 刻</w>
时 时刻刻</w>
无 从</w>
新 建</w>
数 周</w>
数 以</w>
收 入
摩天 大楼</w>
搏 斗</w>
掉 下来</w>
授 课</w>
捕 杀</w>
挑 衅</w>
按 摩</w>
拿破 仑</w>
拼 车</w>
投 向</w>
打 分</w>
打 仗</w>
打 乱</w>
才 刚</w>
所 属</w>
我 所能</w>
慈善 家</w>
意 象</w>
恒 温
总 人口</w>
心 爱</w>
德克萨 斯</w>
微 波</w>
得 病</w>
径 庭</w>
当地 政府</w>
归 属</w>
强 行</w>
引人 入
引人入 胜</w>
引 爆</w>
开 到</w>
广告 牌</w>
年 收入</w>
干 涸</w>
干 得</w>
希 拉里</w>
巴 比伦</w>
巴 拉</w>
州 立大学</w>
山 区</w>
尾 声</w>
尽 我所能</w>
小 额</w>
家 政</w>
官 司</w>
学习 者</w>
头 号</w>
夭 折</w>
太 慢</w>
大相 径庭</w>
大 笔</w>
多种 不同</w>
多 动症</w>
夏 洛
处 死</w>
声 器</w>
城市 规划</w>
垃圾 堆</w>
坚 实</w>
地 人</w>
国际 化</w>
国 防</w>
团 聚</w>
回 溯</w>
哈 德
呼 应</w>
吸 烟
吸 气</w>
后 天</w>
各 方</w>
各 异</w>
右 下角</w>
句 号</w>
发电 站</w>
发 送到</w>
参与 度</w>
原则 上</w>
卵 巢</w>
危 险
印度 洋</w>
印度 教</w>
卫生 巾</w>
十 年间</w>
功 效</w>
功 劳</w>
劝 说</w>
剧 作家</w>
前 任</w>
判 定</w>
刚 出生</w>
凯 蒂</w>
减 半</w>
写 信给</w>
内 脏</w>
内 斯</w>
内 外</w>
兼 职</w>
养蜂 人</w>
其 间</w>
公 投</w>
全 部
全 民</w>
克 拉克</w>
先 例</w>
傻 子</w>
偷 窃</w>
健 身</w>
停 滞不前</w>
保 住</w>
便 携</w>
体育 场</w>
低 谷</w>
低 头</w>
会 计
优 越</w>
众 生</w>
仿 生学</w>
以 此类推</w>
令人 担忧</w>
仅 此
人 选</w>
人 则</w>
亲 属</w>
京 都</w>
交易 所</w>
交 错</w>
五 十年代</w>
为 数
丰 厚</w>
中国 政府</w>
两 可</w>
不大 可能</w>
不可 知论</w>
不 规则</w>
上 天</w>
七八 糟</w>
七 月</w>
一 说</w>
一 百万个</w>
一 夫
一 动</w>
一 分</w>
z a</w>
us s
t w
ro p
ec t</w>
e B
b e
at a</w>
W ind
LGB T</w>
K ar
Fut ura</w>
D anny</w>
D F</w>
CO VID</w>
Al ice</w>
A l</w>
A M</w>
8 9</w>
7 3</w>
6 .
4 .5</w>
1 25</w>
鼓 掌声</w>
鲁 大学</w>
高 密度</w>
骚 乱</w>
骑 行</w>
餐 桌上</w>
风 向</w>
预 定</w>
雕 塑
隐 性</w>
阿 尔</w>
闭上 眼睛</w>
闭 嘴</w>
闪 闪
长 距离</w>
量 标准</w>
重 重
郊 外</w>
通 用
透 彻</w>
这 周</w>
近 亲</w>
达到 目标</w>
身 心
路易 斯
走 访</w>
赐 予</w>
购 买
财 务
课 上</w>
读 懂</w>
诱 饵</w>
语 调</w>
论 述</w>
记 号</w>
认真 思考</w>
订 单</w>
解 药</w>
解 密</w>
薯 片</w>
薄薄 的</w>
脸 谱</w>
能 干</w>
肿 胀</w>
聚 光灯</w>
耶 鲁大学</w>
罪 名</w>
罚 单</w>
缺 水</w>
缪 尔</w>
绿 色
统计 学家</w>
绘 图</w>
线 虫</w>
纺织 品</w>
米 兰</w>
篮 子</w>
算 了</w>
第一 阶段</w>
符 合
笑 脸</w>
科罗拉 多
离 世</w>
神经 外科</w>
碰 上</w>
硕 士学位</w>
砂 眼</w>
矫 正</w>
盲 点</w>
盗 版</w>
监 护</w>
百分之 四十</w>
百分之 五</w>
百分 百</w>
白 痴</w>
痴 呆</w>
痛 楚</w>
男 子
电动 汽车</w>
电 灯</w>
由 此
用 光</w>
现 行</w>
玛丽 亚</w>
猛 烈</w>
狱 警</w>
犯 错误</w>
特别 之处</w>
特兹 勒</w>
特 错</w>
特 斯</w>
牛 津
牛津 大学</w>
熟 虑</w>
熟 练
热 水</w>
热 气球</w>
热 忱</w>
烦 躁</w>
源源 不断</w>
深思 熟虑</w>
海 默</w>
海 运</w>
海 胆</w>
流 畅</w>
流 泪</w>
派 遣</w>
泰 迪
波 特兰</w>
治 好</w>
毯 子</w>
殖民 主义</w>
此 前</w>
模 棱
模棱 两可</w>
格 达</w>
格 拉斯</w>
根 州</w>
校 车</w>
树 冠</w>
某种 原因</w>
枯 竭</w>
枢 纽</w>
极 有</w>
极 少数</w>
来 往</w>
权 威
期 盼</w>
朝 圣</w>
有机 物</w>
有 益于</w>
最 糟</w>
曙 光</w>
暗 中</w>
普遍 存在</w>
星期 五</w>
星 座</w>
无穷 的</w>
无 畏</w>
无 几</w>
旅 行
旅 客</w>
斯图 尔特</w>
文 盲</w>
数 额</w>
敌 对</w>
效 能</w>
放 眼</w>
收 割</w>
擅 长于</w>
播 种</w>
插 座</w>
接 手</w>
指 明</w>
抵 押</w>
承包 商</w>
才 行</w>
憧 憬</w>
慢 性病</w>
感染 者</w>
感受 一下</w>
恐怖 组织</w>
忘 却</w>
心 电图</w>
心 愿</w>
心 声</w>
德 曼</w>
很久 很久</w>
待 会儿</w>
当 人</w>
弹 劾</w>
张 贴</w>
弗吉 尼亚</w>
建筑 设计</w>
干 过</w>
带 进</w>
布 道</w>
布 什
巨 石</w>
左 手边</w>
工艺 品</w>
工具 箱</w>
工作 效率</w>
尿 布</w>
尽 所能</w>
就 绪</w>
小 鼠</w>
小 群</w>
小 型
宫 殿</w>
客 气</w>
宝 藏</w>
官 僚
完 蛋</w>
安东 尼</w>
安 第
学 生
季 度</w>
孢 子</w>
女 性
契 约</w>
太空 船</w>
大 豆</w>
大 力
大 为</w>
多 难</w>
复 仇</w>
塑 造成</w>
堆 肥</w>
基金 组织</w>
基本 粒子</w>
基因 组学</w>
埃 尔</w>
地 铁
地 貌</w>
地 站</w>
地 用</w>
地 基</w>
地 区
国际 性</w>
国 安局</w>
围 棋</w>
园 艺</w>
四 位</w>
嘲 讽</w>
哈 尔</w>
吸 食</w>
右 上角</w>
古 罗马</w>
口 腔</w>
受 苦</w>
反 省</w>
反 倒</w>
双 脚</w>
危 地马拉</w>
印第 安</w>
卡 斯</w>
医疗 保险</w>
医学 界</w>
北 非</w>
化 妆</w>
勤 奋</w>
动 用</w>
动 植物</w>
加 倍</w>
力所 能及</w>
割 礼</w>
初 中</w>
分布 式</w>
分布 图</w>
准确 度</w>
冰 雪</w>
公共 资源</w>
八 千</w>
全 家</w>
倡 导者</w>
信息 处理</w>
俄勒 冈州</w>
便 携
佛罗里 达州</w>
体 力</w>
佐 治
会 带</w>
人力 资源</w>
亮 点</w>
亦 然</w>
交通 拥堵</w>
二 是</w>
事 项</w>
乱 七八糟</w>
之 不
临 界</w>
丧 命</w>
两 端</w>
两 国</w>
丝 绸</w>
东 北部</w>
不 解</w>
上 车</w>
上 千年</w>
一点 一点</w>
一 级</w>
一 瞬</w>
一 心</w>
一 丁
u t</w>
l d</w>
l d
er s
as h
an is
U s
S O
N 1</w>
M zuri</w>
M or
M O</w>
E d</w>
Chri st
CN N</w>
Ap p</w>
A v
9 9.
197 9</w>
196 9</w>
首 选</w>
飞 往</w>
额 叶</w>
颇 具</w>
顿 饭</w>
顽 强</w>
音 效</w>
面 对
面对 现实</w>
静 静
雨 量</w>
集 市</w>
集 体
难 说</w>
阿 凡</w>
阁 楼</w>
间 歇
长生不 老</w>
错 特错</w>
销 商</w>
重复 性</w>
重 达</w>
重 负</w>
里 尔</w>
那 颗</w>
那 间</w>
那 辆</w>
那 台</w>
逼 真</w>
送 回</w>
迪 生</w>
这 条线</w>
这 天</w>
这 回</w>
轮 回</w>
身体 状况</w>
践 踏</w>
起 始</w>
赶 出</w>
质 感</w>
贤 淑</w>
诺 伊
请 教</w>
该 是</w>
解 题</w>
西 岸</w>
西 兰花</w>
装 进</w>
虚 无</w>
萨 利</w>
获得 成功</w>
药 剂</w>
范 式</w>
节 约
艾 迪</w>
自 省</w>
腐 蚀</w>
脱 水</w>
脑 膜炎</w>
脑 损伤</w>
肩 上</w>
老 兄</w>
美 满</w>
美 利
缝 合</w>
经 常
细胞 膜</w>
纵 向</w>
纳 闷</w>
纪念 日</w>
纪 元</w>
红 外</w>
粘 土</w>
类 人</w>
管理 层</w>
笼 罩</w>
第三 件</w>
立 体
称 其为</w>
科技 进步</w>
磅 重</w>
硬 化
硬化 症</w>
石 器</w>
真 得</w>
看 好</w>
盖 瑞</w>
百万 分之一</w>
症 候
症候 群</w>
病 理
病 床</w>
疤 痕</w>
留 着</w>
用 餐</w>
生态 环境</w>
生 死
生 机
瓣 膜</w>
理想 化</w>
理 工学院</w>
猿 类</w>
猫 头
猫头 鹰</w>
特 工</w>
牵 涉
牛 排</w>
爱 迪生</w>
烧 烤</w>
烟 囱</w>
激 光
渗 透
混 沌</w>
涡 轮</w>
涉 足</w>
洪 都
洗 脑</w>
泰迪 熊</w>
沿 岸</w>
油 墨</w>
沉 睡</w>
水 泵</w>
毛 骨
毕 加索</w>
横 渡</w>
模 板</w>
棺 材</w>
根本 原因</w>
染 色</w>
极其 重要</w>
条件 反射</w>
杂 交</w>
机 票</w>
本 拉登</w>
服 于</w>
有钱 人</w>
最 穷</w>
普 京</w>
早 年</w>
新闻 业</w>
断 层</w>
放 飞</w>
放 大
摆 放</w>
搭 乘</w>
搞 错</w>
搜 查</w>
援 手</w>
提供 者</w>
提 过</w>
排 练</w>
捉 摸</w>
挨 着</w>
拨 款</w>
抵抗 力</w>
折 腾</w>
投票 权</w>
投 给</w>
所 罗
所 写</w>
房 租</w>
戒 烟</w>
我 出</w>
意志 力</w>
想 来</w>
惊 艳</w>
心理 疾病</w>
形 体</w>
强 加
弹 头</w>
引 诱</w>
开 出</w>
开 业</w>
广 袤</w>
平均 年龄</w>
平 面
平 等
平 庸</w>
市 旗</w>
巴 西
已 然</w>
差 劲</w>
山 坡</w>
尼 奥</w>
尘 土</w>
少数 几个</w>
少 见</w>
小 步</w>
对 焦</w>
宽 广</w>
宪 章</w>
学龄 前</w>
学 员</w>
学 区</w>
学 前
委 托</w>
好 听</w>
奥 古
奠 定</w>
大 革命</w>
大 错特错</w>
大 批</w>
大 夫</w>
大 力</w>
大 体</w>
外交 官</w>
复 数</w>
复 合
复 制
基因 工程</w>
坚持 下去</w>
坚 果</w>
地质 学家</w>
地理 位置</w>
地 问</w>
地 是</w>
在此 期间</w>
在 世</w>
圣 母</w>
圣 地</w>
回 信</w>
四 十
囊 括</w>
喷 嚏</w>
喜马拉雅 山</w>
啊 哈</w>
唯 有</w>
哪 来</w>
哥伦比亚 大学</w>
咒 语</w>
呼 唤</w>
吸烟 者</w>
启 发性</w>
听 懂</w>
同 位
同位 素</w>
同 一天</w>
另一 回事</w>
发 问</w>
发 疯</w>
发 烧</w>
反对 者</w>
参 考
厚 的</w>
厚 厚的</w>
卡内 基</w>
卡 拉
医疗 卫生</w>
匹 马</w>
劳 动
动 作
剧 情</w>
利 率</w>
击 手</w>
几 十个</w>
写 诗</w>
再也 不能</w>
其 后</w>
公 益</w>
克 罗
克 利
光 辉</w>
健 身
做 时</w>
倾 倒</w>
修 道
保护 措施</w>
保护 性</w>
作 证</w>
体 味</w>
会 到</w>
任 期</w>
以 免</w>
付诸 实践</w>
他 州</w>
人 听闻</w>
交 出</w>
二 号</w>
买 得起</w>
书 名</w>
之 神</w>
之 夜</w>
主 妇</w>
为 的是</w>
个 数</w>
个 头</w>
严 酷</w>
两 万
不 负
不 符</w>
下 水道</w>
上 门</w>
上 床</w>
上 将</w>
三 年级</w>
一次 次</w>
一千 亿</w>
一 身</w>
一 两年</w>
ol d</w>
i g</w>
en ce</w>
el a</w>
eB ay</w>
d i
ak er</w>
a il</w>
Willi am</w>
W ol
W G</w>
Sus an</w>
P i
M T
Joh n
Dom it
B BC</w>
A A</w>
1 3
0. 1</w>
黑 桃</w>
高 高
高 度
高 峰
高峰 期</w>
马 可</w>
香 料</w>
飙 升</w>
领 悟
非 理性</w>
雪 橇</w>
难 懂</w>
隔 间</w>
陷入 困境</w>
阿拉 巴马</w>
防 护</w>
门 上</w>
长 滩</w>
铸 造</w>
金 香</w>
重 来</w>
采取 措施</w>
醒 过来</w>
郁 金香</w>
那 份</w>
避 难</w>
遥 不可及</w>
通 电话</w>
通 勤</w>
选 用</w>
迪 克</w>
连续 性</w>
连 锁
远 景</w>
远 大</w>
这 棵树</w>
这 为</w>
这 下</w>
过 错</w>
轮 到</w>
趋 于</w>
越 南
赶 快</w>
走 走</w>
赞 助
赋 权</w>
资 源
诱 发</w>
语 权</w>
话 语权</w>
访 客</w>
论 据</w>
许多 许多</w>
订 购</w>
触 手可
触手可 及</w>
见 见</w>
要 不然</w>
西 尔</w>
西 北部</w>
褶 皱</w>
袖 手
袖手 旁观</w>
行 贿</w>
蚁 后</w>
蒂 斯</w>
萨 里</w>
萨 满</w>
药 方</w>
荧 幕</w>
草 药</w>
花 销</w>
花 点</w>
花 些</w>
芭蕾 舞</w>
芝 士</w>
般 地</w>
致 使</w>
自 相
腿 部</w>
腹 产</w>
脑 后</w>
肾上 腺</w>
肯 塔
肥 沃</w>
肤 浅</w>
聚 合</w>
老 朋友</w>
罗 河</w>
缺 席</w>
缝 隙</w>
编 造</w>
编 译</w>
维 也
维也 纳</w>
经济 上</w>
纸 条</w>
纷 争</w>
红 灯</w>
索 尔</w>
素 养</w>
精 简</w>
粗 暴</w>
粉 刷</w>
算 不上</w>
第一 眼</w>
窗 帘</w>
种 人</w>
私 下</w>
祝 贺</w>
社会 学</w>
石 膏</w>
看不 懂</w>
眉 毛</w>
相 等</w>
相 匹配</w>
直 视</w>
盖 住</w>
监 察</w>
百分之 二</w>
百分之 七十</w>
病 痛</w>
电 压</w>
电 信</w>
甲 板</w>
用 纸</w>
用 不着</w>
生理 学</w>
理 论
理 石</w>
犹 如</w>
特 里
牵涉 到</w>
牧羊 人</w>
爱丽 丝</w>
热 泉</w>
烦 人</w>
灿 烂</w>
灌 木</w>
游击 队</w>
游 牧
渲 染</w>
海 王星</w>
流 出</w>
洪都 拉斯</w>
洛 蒙</w>
沉 积</w>
沉 思</w>
沃 伦</w>
汇 总</w>
毛骨 悚
毛骨悚 然</w>
毛 巾</w>
每 一项</w>
死 因</w>
正 是如此</w>
欧 文</w>
模 范</w>
栽 种</w>
根 植</w>
样 貌</w>
杰 西</w>
来 试</w>
杀 案</w>
机械 化</w>
望 未来</w>
有效 性</w>
有 形</w>
最小 化</w>
最 爱</w>
暴力 犯罪</w>
智 者</w>
普 森</w>
普 斯</w>
星 光</w>
早 上
早上 好</w>
日 益
日 后</w>
日 出</w>
日 光</w>
无 国界</w>
施 压</w>
新闻 媒体</w>
新 英格兰</w>
斑 块</w>
文 凭</w>
整 套</w>
散 射</w>
教育 家</w>
政 界</w>
政 变</w>
收 容
收容 所</w>
摩擦 学</w>
推 车</w>
掏 出</w>
指 示
打 嗝</w>
打 倒</w>
手 下</w>
房 里</w>
成 堆</w>
成 名</w>
戏 服</w>
慢 下来</w>
惠 特
情报 机构</w>
思考 者</w>
怀 旧</w>
快 递</w>
志 向</w>
心理 治疗</w>
得 意</w>
引力 波</w>
异 类</w>
延 续
庙 宇</w>
巴勒 斯坦
巴 哈
差 错</w>
左 下角</w>
山 丘</w>
展 望未来</w>
尼 卡</w>
尼 克斯</w>
小 鱼</w>
小 姑娘</w>
对 立面</w>
宿 舍</w>
宣 传
宜 家</w>
定 量</w>
季 节性</w>
媲 美</w>
好 些</w>
奥斯 汀</w>
头 颅</w>
太 低</w>
天 里</w>
大 白鲨</w>
大 理石</w>
大 家伙</w>
多 项</w>
多 拉</w>
外 层</w>
增长 速度</w>
基因 突变</w>
块 钱</w>
均 匀</w>
地 为</w>
在 职</w>
在 经济上</w>
因果 关系</w>
喝 水</w>
商 量</w>
商 界</w>
商 标</w>
和 弦</w>
命 题</w>
周 边
后 排</w>
同 志</w>
可 口</w>
变 体</w>
反复 复</w>
反 常</w>
反 反复复</w>
南 加州</w>
千 里</w>
千 种</w>
十字 架</w>
北 美洲</w>
化 解</w>
劳 伦斯</w>
劫 持</w>
加 在一起</w>
剖 腹产</w>
前 端</w>
前 期</w>
刻 起</w>
到此 为止</w>
分离 出来</w>
凭 着</w>
几 件事</w>
凝 聚
凝 结</w>
兰 州</w>
六 分之一</w>
公 之
全 心
克 莱</w>
傻 瓜</w>
做 好事</w>
信 誉</w>
俄 语</w>
侵 袭</w>
何 不</w>
低 温</w>
伸 手</w>
估 量</w>
传 记</w>
伊 始</w>
任 务
代谢 物</w>
从头到 尾</w>
人 称</w>
人 意</w>
亲 密
交通 系统</w>
交 集</w>
中 会</w>
严重 性</w>
两极 分化</w>
世界 杯</w>
不足 为
不 靠</w>
不 懂</w>
不 怎么样</w>
不 大</w>
不 单</w>
不 下</w>
下 游</w>
下 意识</w>
上 加
一分 钱</w>
一 朵花</w>
一 幢</w>
一 万年</w>
s s
r ic
ou g
l er</w>
it e</w>
id i</w>
et t
e k</w>
b ur
Wind ows</w>
S im
S al
S A</w>
P in
L uc
L a</w>
J M</w>
C on
B ra
Ar d
Ap p
AR S</w>
7 9</w>
7 .
齐 心协力</w>
鼓 动</w>
黄 油</w>
高 强度</w>
马 来
领 舞</w>
预 兆</w>
预 估</w>
鞋 带</w>
面 世</w>
非 零</w>
青 睐</w>
难 免</w>
陡 峭</w>
陆 续</w>
阿 茨
闭 上</w>
门 人</w>
长 到</w>
销售 额</w>
金 币</w>
重 演</w>
里 会</w>
遗传 学家</w>
遗 骸</w>
道而 驰</w>
退休 金</w>
退 役</w>
追 捕</w>
迪 亚</w>
近 几年</w>
运动 鞋</w>
辛 迪</w>
超 前</w>
赞 叹</w>
赛 跑</w>
费 洛蒙</w>
贝 克</w>
诺贝 尔</w>
诺 德</w>
话 筒</w>
许 仙</w>
要 来</w>
西 边</w>
裂 变</w>
衡 量标准</w>
行 动物</w>
螳 螂</w>
虚 幻</w>
藉 由</w>
蓝 鳍</w>
获 奖</w>
莫 奈</w>
药 房</w>
艾 美
艾 米
航 海</w>
至 终</w>
自然 科学</w>
自 转</w>
自 负</w>
脸 颊</w>
脑 筋</w>
脊 柱</w>
背 道而驰</w>
背 负</w>
肠 胃</w>
聊 天
耕 地</w>
美国 黑人</w>
罗 杰</w>
罗 塞塔</w>
网络 连接</w>
网络 攻击</w>
缺 乏
结 识</w>
终 点
纺 织</w>
素 食</w>
糖 蛋白</w>
简 要</w>
第四 种</w>
第一 组</w>
端 的</w>
童 话</w>
窍 门</w>
秘 密
科 幻</w>
私 营</w>
离心 机</w>
离 谱</w>
禁 锢</w>
神秘 感</w>
社会 主义</w>
示 意图</w>
碱 基
碱基 对</w>
确 确
确确 实实</w>
砍 掉</w>
睁 开
着 重</w>
真 话</w>
真 真
相 隔</w>
直升 飞机</w>
盘 旋</w>
痛 感</w>
电脑 屏幕</w>
生物 圈</w>
瑞 典
球 菌</w>
猖 獗</w>
狠 狠</w>
爱 达
爬 行动物</w>
照 护</w>
潜水 艇</w>
潘 多拉</w>
滑 翔
游 历</w>
浮游 植物</w>
浑 身</w>
测 量
洛杉 矶
洛 基</w>
没 有
沉 没</w>
水 分子</w>
气 象
民主 党人</w>
氏 症</w>
每 张</w>
母 乳
母乳 喂养</w>
残 留</w>
正 试图</w>
欺 骗
梦想 成真</w>
格 州</w>
架 飞机</w>
杰 克逊</w>
来 举</w>
条 路</w>
杆 子</w>
杂 烩</w>
杀 伤性</w>
杀 人
服务 员</w>
最 优</w>
暂 且</w>
普林 斯顿</w>
显示 屏</w>
星期 一</w>
时间 表</w>
无法 解释</w>
无 能</w>
无 私</w>
无 礼</w>
无 损</w>
无 名</w>
施 展</w>
新鲜 事</w>
新 人</w>
断 言</w>
斑 点</w>
数以 亿
数以亿 计</w>
数 百</w>
敦 促</w>
攻击 性</w>
改 革
摇 篮</w>
搬 运</w>
推 送</w>
接 待</w>
捕 鱼
拉 开</w>
报 率</w>
投 诉</w>
投 入
批评 家</w>
扑 克</w>
手 脚</w>
战 斗
我 选</w>
成功 率</w>
意 粉</w>
惯 性</w>
惊 呆</w>
悄 悄</w>
恒 定</w>
性 交易</w>
急 救
快 捷</w>
忠 实</w>
徒 劳</w>
很 远</w>
径 直</w>
往 回</w>
归 纳</w>
异 教</w>
开 明</w>
建筑 业</w>
延 展</w>
康涅狄 格州</w>
康 纳</w>
庭 院</w>
库 尔特</w>
庆 典</w>
希伯 来
布鲁 斯</w>
巴拿 马</w>
巴勒斯坦 人</w>
巴 赫</w>
巴 特</w>
已 婚</w>
已 久</w>
尤 里</w>
导 性</w>
寓 言</w>
富 饶</w>
富 尔</w>
寄 钱</w>
宣 誓</w>
实习 生</w>
完 毕</w>
完 后</w>
安东 尼奥</w>
学 历</w>
存 钱</w>
婚 姻
女 性化</w>
女 同性恋</w>
奢 望</w>
奢 侈
奢侈 品</w>
夫 斯</w>
太 贵</w>
大 都会</w>
多 变</w>
复 制品</w>
处 方
壮 举</w>
地质 学</w>
圈 子里</w>
图 谱</w>
国 民
回 报率</w>
四 条</w>
嘻 哈</w>
咖啡 杯</w>
吉 米</w>
各 大</w>
另一 方</w>
取 舍</w>
取 名</w>
发展 趋势</w>
发出 信号</w>
反 刍</w>
双 语</w>
原 话</w>
卖 家</w>
协 调
千 分之一</w>
十 八</w>
十 九</w>
十 七
化学 品</w>
包 装
包 袱</w>
勾 勒</w>
势 头</w>
功 能
副 本</w>
剖 析</w>
刻 画</w>
别 提</w>
利 益
利 息</w>
创 业
分 担</w>
几十 亿年</w>
几 英里</w>
凝聚 力</w>
冷 酷</w>
冰 洋</w>
冰 原</w>
再 举</w>
内 华
兼 容</w>
关键 因素</w>
关系 网</w>
共 通</w>
做 得好</w>
假 货</w>
假 体</w>
保 育</w>
侵 扰</w>
侄 子</w>
作 坊</w>
住 院
住 宿</w>
低 级</w>
伪 装成</w>
休 斯顿</w>
任 命</w>
他 家</w>
他 命</w>
人口 密度</w>
人 手</w>
人 世</w>
交通 运输</w>
交 到</w>
亚历山 大
亚 原子</w>
二 手</w>
乔 丹</w>
之 分</w>
丽 萨</w>
为数 不多</w>
中 枢</w>
中 午</w>
个 例</w>
两 颗</w>
两 类</w>
两 百
两 家</w>
两 份</w>
东 亚</w>
丛 林中</w>
不 顾
不 平</w>
上 级</w>
一 顶</w>
一 等</w>
一 回</w>
一 一</w>
ou r</w>
or a</w>
op h
n er</w>
m an
er g
ec k</w>
d o</w>
c ar</w>
al a</w>
a z</w>
V en
S am
R ed
P al
P IS
O r
N ath
M T</w>
M P
M I</w>
J ane</w>
J R</w>
G er
G M</w>
Fl ick
Domit ia</w>
D AR
C ra
197 6</w>
1. 2</w>
鳕 鱼</w>
高 跟
高跟 鞋</w>
高 清</w>
高 危</w>
骰 子</w>
骨 髓
驶 向</w>
马拉 维</w>
饿 死</w>
额 头</w>
预 测出</w>
露 西</w>
雄心 勃勃</w>
难 重重</w>
附 带</w>
阳 光
防 治</w>
长 着</w>
锤 子</w>
重复 使用</w>
那 层</w>
通 路</w>
迟 缓</w>
轮 流</w>
身份 证</w>
越 少</w>
越 久</w>
超 棒</w>
走 运</w>
赤 脚</w>
贴 切</w>
贪 腐</w>
贩 卖
谬 误</w>
谈 论
谈论 着</w>
谈 判
说 辞</w>
说 回来</w>
话 说回来</w>
讲 过</w>
詹 妮弗</w>
览 会</w>
视 图</w>
西 尼</w>
衔 接</w>
行 径</w>
蝌 蚪</w>
蜷 缩</w>
蜥 蜴</w>
萨 拉
营养 物质</w>
菲 尼克斯</w>
药 丸</w>
芝加 哥
自来 水</w>
脑 力</w>
能 耗</w>
胸 腔</w>
胎 盘</w>
背 井
背井 离
背井离 乡</w>
聪明 才智</w>
职 能</w>
羡 慕</w>
美国 宇航局</w>
美 感</w>
编辑 器</w>
缓 冲</w>
维 网</w>
结 肠
经验 丰富</w>
经 文</w>
终点 线</w>
纽 扣</w>
纳 多</w>
纪念 馆</w>
约 束
系 数</w>
糖 类</w>
米 特里</w>
米 拉</w>
管 家</w>
答 道</w>
答 对</w>
笔 下</w>
竭 尽所能</w>
竖 起</w>
稻 草</w>
私 密</w>
神 明</w>
礁 石</w>
磨 难</w>
着陆 器</w>
真 棒</w>
真 人
看 望</w>
监 管
皇 室</w>
白 板</w>
生物 量</w>
甚 远</w>
甚 至于</w>
瑞 士
班 上</w>
环 游世界</w>
玩 偶</w>
玛 雅</w>
猎 豹</w>
独 白</w>
特 蕾
牢 牢</w>
燃 煤</w>
然大 物</w>
烟 草
漫 游</w>
滋 生</w>
温 室
温室 效应</w>
渡 渡</w>
渐 进</w>
混 在</w>
海军 陆战队</w>
流 放</w>
流 产</w>
活 泼</w>
活 体</w>
沙 粒</w>
沐 浴</w>
水 晶</w>
气 愤</w>
民 事</w>
比 尔
比尔 盖茨</w>
比 利
死 囚</w>
正 统</w>
橄榄 油</w>
植 入
梦 寐
梦寐 以求</w>
梅 尔</w>
树 根</w>
架 上</w>
枪 击
枪击 案</w>
极 佳</w>
来 得
来 不及</w>
条 新闻</w>
杂 乱</w>
木 马</w>
最 深处</w>
最 佳
曲 解</w>
暑 假</w>
晚 些时候</w>
星期 天</w>
星期 六</w>
旺 盛</w>
时 分</w>
早 衰</w>
无 非</w>
方 设法</w>
斯蒂 安</w>
斐 逊</w>
文学 作品</w>
文 件
数 位</w>
散 落</w>
敢 肯定</w>
教 材</w>
放 任</w>
收 件
攀 升</w>
撕 开</w>
搬 走</w>
控制 中心</w>
接 受
排 成</w>
捐 献者</w>
拉丁 文</w>
披 露</w>
技术 上</w>
成 天</w>
慢 动作</w>
想 方设法</w>
想 成</w>
想 不出</w>
惊 吓</w>
情 人节</w>
恼 火</w>
恭 喜</w>
心 目</w>
很 傻</w>
征 求</w>
开 花</w>
庞 然大物</w>
店 铺</w>
床 边</w>
广 为人知</w>
年 时期</w>
年 华</w>
帽 衫</w>
布鲁 克斯</w>
布兰 登</w>
巴 马州</w>
巫 术</w>
巨 额</w>
巡 演</w>
峰 顶</w>
岌 岌
岌岌 可
岌岌可 危</w>
局 长</w>
尼 罗河</w>
尼 尔森</w>
就 读</w>
小 猫</w>
小 巧</w>
小 孩儿</w>
小 人</w>
家庭 作业</w>
实地 考察</w>
定位 系统</w>
学 得</w>
嫁 接</w>
如 生</w>
奥 利
夹 克</w>
头 条新闻</w>
复 活
备 用</w>
境 遇</w>
堵 墙</w>
基本 概念</w>
埋 场</w>
地 方
圆 顶</w>
困 难重重</w>
四 月</w>
喝 茶</w>
喀 麦
商 机</w>
哈 拉</w>
命 中
呼吸 道</w>
周期 性</w>
含 着</w>
后 背</w>
叫 喊</w>
发 抖</w>
发 布
发 射
双 性恋</w>
历史 博物馆</w>
历 时</w>
即 逝</w>
印刷 机</w>
卫 星
卡 住</w>
加 速度</w>
副 业</w>
前 排</w>
到 头来</w>
别 误会</w>
切 口</w>
分 量</w>
出 海</w>
几 件</w>
减 低</w>
冰 面</w>
冰 冻</w>
农 药</w>
册 子</w>
关键 所在</w>
关 门</w>
六 周</w>
六 千</w>
公共 政策</w>
公之 于众</w>
全 场</w>
克 雷
光 盘</w>
儿 女</w>
偷偷 地</w>
修 剪</w>
信 托</w>
保 释</w>
例 证</w>
作 用力</w>
作 曲</w>
何 在</w>
体育 运动</w>
佐治 亚州</w>
住 处</w>
伤 亡</w>
会 有</w>
众 议院</w>
伊 尔</w>
令人 信服</w>
代 相传</w>
他 俩</w>
介 质</w>
仅此 而已</w>
仅 凭</w>
亿 分</w>
亿 万</w>
人 道</w>
人 身
人 质</w>
人 为
亲眼 看到</w>
五 到</w>
二 手
事务 所</w>
事 迹</w>
事 要</w>
事 态</w>
乌 拉
乌 尔</w>
举 报
主导 地位</w>
主 页</w>
临 终</w>
个人 经历</w>
个 子</w>
两 层</w>
两 党</w>
不足为 奇</w>
不见 得</w>
不 间断</w>
不 疑</w>
下 跌</w>
下 水</w>
下 会</w>
三 月</w>
三 人</w>
万 维网</w>
一氧化 氮</w>
一夫 一
一大 批</w>
一切 顺利</w>
一 条
一 向</w>
一 列</w>
un e</w>
uin o</w>
r o</w>
or y
oc k</w>
l a</w>
id e</w>
ec h</w>
a u</w>
Wol f
W il
Us hah
T KM</w>
P er
O k
N at
N BA</w>
M D
J ac
In ter
Gl ob
G u
G en
Flick r</w>
F BI</w>
D I
C as
C am
Brun o</w>
B en
Ard uino</w>
Andre w</w>
2 100</w>
196 5</w>
黑 莓</w>
鲜 艳</w>
鱿 鱼</w>
魔 兽</w>
高 低</w>
马 斯
马 丁
香 槟</w>
颞 叶</w>
题 材</w>
靴 子</w>
非常 适合</w>
难以 捉摸</w>
除 掉</w>
阿尔 及利亚</w>
阵 列</w>
防 守</w>
闯 入</w>
闭 合</w>
长 短</w>
长 椅</w>
银 色</w>
钉 子</w>
重新 组合</w>
里 兰
都 在</w>
那 本</w>
那 句话</w>
遗 失</w>
道 格拉斯</w>
道 格</w>
遏 制</w>
适 度</w>
迷 路</w>
这 支</w>
这 仅</w>
这 人</w>
输 送到</w>
轻 轻
踢 球</w>
路 标</w>
越 多</w>
起 搏
起搏 器</w>
走 私</w>
赫 兹</w>
货币 基金组织</w>
负 着</w>
贝 奇</w>
词 来</w>
诊 疗</w>
证 会</w>
许 诺</w>
让 步</w>
认真 对待</w>
认 得</w>
警 车</w>
要 学</w>
西 卡</w>
装 着</w>
裁 判</w>
表 扬</w>
街 边</w>
行 榜</w>
行 列</w>
血 细胞</w>
血 红
蝎 子</w>
蔑 视</w>
葡萄 牙
落 入</w>
英国 政府</w>
英 文
苛 刻</w>
苏 里
芭 蕾</w>
艾 达</w>
艾 拉</w>
艺术 创作</w>
自 主
脸 庞</w>
脚 印</w>
能 带</w>
胡 同</w>
肿 块</w>
聪明 人</w>
耳 聋</w>
耗 能</w>
老 汇</w>
老 妇人</w>
翻 阅</w>
美 联
美 籍</w>
美 术
置 换</w>
网 址</w>
缩 影</w>
缓 缓</w>
维 利</w>
给 与</w>
经济 效益</w>
纳米 级</w>
纳米 管</w>
红 光</w>
紧 缩</w>
精疲力 竭</w>
精 湛</w>
精 妙</w>
粪 球</w>
粘 合</w>
米 格尔</w>
管理 人员</w>
简单 化</w>
筋 疲力
第三 天</w>
第一 句</w>
第 九</w>
空 缺</w>
稳 定
移 到</w>
科技 领域</w>
科学 实验</w>
种族 问题</w>
禁 令</w>
磁 带</w>
破 损</w>
瞧 瞧</w>
睡 觉
着 装</w>
眼 科</w>
眼 看</w>
真 万
真万 确</w>
相 悖</w>
直 达</w>
监护 室</w>
盈 余</w>
盆 地</w>
百万 倍</w>
百 老汇</w>
病 院</w>
病 态</w>
留 心</w>
留 住</w>
畅 销
男子 汉</w>
电动 车</w>
电 费</w>
电 气
田 野</w>
生机 勃勃</w>
生 子</w>
瓶 盖</w>
琐 事</w>
球 赛</w>
现实 主义</w>
现 出来</w>
特 立
煽 动</w>
热 闹</w>
炸 药</w>
火 车站</w>
滑 动</w>
游 过</w>
游 乐
游乐 场</w>
清晰 度</w>
深 感</w>
深 刻
消费 品</w>
涂 成</w>
海 狮</w>
浮 出</w>
洛 哥</w>
洛 克
洗 衣服</w>
治 安</w>
河 道</w>
沙 特</w>
沉积 物</w>
沉 入</w>
水 是</w>
水 产</w>
氢 原子</w>
每 平方米</w>
每 天花</w>
欢 笑</w>
楼 下</w>
格 森</w>
栩 栩
栩栩 如生</w>
柜 子</w>
染 上</w>
某 项</w>
某 样</w>
果 然</w>
枕 头</w>
极 为重要</w>
杰 斐逊</w>
来 电</w>
木 匠</w>
期 限</w>
朝鲜 人</w>
有 望</w>
曾 祖父</w>
曼 莎</w>
更 重</w>
曲 折</w>
景 点</w>
晓 得</w>
显 现出来</w>
无法 忍受</w>
施 工</w>
斯 里兰
斯 瓦
斯 巴
文化 遗产</w>
敲 门</w>
敲 响</w>
数 千个</w>
教 过</w>
敏感 度</w>
敏 感性</w>
政治 上</w>
收 银
收 成</w>
操 纵
播 报</w>
摩 洛哥</w>
摇滚 乐</w>
揭 发</w>
措 辞</w>
推 论</w>
接收 器</w>
探 测
排 行榜</w>
据 此</w>
挽 回</w>
担 负</w>
担 保</w>
投入 使用</w>
投 掷</w>
投 影
打 磨</w>
手 铐</w>
所 称</w>
所 思</w>
战 略性</w>
战 乱</w>
我 活</w>
成 员
慈 悲
惨 剧</w>
惊 慌</w>
恶 性</w>
恩 斯</w>
恢复 过来</w>
总 统
总 算</w>
思考 问题</w>
心 血</w>
心 力
很 难说</w>
很 重</w>
当 权者</w>
当 代
归 来</w>
弥 漫</w>
弄 错</w>
开发 新</w>
开 创性</w>
废 话</w>
幼 年</w>
并 存</w>
平 坦</w>
帝 王</w>
希伯来 语</w>
市 政
巴 贝奇</w>
巴 格达</w>
巴 尔</w>
巫 师</w>
州 立</w>
居 室</w>
小 孔</w>
导 电</w>
密歇 根</w>
密 者</w>
寄 养</w>
宾夕法 尼亚州</w>
宴 会</w>
官 移植</w>
完 整
安 抚</w>
孤 独
字 面上</w>
嬉 戏</w>
媒 体
威廉 姆斯</w>
威 士
始 终
如此 一来</w>
奥林匹克 运动会</w>
夺 去</w>
头 人</w>
太 近</w>
大 英
大 开
大 帝</w>
大 巴</w>
处方 药</w>
壮 丽</w>
堆 积
埃 克
垫 子</w>
坐 飞机</w>
地铁 站</w>
在 政治上</w>
圣 人</w>
土耳 其
国际 货币基金组织</w>
固 态</w>
困 在</w>
四 千</w>
器 官移植</w>
喀麦 隆</w>
告 密者</w>
启 蒙
听 证会</w>
吞 下</w>
史 前</w>
台 下</w>
古 埃及</w>
受害 人</w>
发言 权</w>
发 表
发 芽</w>
发 育
发 泄</w>
发 散</w>
历史 记录</w>
卫 报</w>
卡 洛斯</w>
博士 生</w>
博 茨
单 子</w>
单 向</w>
华 纳</w>
半 导体</w>
千 真万确</w>
十分 相似</w>
十分 困难</w>
勘 探</w>
劣 势</w>
加 尔
剧 团</w>
剥 离</w>
剑 桥
前所未 见</w>
前 人</w>
到 场</w>
划 过</w>
分 界线</w>
分 之</w>
出 奇</w>
凯 西</w>
凯 拉</w>
凤 凰</w>
凡 人</w>
几 分</w>
准确 率</w>
冷 藏</w>
写 字母</w>
再 次
内 科医生</w>
八 月</w>
八 年级</w>
全 局</w>
儿 科医生</w>
储 藏</w>
修 斯</w>
信 号
便携 式</w>
使用 量</w>
使 劲</w>
你 会</w>
何 时
伦理 道德</w>
伙 人</w>
份 子</w>
买 到</w>
乌 龟</w>
之 春</w>
之 声</w>
之 以
举报 者</w>
举 着</w>
举 出</w>
中央 处理器</w>
中 叶</w>
东 北</w>
专业 技能</w>
专 员</w>
不负 责任</w>
不 顾</w>
不 算
不 明</w>
不 单单是</w>
下 个月</w>
上 边</w>
三 号</w>
万 条</w>
一切 都在</w>
一 面
一 百万年</w>
一 桶</w>
一 刻起</w>
一 万个</w>
y a</w>
uc k
s ch
s c
ou r
i el
h en</w>
g e</w>
d s</w>
d in</w>
b a</w>
an g</w>
W i
W e
W K</w>
Ushah idi</w>
Te ch
S D
Rom o</w>
O b
O W
O S</w>
Mart in</w>
M al
M ad
M BA</w>
L HC</w>
J as
J ack</w>
Har ri
H ol
F ar
F B</w>
E x
C B
B ur
AC E</w>
A ut
A R</w>
8 1</w>
5 .
2 5000</w>
198 3</w>
197 8</w>
195 7</w>
19 30</w>
1 400</w>
1 300</w>
0 1</w>
鼓 声</w>
鱼 儿</w>
高 等</w>
高 手</w>
骇 人</w>
马萨诸 塞
马萨诸塞 州</w>
马 歇尔</w>
食品 安全</w>
飘 浮</w>
领悟 到</w>
项 链</w>
顶 点</w>
音乐 剧</w>
非 人类</w>
零 部件</w>
雪 花</w>
集 资金</w>
集 装箱</w>
隐 含</w>
随 处</w>
除 以</w>
限 定</w>
阿拉 巴马州</w>
阿 奇</w>
阿 兰</w>
阿 什</w>
闪闪 发光</w>
门 廊</w>
金融 机构</w>
野 牛</w>
重 机</w>
重 担</w>
释 放出来</w>
遗传 基因</w>
遍 地</w>
递 送</w>
递 交</w>
选择 权</w>
迷 信</w>
迫 感</w>
远 超过</w>
这么 久</w>
这 群人</w>
达 斯</w>
辣 椒</w>
轻轻 地</w>
转 为</w>
车 司机</w>
跟 不上</w>
足 足</w>
足 球场</w>
超 导体</w>
起 重机</w>
赔 偿</w>
赌 博</w>
资 料
贺 卡</w>
贝 索</w>
请 愿
请愿 书</w>
语 句</w>
详 尽</w>
诗 班</w>
试 镜</w>
识 别
讲 课</w>
讣 文</w>
誓 言</w>
解决 之道</w>
解 体</w>
褐 色</w>
装 上</w>
薯 条</w>
萨 尼</w>
营 业</w>
菌 类</w>
荷 马</w>
药 店</w>
荒 诞</w>
若干 年</w>
花 生
自 此</w>
脚 踝</w>
脉 搏</w>
胸 口</w>
胶 水</w>
胃 里</w>
聋 哑
聋哑 人</w>
而 知</w>
老 是</w>
美 人
美人 鱼</w>
罗 伊</w>
缘 由</w>
绿 灯</w>
绽 放</w>
维 他命</w>
继 承
结 者</w>
终 结者</w>
终 端</w>
织 物</w>
细胞 分裂</w>
纪 律</w>
索 要</w>
索 取</w>
素 贞</w>
精神 病院</w>
精神 病学</w>
篱 笆</w>
管弦 乐队</w>
筹 集资金</w>
筹 备</w>
等 离子
等离子 体</w>
第四 次</w>
第三 步</w>
第 五个</w>
第 一名</w>
笛 卡尔</w>
笔 钱</w>
窃 听</w>
穆 萨</w>
科 目</w>
种 姓</w>
福 布斯</w>
礼 堂</w>
示 意</w>
示 威
破 灭</w>
矩 形</w>
知 不知道</w>
相互 连接</w>
相互 竞争</w>
相 加</w>
盖 尔</w>
盖 子</w>
益 生
益生 菌</w>
百分之 六十</w>
百万 富翁</w>
痉 挛</w>
畸 形</w>
男女 平等</w>
田纳 西州</w>
用 场</w>
瓦 尔
瓜 多尔</w>
理想 主义</w>
理发 师</w>
理 论家</w>
球 场上</w>
玻 色子</w>
环 状</w>
狐 狸</w>
犹 他州</w>
爱 沙
爱沙 尼亚</w>
热 力学</w>
灰 质</w>
灰 烬</w>
激动 不已</w>
滋 味</w>
游戏 规则</w>
游击 队员</w>
消 毒</w>
浴 缸</w>
测 定</w>
津 贴</w>
法 医</w>
沿 用</w>
油 污</w>
水族 馆</w>
水 层</w>
氨 酸</w>
民 间
毛 细
比利 时</w>
死亡 威胁</w>
死 胡同</w>
步 枪</w>
步 态</w>
欺骗 性</w>
模 因</w>
梵 高</w>
格 莱
柠 檬
林 特</w>
来来 回
来来回 回</w>
来得 及</w>
束 手无
束手无 策</w>
机 动
朱丽 叶</w>
末 尾</w>
有 水</w>
晃 动</w>
易 事</w>
明 了</w>
日 报</w>
无限 大</w>
新 德里</w>
新 娘</w>
新 几内亚</w>
斯 山脉</w>
斯 丁</w>
断 出</w>
斜 坡</w>
整 条</w>
敲 击</w>
数据 资料</w>
数据 中心</w>
数 万</w>
救 命</w>
放大 镜</w>
放 着</w>
摩 托</w>
描绘 出</w>
推 断出</w>
控制 力</w>
换 来</w>
挨 户</w>
挨 家
挨家 挨户</w>
持续 增长</w>
拳 头</w>
担 当</w>
抨 击</w>
折 扣</w>
折 射</w>
抗 原</w>
投 降</w>
把 头</w>
扶 持</w>
打 出</w>
手 来</w>
所 述</w>
成员 国</w>
慈悲 心</w>
感 人</w>
意大利 人</w>
惭 愧</w>
恶 作
恶作 剧</w>
怨 恨</w>
性别 差异</w>
忘 怀</w>
心 痛</w>
微 子</w>
很 慢</w>
征 收</w>
归 结
归 咎
归咎 于</w>
弹 钢琴</w>
弗 林特</w>
引 以为
延 缓</w>
店 员</w>
广播 公司</w>
幼 崽</w>
幼 儿</w>
幅 照片</w>
布 洛克</w>
市 政府</w>
市 政</w>
已 故</w>
巧 是</w>
巢 癌</w>
山 姆</w>
就 会
尘 器</w>
尔 沃
小 宝宝</w>
小 到
小到 大</w>
射 出</w>
密 码
密 封</w>
实 惠</w>
宝 马</w>
安 逸</w>
学术 研究</w>
嫌疑 人</w>
威 斯
始 至终</w>
妄 想</w>
女 童</w>
契 合</w>
夺 取</w>
大 提琴</w>
大 头
外交 政策</w>
夏 日</w>
备 份</w>
墓 碑</w>
填 埋场</w>
塞尔 维亚</w>
堆 叠</w>
堂 课</w>
基本 定律</w>
埋 藏</w>
埃 德</w>
埃 尔
坦 率</w>
地区 性</w>
地 外</w>
图 雷</w>
图 灵</w>
因 果</w>
回忆 起</w>
回忆 录</w>
四 处
喷 泉</w>
唱 诗班</w>
售 价</w>
唐 纳</w>
哥 们</w>
哈 维</w>
咖啡 因</w>
呼吸 系统</w>
周 长</w>
吹 口哨</w>
向 前走</w>
名 誉</w>
同 心协力</w>
同 仁</w>
合法 性</w>
合 理
合 伙人</w>
各个 领域</w>
叶 片</w>
可 谓</w>
受 难</w>
受 孕</w>
受 众</w>
压 倒
厄 瓜多尔</w>
卵 巢癌</w>
卡 车司机</w>
半 月</w>
千 千万
北 欧</w>
匆 忙</w>
前 兆</w>
到 时候</w>
分 销</w>
分 流</w>
击 球</w>
出 代价</w>
凭 空</w>
几 秒</w>
净 水</w>
决 定
决 不</w>
冲 击
内 核</w>
公民 权利</w>
公共 汽车</w>
八 百万</w>
全 能</w>
全 然</w>
僧 侣</w>
偿 还</w>
做 会</w>
偏 僻</w>
俯 视</w>
信 中</w>
俄克拉 何
使 者</w>
何 况</w>
何 为</w>
低 沉</w>
传统 意义</w>
伟 人</w>
代 代相传</w>
付 出代价</w>
从 小到大</w>
仍 能</w>
人 问</w>
人 住</w>
二十 五</w>
乒 乓
乐 在其中</w>
之 名</w>
主 演</w>
为人 所知</w>
为 食</w>
丹 佛</w>
临 终
个 星期</w>
两 性</w>
两 千万</w>
不自 在</w>
不由 自主</w>
不尽 相同</w>
不 高</w>
不 问</w>
不 说</w>
不 绝</w>
不 比</w>
不 出
不 入</w>
下 手</w>
三 名</w>
万 次</w>
一大 块</w>
一 笑</w>
一 盒</w>
一 波</w>
一 段话</w>
一 桩</w>
一 帮</w>
一 吨</w>
一 些
w e
of f</w>
o x
n et</w>
m e</w>
m e
is a</w>
iri ka</w>
ind er</w>
ik i</w>
h u
c y</w>
al k</w>
T R</w>
T C</w>
S and
S ARS</w>
P o
O L
N GO</w>
MD MA</w>
M ike</w>
M e</w>
M Z</w>
Is irika</w>
H yp
G ra
G C</w>
Fran k</w>
F GM</w>
Cor ps</w>
C r
20 25</w>
197 4</w>
19 40</w>
1. 3</w>
1 2
黑 色
黑 点</w>
黑 暗
黑 兰</w>
黏 土</w>
鹦 嘴</w>
马克 思</w>
饮 食
风 扇</w>
额 贷款</w>
领 取</w>
预防 性</w>
顺 带</w>
面 粉</w>
非 典</w>
雌 性激素</w>
随身 携带</w>
降 雨量</w>
陆 军</w>
阿姆斯特 朗</w>
阿 肯
闹 钟</w>
闲 逛</w>
问 责</w>
长 辈</w>
钻 进</w>
钦 佩</w>
重新 考虑</w>
重 击</w>
采 样</w>
邮 票</w>
逝 世</w>
逆 流
退 伍</w>
远 超</w>
进化 史</w>
这 行</w>
这 令</w>
运 营
达尔 富尔</w>
车 手</w>
身 在</w>
践 行</w>
跟 进</w>
超 凡</w>
起 效</w>
负 债</w>
调 解</w>
调 情</w>
诽 谤</w>
诺 曼
说 不
试 图
试图 用</w>
讲 到</w>
认 出来</w>
计算机 程序</w>
警 局</w>
解 锁</w>
角 膜</w>
规划 师</w>
规 章</w>
见 效</w>
要 死</w>
西 蒙
衰 弱</w>
表达 出来</w>
表现 形式</w>
行 使</w>
融 为一体</w>
蜿 蜒</w>
蜘蛛 网</w>
蚁 群</w>
薛 定
薛定 谔</w>
蓄 意</w>
落 地</w>
莉 诺</w>
药 效</w>
若 想</w>
节 省
舆 论</w>
致 癌
至 极</w>
自相 矛盾</w>
自由 市场</w>
自然 法则</w>
自 拍</w>
自 尊
脱口 秀</w>
脑 干</w>
胞 外
胞外 基质</w>
胜 利
背 心</w>
肌 肤</w>
聘 用</w>
聊 过</w>
而 复
美好 生活</w>
美 洲
置 身
网络 安全</w>
缺 氧</w>
经 销商</w>
精疲力 尽</w>
粉 笔</w>
简 便</w>
等 级
等 会儿</w>
第三 阶段</w>
第三 条</w>
第一 本</w>
第 一场</w>
笔 画</w>
空 无一
空无一 物</w>
称 号</w>
科 夫</w>
科 塔</w>
种植 园</w>
私 有
离 析</w>
离 岸</w>
福 斯</w>
社 工</w>
睁开 眼睛</w>
盛 宴</w>
皮 士</w>
百 货
白 细胞</w>
略 微</w>
畅销 书</w>
电 车</w>
用 电</w>
瓦 斯</w>
理 财</w>
理 清</w>
现代 主义</w>
环境 因素</w>
狂 欢</w>
犯罪 分子</w>
牢 记</w>
牛 羚</w>
片 状</w>
热带 地区</w>
烈 火</w>
炼 出</w>
灵 性</w>
火 腿</w>
演奏 者</w>
演 算法</w>
滴 水</w>
满 怀
滑 行</w>
源 代码</w>
游戏 机</w>
渡 河</w>
渗透 到</w>
渗 入</w>
淹 死</w>
深 蓝色</w>
涟 漪</w>
海 鲜</w>
海 地区</w>
流行 起来</w>
洛杉矶 分校</w>
泰坦 尼克
泰坦尼克 号</w>
法 定</w>
油 轮</w>
河 岸</w>
没 到</w>
汹 涌</w>
汉 字</w>
水 生</w>
水 滴</w>
水 槽</w>
毛 衣</w>
比 分</w>
比 克</w>
步 调</w>
止痛 药</w>
歇 斯
歇斯 底
歇斯底 里</w>
欧 几
欧几 里
次 要</w>
横 穿</w>
模 糊
棕榈 树</w>
梦 境</w>
框 框</w>
格 温</w>
核 心
树 种</w>
果 园</w>
林 斯</w>
木 工</w>
有 利
最 终
更 广</w>
曲 目</w>
暴 龙</w>
暖 化</w>
普 鲁
昼 夜</w>
时间 跨度</w>
时间 机器</w>
时代 广场</w>
日 内
日内 瓦</w>
既 定</w>
无所 事事</w>
无 数个</w>
无 常</w>
无 偿</w>
无 上</w>
施 加
斯里兰 卡</w>
政 体</w>
放 上</w>
改 观</w>
收 集
播放 器</w>
插 图</w>
提 琴
推进 器</w>
换 掉</w>
损 耗</w>
捏 造</w>
指 南
指南 针</w>
拿 掉</w>
拨 打</w>
招 式</w>
拉 动</w>
抗 衡</w>
扳 机</w>
扬 声器</w>
执 法
托 尔
打 字
打 哈欠</w>
所 幸</w>
战 线</w>
我 错</w>
我 心</w>
我 学</w>
成 形</w>
愤 世
愤世 嫉
愤世嫉 俗</w>
感 光</w>
意料 之外</w>
想 见</w>
想 些</w>
恍 惚</w>
恋 情</w>
总 计</w>
性 虐待</w>
性 是</w>
德 黑兰</w>
微 量</w>
很 穷</w>
往 事</w>
彼 得
录 音
当今 社会</w>
强迫 性</w>
弗 雷</w>
开放 性</w>
幻 灯</w>
并 行</w>
年轻 一代</w>
差 一点</w>
崩 离析</w>
岁 时</w>
屈 服于</w>
居 所</w>
尽 量
小 额贷款</w>
小 便</w>
封 存</w>
寿 司</w>
导 入</w>
宾 馆</w>
定 为</w>
定 下</w>
安 迪</w>
守 护者</w>
学生 会</w>
孕 期</w>
嬉 皮士</w>
奶 油</w>
奔 波</w>
夫 斯基</w>
大学 洛杉矶分校</w>
大大 减少</w>
大 雨</w>
多 少
多 媒体</w>
外 衣</w>
外 墙</w>
外 力</w>
外 公</w>
壮 志</w>
墙 面</w>
基 底</w>
埃 莉诺</w>
坦 率地</w>
坏 掉</w>
地 标</w>
图 示</w>
国务 卿</w>
嘲 弄</w>
喘 息</w>
商 讨</w>
商 品
哎 呀</w>
周 游世界</w>
告 诫</w>
吸 血
吸 尘器</w>
启蒙 运动</w>
同 化</w>
各 有</w>
台 灯</w>
可 知</w>
可 回收</w>
叛 乱</w>
发布 会</w>
发 来</w>
反 物质</w>
压 根</w>
印 在</w>
卡 门</w>
卡 西尼</w>
博 览会</w>
半 边</w>
半 前</w>
半 个世纪</w>
千 五百</w>
北 冰洋</w>
化 妆
匆 匆</w>
动 态
加勒 比</w>
功 率</w>
前 卫</w>
制 裁</w>
制 作者</w>
判 断
划 船</w>
刑事 法律</w>
分 崩离析</w>
出 口
凯 恩</w>
凯 利</w>
几 只</w>
准 备
决 赛</w>
写 入</w>
内 有</w>
养老 院</w>
其 自然</w>
其 妙</w>
兴奋 不已</w>
关键 词</w>
兰 语</w>
六 年级</w>
公共 安全</w>
全 麦</w>
全 方位</w>
倾 诉</w>
借 钱</w>
倍 感</w>
修道 院</w>
保守 主义</w>
伟 业</w>
会 因</w>
代 言</w>
代 名词</w>
从 业</w>
仅 限于</w>
人类 基因</w>
人 民
人 化</w>
产 假</w>
互 惠</w>
乙 烯</w>
之 美</w>
主 教</w>
为 时
丰富 多彩</w>
中 微子</w>
严 格
两 座</w>
丘 脑</w>
专业 化</w>
不 成
不 容</w>
不 全是</w>
不 佳</w>
上 部</w>
上 用</w>
上 爬</w>
上 放</w>
一无 所
一 节</w>
一 罐</w>
一 战</w>
一 带</w>
一 堂课</w>
一 匹</w>
一 举
w ell</w>
st er</w>
s en</w>
ro w
p p
ot h
os t
ory Corps</w>
on ica</w>
om en</w>
i p</w>
et h</w>
en s</w>
ac h</w>
a o</w>
X Y</w>
V i
T R
St oryCorps</w>
Sn ap
S ou
S TE
S M</w>
P ow
N ic
Mc G
K 党</w>
Jos ep
Jef f</w>
J e
ES G</w>
DI Y</w>
C H</w>
9 000</w>
8 .
7 47</w>
鼓 起
鼓起 勇气</w>
黛 拉</w>
黄 瓜</w>
高 贵</w>
高 棉</w>
高 明</w>
骑 着</w>
驶 过</w>
马来 西亚</w>
马丁 路德</w>
马 基
首 字母</w>
馈 赠</w>
顺 应</w>
面 条</w>
静 默</w>
霍 普
难 为
隐 患</w>
阿 诺德</w>
阴 性</w>
防 卫</w>
阈 值</w>
阁 下</w>
钻 探</w>
鉴 别</w>
金 牌</w>
重 型</w>
里 边</w>
醒 来时</w>
都 柏林</w>
那 句</w>
避孕 药</w>
遗传 物质</w>
遗 留</w>
遇 难</w>
逝 者</w>
逆流 而上</w>
迪 芬</w>
连 通</w>
连 贯</w>
近 代</w>
运 往</w>
迄 今</w>
达 菲</w>
输 家</w>
车 程</w>
身 子</w>
超 声</w>
赛 场</w>
资 金
费 劲</w>
象征 意义</w>
谢谢 您</w>
诚 地</w>
词 组</w>
诈 骗</w>
识 一下</w>
诀 窍</w>
讲 得</w>
议 案</w>
计 量</w>
覆 辙</w>
要 少</w>
袋 鼠</w>
表 征</w>
血红 蛋白</w>
蠕 动</w>
蔓 延
蔓延 到</w>
蒸 汽
蒙 大
萨 尔</w>
菲 特</w>
莫 过于</w>
莫 名
莫名 其妙</w>
莉 亚</w>
荒 芜</w>
茁 壮
茁壮 成长</w>
花 瓣</w>
艾 萨克</w>
良 知</w>
良 性</w>
致 癌</w>
自由 民主</w>
自我 感觉</w>
自尊 心</w>
自 画像</w>
自 助</w>
脑 组织</w>
股 价</w>
肌 肉
肉 瘤</w>
联系 人</w>
职 人员</w>
聊天 室</w>
老 太太</w>
翻 新</w>
翻 开</w>
美国 国防部</w>
罚 金</w>
网 路</w>
编 号</w>
绿 化</w>
绝 非</w>
给 定</w>
细胞 壁</w>
线 圈</w>
紧 张
素 描</w>
精 明</w>
粘 液</w>
粉 红</w>
简 宁</w>
第二 组</w>
第二 代</w>
第 十
第 六</w>
空 旷</w>
移 植
科 勒</w>
种族 主义者</w>
私营 部门</w>
社会 保障</w>
碳 酸
碳 原子</w>
着 急</w>
看 书</w>
相 左</w>
直 白</w>
白 蚁</w>
疏 离</w>
画 笔</w>
电子 化</w>
电子 书</w>
电 磁</w>
电 位</w>
申请 专利</w>
生 锈</w>
生 效</w>
甜 蜜</w>
瓷 砖</w>
理 工
珊 达</w>
环 顾</w>
猛 犸
猛犸 象</w>
狂犬 病毒</w>
牙 膏</w>
牌 照</w>
烤 面包
火 热</w>
灌 木
演 进</w>
漏 掉</w>
源 地</w>
混 混</w>
混 杂</w>
深 爱</w>
海 狸</w>
测 试者</w>
流感 疫苗</w>
流 亡</w>
波 纹</w>
沿 途</w>
沉 迷</w>
汽车 座椅</w>
水 体</w>
氦 气</w>
毫无 用处</w>
每 一</w>
残 渣</w>
残 杀</w>
死 神</w>
歌 剧院</w>
歉 意</w>
橡皮 泥</w>
楷 模</w>
椰 菜</w>
桌 边</w>
核 查</w>
柴 油</w>
柠 檬</w>
极 致</w>
松 鼠</w>
杰 西卡</w>
杰 特</w>
杜 尔曼</w>
权 限</w>
未 知
木 质</w>
望 去</w>
朋 克</w>
有 条</w>
有 句</w>
替 身</w>
暴 徒</w>
暖 和</w>
晶 片</w>
普 洛斯</w>
显 眼</w>
时 而</w>
旅 鸽</w>
整 洁</w>
整 晚</w>
整 体
数 十万</w>
敬 意</w>
改 为</w>
收件 箱</w>
支持 率</w>
搬 迁</w>
搞 清</w>
提 炼出</w>
提 姆</w>
推 到</w>
控制 杆</w>
控制 室</w>
控 告</w>
接 下去</w>
排 版</w>
挪 动</w>
挖 出</w>
拟 人化</w>
拉 美</w>
拉 拉</w>
拆 解</w>
投票 者</w>
所 受</w>
房 顶</w>
截 然</w>
战 区</w>
我 同</w>
成 绩
成 份</w>
感染 力</w>
愚 昧</w>
愚 弄</w>
想像 力</w>
悄悄 地</w>
悄 然</w>
恶 行</w>
恋 人</w>
快 进</w>
心力 衰竭</w>
德 雷
微 观世界</w>
徒 手</w>
彻 头
强 劲</w>
弗 雷德</w>
异 教徒</w>
开 着
并 排</w>
年 会</w>
平衡 点</w>
席 位</w>
帕 克</w>
布 公</w>
市场 份额</w>
工作 日</w>
尽 其
尼日 利亚人</w>
小 鸟</w>
小 说家</w>
寓 意</w>
密西西比 河</w>
宾 州</w>
宽 带</w>
家 门口</w>
室 内
实 不然</w>
定 居
它 用</w>
学 派</w>
季 候
季候 风</w>
媒体 报道</w>
婴 儿
威斯 康
威尔 逊</w>
契 机</w>
夺 回</w>
头 版</w>
夫 特</w>
太 迟</w>
天 王星</w>
天 气
天 下</w>
大开 眼界</w>
大学 教授</w>
大 黄蜂</w>
大 都市</w>
大 意</w>
大 屏幕</w>
大 便</w>
多 谢</w>
多 方面</w>
多 到</w>
塔 楼</w>
型 机</w>
坦 然</w>
坠 毁</w>
地 缘</w>
地 壳</w>
圆 环</w>
图 像
四 百</w>
四 年级</w>
四 分钟</w>
嗡 嗡
善 待</w>
周 二</w>
吸血 鬼</w>
听 取</w>
听 不见</w>
后 裔</w>
同 龄</w>
吉 奥</w>
合理 化</w>
右 转</w>
史 迪芬</w>
只 手</w>
口 水</w>
口 服</w>
口 器</w>
变 形
发言 人</w>
反应 器</w>
反 义词</w>
参 选</w>
压倒 性</w>
历史 长河</w>
危险 性</w>
卫 士</w>
卧 底</w>
博茨 瓦纳</w>
半 钟</w>
半 透明</w>
千 美元</w>
十七 世纪</w>
十 字</w>
劳 斯</w>
办公 桌</w>
剑桥 大学</w>
前 路</w>
前 台</w>
分析 师</w>
分 叉</w>
出生 地</w>
出 汗</w>
出 众</w>
出 产</w>
凯 瑟琳</w>
准 许</w>
决策 制定</w>
冲 浪
冰 上</w>
军 团</w>
内 膜</w>
其 实不然</w>
公共 部门</w>
公 关</w>
八 卦</w>
全 年</w>
免疫 力</w>
光 荣</w>
光 环</w>
光 点</w>
停 住</w>
做 错</w>
假 死</w>
假 使</w>
值 钱</w>
倒 数</w>
信息 量</w>
信 度</w>
保持 平衡</w>
保护 环境</w>
俚 语</w>
余 地</w>
何 等</w>
住 脚</w>
会 来</w>
伍 德</w>
任 由</w>
们 儿</w>
代 理人</w>
从 属</w>
交通 事故</w>
交 际</w>
五 角
五 年级</w>
亏 损</w>
二 次</w>
二 年级</w>
事 时</w>
争 议
乌拉 圭</w>
主 修</w>
中 层</w>
两 万</w>
丢 下</w>
世 贸
不 看</w>
上 画</w>
三 百
七 天</w>
一面 镜子</w>
一百 多年</w>
一大 笔钱</w>
一些 则</w>
一 环</w>
一 招</w>
一 九
u f
ri s
r i</w>
on a</w>
om e</w>
l a
it a</w>
ir i</w>
ion s</w>
i al</w>
er e</w>
ep f
ec t
e x
d it</w>
c ima</w>
av i</w>
at s
an b
am s</w>
Wolf ram</w>
Ver onica</w>
T ony</w>
Sc ott</w>
S l
M an
L ar
K an
H el
Glob al</w>
Fre e</w>
F er
F a
D aniel</w>
Char les</w>
C T
C O</w>
Bri an</w>
B O</w>
AI MS</w>
A S</w>
A L
20 19</w>
2 20</w>
19 18</w>
1 700</w>
龙 王</w>
鼓 点</w>
默 默</w>
高 无上</w>
高 性能</w>
驱 赶</w>
马基 雅</w>
马 上会</w>
颈 部</w>
领 带</w>
预 报</w>
预 感</w>
顺 其自然</w>
面 目</w>
雄 心</w>
隔 热</w>
随身 带</w>
随 即</w>
陶 醉</w>
附 属</w>
阿 特拉</w>
阿 片</w>
闪 耀</w>
长 途</w>
错 乱</w>
钻 研</w>
钢 丝</w>
重 温</w>
重 启</w>
重 写</w>
酝 酿</w>
配 送</w>
郁 闷</w>
遮 住</w>
遗 嘱</w>
逾 越</w>
造 价</w>
通 行</w>
通 行
迷 住</w>
迟 钝</w>
连 同</w>
边 际</w>
辩 解</w>
较 少</w>
轻 度</w>
轶 事</w>
轴 突</w>
轴 上</w>
轮 机</w>
身 亡</w>
身 临
身临 其
身临其 境</w>
跟 踪
越 长</w>
越 深</w>
超 速</w>
赞 赏</w>
负 鼠</w>
豪 华</w>
豌 豆</w>
谱 系</w>
读 读</w>
读 物</w>
诺 言</w>
请 愿</w>
说 教</w>
诡 计</w>
话 故事</w>
诚 布公</w>
诃 德</w>
许 多次</w>
记 录片</w>
讯 号</w>
警 醒</w>
警 觉</w>
警 务</w>
言 不
规 避</w>
见 惯</w>
要 条件</w>
表 面
补 救</w>
蟋 蟀</w>
蜘蛛 侠</w>
蕾 丝</w>
蕴 含着</w>
蓝 线</w>
蒙特 雷</w>
萦 绕</w>
莱 杰特</w>
莱 恩</w>
莱 姆</w>
花 椰菜</w>
节 制</w>
色 情
至 高无上</w>
臭 氧</w>
自杀 式</w>
自我 介绍</w>
自 以为
自以为 是</w>
腺 体</w>
脚 本</w>
脑 内</w>
脆 弱
肩 并肩</w>
聪 慧</w>
耳 环</w>
而 行</w>
而 至</w>
羊 群</w>
罗 素</w>
绵 羊</w>
绝 种</w>
纽约 大学</w>
纵 轴</w>
红 点</w>
红 十字
繁 琐</w>
精神 障碍</w>
精确 度</w>
粉 红色</w>
米 长</w>
米 亚</w>
管 控</w>
筹 到</w>
筹 划</w>
第一 部</w>
第一 家</w>
第 九
童 工</w>
立 方</w>
突 起</w>
称 职</w>
称 奇</w>
积极 性</w>
秘 钥</w>
科罗拉多 州</w>
科 学院</w>
私 立学校</w>
祝 你
碳 氢
碳氢 化合物</w>
确 立</w>
确 切
确切 的
确切的 说</w>
确 凿</w>
瞳 孔</w>
睡觉 时</w>
睡 不着</w>
睁 开</w>
着 眼</w>
真 空
看得 出来</w>
看 时</w>
相对 来说</w>
相关 者</w>
相 距</w>
相 聚</w>
相 提
相提 并
相提并 论</w>
盗 窃</w>
皮 带</w>
白 纸</w>
白 种人</w>
留 出</w>
田纳 西</w>
用 词</w>
生活 习惯</w>
理所 应当</w>
球 藻</w>
现 身</w>
现 任</w>
环 保
率 先</w>
猝 死</w>
独 角
狂 喜</w>
牵 扯</w>
熔 炉</w>
然 无
热 心</w>
烧 伤</w>
灵 巧</w>
演 化
漂 流</w>
滑翔 机</w>
温 床</w>
淋巴 结</w>
洞 里</w>
洗 礼</w>
洗 碗
波 音</w>
波 炉</w>
油 砂</w>
沦 为</w>
汽 水</w>
水 星</w>
氮 气</w>
毛 里
比 不上</w>
此 项</w>
此 以后</w>
次 于</w>
模 块
模块 化</w>
植入 物</w>
梳 理</w>
核 糖
核 弹头</w>
果 断</w>
极 管</w>
极 强</w>
机 舱</w>
月 底</w>
最 合适</w>
最 前沿</w>
曲 线图</w>
暴 躁</w>
暗 示
暗 杀</w>
晦 涩</w>
明 明</w>
日 裔</w>
无所 不在</w>
无 误</w>
无 序</w>
无 到
无到 有</w>
族 长</w>
方 框</w>
斯 洛
斯 大
敲 打</w>
教育 者</w>
教育 工作者</w>
攸 关</w>
收 录</w>
撒 旦</w>
摘 除</w>
插 画</w>
提 早</w>
推 开</w>
控制 系统</w>
捕 蝇
振 作
挪 威
挤 满</w>
挤 出</w>
挣 脱</w>
挑 出</w>
指 针</w>
挂 毯</w>
拉 夫</w>
抵 触</w>
报 废</w>
抢 走</w>
抢 发</w>
批 量</w>
执行 者</w>
托 管</w>
打 游戏</w>
打 死</w>
打 击
所 料</w>
房 产</w>
房 东</w>
我 爸</w>
我 教</w>
成 败</w>
慈 悯</w>
感觉 良好</w>
感 恩
感恩 节</w>
悬 念</w>
恶 意
恳 求</w>
恩 赐</w>
恢复 正常</w>
总统 大选</w>
性 高潮</w>
性 状</w>
忍 耐</w>
必 要性</w>
徽 章</w>
微 调</w>
微 波炉</w>
彻头 彻
彻头彻 尾</w>
强 奸
开着 车</w>
开 诚布公</w>
开 张</w>
平均 数</w>
帮 到</w>
帝国 大厦</w>
帖 子</w>
帕 斯卡</w>
市政 厅</w>
市 面上</w>
巴哈 马</w>
巨大 变化</w>
左 转</w>
小 马</w>
小 队</w>
小 溪</w>
小 房间</w>
小 册子</w>
小 伙</w>
对 数</w>
对 人</w>
寂 寞</w>
宽 泛</w>
家 畜</w>
客 户
存储 器</w>
妻 制</w>
奴隶 制度</w>
奥利 弗</w>
奥 妙</w>
奢 华</w>
奇 观</w>
头 皮</w>
失 灵</w>
天主 教徒</w>
大大 降低</w>
大 山</w>
大 堂</w>
多 点</w>
外交 家</w>
外 加</w>
处 处</w>
声 源</w>
塞 满</w>
塔 斯
堵 住</w>
堡 垒</w>
堂 吉
堂吉 诃德</w>
基本 原理</w>
垃圾 场</w>
垂 死</w>
坐 牢</w>
地方 性</w>
在 短期内</w>
圣 节</w>
土著 人</w>
固 化</w>
围 巾</w>
团 伙</w>
器 具</w>
喷 雾</w>
喷 涌</w>
哺 育</w>
响 亮</w>
哈 罗德</w>
命中 注定</w>
呼吸 机</w>
周 三</w>
吹 嘘</w>
启 齿</w>
启 用</w>
同 道
合 力</w>
可 贴</w>
可 图</w>
可 可</w>
可 信度</w>
叫 法</w>
古 董</w>
古 生物学家</w>
变 更</w>
受 挫</w>
受 害</w>
取 自</w>
发明 创造</w>
发 笑</w>
发 热</w>
反 之
反之 亦然</w>
去 处</w>
压 缩
卸 下</w>
卷 起</w>
却 会</w>
即 刻</w>
印度 语</w>
印 证</w>
卢 卡斯</w>
博士 后</w>
博 学</w>
十二 个</w>
十 八岁</w>
医 护</w>
医 务人员</w>
助 听器</w>
剧 中</w>
刻 薄</w>
制 衡</w>
制 药
制 冷</w>
利 他</w>
判 刑</w>
创 可贴</w>
刘 旭</w>
出 租</w>
出 台</w>
出 卖</w>
凭 直觉</w>
减 掉</w>
冷 水</w>
决定 权</w>
其 二</w>
关 在</w>
共 度</w>
公共 利益</w>
公 告</w>
克 里</w>
光 顾</w>
光 谱
光 在</w>
先 说</w>
先 后</w>
僵 化</w>
催 眠</w>
储 藏
健身 房</w>
偏 误</w>
借 贷</w>
供 养</w>
例 假</w>
作 风</w>
何时 何地</w>
低 价</w>
估 值</w>
传 感</w>
优 秀
伏 特</w>
伏 特
伎 俩</w>
从 无到有</w>
从 头</w>
仅 次于</w>
亿 次</w>
亿 元</w>
人口 数</w>
交 接</w>
五 点</w>
五 千万</w>
五 位</w>
二十 亿</w>
事 前</w>
争议 性</w>
乞 求</w>
主 旨</w>
中央 政府</w>
两 栖
丢 脸</w>
丝 雀</w>
不顾 一切</w>
不 配</w>
不 着
不 成</w>
不 忍
下 棋</w>
下 属</w>
上 花</w>
上 岸</w>
三 样</w>
万 英尺</w>
万 圣节</w>
一夫一 妻制</w>
一个 三维</w>
一丁 点</w>
一 半
一 千万</w>
y d
un g
u n</w>
u b</w>
st r
os h
or y</w>
or t
ol a</w>
m on
le n</w>
j a</w>
is s
f t</w>
e y
e a</w>
art h</w>
ar i</w>
al e</w>
ag a</w>
ac e
T ur
Sp e
S il
S am</w>
P e
P DF</w>
O li
N or
Mar k</w>
M u
M D</w>
M B</w>
L u
L T</w>
K h
K el
K S</w>
Jo e</w>
I R
I M</w>
I C</w>
Hyp er
G o
G B</w>
FO X
F C</w>
E arth</w>
D L</w>
CM U</w>
C P
Bo b</w>
B P</w>
Am y</w>
A g
197 2</w>
196 7</w>
19 20</w>
1 37</w>
默 斯</w>
鲜 血</w>
高 超</w>
驱 除</w>
马里 奥</w>
马 尾
香 草</w>
首 页</w>
饮 水</w>
餐 具</w>
飞 来
飞来 飞去</w>
风 琴</w>
颠 簸</w>
颖 而出</w>
领 会</w>
音 阶</w>
面 朝</w>
面 容</w>
非洲 地区</w>
霍 尔</w>
雪 茄</w>
雪 球</w>
难为 情</w>
陶 瓷</w>
阿茨 海默症</w>
阿 迪
阿 片
阿片 类</w>
阿 兹
防 晒
防晒 霜</w>
防 御
问 责
银 幕</w>
金 丝雀</w>
重新 分配</w>
重 聚</w>
重 度</w>
里 安</w>
那 根</w>
道 别</w>
造 林</w>
造 假</w>
通行 证</w>
通 讯
通 电</w>
逐 年</w>
透 视</w>
述 说</w>
迭 代</w>
这 花</w>
这 架</w>
近 在
过 夜</w>
辞 掉</w>
输 血</w>
输 掉</w>
辅 相
辅相 成</w>
较 长</w>
较 差</w>
车 主</w>
躯 干</w>
跨 学科</w>
跟 前</w>
跑 过来</w>
越 战</w>
超 强</w>
起 居室</w>
赶 走</w>
走 势</w>
赛 事</w>
贻 贝</w>
贪 污</w>
贝 蒂</w>
谋 面</w>
调查 员</w>
读 写
误 认为</w>
误 以为</w>
试 过</w>
诉 诸</w>
评 审</w>
访 问
触 手</w>
解 放
觉 悟</w>
视觉 艺术</w>
视 界</w>
被 叫</w>
被 关</w>
融 洽</w>
蜂 窝</w>
藏 身</w>
蒂 娜</w>
葫 芦</w>
落 于</w>
萨 达
菌 根</w>
荷 兰人</w>
药 监
药监 局</w>
苹果 电脑</w>
花 样</w>
节 俭</w>
艺 人</w>
舅 舅</w>
致 病</w>
致 力</w>
自 治</w>
自 制</w>
自 信心</w>
脱 颖而出</w>
脱 掉</w>
胶 质</w>
胡 安</w>
聚 居
联合 会</w>
联 觉</w>
职 务</w>
耶 稣
耗 资</w>
耐 力</w>
老 百姓</w>
老 家</w>
老 去</w>
美 女</w>
罪 恶
编 制</w>
绿 线</w>
绿 洲</w>
维 珍</w>
维 和</w>
续 集</w>
统 统</w>
绝 对
结 点</w>
经验 教训</w>
经 营
终 极
组 合成</w>
线 下</w>
纸 袋</w>
红十字 会</w>
红 色
繁 荣
系 团</w>
米 尔
管 它</w>
算 上</w>
简单 明了</w>
筹 资</w>
等级 制度</w>
等 不及</w>
第二 位</w>
第一 次世界大战</w>
空 见惯</w>
穷 困</w>
稀 薄</w>
积极 情绪</w>
租 金</w>
科罗拉 多</w>
科 恩</w>
祝你 好运</w>
社区 服务</w>
社交 活动</w>
碎 石</w>
破坏 力</w>
破 烂</w>
短 跑</w>
知 名
真人 秀</w>
真 谛</w>
真 假</w>
看 清楚</w>
相 通</w>
相 辅相成</w>
相 见</w>
盛 大</w>
盎 司</w>
皆 知</w>
的 人</w>
白 素贞</w>
白 种</w>
痴 呆症</w>
留 所</w>
留 存</w>
画 板</w>
画 成</w>
画 上</w>
电脑 前</w>
电 灯泡</w>
用 性</w>
用 具</w>
生态 学家</w>
生存 环境</w>
生 菜</w>
生 而
甜 美</w>
理 查</w>
珍 珠
现实 情况</w>
现 已</w>
玩 弄</w>
献 身</w>
猪 肉</w>
独 特性</w>
狂 人</w>
特里 娜</w>
物 质
父 辈</w>
爱 荷
焦 躁</w>
热 潮</w>
点 上</w>
炫 酷</w>
激进 分子</w>
演讲 人</w>
演 习</w>
满 满
满 月</w>
湿 度</w>
游牧 民族</w>
渡 过</w>
混 合
深 圳</w>
涉 水</w>
消 息
涂 层</w>
浓 厚</w>
洲 象</w>
波 克</w>
沃尔 特</w>
汉 姆</w>
求 救
求救 信号</w>
水 牛</w>
水 泥
水 手</w>
水 底</w>
毫不 犹豫</w>
比 重</w>
殖民 者</w>
残 缺</w>
死 板</w>
此 人</w>
正 经</w>
正 为</w>
款 项</w>
款 机</w>
欣 喜</w>
欢 喜</w>
橡 皮</w>
椭 圆形</w>
梦 中</w>
格 鲁
格 兰
根本 就是</w>
某 位</w>
杰 斯</w>
条 理</w>
杜 克</w>
朱 萨尼</w>
未 解</w>
木 卫
有 线
有 成效</w>
有 如</w>
最高 点</w>
最 贵</w>
更 多
暴 君</w>
暗示 着</w>
暖 气</w>
晚 年</w>
昵 称</w>
星 系团</w>
时 针</w>
时 态</w>
早 先</w>
日 程
日 夜</w>
无所 不能</w>
无 意
无 可</w>
施加 压力</w>
施 行</w>
新 冠</w>
断 定</w>
放 缓</w>
放 电</w>
改 建</w>
收 藏
操 场</w>
搭 载</w>
推 导</w>
接 通</w>
探险 者</w>
探索 者</w>
排 泄</w>
排 挤</w>
捐 助者</w>
捆 绑</w>
挥 手</w>
持 有者</w>
拘 留所</w>
拍 卖</w>
拉 特</w>
护 理
扩 增</w>
打字 机</w>
打 球</w>
打 孔</w>
打 喷嚏</w>
打 下</w>
才 华
手可 得</w>
手 斧</w>
截 至</w>
戈 尔
感 想</w>
愈 来
惨 痛</w>
情绪 化</w>
悲 观主义</w>
悔 恨</w>
恤 衫</w>
总 署</w>
总 体
怯 场</w>
性 格
快 门</w>
快 速
志 同道
志同道 合</w>
必 要条件</w>
心 室</w>
德 温</w>
德 勒</w>
形 文字</w>
录像 机</w>
归 结</w>
归 于</w>
强 制性</w>
康 德</w>
庄 严</w>
并 肩
平 安</w>
带 薪</w>
希 里</w>
希 波</w>
布 伦
巴 特勒</w>
巴 巴</w>
差 事</w>
工 序</w>
局 外人</w>
尾 部</w>
尼亚 大学</w>
尼 特</w>
少 许</w>
小 车</w>
小 提琴
封 电子邮件</w>
对 着</w>
密歇 根州</w>
密 苏里
寄 宿</w>
宽 松</w>
宣 战</w>
宛 如</w>
宗教 仪式</w>
完 好
宁 可</w>
孙 辈</w>
好 心</w>
好 不好</w>
女 声</w>
女 主角</w>
奥 普拉</w>
奋 力</w>
奇 幻</w>
夷 所思</w>
天 鹅</w>
大学 校园</w>
大 肠
大 法官</w>
大 块</w>
多 长</w>
声 调</w>
声 学</w>
增 添</w>
塔斯 马
堵 车</w>
堆 满</w>
基 准</w>
垃圾 邮件</w>
坐 标
坏 处</w>
坏 习惯</w>
圣 路易斯</w>
圣 殿</w>
土 重来</w>
图 解</w>
固 然</w>
因 州</w>
回 放</w>
四 分</w>
喷 气
啤 酒
哥 特</w>
咯 咯</w>
和平 共处</w>
吞 食</w>
名 气</w>
同 义词</w>
合成 器</w>
合 情
司 空见惯</w>
可 真</w>
可 恶</w>
受 访者</w>
发 送
发 到</w>
反 转</w>
双 螺旋</w>
双 性人</w>
原 虫</w>
厂 商</w>
卷 土重来</w>
卫生 系统</w>
卡 特里娜</w>
卑 鄙</w>
华 州</w>
半 天</w>
十 八
匪 夷所思</w>
化 验</w>
劳 动者</w>
劲 儿</w>
助 产
助产 士</w>
动 力
动 不动</w>
加 固</w>
加 利亚</w>
办 事</w>
办 事
前 瞻
创 客</w>
创 伤性</w>
分 泌
几百 人</w>
几何 学</w>
凝 固</w>
凉 爽</w>
冲 着</w>
冲 洗</w>
冥 王星</w>
军 用</w>
再 下</w>
关注 度</w>
共 和</w>
公 务员</w>
全部 都是</w>
全 意</w>
克鲁 斯</w>
先 入
儿童 医院</w>
倾 注</w>
借 来</w>
倒 入</w>
修 辞</w>
保 加利亚</w>
依 次</w>
住 户</w>
低 调</w>
低 语</w>
伽 罗
伸 出手</w>
伯 克</w>
伤 感</w>
传 真</w>
优先 级</w>
优 于</w>
伊斯 坦
令人 困惑</w>
代 币</w>
仅 用</w>
人 猿</w>
人 比</w>
人 格
人 到</w>
交互 作用</w>
亚 洲象</w>
五 十
五 件</w>
互 利</w>
二 极管</w>
书 架</w>
乘 着</w>
之 苦</w>
义 工</w>
串 联</w>
严 密</w>
两 百</w>
两 根</w>
两 极</w>
两 幅</w>
业 余
不断 扩大</w>
不得 了</w>
不 惜
不 值</w>
下 雪</w>
下 层</w>
下 场</w>
上 能</w>
三 分</w>
万 到</w>
一举 一动</w>
一 包</w>
一 具</w>
一 代代</w>
um b
u el</w>
st on</w>
sk y</w>
rat ch</w>
oo d</w>
k ins</w>
it z</w>
ir e</w>
in i</w>
in d</w>
ig ht</w>
i k</w>
i er</w>
es s
er ica</w>
en a</w>
c ym
c hat</w>
az a</w>
at t
ar re
a f</w>
W in
T a
T S</w>
St ep
Sp ace
S J</w>
Ro b</w>
R ay</w>
R avi</w>
R IS
P anb
O E
N ick</w>
M ich
L ou
K at
In t
I A</w>
H A
G o</w>
G irl
G al
Dav e</w>
DAR PA</w>
D ar
D G</w>
B R
Al an</w>
A V</w>
A K</w>
A BC</w>
6 500</w>
2 30</w>
197 1</w>
194 7</w>
1. 4</w>
鼻 孔</w>
默默 地</w>
鲍 鱼</w>
鲁 莽</w>
魔 化</w>
鬼 魂</w>
高 档</w>
高 得</w>
高 层次</w>
骨 子里</w>
驻 扎</w>
驱 者</w>
马里 兰州</w>
马 赫</w>
马 射线</w>
飞 速
飞 得</w>
预防 措施</w>
音 箱</w>
面包 师</w>
静静 地</w>
青 铜</w>
雅 克</w>
雄心 壮志</w>
除此 以外</w>
阿尔 茨
阿 联
阿联 酋</w>
防 线</w>
防 护
闪 现</w>
长 假</w>
铁 轨</w>
钱 财</w>
钢 筋</w>
重 于</w>
采 矿</w>
酸 性</w>
那 人</w>
遍 布
逼 近</w>
递 减</w>
逐 一</w>
选举 人</w>
追 求
迹 般地</w>
远 影响</w>
进 晚餐</w>
这 面</w>
这 股</w>
这 款</w>
这 挺</w>
运营 商</w>
辛 格</w>
转 入</w>
身 患</w>
身 一人</w>
蹒 跚</w>
足 球队</w>
越来越 近</w>
越 远</w>
起 立</w>
起 着</w>
负 重</w>
负 起</w>
贝 斯</w>
谱 写</w>
课 后</w>
诺 亚</w>
诱 使</w>
语 义</w>
记 起</w>
认知 失调</w>
认 识一下</w>
讣 告</w>
言 自
触 感</w>
角 色
觉 察
视觉 效果</w>
规划 者</w>
观 望</w>
西 装</w>
装 作</w>
裁 缝</w>
裁 决</w>
被 子</w>
衰 败</w>
表 观</w>
行 李
血 样</w>
蜡 笔</w>
蜂 后</w>
蓝 点</w>
蒙 太
萨达 姆</w>
萨 尔
菌 群</w>
莱 纳</w>
莫 大</w>
茫 然</w>
英 特网</w>
自主 性</w>
自 带</w>
自 始至终</w>
腐 败
脑 汁</w>
脆弱 性</w>
脂 质</w>
胜 者</w>
聚居 地</w>
职 工</w>
翻 过来</w>
翻 看</w>
羊 羔</w>
缺 损</w>
编 纂</w>
缅 因州</w>
绿 球藻</w>
维 克
结 节</w>
细 长</w>
细 微
线 型</w>
纳 税</w>
约 肌</w>
索 尼</w>
精 良</w>
精 卵</w>
精 力
粘 贴</w>
简 短
简短 地</w>
签 证</w>
等 同</w>
竭 力</w>
立法 者</w>
稀 奇</w>
移植 手术</w>
积 蓄</w>
租 赁</w>
秘 书</w>
科 德</w>
秋 季</w>
神 学</w>
神 像</w>
社会 福利</w>
社会 活动</w>
碳酸 钙</w>
石 斑
石斑 鱼</w>
真 诚地</w>
看 得出</w>
相似 性</w>
目的 性</w>
盗 取</w>
皮 特</w>
百万 吨</w>
百 岁</w>
癌 变</w>
病 历</w>
疟 原虫</w>
电 脉冲</w>
生育 率</w>
瓷 器</w>
瓦 克</w>
理 解
玻 利
猎 犬</w>
狂 躁</w>
特 许</w>
特 大城市</w>
牙 科</w>
片 面</w>
爬 树</w>
点 到</w>
炸 毁</w>
炸 掉</w>
灼 热</w>
灰 熊</w>
灯 塔</w>
火 鸡</w>
火 葬</w>
火 球</w>
漠 不
漠不 关心</w>
漂 移</w>
溶 液</w>
游 览</w>
游 者</w>
温 泉</w>
温 带</w>
深 远影响</w>
深 水</w>
深 切</w>
涌 向</w>
消 沉</w>
海岸 边</w>
洛 普</w>
泰 晤
泰 伊</w>
没 人
汗 水</w>
水 瓶</w>
水 温</w>
水 力</w>
气候 变迁</w>
每 人
母 牛</w>
死 地</w>
正 正</w>
歌 舞
格雷 格</w>
格 里</w>
格 纳</w>
根 尼</w>
核 实</w>
树 皮</w>
果 酱</w>
构 筑</w>
极端 分子</w>
极 点</w>
杰 森</w>
本 地人</w>
有利 可图</w>
暴 风</w>
暴 雨</w>
暗 淡</w>
普遍 认为</w>
明尼苏 达州</w>
时间 轴</w>
时 有</w>
既 往</w>
无神 论</w>
无可 避免</w>
无 足轻重</w>
无 机</w>
无 奈</w>
方 舟</w>
方 格</w>
新 词</w>
新 月
新 式</w>
斯蒂 夫</w>
斯特 拉</w>
斯大 林</w>
斯 敦</w>
斩 首</w>
文 主义</w>
整 座</w>
数据 量</w>
教 程</w>
放 过</w>
放 牧</w>
放 在
放 回</w>
改 装</w>
改 用</w>
撤 销</w>
摧 残</w>
掩 埋</w>
接受 者</w>
接 入</w>
捕蝇 草</w>
捕 鲸</w>
捐 出</w>
振作 起来</w>
指 认</w>
拿 下</w>
括 约肌</w>
拖 延
拍 卖
拉 萨</w>
抽 屉</w>
抹 杀</w>
投影 仪</w>
投 弹</w>
承担 风险</w>
扩 建</w>
托 拉</w>
打 工</w>
所罗 门</w>
截 取</w>
我 开</w>
成 千</w>
感 悟</w>
愈 烈</w>
情报 局</w>
恒温 器</w>
急 于</w>
怀疑 论者</w>
快 得多</w>
微 乎
微乎 其
微乎其 微</w>
弱 者</w>
弦 琴</w>
弗 格森</w>
延续 下去</w>
康 复
店 主</w>
底 座</w>
床 单</w>
幼 苗</w>
干 吗</w>
常 年</w>
带 去</w>
帕金 森</w>
帕 拉</w>
帆 布</w>
市场 化</w>
巴 里</w>
巴 菲特</w>
工 地</w>
岩 浆</w>
居 家</w>
尼克 松</w>
尤 为重要</w>
少数 民族</w>
小 盒子</w>
射 电</w>
密 谋</w>
寄 来</w>
家庭 主妇</w>
家 们</w>
宠 物
实际 行动</w>
实用 主义</w>
宝 贝
定 时</w>
定 做</w>
官僚 主义</w>
安第 斯山脉</w>
安 稳</w>
安 放</w>
学 年</w>
学 了</w>
婆 婆</w>
威士 忌</w>
妖 魔化</w>
妊 娠</w>
好 多
她 家</w>
奥斯 陆</w>
奇 迹般地</w>
天 分</w>
大 部份</w>
大 妈</w>
大 写</w>
多少 少</w>
多元 性</w>
多 远</w>
多 多少少</w>
多 半</w>
多 任务
多任务 处理</w>
外 来
夏 令
塞 斯</w>
堪 称</w>
基督 教徒</w>
基 亚</w>
型 号</w>
垂 体</w>
土卫 二</w>
土 壤
圆 盘</w>
圆 柱
图 拉</w>
国家 级</w>
四 十亿</w>
嘉 宾</w>
喧 嚣</w>
啮 齿
唾 手可得</w>
哈 利
吸 纳</w>
君 主
后 部</w>
后 备</w>
同 卵</w>
合情 合理</w>
合 在一起</w>
合 唱</w>
变 化
受 精卵</w>
取 名为</w>
发 炎</w>
反 叛</w>
又 会有</w>
原 点</w>
厄 运</w>
卫 者</w>
卢 比</w>
博 科</w>
南 希</w>
单 亲</w>
卑 微</w>
华盛顿 邮报</w>
升 空</w>
千千万 万</w>
千 克</w>
十分 复杂</w>
十二 年</w>
十 几年</w>
区 别
区别 对待</w>
化学 元素</w>
勒 姆</w>
勇 敢
努力 学习</w>
助 长</w>
加州 大学洛杉矶分校</w>
力 求</w>
剪 断</w>
前瞻 性</w>
刻 苦</w>
刺 绣</w>
刺 痛</w>
划 算</w>
划 水</w>
切 尔
分子 结构</w>
分 不清</w>
击 垮</w>
出 资</w>
出 场</w>
出 入</w>
况 且</w>
冠状 动脉</w>
农 户</w>
内 裤</w>
内 衣</w>
兼 顾</w>
关键 性</w>
六 百万</w>
公 车</w>
公 司
全心 全意</w>
全 面
克雷 格</w>
先 驱者</w>
先 看</w>
先 来</w>
僧 人</w>
信 使</w>
信 不疑</w>
保护 者</w>
侦 查</w>
例 行</w>
体 重
但 丁</w>
伽 马射线</w>
伴 奏</w>
传染 给</w>
传 输
传 回</w>
会计 师</w>
休息 室</w>
伊 莎
从 此以后</w>
今 天
产 下</w>
交互 式</w>
交 流
交 换
五角 大楼</w>
互 动性</w>
事 者</w>
予 以</w>
了 当</w>
习 得</w>
九 十</w>
之 意</w>
之 急</w>
中间 人</w>
中央 银行</w>
中 途</w>
中 观</w>
两 条
两 方</w>
丝 网</w>
东 边</w>
世贸 中心</w>
专 政</w>
与 其
不算 什么</w>
不可 否认</w>
不 如
不 利于</w>
上 路</w>
三 百</w>
万 象</w>
七 种</w>
一段 路</w>
一切 正常</w>
一 站</w>
一 月份</w>
一 曲</w>
一 年
一 加仑</w>
y ou</w>
um a</w>
ul l
ud din</w>
s s</w>
s i</w>
p l
or n</w>
o y</w>
m y</w>
iv a</w>
is uddin</w>
in c
h t
f re
et t</w>
d ie</w>
d i</w>
c ol
b ie</w>
at bo
ar ch</w>
Wor ld
Wat son</w>
V is
T ri
T er
Sm ith</w>
Siftab les</w>
Sc ratch</w>
Sar ah</w>
STE M</w>
S ud
S iri</w>
Ra isuddin</w>
R abb
Q u
Pro j
Panb anis
P C
O l
O L</w>
Ne il</w>
N y
L yn
K ath
Josep h</w>
John son</w>
J av
IC U</w>
I m
H A</w>
G 20</w>
E B</w>
D r
D C</w>
Cra ig</w>
CT E</w>
An g
A ED</w>
2 40</w>
196 6</w>
196 4</w>
196 2</w>
195 6</w>
194 9</w>
194 8</w>
19 29</w>
19 0</w>
- -
龙 卷
龙卷 风</w>
默 里</w>
黑 白
黑 手
黑手 党</w>
鲁 克</w>
鬣 狗</w>
高 龄</w>
高 铁</w>
高 价</w>
髋 关节</w>
驱 逐
马 尔</w>
首 批</w>
首 尔</w>
飞 奔</w>
预 设</w>
预 备</w>
顿 大学</w>
顾 及</w>
音 节</w>
音 器</w>
面包 店</w>
非营 利性</w>
需 求
雷 福斯</w>
零 碎</w>
集 结</w>
集 成
雅 虎</w>
难 闻</w>
难 点</w>
院 长</w>
院 里</w>
降 低成本</w>
防 万一</w>
问责 制</w>
长 满</w>
镇 定</w>
错误 观念</w>
锁 链</w>
铁 塔</w>
钟 摆</w>
金 矿</w>
金 刚</w>
里 森</w>
采 伐</w>
邮 局</w>
邮 寄</w>
那 首歌</w>
那 类</w>
那 家</w>
那 双</w>
遗 症</w>
道德 观</w>
远 去</w>
进 军</w>
这么 回事</w>
这 真</w>
这 帮</w>
过 头</w>
达 罗斯</w>
达 尔</w>
辜 负</w>
较 量</w>
车 间</w>
身 形</w>
超 负荷</w>
资本 家</w>
贫 乏</w>
负 罪
负罪 感</w>
贝 尔
贝 南</w>
象 牙</w>
象 牙
调 配</w>
读写 能力</w>
请 原谅</w>
说 是</w>
说 得
话 实
话实 说</w>
诚 信</w>
试 纸</w>
设计 方案</w>
警 报
解 说</w>
解 构</w>
角色 扮演</w>
角 线</w>
觉察 到</w>
西 里</w>
西 南部</w>
西 南</w>
褪 色</w>
装 扮</w>
裂 痕</w>
表演 艺术</w>
衣 着</w>
行 动
血 缘
血缘 关系</w>
蜂 类</w>
薄 片</w>
蓄 水</w>
菲 尔
菜 谱</w>
药 物
药 剂
药剂 师</w>
荒 凉</w>
草 甸</w>
茸 茸</w>
苗 条</w>
苔 藓</w>
苏 醒</w>
花 旗</w>
花 儿</w>
芝加哥 大学</w>
节约 能源</w>
色 调</w>
船 舶</w>
舰 队</w>
舞 步</w>
舍 弃</w>
自由 选择</w>
自由 式</w>
自 满</w>
腐 朽</w>
脏 话</w>
能源 危机</w>
胰 腺</w>
胜利 者</w>
胆 量</w>
肯塔 基
肯塔基 州</w>
肠 子</w>
肆 意</w>
联合国 儿童
联合国儿童 基金会</w>
联 赛</w>
聊 起</w>
而复 始</w>
翱 翔</w>
群 组</w>
群 居</w>
美联 储</w>
罪恶 感</w>
罐 头</w>
缴 纳</w>
绷 带</w>
绝 伦</w>
终极 目标</w>
细 心</w>
线 粒
线粒 体</w>
纸 牌</w>
纳 契</w>
紧 迫感</w>
糖 浆</w>
粹 主义</w>
类 地
类地 行星</w>
篡 改</w>
箴 言</w>
简 明</w>
签 字</w>
第一 手</w>
第一 座</w>
第 七</w>
童 子
童子 军</w>
积 聚</w>
神 情</w>
磁 盘</w>
碳 纳米管</w>
碰 面</w>
碰 触</w>
石灰 岩</w>
短 篇</w>
看 透</w>
相 交</w>
白 眼</w>
白 日
登 顶</w>
电视 频道</w>
电 信
甲壳 虫</w>
用 量</w>
生物 进化</w>
生物 化学</w>
生 下</w>
甜 点</w>
瑞 斯</w>
瑞 恩</w>
琳 娜</w>
球 形</w>
珠 峰</w>
环境 影响</w>
王 蛇</w>
猎 食</w>
独角 兽</w>
狂 野</w>
犯罪 者</w>
牺 牲
牵 涉</w>
物理 现象</w>
版权 保护</w>
版 图</w>
照 耀</w>
热 狗</w>
激 励
澎 湃</w>
潜 质</w>
漫 游者</w>
演 愈烈</w>
满 满</w>
源 性</w>
湍 流</w>
渔 网</w>
渔 夫</w>
深 色</w>
深 厚</w>
消防 栓</w>
浸 泡</w>
海 星</w>
浮 冰</w>
测 算</w>
派 克</w>
活 跃
洗 钱</w>
洗 衣</w>
波 纳契</w>
法 子</w>
法 制</w>
油 价</w>
沉 淀</w>
污 垢</w>
汉 语</w>
求 生</w>
求 斯</w>
求 学</w>
永 无止境</w>
水 壶</w>
民 意</w>
毛里 求斯</w>
毛 茸茸</w>
比较 简单</w>
毒 贩</w>
每 样</w>
每 一
死 人</w>
武装 冲突</w>
此 基础</w>
正确 率</w>
止 一次</w>
欲 坠</w>
欢 快</w>
欢 庆</w>
楼 层</w>
楼 上</w>
梦 幻</w>
格 拉</w>
根 儿</w>
核糖 核酸</w>
校 准</w>
某 物</w>
极 快</w>
极 富</w>
松 散</w>
松 开</w>
杰 米</w>
朱 莉</w>
有线 电视</w>
最终 目标</w>
更 生</w>
更 是如此</w>
普 世</w>
星期 二</w>
星 云</w>
明 翰</w>
时 长</w>
时 装
旱 灾</w>
早 早</w>
日常 用品</w>
日 照</w>
日 全食</w>
无法 自拔</w>
无意 间</w>
无 际</w>
新 大陆</w>
斯 德
文 森</w>
数码 相机</w>
散 开</w>
教 养</w>
救 药</w>
放 上去</w>
收银 员</w>
摸 摸</w>
摩 斯</w>
摇摇 欲坠</w>
摇 头</w>
摇 动</w>
搬 家</w>
搅 拌</w>
插 曲</w>
接 生</w>
掉 落</w>
换 位</w>
捡 起来</w>
指挥 家</w>
指 掌</w>
拖 拉
拖拉 机</w>
拐 杖</w>
拍 拍</w>
拉 贾
拉 蒙</w>
拆 卸</w>
抹 掉</w>
披 头
抢 救</w>
抛 出</w>
抚 摸</w>
抚 慰</w>
投 篮</w>
戴 维斯</w>
戴 安娜</w>
战 略
战 地</w>
我 越</w>
我 带</w>
慢 速</w>
愿 违</w>
愈 演愈烈</w>
想像 成</w>
想 当然</w>
惨 不忍
惨不忍 睹</w>
惊 醒</w>
惊 叹
情 商</w>
情 不自
恰 到
恰到 好处</w>
总 额</w>
怀 揣</w>
当代 艺术</w>
当 着</w>
当 晚</w>
当 上</w>
归结 为</w>
强 权</w>
弹 射</w>
弗里 德曼</w>
弗 莱
建筑 工人</w>
建 在</w>
延 时</w>
度 日</w>
废 气</w>
应 是</w>
幸 免</w>
并肩 作战</w>
并 会</w>
并 不多</w>
平 淡</w>
平 地</w>
带 子</w>
带 你
带你 去</w>
帕金森 症</w>
帐 户</w>
希腊 语</w>
布鲁 塞尔</w>
布 雷</w>
布 雷
布 里</w>
布 林</w>
巴拉 维</w>
左 右
崩 盘</w>
崇 尚</w>
山 脊</w>
屠 宰
屠宰 场</w>
展 览
展 性</w>
屏 气</w>
层 出
层出 不
层出不 穷</w>
尔 茨</w>
尔 伯特</w>
导 员</w>
对 角线</w>
宽 阔</w>
容 许</w>
家 时</w>
实 话实说</w>
安 静下来</w>
安 哥
守 则</w>
学术 期刊</w>
学 童</w>
子 星</w>
婆 罗</w>
威 利</w>
委 婉</w>
如 既往</w>
如 其
好 用</w>
好 意</w>
奥 陌</w>
奔 走</w>
契 尼</w>
奋 战</w>
奇 思
头 儿</w>
失 衡</w>
太空 飞行</w>
太 热</w>
大 有</w>
大 哭</w>
大 写字母</w>
夜 店</w>
外 号</w>
夏令 营</w>
复杂 度</w>
处 女
墨西哥 州</w>
填 饱</w>
塞尔 吉奥</w>
塞 罗</w>
塞 缪尔</w>
基 准
埃 克</w>
垃圾 箱</w>
因 数</w>
回 望</w>
回 国</w>
噬 细胞</w>
喷 气</w>
喝 醉</w>
善 款</w>
商业 活动</w>
唠 叨</w>
哺 乳</w>
哲 学
哪些 地方</w>
哪 条</w>
哥 们儿</w>
哈 莱姆</w>
周 而复始</w>
吵 闹</w>
启 程</w>
听 不懂</w>
后 遗症</w>
同 种</w>
合 众
合众 国</w>
可 食用</w>
可 耻</w>
可 变</w>
只 管</w>
另 类</w>
古 城</w>
受 人</w>
受 不了</w>
取得 胜利</w>
发 射器</w>
双 重
印 地
卡罗 尔</w>
卡 斯特</w>
卡 什</w>
单 人</w>
协 同
华 氏</w>
半 生</w>
升 降</w>
十 亿美元</w>
十 五分钟</w>
北 爱尔兰</w>
勤 工作</w>
劳 累</w>
动 感</w>
动 乱</w>
务 实</w>
加尔 各
加 利</w>
前 门</w>
前 辈</w>
刺 激
判断 力</w>
创造 财富</w>
切 身</w>
切 斯特</w>
切 割
分 区</w>
出 没</w>
出 国</w>
出 一
出一 辙</w>
凶 杀</w>
几 项</w>
几 近</w>
冷 静下来</w>
决 议</w>
冰 激
内 阁</w>
内 燃
内 尔</w>
共同 利益</w>
共 感</w>
六 倍</w>
入 院</w>
入 住</w>
充分 发挥</w>
储 存
做 广告</w>
做 作业</w>
做 主</w>
假 日</w>
信息 时代</w>
保守 党</w>
供 水</w>
佛 教徒</w>
佐 证</w>
位 子</w>
伽罗 瓦</w>
伽 玛</w>
伸 进</w>
伴 着</w>
伴 有</w>
优 越
众 筹</w>
伊斯坦 布尔</w>
以 防万一</w>
令人 满意</w>
令人 厌恶</w>
亿 倍</w>
人文 主义</w>
人口 总数</w>
人 里</w>
人 症</w>
亲 节</w>
产品 设计</w>
产 后</w>
交 点</w>
交 涉</w>
五 分</w>
互 不</w>
于 心</w>
事 与
事与 愿违</w>
了 婚</w>
书 页</w>
习惯 性</w>
乘 飞机</w>
乘 法</w>
乔治 亚州</w>
乐 子</w>
之 爱</w>
之 灾</w>
之 母</w>
之 光</w>
举 荐</w>
主 题
中央 公园</w>
中 说</w>
中 用</w>
中 止</w>
中 所</w>
两 部</w>
两 代</w>
两 三年</w>
两 三个</w>
世界 冠军</w>
不断 进步</w>
不堪 重负</w>
不 止一次</w>
不 快</w>
下 丘脑</w>
上 报</w>
上 尉</w>
上 任</w>
三 只</w>
一小 片</w>
一千 倍</w>
一万 亿</w>
一 贯</w>
一 袋</w>
一 碗</w>
一 层层</w>
一 如既往</w>
一 大部分</w>
一 国</w>
一 叠</w>
一 动不动</w>
一 击</w>
一 体化</w>
v er
un t
uli ko</w>
u g</w>
ri g
pp m</w>
ou t</w>
oo p</w>
og o</w>
o v</w>
o ch
n i</w>
l ing</w>
l and</w>
it ch</w>
is e</w>
il e</w>
ev in</w>
e en</w>
b i
b e</w>
ast ian</w>
ap p</w>
ab al
a in</w>
W omen</w>
T HC</w>
Space X</w>
Snap chat</w>
S L</w>
R G</w>
Ph ot
N P</w>
N M</w>
M ill
M ac
M W</w>
M G</w>
L or
L ab</w>
K n
J enn
I M
He al
H G</w>
H 5
H5 N1</w>
G G</w>
F ri
F L</w>
D re
CP U</w>
C ol
C P</w>
C L</w>
Br on
B re
B on
A sh
A D
7 .5</w>
5 0000</w>
3 65</w>
3 500</w>
198 1</w>
197 7</w>
196 3</w>
195 3</w>
1 2000</w>
0. 2</w>
麻 风
麻 省</w>
鱼 肉</w>
高 浓度</w>
高 楼</w>
高 层
高 到</w>
骨髓 移植</w>
骨 盆</w>
验 证
验证 码</w>
马 力</w>
马 利</w>
香 皂</w>
香 气</w>
食 肉</w>
食 性</w>
风 靡</w>
领 略</w>
顺 畅</w>
音乐 节</w>
音乐 学院</w>
非 线性</w>
非 国家</w>
非 传统</w>
集 束
集束 炸弹</w>
雅 人</w>
雄 甘地</w>
难 熬</w>
阿肯 色
阿肯色 州</w>
阿尔 法</w>
阿富 汗
阿富汗 人</w>
阿 格</w>
阴 谋
阀 门</w>
问 答</w>
问 得</w>
问 卷
问卷 调查</w>
问 候</w>
长期 性</w>
长 矛</w>
长 处</w>
镰 状</w>
锦 标
锦标 赛</w>
铺 设</w>
铁 丝网</w>
野 性</w>
重大 突破</w>
重 述</w>
里 人</w>
邮 编</w>
邦 德</w>
遮 挡</w>
遨 游</w>
道 菜</w>
通 力
透明 性</w>
逃 生</w>
违 规</w>
进 口
这 会儿</w>
这 两项</w>
这 两点</w>
运动 神经元</w>
过 大</w>
达 克</w>
辩 护
辛 普森</w>
辐 射
载 人</w>
轴 线</w>
轮 班</w>
转 盘</w>
车 臣</w>
车 牌</w>
车 流</w>
身心 健康</w>
身体 语言</w>
躁 郁症</w>
跨 越
超级 大国</w>
起 家</w>
起 先</w>
赞助 商</w>
资料 库</w>
贾 德</w>
贫困 人口</w>
质 心</w>
财政 部</w>
谜 语</w>
调 子</w>
诺 斯</w>
说 好</w>
诧 异</w>
译 成</w>
证 件</w>
设 在</w>
讨 人
譬 如说</w>
触 犯</w>
解决 不了</w>
觉 察</w>
视 率</w>
规 格</w>
西 娅</w>
裂 谷</w>
衰 减</w>
表现 力</w>
表 上</w>
衣 柜</w>
衍 生
血 型</w>
虹 膜</w>
虚 伪</w>
蒸汽 机</w>
蒂 县</w>
蒂 亚</w>
董 事</w>
萨 斯</w>
萨 克
萦 绕
萦绕 在</w>
营 利性</w>
萌 芽</w>
菲尔 铁塔</w>
菲 斯</w>
菲 勒</w>
莫 桑
莫桑 比克</w>
莫 名</w>
荒 漠化</w>
苹果 派</w>
英雄 主义</w>
艾米 丽</w>
艾 玛</w>
艾 凡</w>
艺术 馆</w>
艺术 展</w>
色 彩
舒 尔茨</w>
自我 实现</w>
自 责</w>
自 助
腹 腔
腹腔 镜</w>
脑 癌</w>
能源 需求</w>
胡 安娜</w>
胃 口</w>
肺 里</w>
肺 病</w>
联 手</w>
职 工作</w>
聋 哑</w>
而 起</w>
而 异</w>
考古 学</w>
老 奶奶</w>
羚 羊</w>
美国国家 航空航天局</w>
美国 士兵</w>
置 之不
罗 杰斯</w>
罗 密
罗密 欧</w>
罗 万象</w>
网 友</w>
维 特</w>
绞 尽
绞尽 脑汁</w>
绝 不能</w>
绕 开</w>
结 婚
纹 状体</w>
红 毛</w>
纠 纷</w>
索 托</w>
糕 点</w>
精心 设计</w>
米 饭</w>
第四 点</w>
第二 层</w>
第 欧
第欧 根尼</w>
突 发
突 击</w>
空 壳</w>
穷 国</w>
稍 作</w>
移 开</w>
称 做</w>
福 林</w>
票 数</w>
社会 群体</w>
礼 服</w>
示 录</w>
碧 昂
矿 场</w>
石 化</w>
瞬 即逝</w>
睾 丸
眼 罩</w>
看不 出来</w>
盏 灯</w>
的 开始</w>
登 记
登 山</w>
病 理</w>
略 有不同</w>
界 处</w>
畅 想</w>
画 图</w>
电影 节</w>
电 筒</w>
电 气</w>
电 机</w>
用 水量</w>
用 地</w>
生物 钟</w>
生 灵</w>
瑞典 人</w>
珠 子</w>
玻璃 杯</w>
玻利 维亚</w>
现代 科技</w>
现 时</w>
猛 然</w>
猎 者</w>
狭 义</w>
特 雷
爸 妈</w>
父 母亲</w>
爆炸 性</w>
爆 裂</w>
燃 起</w>
熔 化</w>
热 病</w>
烤 面包</w>
灌木 丛</w>
滥 用
溺 水</w>
温 馨</w>
深 空</w>
涵 义</w>
涨 落</w>
涡 轮机</w>
涌 出</w>
海 滨</w>
海 床</w>
浇 水</w>
流浪 者</w>
流 水
派 别</w>
洛 伦</w>
泡 泡
治 病</w>
油 脂</w>
没 准</w>
污 名</w>
求 救</w>
求 婚</w>
求 助于</w>
永 远
毛细 血管</w>
毛 虫</w>
每 户</w>
每 家</w>
母 亲节</w>
歪 曲</w>
歧 途</w>
此 种</w>
正 站</w>
正 比</w>
歌舞 伎</w>
橙 子</w>
橘 色</w>
横 溢</w>
模 式
棕榈 油</w>
棒 子</w>
检 索</w>
档案 馆</w>
桌 布</w>
样 板</w>
校 友</w>
标 杆</w>
查 员</w>
林 业</w>
极 易</w>
松 树</w>
松 动</w>
条 框框</w>
条 条框框</w>
条 形
杏 仁</w>
杂 着</w>
杀人 犯</w>
本 齐</w>
本 职工作</w>
本 体</w>
本 世纪末</w>
朗 读</w>
朋 友
有生 以来</w>
有 别
有别 于</w>
最高 峰</w>
最高 层</w>
最 出色</w>
更 远</w>
暴 者</w>
暗 网</w>
智 人</w>
晶 状体</w>
普鲁 斯特</w>
普 罗
晚 安</w>
晚 会</w>
易 怒</w>
昏 暗</w>
昏 昏
明尼苏 达</w>
明 确
明 智
明 晰</w>
时 尚
时 俱
时俱 进</w>
早 前</w>
无论 怎样</w>
无 处</w>
无 动
无动 于
无动于 衷</w>
施 暴者</w>
新闻 界</w>
新 罕
新 墨西哥州</w>
新 增</w>
新 兴
斯 蒂</w>
斯 山</w>
斯 多
斯 堪
斗 篷</w>
整 栋</w>
整 夜</w>
敬 佩</w>
教育 领域</w>
教 派</w>
救 活</w>
放 疗</w>
收藏 家</w>
收入 水平</w>
收 视率</w>
收 据</w>
播 客</w>
摩 根</w>
搞 懂</w>
插 进</w>
提 出
推 倒</w>
接 过</w>
探 视</w>
换 种</w>
捕鱼 业</w>
挺 不错</w>
持续 时间</w>
拒 之
拒之 门外</w>
拉 拉
抗 癌</w>
抓 到</w>
找 人</w>
扩 充</w>
打 量</w>
打 理</w>
打 了个</w>
扑 灭</w>
才华 横溢</w>
手 握</w>
房 门</w>
战 时</w>
我 照</w>
憎 恶</w>
意大利 语</w>
想 起来</w>
想 必</w>
想 天
想天 开</w>
情不自 禁</w>
恶性 肿瘤</w>
总 说</w>
怪 胎</w>
急 迫</w>
快 餐
快 照</w>
忠 告</w>
心肌 细胞</w>
心 胸</w>
微 处理器</w>
得 其
得 克萨
徒 步
彼 岸</w>
影 院</w>
录 音机</w>
弹 拨</w>
引 述</w>
引 起
弊 端</w>
异 想天开</w>
开 拓
开 工</w>
开 学</w>
应 变</w>
庄 园</w>
广告 商</w>
广 岛</w>
年 少</w>
常 有</w>
帮 人</w>
帝 保佑</w>
帕 克斯</w>
希 尔</w>
布 洛
巴西 人</w>
巴 蒂</w>
巨 浪</w>
工业 界</w>
崎 岖</w>
峭 壁</w>
山 地</w>
尼 诺</w>
尼 莱坞</w>
尝 到</w>
尔 本</w>
尔 摩</w>
少 有</w>
小 脑</w>
小 伙伴</w>
小 企业</w>
导 航
对 岸</w>
家庭 收入</w>
家 后</w>
完全 一致</w>
安哥 拉</w>
安 诺</w>
安 乐
孤 身一人</w>
存 有</w>
存 入</w>
娱乐 性</w>
威 特</w>
姓 氏</w>
妇 女
如 出一辙</w>
好 的开始</w>
女性 朋友</w>
奥 特</w>
奥 德
奥 多</w>
奖 者</w>
夫 卡</w>
太 多
天文 台</w>
天 候</w>
大 有
大 得</w>
大 哥</w>
多 花</w>
多 活</w>
多 发性</w>
外 骨骼</w>
外 包</w>
夏洛 特</w>
复杂 程度</w>
复 健</w>
处 跑</w>
墨 尔本</w>
增 殖</w>
塔 克</w>
基 线</w>
坚 定
坐 落于</w>
地理 学</w>
在 实践
圣 雄甘地</w>
围 观</w>
园 区</w>
回顾 过去</w>
回 想起来</w>
回 击</w>
四 到</w>
四 分
喜马拉 雅</w>
善 用</w>
哨 兵</w>
哈佛 商学院</w>
哈 特</w>
哀 悼</w>
呼 出</w>
告 终</w>
否 决</w>
后 会</w>
名 副
名副 其实</w>
司法 部</w>
可 达</w>
可 循</w>
另一 家</w>
另 一名</w>
叛 军</w>
变 慢</w>
受 限</w>
受 训</w>
反 射
压 根儿</w>
卡 夫卡</w>
博 弈
博 布</w>
博 尼卡</w>
博 尔德</w>
博 主</w>
半 部</w>
千 万年</w>
十八 世纪</w>
医疗 保障</w>
包 罗万象</w>
勃 起</w>
动画 片</w>
动物 界</w>
动 手术</w>
加尔各 答</w>
加 密
副 武装</w>
前 夜</w>
刺 耳</w>
制 图</w>
到 处跑</w>
利 店</w>
删 掉</w>
创新 能力</w>
列 夫</w>
分 级</w>
分 类
分 层</w>
出 钱</w>
凶 猛</w>
凯 奇</w>
凡 响</w>
凡 事</w>
几 万</w>
凌 乱</w>
准备 就绪</w>
农业 部</w>
军 校</w>
写 书</w>
再次 发生</w>
再 造</w>
内 化</w>
养 殖
养 料</w>
关联 词</w>
共 情</w>
六 边形</w>
公 用</w>
八 点</w>
全 副武装</w>
入 门</w>
入 境</w>
克拉 底</w>
光 污染</w>
先 令</w>
兄 妹</w>
元 音</w>
催 化</w>
傍 晚</w>
停 止
停 工</w>
偏 偏</w>
假 笑</w>
假 发</w>
假 冒</w>
借 着</w>
倍 增</w>
信号 灯</w>
信 教</w>
保留 地</w>
保持 稳定</w>
便 利店</w>
侵 权</w>
侵 占</w>
体 操</w>
住 进</w>
伯 蒂县</w>
伯 明翰</w>
伦 萨</w>
伦 敦
传 言</w>
会 得</w>
伙 伴
众 包</w>
价值 链</w>
令人 称奇</w>
付 不起</w>
仅 为</w>
人 脉</w>
人 物
人 机</w>
人 情
人 学</w>
人 写</w>
享 乐</w>
交通 堵塞</w>
交 界处</w>
亚 裔</w>
互相 联系</w>
互相 帮助</w>
互相 合作</w>
二十 万</w>
事 业
乒乓 球</w>
举 足轻重</w>
为 啥</w>
丹 尼斯</w>
中 餐馆</w>
中 生
中 枢
中 奖</w>
中 共</w>
东 德</w>
专业 训练</w>
与 时俱进</w>
不同 点</w>
不 需</w>
不 单是</w>
下 颚</w>
下 决心</w>
下 一
下一 阶段</w>
上 限</w>
上 帝保佑</w>
上 前</w>
上 一年</w>
三十 岁</w>
三 张</w>
万 公里</w>
万 倍</w>
一般 而言</w>
一百 倍</w>
一 聊</w>
一 票</w>
一 瞥</w>
一 百万倍</w>
一 格</w>
x ing</w>
um p</w>
t on
t e</w>
st ein</w>
s t</w>
r yn</w>
oc k
o y
li e</w>
le o</w>
l an</w>
i um</w>
ew art</w>
ev er
eb astian</w>
cym at
c om
b or
as s</w>
as k
ard o</w>
ar ter</w>
abal aza</w>
Zip car</w>
V V</w>
T alk</w>
Step hen</w>
Spe ech</w>
S up
S ebastian</w>
RIS D</w>
R on</w>
R ick</w>
Pi x
Panbanis ha</w>
Nic ole</w>
M ur
L G</w>
K ick
I P</w>
I DE
HA L</w>
H en
H T</w>
G ary</w>
G ab
FOX O</w>
F o
F i</w>
D T</w>
Cas 9</w>
Car l
Bron x</w>
Bo y
B ab
Ar t</w>
A G
6 9</w>
6 50</w>
4 500</w>
19 17</w>
鼓 吹</w>
黑 色素</w>
黑 线</w>
鹦 鹉</w>
魔 幻</w>
高 雅</w>
高 能量</w>
高 盛</w>
高 楼
高楼 大厦</w>
高 校</w>
高 产</w>
骨 牌</w>
骇 人听闻</w>
骄 傲
驯 化</w>
马斯 洛</w>
马克 笔</w>
马 龙</w>
马 赛</w>
饮 酒</w>
食 材</w>
风 景
顺 利
顶 替</w>
面包 车</w>
非 法
需求 量</w>
零 零</w>
零 零
集体 行动</w>
集 聚</w>
集 权</w>
随机 性</w>
随 手</w>
陨 石
陨石 坑</w>
阿尔 文</w>
阿尔 戈</w>
阿 特
阴 阳</w>
防 水</w>
间歇 泉</w>
闪 闪</w>
长 大
错误 信息</w>
销 员</w>
铁 矿</w>
钩 子</w>
量 产</w>
里 昂</w>
里 亚
醒 悟</w>
酬 劳</w>
配 额</w>
郑 重</w>
邻居 家</w>
那 件</w>
道 题</w>
逼 供</w>
通力 合作</w>
透 顶</w>
选 美</w>
逆 者</w>
适 感</w>
退 货</w>
退 步</w>
迪 恩</w>
进 度
进度 条</w>
这 道</w>
这 束</w>
这 则</w>
这 代人</w>
这 一
近 十年</w>
近 似</w>
迎 刃
迎刃 而
迎刃而 解</w>
迅 猛</w>
辨 认出</w>
辛 西娅</w>
辛 勤工作</w>
轻 声</w>
转 瞬即逝</w>
车 窗</w>
躲 开</w>
踩 踏</w>
跳 入</w>
跳 下去</w>
越南 战争</w>
越 多
超 音速</w>
赶 来</w>
赤 字</w>
赞 颂</w>
贸 市场</w>
贱 民</w>
贯 注</w>
贩卖 机</w>
贩 子</w>
货 机</w>
贝 类</w>
象 是</w>
象 形文字</w>
谨 记</w>
谊 舞</w>
调查 结果</w>
诺贝 利</w>
诺 基亚</w>
诺 依
诺依 曼</w>
说 明
说 八
说八 道</w>
语言 学</w>
试 一次</w>
记 着</w>
认 同感</w>
警 卫
詹 姆
解 救
解救 出来</w>
见 不
见不 鲜</w>
要 长</w>
要 钱</w>
西 弗吉尼亚州</w>
装 修</w>
表 盘</w>
表 决</w>
街 日报</w>
螺 丝
藩 市</w>
葡萄牙 语</w>
著 称</w>
营 救</w>
营 业
莫 测</w>
荷 兰语</w>
英 特尔</w>
芭 比
芭比 娃娃</w>
节 律</w>
艾 比</w>
艾 斯
艾 尔</w>
艾 利斯</w>
艺术 史</w>
航 道</w>
脚 手
脚手 架</w>
能 靠</w>
胡 说八道</w>
背 诵</w>
胆 怯</w>
肿 瘤
肖 像
老 妈</w>
老 公</w>
耀 斑</w>
翻 过</w>
群 中</w>
美 是</w>
置 身</w>
罗 纳德</w>
网络 空间</w>
网络 游戏</w>
缓 刑</w>
维 纳斯</w>
结 成</w>
结 交</w>
结 了婚</w>
经常 出现</w>
细微 差别</w>
纸 箱</w>
纳 维亚</w>
约翰 内
约翰内 斯堡</w>
纤 毛</w>
红色 高棉</w>
累 累</w>
索 引</w>
系统 化</w>
糊 糊</w>
精神 科</w>
精神 状态</w>
算 得</w>
策 展</w>
筋疲力 尽</w>
等 位
等位 基因</w>
等 价</w>
第三 代</w>
第 八</w>
笔 迹</w>
立 志</w>
窥 探</w>
突 袭</w>
突 击
穆 苏</w>
穆 巴拉克</w>
稠 密</w>
积 攒</w>
租 用</w>
科研 人员</w>
私营 企业</w>
禁 毒</w>
神 贯注</w>
社会 阶层</w>
社会 科学家</w>
社会 工作者</w>
社交 生活</w>
礼 仪</w>
硕 大</w>
石 碑</w>
石 场</w>
短 小</w>
眩 晕</w>
看 不清</w>
直 奔</w>
盖 洛普</w>
监管 者</w>
皮肤 科</w>
皮 埃尔</w>
的 纳维亚</w>
白日 梦</w>
病毒 传播</w>
疏 忽</w>
电话 簿</w>
电力 供应</w>
申 明</w>
生物 降解</w>
生 成
生成 器</w>
班 里</w>
珍 爱</w>
环境 污染</w>
玉米 片</w>
猿 人</w>
猜 到</w>
狼 藉</w>
独 奏</w>
狒 狒</w>
犹 豫
犯罪 行为</w>
特蕾 西</w>
牛 粪</w>
爱国 者</w>
爆炸 声</w>
然大 悟</w>
烤面包 机</w>
烙 印</w>
烈 地</w>
点 半</w>
炮 弹</w>
火山 口</w>
火 人节</w>
滴 答
满怀 希望</w>
满 载</w>
满 脑子</w>
湿 润</w>
渔 村</w>
渐 冻</w>
清 澈</w>
混 合体</w>
深 吸</w>
深 信不疑</w>
消化 系统</w>
涂 料</w>
涂 上</w>
海 狗</w>
流水 线</w>
流 氓</w>
活 性
活 塞</w>
洛克 菲勒</w>
波 段</w>
波 尔</w>
法 兰
治 疗法</w>
油 门</w>
油 滴</w>
河 谷</w>
河 床</w>
没 多久</w>
沟 通
沃 尔</w>
汤 安诺</w>
永 续</w>
水 在</w>
毫 克</w>
段 落</w>
残 害</w>
残 余</w>
武 断</w>
武 器
正 相反</w>
正 传</w>
正 中间</w>
欲 睡</w>
欧几里 得</w>
欣 然
横 轴</w>
模 具</w>
椰 子</w>
植 株</w>
标 牌</w>
查 明</w>
某 地</w>
果 汁</w>
板 车</w>
松 饼</w>
杂 草</w>
机 会
朵 夫</w>
木卫 二</w>
期 望
期望 值</w>
朝 一日</w>
服务 业</w>
服 装
有多 远</w>
有 空</w>
有 朝一日</w>
有 无</w>
有 件</w>
有 事</w>
最 富</w>
更 衣
普 罗</w>
是 乎</w>
昔 底</w>
易 斯</w>
昏昏 欲睡</w>
早 些</w>
无 霸</w>
无 障碍</w>
无 缺</w>
无 望</w>
无 故</w>
旅游 业</w>
施 虐</w>
施 以</w>
新闻 记者</w>
新 车</w>
斯瓦 希里</w>
斯德 哥
斯德哥 尔摩</w>
斯堪 的纳维亚</w>
数 百万美元</w>
数 天</w>
数 十</w>
数 到</w>
数 不胜
数不胜 数</w>
教 员</w>
救 人</w>
效 果
故事 情节</w>
收 看</w>
撇 开</w>
搭 便
搭便 车</w>
搁 置</w>
接 电话</w>
排 水
挥 发性</w>
挥 动</w>
挚 友</w>
挖 出来</w>
指 派</w>
指 头</w>
拼 装</w>
拼 在一起</w>
拳 击手</w>
拖延 者</w>
拒 绝
拍 照片</w>
拆 掉</w>
抽象 化</w>
报 刊</w>
投 球</w>
把 玩</w>
托 尔</w>
打 斗</w>
打 压</w>
打 入</w>
手 电筒</w>
手 推车</w>
扁 平</w>
所 剩
所剩 无几</w>
战 时期</w>
或 用</w>
我 时</w>
我 下</w>
慢 跑</w>
惯 用</w>
情 书</w>
悬 殊</w>
恼 怒</w>
恶 毒</w>
恳 请</w>
恩 惠</w>
恐惧 感</w>
恍 然大悟</w>
总 收入</w>
总 得</w>
忧 伤</w>
忍 受
忍受 着</w>
心 头</w>
心 仪</w>
德 堡</w>
征 税</w>
征 程</w>
往 外</w>
往 复</w>
彩 色
录 下</w>
当 斯</w>
当 务
当务 之急</w>
强 韧</w>
强 悍</w>
弥 勒</w>
式 样</w>
开 幕
建 材</w>
建 好</w>
康 奈
广播 电台</w>
干 草</w>
帐 号</w>
希腊 神话</w>
希 望
布莱 尔</w>
布 景</w>
布 宜
巴 顿</w>
巨大 成功</w>
巨 无霸</w>
巨 怪</w>
左 腿</w>
工作 组</w>
屡 见不鲜</w>
届 时</w>
居 高
居 里</w>
居 民
尼 西
就 此
尔 尼诺</w>
小 数</w>
小 径</w>
小 团体</w>
小 号</w>
小 偷</w>
对 撞</w>
对 冲</w>
密苏里 州</w>
客观 事实</w>
审 议</w>
实 境</w>
实 况</w>
定居 点</w>
定 格</w>
官 方
完 成
学 来</w>
孤 岛</w>
孔 雀</w>
委 任</w>
妓 院</w>
如 指掌</w>
如 图
如图 所示</w>
好 几</w>
女 权</w>
女 兵</w>
奏 曲</w>
奇 才</w>
奇 古怪</w>
天 大</w>
大头 针</w>
大众 化</w>
大 钱</w>
大 灾难</w>
大 局</w>
大 军</w>
大 不
多 方</w>
多 哥</w>
夏 娃</w>
增 发</w>
堪萨 斯州</w>
培 特</w>
培 根</w>
城 邦</w>
埃 菲尔铁塔</w>
埃 德
垮 台</w>
坡 路</w>
场 馆</w>
地 心
地 底</w>
在实践 中</w>
圣 杯</w>
土著 居民</w>
土耳其 人</w>
国际 法</w>
国家 主义</w>
国务 院</w>
回 收
四 百万</w>
嗓 音</w>
喜 不
喜不 喜欢</w>
哭 声</w>
哥 大</w>
哈德 逊</w>
和 尚</w>
和 力</w>
咆 哮</w>
命 感</w>
周 四</w>
告 发</w>
听 错</w>
吟 唱</w>
后 腿</w>
同 步
吉 普
叹 息</w>
史 黛拉</w>
可 编程</w>
可 比</w>
可 否</w>
口 处</w>
叛 逆者</w>
变 得
发 源地</w>
发 源</w>
发 动
叉 子</w>
参 赛</w>
参 赛
原 版</w>
原 型机</w>
厄 尔尼诺</w>
卵 石</w>
即 时
卡 玛</w>
博 会</w>
南 卡罗来纳州</w>
华盛顿 大学</w>
华尔 街日报</w>
升 降
千 多</w>
十 亿分</w>
十 五岁</w>
十 万人</w>
北极 圈</w>
北 大西洋</w>
化 物</w>
努 尔</w>
加 迪
刺 杀</w>
到 访</w>
利益 冲突</w>
切尔 诺贝利</w>
出 差</w>
凡 尔
几 步</w>
几 星期</w>
凝 胶</w>
减 重</w>
冲 进</w>
冲 撞</w>
冲 到</w>
冰激 凌</w>
写 作
冗 长</w>
冒 充</w>
再 试一次</w>
内燃 机</w>
内华 达州</w>
养老 金</w>
养 家</w>
关 照</w>
六 百</w>
六 天</w>
六 到</w>
公民 权</w>
公交 系统</w>
公 立</w>
全球 定位系统</w>
全 貌</w>
全 神贯注</w>
全 班</w>
全 天候</w>
光 彩</w>
先入 为主</w>
元 首</w>
像 样</w>
储 量</w>
储 蓄
偷 猎</w>
停止 使用</w>
停 战</w>
借 给</w>
倒 霉</w>
倒 置</w>
修 昔底</w>
信息 源</w>
信任 感</w>
保险 丝</w>
俗 称</w>
俄克拉何 马</w>
侦 察
使 命感</w>
作 法</w>
佛罗 伦萨</w>
何 从</w>
低 频</w>
伯 里</w>
传送 带</w>
伙伴 关系</w>
优 生学</w>
休 克</w>
伏特 加</w>
伊 万</w>
份 量</w>
以 至</w>
以 继
以 新</w>
代 际</w>
仆 人</w>
仅 存</w>
亿 颗</w>
人口 统计</w>
人 马</w>
人 形</w>
人 像</w>
人 人
亲密 关系</w>
亲 生</w>
交 谊舞</w>
亟 需</w>
五 千年</w>
于 是乎</w>
二 者之间</w>
二 战时期</w>
事 来</w>
了 如指掌</w>
买 个</w>
九 成</w>
乔 伊</w>
乐 章</w>
乐 土</w>
乎 寻常</w>
之 高</w>
之 王</w>
之 火</w>
之 源</w>
之 战</w>
之 子</w>
之 别</w>
主 动脉</w>
为 所
中枢 神经</w>
中心 化</w>
中 起</w>
中 去</w>
中 介</w>
中 亚</w>
两千 五百</w>
两 英里</w>
两 头</w>
两 台</w>
世 博会</w>
专 属</w>
不能 不</w>
不惜 一切</w>
不及 格</w>
不出 所料</w>
不 耐
不 尽</w>
下 坡路</w>
上 风</w>
上 要</w>
上 楼</w>
三 藩市</w>
三 文
三 层</w>
万 张</w>
万 分之一</w>
七 年级</w>
七 十五</w>
七 分</w>
一片 空白</w>
一 通</w>
一 味</w>
一 书</w>
z o</w>
y r
v ia</w>
us t</w>
us h</w>
ul t
ud e</w>
ra y</w>
r ap
p h
ow er</w>
ow an</w>
ou ld</w>
ou b
ot t
ot a</w>
os e</w>
op e</w>
oo n</w>
ob by</w>
o e</w>
l am</w>
j ana</w>
it s</w>
is h
il y</w>
ic h</w>
h r
h m
h am
en e</w>
e w</w>
de epf
ch ang
c on
c iv
az on</w>
atbo xing</w>
at i</w>
ann a</w>
and er</w>
Z ero</w>
V A</w>
U C
T im
St ewart</w>
Sh ar
Red dit</w>
R es
R T</w>
R I
R D</w>
Po int</w>
Pix ar</w>
P ra
P P
OE CD</w>
McG owan</w>
M ob
Luc ius</w>
Le e</w>
LI GO</w>
L ov
L S
L E
L C</w>
Kath ryn</w>
Kan zi</w>
IDE O</w>
Harri et</w>
G P
F r
E l</w>
De an</w>
D i</w>
CA D</w>
B aker</w>
App le</w>
AP P</w>
A C</w>
5 .5</w>
3 5000</w>
3 0
20 40</w>
195 4</w>
195 2</w>
18 50</w>
10 5</w>
黑 眼睛</w>
黑 寡妇</w>
黏 合剂</w>
麻醉 剂</w>
麦 哈
麦哈 麦</w>
鳗 鱼</w>
鱼 缸</w>
高高 的</w>
高速 路</w>
高尔夫 球场</w>
高 高</w>
高 频</w>
高 耸</w>
高 涨</w>
高 架</w>
高 分辨率</w>
高 举</w>
骑 马</w>
驾驶 座</w>
马 士
马 匹</w>
香 豆
香豆 素</w>
首 要
餐 时间</w>
食 欲</w>
食 指</w>
飞速 发展</w>
飞 车</w>
飞 碟</w>
飞 扬</w>
风 趣</w>
风 味</w>
风 光</w>
颤 动</w>
颁 奖
静 坐</w>
震 撼
集成 电路</w>
雅 各
雀 跃</w>
陪审 员</w>
陈 规</w>
阿尔 伯特</w>
阿 訇</w>
阻 隔</w>
队 列</w>
闲 聊</w>
问 津</w>
长大 成人</w>
长 队</w>
长 尾</w>
错 事</w>
钟 情</w>
金融 服务</w>
金融 业</w>
量 身</w>
野 火</w>
重 振</w>
里 德</w>
里 奥</w>
采 石场</w>
醉 酒</w>
配 乐</w>
鄙 视</w>
邻 座</w>
那 般</w>
那 名</w>
遮 盖</w>
遮 掩</w>
遗传 性</w>
道 义</w>
道 义
逻辑 思维</w>
造 者</w>
选 拔</w>
追 问</w>
迪 米特里</w>
迥 异</w>
迟 疑</w>
连 词</w>
远 征</w>
远 大于</w>
进 进
进进 出
进进出 出</w>
这 棵</w>
这 成</w>
运 而生</w>
过 日子</w>
边 境
轻 蔑</w>
转 账</w>
转 头</w>
身 躯</w>
踢 足球</w>
路易斯 安
路 易</w>
跤 手</w>
足球 比赛</w>
趋 向</w>
贮 存</w>
购买 力</w>
财政 部长</w>
象 化</w>
豆 腐</w>
谬 论</w>
谢 尔
谋 杀案</w>
调 试</w>
调 节
诺曼 人</w>
诗 是</w>
试 飞</w>
让 给</w>
认知 科学</w>
警 长</w>
警 戒</w>
詹姆 士</w>
觉 得
见 鬼</w>
要 不是</w>
被 绑</w>
补 给</w>
行李 箱</w>
血 浆</w>
蜂 房</w>
蓝 莓</w>
葛 瑞
获 知</w>
获 救</w>
莫 耳</w>
莫 尔</w>
莉 娅</w>
莉 卡</w>
荷 州</w>
草 稿</w>
茫 茫</w>
花生 酱</w>
花 太多</w>
艾美 莉卡</w>
艾 丽
良 药</w>
船 厂</w>
舞蹈 家</w>
舒 缓</w>
自由 度</w>
自 小</w>
自 力
自力 更生</w>
脚 趾
脑 脊
脑脊 液</w>
肌 腱</w>
肇 事者</w>
聚 集
聊 到</w>
而 降</w>
而 用</w>
而 活</w>
而 会</w>
美国 农业部</w>
美国 公司</w>
美利 坚
美利坚 合众国</w>
罗 纪</w>
罗 斯林</w>
罗 巴</w>
网络 化</w>
绿色 革命</w>
维 纳</w>
维 持
绝 好</w>
结 队</w>
经 久
纳 什
纳什 维尔</w>
约 鲁
约 旦
约 克</w>
红 血
繁 盛</w>
繁 杂</w>
累 计</w>
紧 身</w>
素 瘤</w>
精 液</w>
篇 幅</w>
管理 费</w>
第二 项</w>
第 五
第 七
笔 直</w>
竣 工</w>
站 不
立方 米</w>
立体 声</w>
穿 衣服</w>
稿 子</w>
稿 人</w>
程序 化</w>
稀 奇古怪</w>
移 走</w>
移 交</w>
称 得上</w>
积 雪</w>
科 菲</w>
私有 化</w>
私人 企业</w>
私 语</w>
私 底下</w>
福 特
神经 病</w>
礼 拜
示 例</w>
碳 纤维</w>
硬 化</w>
矿 产</w>
石 板</w>
睾 酮</w>
督 促</w>
着 手
着手 于</w>
眼 科医生</w>
眼 皮
真真 切
真真切 切</w>
真 机</w>
真 地</w>
真 不知道</w>
省 略</w>
直 立
盲 文</w>
目 了
目了 然</w>
盖 拉</w>
皮 尔
皇 后
皇后 区</w>
百分之九 十九</w>
百 事</w>
病理 学家</w>
留 声
留声 机</w>
电脑 系统</w>
电磁 波</w>
电磁 力</w>
电子 表格</w>
由此 可见</w>
用 钱</w>
用 意</w>
生物 课</w>
生物 性</w>
生物 工程</w>
生 意
瑞 尔</w>
珍 宝</w>
现 阶段</w>
玩 过</w>
玩 得</w>
牵 强</w>
爱 护</w>
爱 慕</w>
燃 气</w>
熔 岩</w>
焦 油</w>
热 情
烟 油</w>
炉 子</w>
灾 区</w>
濒 死</w>
漠 视</w>
漏 水</w>
满 面</w>
溶 剂</w>
游 牧</w>
清 新</w>
深 情</w>
淡 无
消费 主义</w>
消耗 量</w>
浸 入</w>
海 鸥</w>
海 吉
浇 灌</w>
派 上
派上 用场</w>
活 过来</w>
洗 碗</w>
泽 东</w>
泰 德</w>
泡泡 糖</w>
法 西斯</w>
法 老</w>
法 拉
法 国
沿 路</w>
沟通 交流</w>
沙 漠化</w>
沉 默
沉 闷</w>
沃 克</w>
求 爱</w>
永远 都是</w>
水 库</w>
民主 共和国</w>
毫 升</w>
毛 泽东</w>
比 拟</w>
正确 性</w>
欧 拉</w>
欣 喜
欠 缺</w>
模式 识别</w>
模 子</w>
棱 镜</w>
桑 尼</w>
栏 杆</w>
查 理
柏 林
枝 条</w>
果 冻</w>
极 客</w>
松 弛</w>
杰 瑞</w>
条 文</w>
杜 绝</w>
杂 物</w>
机动 车</w>
本 次</w>
本 事</w>
未 婚</w>
木 瓜</w>
期 许</w>
望 而
有 近</w>
有 条理</w>
有 可
最 想</w>
更衣 室</w>
更 差</w>
暂 时性</w>
是 处</w>
春 季</w>
星 团</w>
明 媚</w>
时 要</w>
旱 季</w>
早 逝</w>
旧 会</w>
无 阻</w>
方 便
新罕 布什
新 纳粹</w>
新 意</w>
新 发明</w>
斯 维尔</w>
斯 普京</w>
斯 拉夫</w>
断 开</w>
文 组织</w>
数码 技术</w>
数百 名</w>
数千 名</w>
数 千万</w>
散 发出</w>
教科 文组织</w>
教 课</w>
政 见</w>
放 走</w>
改 正</w>
收 藏品</w>
收 尾</w>
支持 系统</w>
操作 性</w>
操 心</w>
撤 退</w>
撕 碎</w>
摔 跤手</w>
搜 身</w>
插 件</w>
推 着</w>
推 力</w>
接 连</w>
接 踵
接 上</w>
探 求</w>
授 给</w>
换 气</w>
换 上</w>
挪威 人</w>
挣 得</w>
拖 丝</w>
拍 下来</w>
拉 到</w>
拉 克
披头 士</w>
护理 人员</w>
抄 袭</w>
扶 手</w>
扣 子</w>
托 斯</w>
打 赢</w>
打 勾</w>
打 住</w>
手提 包</w>
手 足</w>
手 绘</w>
手 工艺品</w>
所 著</w>
戴 眼镜</w>
战 友</w>
戒 断</w>
戒 掉</w>
我 过</w>
成千 上百</w>
成 正比</w>
成 倍
戈 登</w>
懊 悔</w>
意料 之中</w>
意 念</w>
意 向</w>
惹 麻烦</w>
情 结</w>
性 侵犯</w>
性 价
性价 比</w>
急救 室</w>
怎 能</w>
忽 略
忏 悔</w>
必 将</w>
心 肺</w>
心 肌</w>
心 灵
德 罗</w>
德 纳</w>
微 薄</w>
得 当</w>
很 赞</w>
很 会</w>
待 在
待在 家里</w>
待 发</w>
影 带</w>
强 制
弹 药</w>
张 嘴</w>
弗 罗</w>
引 言</w>
开 通</w>
开 朗</w>
开 外</w>
开 动</w>
开 了个</w>
廷 顿</w>
应用 软件</w>
应 运而生</w>
应 为</w>
库 存</w>
广泛 应用</w>
并不 比</w>
帕 瑟
希望 于</w>
布鲁 克</w>
布洛 芬</w>
巴 塞
巴塞 罗
己 见</w>
差 异性</w>
巡 逻
展 厅</w>
尽 责</w>
尼古 拉</w>
尼 龙</w>
尼 科</w>
就 职</w>
就 医</w>
尔 夫</w>
尔 多</w>
少 时</w>
小 玩意儿</w>
小 块</w>
小 刀</w>
射 到</w>
射 入</w>
封 闭
导 管</w>
寄 希望于</w>
家 长
审 计</w>
宝贝 儿</w>
定 会</w>
宙 斯</w>
安 理会</w>
安 然</w>
学 步</w>
学 时</w>
孤 立
存 亡</w>
嬉 皮</w>
婊 子</w>
威 慑</w>
姨 妈</w>
委 员</w>
妙 想</w>
好 评</w>
好 不过</w>
奴隶 主</w>
奥 运</w>
奥 会</w>
奈 飞</w>
奇思 妙想</w>
奄 奄
奄奄 一
奄奄一 息</w>
头 牛</w>
夫 兰</w>
太空 站</w>
太空 服</w>
太 长</w>
太 美</w>
太 短</w>
太 子
太 冷</w>
天 内</w>
大肠 杆菌</w>
大 肆</w>
大 方</w>
大 喊
大喊 大叫</w>
大 作</w>
大 些</w>
夜 班</w>
多 能</w>
多 维</w>
多 哈</w>
外 部
复 印</w>
备 竞赛</w>
处 罚</w>
声 名
墨西哥 城</w>
墨 迹</w>
增 加
塑料 制品</w>
基因 学</w>
基因 图谱</w>
基准 线</w>
基 斯</w>
基 姆</w>
垂 直
地理 杂志</w>
在我 心中</w>
圣诞 树</w>
土 机</w>
圈 圈</w>
圆 桌</w>
国家 元首</w>
国 立</w>
国 境</w>
围 坐在</w>
园 丁</w>
因 纽</w>
因 于</w>
回 合</w>
四 百
四 万</w>
器 件</w>
嘉 年华</w>
喝 一杯</w>
善 行</w>
喂 给</w>
喀 拉</w>
喀 布尔</w>
售 出</w>
唐 氏</w>
和平 奖</w>
味 蕾</w>
吹 牛</w>
启 示录</w>
启 动
君 主</w>
后 备
后 勤</w>
名 牌</w>
吉 尼亚</w>
吃 不
可 追溯</w>
只 能靠</w>
古 里</w>
受到 限制</w>
受到 感染</w>
受 控</w>
取 胜</w>
取 水</w>
发 掘出</w>
发 亮</w>
反 派</w>
反 光</w>
及 早</w>
去 何从</w>
厕 纸</w>
压 裂</w>
压 垮</w>
历史 进程</w>
卡通 画</w>
卡 恩</w>
博弈 论</w>
卖 力</w>
卖 出去</w>
十 几个</w>
十 六岁</w>
十 三</w>
医学 杂志</w>
区 区</w>
匪 浅</w>
化妆 品</w>
募 捐</w>
勇敢 的人</w>
努力 实现</w>
助 人</w>
动作 电位</w>
加 载</w>
加 点</w>
功 用</w>
办公 楼</w>
剧 毒</w>
剥 开</w>
前 有</w>
刷 新</w>
别 墅</w>
利 兹</w>
初 始
刘 易斯</w>
刑 罚</w>
分子 生物学</w>
分 配
分 明</w>
出 世</w>
凯 伦</w>
几 句话</w>
几 十</w>
减 退</w>
冲 出</w>
冰 球</w>
农 贸市场</w>
军事 行动</w>
军 备竞赛</w>
再生 资源</w>
再 好不过</w>
内 部
关 切</w>
公 然</w>
八 次</w>
党 员</w>
克拉 夫特</w>
克 利斯</w>
先 天性</w>
偷 看</w>
健 在</w>
假 释</w>
修 者</w>
修 炼</w>
信任 度</w>
保 管</w>
侥 幸</w>
侏 罗纪</w>
佩 里</w>
你 够</w>
作 何</w>
何 去何从</w>
住 宅
伤 痕</w>
伤 人</w>
传 真机</w>
传 教</w>
传 授给</w>
传 出</w>
传 入</w>
伟 大
会 飞</w>
会 堂</w>
休息 时间</w>
伊利 诺伊
以 期</w>
仙 境</w>
仙 人
他 花</w>
从 左
今年 夏天</w>
仅 剩</w>
人 站</w>
人 机
产 能</w>
交 友</w>
亚 里</w>
亚 当斯</w>
五 人</w>
于 世</w>
二 人</w>
事实 真相</w>
乳 汁</w>
乱 流</w>
书 桌</w>
书 架上</w>
书 包</w>
乡 间</w>
九 点</w>
之 重</w>
之 谈</w>
之 事</w>
久 之</w>
主 观
主 治
为 难</w>
中 非</w>
中 将</w>
中 子星</w>
中 写</w>
两 步</w>
两 场</w>
两 只手</w>
丢 人</w>
东 区</w>
丘 吉尔</w>
世界 贸易
世 贸</w>
不 肯</w>
不 明智</w>
不 屑
不 好玩</w>
下 部</w>
上 色</w>
万事 万物</w>
万 辆</w>
一无 是处</w>
一 辈</w>
一 而
一 线
一 目了然</w>
一 班</w>
一 朵</w>
一 探</w>
一 打</w>
一 户</w>
一 届</w>
一 层楼</w>
一 发</w>
z z
y an</w>
v uma</w>
u l</w>
th ur</w>
st arter</w>
s i
ro m</w>
ri s</w>
qu e</w>
osh op</w>
of t</w>
l am
is h</w>
ing s</w>
il ity</w>
h ir</w>
el le</w>
b ot</w>
ats App</w>
ad e</w>
a e</w>
a a
Wh it
Tech n
T or
T om
Sud hir</w>
St ac
Sh e</w>
SU DE
SUDE P</w>
S P
Ro y</w>
R ag
Proj ect</w>
PIS A</w>
P a
Oli ver</w>
Nath aniel</w>
N el
N PR</w>
N FL</w>
Ma c</w>
M el
M ed
M L</w>
Lar ry</w>
L im
L i
Kel ly</w>
K u
K er
Jos h</w>
J ay</w>
I W</w>
H al
Gi uss
G illi
E CT</w>
D S</w>
C an
Bar ry</w>
B as
B an
B MI</w>
Ar thur</w>
An as</w>
Am azon</w>
AI DS</w>
A ur
99. 9</w>
7 50</w>
40 4</w>
20 000</w>
1. 6</w>
0. 3</w>
0. 0
黑客 帝国</w>
鹅 肝</w>
高 智商</w>
高 墙</w>
高 原</w>
髋 骨</w>
骗 人</w>
骇 客</w>
驾 于</w>
驯 鹿</w>
马 铃
马铃 薯</w>
马 耳
马 德里</w>
首要 任务</w>
首 脑</w>
饰 演</w>
餐 盘</w>
食 人
飞 过来</w>
飞 来</w>
风 潮</w>
颇 为</w>
领 头</w>
颂 扬</w>
项 目
韧 带</w>
韦 斯</w>
非 比
非比 寻常</w>
青 年
青 人</w>
雷 尔</w>
零 星</w>
集 合
难以 忍受</w>
难以 启齿</w>
附 上</w>
阿尔 伯克</w>
阿 鲁
阿 斯
阿 博布</w>
间 内</w>
闯 进</w>
闪 烁
闪烁 着</w>
门 户</w>
长途 跋涉</w>
长 老</w>
铃 铛</w>
钻 孔</w>
钻 头</w>
钱 来</w>
钢琴 家</w>
金 热</w>
野 餐</w>
重新 认识</w>
重 置</w>
采取 任何</w>
采 摘</w>
酷 热</w>
酷 刑</w>
酷 儿</w>
部 手机</w>
那 要</w>
遮 蔽</w>
道 远</w>
道 奇</w>
速 度
逃 过</w>
适 量</w>
送 来</w>
迸 发</w>
迪 尔</w>
连锁 反应</w>
连 环</w>
这 起</w>
这 算</w>
过渡 期</w>
过 期</w>
达 成
达成 协议</w>
达 克斯</w>
边缘 系统</w>
输 油
辅 助
轻 便</w>
轮 车</w>
转 换
躲 过</w>
躲 藏</w>
身 陷</w>
蹩 脚</w>
踏 进</w>
路 灯</w>
距 今</w>
跑 来
跑来 跑
跑来跑 去</w>
跑 动</w>
趴 在</w>
越多 越好</w>
越 快
越快 越好</w>
超 载</w>
走 私
赤 足</w>
赛 车手</w>
赖 特</w>
贴 着</w>
贯 彻</w>
贬 值</w>
货 船</w>
货 真
货真 价
货真价 实</w>
负 电荷</w>
贝 克
谈 不上</w>
诺 斯
说明 书</w>
诗 集</w>
评 论
设计 图</w>
讲 演</w>
记忆 犹
记忆犹 新</w>
记 下来</w>
计算机 系统</w>
解剖 学家</w>
解 谜</w>
解 出</w>
覆盖 率</w>
西班牙 人</w>
西斯 廷</w>
西 奥多</w>
衣 橱</w>
行 动者</w>
蜂 拥
蚱 蜢</w>
蚯 蚓</w>
蚊 虫</w>
蓬 松</w>
蓬 勃</w>
蓝 绿色</w>
蒙 大</w>
葛瑞 丝</w>
落 体</w>
萨拉 热
萨拉热 窝</w>
萨尔 瓦
萨尔瓦 多</w>
萌 生</w>
莱 昂
莫 夫</w>
荒 废</w>
若 要</w>
若 狂</w>
苏 菲</w>
苏 尔</w>
苍 白</w>
芭 比</w>
良 多</w>
舍 尔</w>
致癌 物</w>
致 命
自 控</w>
自 古
自古 以来</w>
腾 出</w>
腌 制</w>
脱 发</w>
脱 下</w>
脚踏 实地</w>
脚 尖</w>
脑 神经</w>
能 长</w>
能 量
能 动</w>
胡 乱</w>
股 份</w>
肝 酱</w>
肖 恩</w>
肌肉 组织</w>
聚 餐</w>
联合国 教科文组织</w>
联 通</w>
聋 人</w>
耸 肩</w>
耶稣 基督</w>
耳 闻</w>
而 久之</w>
老 生
老生 常
老生常 谈</w>
老 大哥</w>
美术 馆</w>
美 术</w>
美 式</w>
置身 其中</w>
置之不 理</w>
置 入</w>
缝 纫</w>
编辑 部</w>
缓 冲
绿 巨人</w>
绿 地</w>
维 斯塔</w>
维 护
续 续</w>
绝 缘
结肠 镜</w>
经 典
织 成</w>
纸 币</w>
红血 球</w>
繁 殖
繁 复</w>
素 食
精神 创伤</w>
粘 性</w>
类 药物</w>
类 人猿</w>
米 切尔</w>
简 简
简简 单单</w>
简 介</w>
筹 码</w>
第二 名</w>
第一 首</w>
第一 块</w>
第一 周</w>
第一 例</w>
第 一项</w>
童 年时期</w>
窘 境</w>
税 率</w>
秘 方</w>
科学 杂志</w>
秃 鹰</w>
秃 顶</w>
离 得</w>
福 岛</w>
祝 愿</w>
磷 脂</w>
碾 碎</w>
碧 娜</w>
硅 片</w>
砖 头</w>
石 英</w>
矮 小</w>
短 视</w>
短 裤</w>
知名 度</w>
真 让人</w>
看 穿</w>
相互 依存</w>
相 貌</w>
相 同
直立 人</w>
直 截
直截 了当</w>
盖 伦</w>
皮肤 癌</w>
白 鼠</w>
白 内
白内 障</w>
白 光</w>
痛 觉</w>
病 史</w>
疾 病
畜 牧
畜牧 业</w>
画 中</w>
男 士们</w>
男 同性恋</w>
电视 新闻</w>
电脑 芯片</w>
电子 元件</w>
电 锯</w>
由 衷</w>
用 车</w>
用 电量</w>
生死 攸关</w>
生产 方式</w>
生 还</w>
甜 味</w>
甚 者</w>
甚 微</w>
瑞 卡</w>
现 在
现在 起</w>
环 礁</w>
玫 瑰
玩 具
玛丽 安</w>
玛 莎</w>
玛 尼</w>
王 朝</w>
猜 看</w>
猜 猜看</w>
猛 地</w>
猎 手</w>
独裁 统治</w>
犹豫 不
犹豫不 决</w>
特立 尼
特 地</w>
特 写</w>
牛 城</w>
熊 猫</w>
煤 油</w>
然 的话</w>
焦 距</w>
热 切</w>
烧 煤</w>
烧 焦</w>
烦 扰</w>
烘 培</w>
炽 热</w>
点 数</w>
炉 膛</w>
灼 烧</w>
灵 丹
灵丹 妙
灵丹妙 药</w>
激励 机制</w>
漫 漫</w>
滴 滴</w>
滑 雪
滑 落</w>
溢 出</w>
港 湾</w>
清 白</w>
清 扫</w>
添 花</w>
深 邃</w>
淘 金热</w>
淋 浴</w>
消防 车</w>
消息 来源</w>
海 关</w>
浮 标</w>
浮 夸</w>
浑 然
流行 音乐</w>
流 言</w>
注 释</w>
波 及</w>
法 兰克</w>
沿 海地区</w>
油 井</w>
没 过
沉 溺
沃 特斯</w>
汉 堡
汇 合</w>
永 存</w>
水 牛城</w>
水 污染</w>
水 会</w>
氧 原子</w>
氧 化</w>
气 馁</w>
民主 制</w>
民 粹主义</w>
民 兵</w>
毫不 费力</w>
每 秒钟</w>
步 兵</w>
此 生</w>
欧 美</w>
欧 罗巴</w>
欣然 接受</w>
欣喜 若狂</w>
次 级</w>
榴 弹</w>
楼 顶</w>
椭 圆</w>
棚 屋</w>
棕 榈</w>
检 测
梦 魇</w>
梅 花</w>
桑 迪</w>
桑 德斯</w>
桑 德拉</w>
桌 面上</w>
栽 培</w>
格 罗</w>
格 格
格格 不入</w>
格 尼
根 系</w>
根 与
根与 芽</w>
核 电</w>
树 下</w>
查 查</w>
查 尔
果 糖</w>
极 低</w>
杰 里
杀 伤
杀伤 力</w>
机 动</w>
本 营</w>
本 源</w>
未知 数</w>
木 乃
木乃 伊</w>
朝 下</w>
有 车</w>
有 家</w>
最低 点</w>
曾 祖母</w>
更 何况</w>
更 会</w>
曲 奇</w>
暴 政</w>
普 顿</w>
晒 太阳</w>
星期 四</w>
日 本
日 托</w>
日 俱
无所 不知</w>
旗 下</w>
旋 钮</w>
新 年</w>
斯多 葛</w>
斑 蝶</w>
斑 斓</w>
文化 差异</w>
文件 夹</w>
整 形
数百 人</w>
数学 课</w>
数学 计算</w>
数字 信息</w>
数 百万个</w>
数 次</w>
数 亿美元</w>
敬 仰</w>
敞 开
故事 书</w>
政治 体制</w>
放 纵</w>
放 映
放 屁</w>
放 假</w>
收集 器</w>
收 听</w>
擦 拭</w>
摘 要</w>
摘 下</w>
搭 桥</w>
握 着</w>
插 头</w>
提供 商</w>
提 高效率</w>
提 斯</w>
描绘 成</w>
措 手
措手 不及</w>
掩 护</w>
推 动者</w>
控 诉</w>
探 望</w>
掠 夺
排 便</w>
挑战 者</w>
挑 选出</w>
指导 员</w>
挂 钩</w>
拿 给</w>
拼 成</w>
拳 击</w>
拍 到</w>
拆 分</w>
折 断</w>
抗 菌</w>
抗 病毒</w>
抓 起</w>
抓 捕</w>
抓 住
技术 创新</w>
托 德</w>
手 续</w>
房 间内</w>
戴 维</w>
截 图</w>
戒 律</w>
成 年期</w>
慕 尼
慕尼 黑</w>
意 书</w>
惰 性</w>
惯 常</w>
惨 重</w>
惨 烈</w>
情绪 反应</w>
情 局</w>
悯 之心</w>
息 图</w>
怪 的</w>
怪 怪的</w>
性 伴侣</w>
急 促</w>
怜 悯之心</w>
怀 特
念 书</w>
忧 郁症</w>
忧 心
忍 者</w>
心脏 起搏器</w>
心理 准备</w>
心 弦</w>
德雷 克</w>
德 福</w>
德 伯格</w>
微 风</w>
律 法</w>
很 晚</w>
往 前走</w>
彼 罗</w>
彻底 底</w>
彻 彻底底</w>
役 军人</w>
彰 显</w>
当 面</w>
归 正传</w>
强 国</w>
弹 琴</w>
张 牌</w>
弗 兰
引 来</w>
引 住</w>
异 国</w>
开 灯</w>
建 于</w>
底 端</w>
库 珀</w>
库 斯</w>
广 为</w>
并 试</w>
并 列</w>
年 青人</w>
年 迈</w>
年 末</w>
年 仅</w>
平面 设计</w>
平等 权利</w>
常 见
常 听到</w>
带 头</w>
布 尔
巴拉 巴</w>
巴塞罗 那</w>
巴 克
巨 蚌</w>
巨 噬细胞</w>
工 人
崇 敬</w>
岸 上</w>
岛 国</w>
山 里</w>
履 历</w>
尿 道</w>
尾 气</w>
尽量 避免</w>
尼 加</w>
尖 叫声</w>
少 校</w>
小型 企业</w>
小 节</w>
小 方块</w>
小 手</w>
小 得多</w>
小 异</w>
将 来临</w>
射 中</w>
寻 觅</w>
对 接</w>
察 看</w>
密 修者</w>
密 不可
密不可 分</w>
寄 主</w>
宾夕法 尼亚</w>
宽 慰</w>
害 者</w>
宫 颈</w>
宣 讲</w>
客 机</w>
实 证</w>
实 情</w>
实 事</w>
定 式</w>
完整 性</w>
完好 无损</w>
完 备</w>
安 然无
安 检</w>
安 南</w>
学前 教育</w>
学 问</w>
学 士学位</w>
孟 德尔</w>
存 档</w>
婚 前</w>
妥 当</w>
好 要</w>
奥 卡
奇 点</w>
太 重</w>
天 际</w>
天 而降</w>
大 臣</w>
大 本营</w>
大 同
大同 小异</w>
大 厨</w>
多种 语言</w>
多 层</w>
多 加</w>
外 貌</w>
复 习</w>
处理 厂</w>
处 以</w>
声 纳</w>
声 势</w>
塞 拉</w>
堪萨 斯</w>
基因 库</w>
基因 型</w>
基 恩</w>
基 尼</w>
基 人</w>
培 植</w>
域 名</w>
城 外</w>
埋 头</w>
埃克 森</w>
坦白 讲</w>
坐 轮椅</w>
坐 姿</w>
坏 蛋</w>
坏 主意</w>
地 面积</w>
地 块</w>
在 线
在 案</w>
图 样</w>
图 斯</w>
国民 收入</w>
国家 博物馆</w>
回 溯到</w>
回 味</w>
四 郎</w>
四 季</w>
四 号</w>
四 件</w>
嗡嗡 声</w>
喧 闹</w>
喊 道</w>
啊 啊</w>
啊 啊啊</w>
唯 独</w>
售 货机</w>
哈利 波</w>
哈 塞尔</w>
品 牌
和 睦</w>
呻 吟</w>
周 后</w>
吸 引住</w>
向 来</w>
后 人</w>
同 意书</w>
合 板</w>
合 乎</w>
合 乎
合 一</w>
吃 晚饭</w>
吃 些</w>
史 瓦
可 贵</w>
口 头
叙 利亚人</w>
变形 虫</w>
变 质</w>
变 戏法</w>
变 冷</w>
受益 匪浅</w>
受 惠</w>
受 制
受制 于</w>
取 材</w>
取 回</w>
参 观者</w>
参 加
原子 钟</w>
原 样</w>
原 以为</w>
厚 重</w>
压缩 成</w>
即 将来临</w>
卫生 部</w>
卡 梅隆</w>
南 北</w>
协同 工作</w>
升 职</w>
千 兆</w>
十二 月</w>
十二 岁</w>
十 四岁</w>
医疗 器械</w>
区 间</w>
北 朝鲜</w>
勺 子</w>
势 不可
势不可 挡</w>
励 志</w>
动 听</w>
办 不到</w>
力 场</w>
前 不久</w>
制 订</w>
利 比</w>
创新 力</w>
创 办
刚果 民主共和国</w>
切 身
切 掉</w>
分 文</w>
出 炉</w>
出 庭</w>
出 境</w>
凯 撒</w>
凌 驾于</w>
冲击 波</w>
冬 眠</w>
军事 力量</w>
再 进一步</w>
兼 具</w>
兹 曼</w>
兴奋 剂</w>
兴 趣
兴 盛</w>
关 头</w>
六 次</w>
六 十年</w>
公 理</w>
全 息图</w>
入 点</w>
入 学
兜 售</w>
兑 现</w>
免 遭</w>
克利 夫兰</w>
光 敏</w>
先 祖</w>
偷 盗</w>
做 做</w>
修 整</w>
俘 虏</w>
依赖 性</w>
使用 率</w>
使用 暴力</w>
佩 斯</w>
佛 祖</w>
何 以</w>
体 中</w>
低 端</w>
估 测</w>
伤 员</w>
传统 观念</w>
传 道</w>
优 良</w>
优 惠</w>
伊 阿
任何 理由</w>
任 重
任 一</w>
价 位</w>
以 待</w>
以 人为
以人为 本</w>
令人 费解</w>
从 现在起</w>
从 天而降</w>
今 早</w>
仅 靠</w>
人 身</w>
亵 渎</w>
亭 子</w>
亨 廷顿</w>
产 业
交 付</w>
五 百年</w>
五 号</w>
五 十个</w>
互 换</w>
二十 岁</w>
二 分之一</w>
了 吧</w>
乳 草</w>
乳 癌</w>
买 车</w>
买 不到</w>
乞 讨</w>
乘 车</w>
乔治 亚</w>
乐 手</w>
乎 乎</w>
乌 斯</w>
之 少</w>
久 而久之</w>
丽 娜</w>
临 到</w>
丰 满</w>
丰 收</w>
中 要</w>
中 情局</w>
中 年人</w>
个人 利益</w>
个人 主义</w>
两 米</w>
两 百年</w>
两 片</w>
两 手</w>
两 千年</w>
世 代代</w>
世 世代代</w>
专利 局</w>
丑 恶</w>
不论 如何</w>
不耐 烦</w>
不成 比例</w>
不太 会</w>
不合 逻辑</w>
不 饱和</w>
不 计</w>
不 然的话</w>
不 安全感</w>
不 分
不 全</w>
下 列</w>
上 衣</w>
上 船</w>
上 学时</w>
上 个星期</w>
万 升</w>
万 分之</w>
万 亿个</w>
一而 再</w>
一条 街</w>
一无所 获</w>
一大 步</w>
一 餐</w>
一 闪</w>
一 磅</w>
一 盏</w>
一 律</w>
一 并</w>
一 季</w>
一 天天</w>
一 二</w>
一 世</w>
y st
us e</w>
un es</w>
um en</w>
u p</w>
ri ad</w>
oo l
oo k
m ine</w>
l ine</w>
j it
is m
ing er</w>
ik a</w>
id en</w>
i y
i es</w>
i T
ha r</w>
es e</w>
ed y</w>
e e
c an</w>
bo x</w>
ay a</w>
ath an</w>
at ica</w>
ap m
ann er</w>
ad y</w>
ac t
Z K</w>
Y ou</w>
Wh atsApp</w>
V al
St r
Sou th</w>
Sh e
R W</w>
Pow er
Ph il
P ri
OW IC</w>
Nel son</w>
N o
N E
My riad</w>
MP 3</w>
M ou
L iv
Kick starter</w>
K evin</w>
K anner</w>
Jon athan</w>
I n</w>
He For
HeFor She</w>
H um
Giuss ani</w>
Gilli an</w>
F ur
F ab</w>
F E
Em ily</w>
D u
D eb
C ura</w>
C ap
Bl ack
B obby</w>
B eck</w>
Ac umen</w>
AG I</w>
A y
5 500</w>
2 60</w>
195 8</w>
195 5</w>
19 39</w>
19 28</w>
10 1</w>
1. 25</w>
1 1000</w>
0 2</w>
齐 全</w>
鼓 手</w>
黑 名单</w>
黄金 时代</w>
黄 昏</w>
麦 哲
魔 咒</w>
高 深</w>
骚 动</w>
骑 单车</w>
骑 兵</w>
驾驶 舱</w>
驼 峰</w>
马耳 他</w>
马 行
马行 空</w>
首 府</w>
饭 碗</w>
风 气</w>
音乐 演奏</w>
革 新
面包 树</w>
面 目
非常 规</w>
非 官方</w>
静 止
青 年人</w>
霍 布斯</w>
雷 霆</w>
雷 诺</w>
零 散</w>
雨 滴</w>
雄 虫</w>
雄 性激素</w>
雄 伟</w>
难以 承受</w>
难 逃</w>
隐 形
隆 重</w>
险 恶</w>
陛 下</w>
降 临到</w>
际 线</w>
阿尔 卑
阿 特</w>
阿 斯</w>
阿 德
阿 布
阿 伦</w>
防 范</w>
闹 剧</w>
闪 过</w>
门 卫</w>
锦 上
锦上 添花</w>
锈 钢</w>
锁 住</w>
销售 员</w>
铲 除</w>
钟 形</w>
金融 市场</w>
金 发</w>
量 身
量身 定做</w>
野 狗</w>
野 仙
野仙 踪</w>
重 金属</w>
重 物</w>
重 任</w>
里 长</w>
采 集
酵 母
酵母 菌</w>
酒 鬼</w>
都 市
那 该</w>
那 群</w>
那 套</w>
那 一</w>
遗传 疾病</w>
遗 留下来</w>
道义 上</w>
遍布 整个</w>
造 物</w>
通 晓</w>
通 俗</w>
迷 上</w>
迪 人</w>
迟 早</w>
远 高于</w>
远 足</w>
进 门</w>
进 发</w>
这 正</w>
这 得</w>
这 全</w>
运输 系统</w>
迈 入</w>
过渡 带</w>
过 学</w>
达 哥
达哥 拉斯</w>
辽 阔</w>
边 界线</w>
辱 骂</w>
辩护 律师</w>
辖 区</w>
轻 描
轻描 淡
轻描淡 写</w>
车 载</w>
车 位</w>
身 无
身 处
身处 地</w>
踏 出</w>
跳 绳</w>
路 由
路由 器</w>
跪 下</w>
足 有</w>
越 低</w>
超 链接</w>
超 常</w>
起 手来</w>
赫 顿</w>
赫 斯</w>
赛 局</w>
赛 因</w>
赌 场</w>
资 历</w>
贫困 地区</w>
贫 富</w>
豪 感</w>
谢尔 盖</w>
调查 者</w>
课 时</w>
诺贝尔 和平奖</w>
说得 对</w>
说 点</w>
说 成</w>
详 细
诗 篇</w>
词 汇
诋 毁</w>
识 破</w>
设 身处地</w>
论 断</w>
许 多种</w>
讲 究</w>
讲 师</w>
让你 能</w>
讨 好</w>
计划 署</w>
计 数
警 力</w>
言 归正传</w>
触 控</w>
角 斗士</w>
视 着</w>
要 害</w>
要 命</w>
西 北</w>
装 饰
裁 定</w>
裁 员</w>
街 景</w>
行 车</w>
行 军</w>
血 迹</w>
蛛 网</w>
薄 弱</w>
蓝 牙</w>
蒙大 拿</w>
葡萄 干</w>
萨 莉</w>
萨 科</w>
萨 德</w>
菠 萝</w>
菜 肴</w>
菌 丝
菌丝 体</w>
获 奖者</w>
获 准</w>
莱 卡</w>
莫 斯</w>
英 吉
英吉 利
英吉利 海峡</w>
花 哨</w>
芝 麻
节 选</w>
节 岛</w>
色 色</w>
臭 虫</w>
自由 落体</w>
自 豪感</w>
自 称为</w>
腰 部</w>
腰 包</w>
脑 瘫</w>
脉 冲
能 行</w>
胡 克</w>
肩 负</w>
肥 鹅肝</w>
聚 一堂</w>
职业 道德</w>
耐 药</w>
而 论</w>
而 应</w>
而 外</w>
而 变</w>
老 虎
老 大</w>
翻 滚</w>
羞 草</w>
美好 未来</w>
美 人</w>
罗德 岛</w>
罗宾 斯</w>
罗 兰</w>
缩 略
绿 野仙踪</w>
维 艰</w>
维 夫</w>
维 吉尼亚</w>
绰 号</w>
绝 症</w>
经济 繁荣</w>
经 理人</w>
线 谱</w>
纽 尔</w>
纸 杯</w>
纪 实</w>
约束 条件</w>
约旦 河
约旦河 西岸</w>
红 头发</w>
累 月</w>
紧 握</w>
素食 主义者</w>
精力 充沛</w>
精 准
精准 度</w>
管 状</w>
简 略</w>
筹 钱</w>
等 生</w>
第四 天</w>
第二 轮</w>
第一 颗</w>
第一 段</w>
第一 架</w>
第一 印象</w>
笑 了
端 倪</w>
窗 子</w>
稻 田</w>
税 款</w>
稀 疏</w>
移 出</w>
秘密 武器</w>
秘 书
秘书 长</w>
科学 依据</w>
科 威特</w>
私人 化</w>
私 家
福 尔
禁 不住</w>
祭 祀</w>
神 话故事</w>
神 学家</w>
神 力</w>
社会 规范</w>
示威 游行</w>
磨 练</w>
磁 力</w>
硬 性</w>
研究 课题</w>
矿 石</w>
矿 业</w>
石油 价格</w>
石 灰</w>
瞌 睡</w>
眼 皮</w>
真空 管</w>
相 间</w>
相 待</w>
直 接
监 督
益 虫</w>
盈 利性</w>
皮 毛</w>
的确 确</w>
的 的确确</w>
的 士</w>
百货 公司</w>
百分之 四</w>
百分之 三</w>
百 种</w>
百 倍</w>
百 事
白 领</w>
病 得</w>
疲 惫
疲惫 不堪</w>
疗 伤</w>
疏 散</w>
画 里</w>
画 展</w>
电话 线</w>
电子 商务</w>
田 园</w>
生殖 器官</w>
生 长
生 畏</w>
生 物质</w>
生 根</w>
生 小孩</w>
现代 科学</w>
环 流</w>
玩 转</w>
狭 鳕</w>
狂 笑</w>
狂 奔</w>
犯 过</w>
犀 利</w>
特拉 维夫</w>
牵 连</w>
牵 手</w>
爸 爸
爸爸 妈妈</w>
爱达 荷州</w>
爱 国</w>
熟 能
熟 睡</w>
熟 人</w>
熊 虫</w>
煎 饼</w>
焊 接</w>
热 烈
热 水
烟草 业</w>
点 滴</w>
点 心</w>
潦 倒</w>
潜 伏
演 练</w>
滥 伐</w>
滞 留</w>
滑 翔</w>
游 艇</w>
温 顺</w>
清 空</w>
混 音</w>
淤 泥</w>
涡 流</w>
消化 道</w>
消 极
海 姆</w>
浪漫 爱情</w>
活 人</w>
洞 悉</w>
泰坦 尼克</w>
波 哥大</w>
法 治</w>
法 式</w>
没过 多久</w>
沉溺 于</w>
汽 油
汉堡 包</w>
汉 娜</w>
水 桶</w>
水 来</w>
水 塘</w>
毛 绒
毛 孔</w>
毕 达哥拉斯</w>
毕 尔
毕尔 巴
毕尔巴 鄂</w>
每 一秒</w>
每 一处</w>
母 婴</w>
正 试</w>
正 整数</w>
橡皮 筋</w>
橄 榄</w>
模糊 不清</w>
模 式化</w>
棒 糖</w>
棒 棒糖</w>
检查 表</w>
梭 状</w>
梦 里</w>
根 茎</w>
核 裂变</w>
核 电厂</w>
核 废料</w>
核 反应</w>
树 液</w>
标 明</w>
查尔 斯顿</w>
查 莉</w>
某 次</w>
柏林 墙</w>
架 起</w>
枯 萎</w>
果 腹</w>
杰 弗里</w>
来 个</w>
条形 码</w>
杜 拉</w>
权 国家</w>
权 主义</w>
术 后</w>
未 成年</w>
服 者</w>
有 悖</w>
有 余</w>
月 经
月 光</w>
最 常</w>
曾 一度</w>
曼 纽尔</w>
曼 彻
更 棒</w>
暗 箱</w>
明 日</w>
昆 士
时 时</w>
时 器</w>
时 光
早 起</w>
早 点</w>
日俱 增</w>
日 用品</w>
无法 形容</w>
无 著</w>
无 菌</w>
无 药</w>
无 污染</w>
无 敌</w>
无 异</w>
施 暴</w>
方向 感</w>
新 来</w>
新 手</w>
新 兵</w>
斯托 尔</w>
斯 泰</w>
断 续续</w>
断 断续续</w>
文化 大革命</w>
文 稿</w>
文 斯</w>
整 部</w>
整 形</w>
数据 流</w>
散 文</w>
敞开 大门</w>
教育 界</w>
教学 方式</w>
故 土</w>
放 个</w>
攫 取</w>
撤 回</w>
摄影 者</w>
搅 拌
提 拔</w>
推 土机</w>
接 触
接 吻</w>
接 住</w>
排 尿</w>
掌 上
掌上 电脑</w>
挡 风
挖 掘出</w>
括 号</w>
拦 住</w>
拔 掉</w>
拆 毁</w>
抽象 概念</w>
抽 离</w>
抛 物
折 服</w>
投 下</w>
技术 支持</w>
扮 成</w>
执 导</w>
托尔 斯泰</w>
托 克</w>
扔 出去</w>
打 篮球</w>
扎 菲</w>
手提 箱</w>
所 花</w>
所 含</w>
所 及</w>
戴 尔</w>
战斗 机</w>
战 舰</w>
战 利
战利 品</w>
战 俘</w>
我 生</w>
我 来举</w>
我 常
成绩 单</w>
成 群
懦 夫</w>
懒 得</w>
慢 慢
感到 痛苦</w>
想 尽</w>
想 尽
想尽 办法</w>
惨 案</w>
惠特 尼</w>
情绪 低落</w>
情 感
恢复 健康</w>
总 局</w>
急 诊</w>
思 维
怀特 兄弟</w>
怀 里</w>
心 力</w>
微 藻</w>
微 管</w>
微 微</w>
微 博
得 太快</w>
征 服者</w>
形 色色</w>
形 形色色</w>
录 影带</w>
录 影</w>
当 真</w>
当 回事</w>
归 零</w>
归 宿</w>
归 因于</w>
强奸 犯</w>
强加 于</w>
弹 出</w>
弱 小</w>
弧 线</w>
张 唱片</w>
引人 注意</w>
引 申</w>
弄 懂</w>
开 火</w>
康 恩</w>
座 右
座右 铭</w>
应 邀</w>
床 位</w>
幸 亏</w>
并不 大</w>
年 累月</w>
平 米</w>
平 息</w>
干 部</w>
常 量</w>
帕瑟 珊</w>
希伯 来</w>
希 瑟</w>
布雷 顿</w>
布宜 诺斯
布什 总统</w>
布 萨利</w>
市 内</w>
巴布 亚
巴布亚 新几内亚</w>
巴尔 干
巴克 图</w>
巴 斯蒂安</w>
已 晚</w>
巨 响</w>
左 眼</w>
工具 包</w>
工人 阶级</w>
工业 生产</w>
岩 层</w>
山 洞</w>
山 中</w>
尽其 所能</w>
尼 娅</w>
就 餐</w>
少数 派</w>
少 年
小心 谨慎</w>
小 而</w>
小 精灵</w>
对 话
对 视</w>
对 峙</w>
富 勒</w>
家 电</w>
家 族
家 居</w>
宣 判</w>
客 房</w>
宝 莱坞</w>
安全 气囊</w>
安乐 死</w>
它 长</w>
学术 论文</w>
学前 班</w>
子 集</w>
娴 熟</w>
姑 且</w>
妥 善</w>
奶 昔</w>
女 神像</w>
套 路</w>
奖 品</w>
失 措</w>
夫 曼</w>
太空 舱</w>
天气 预报</w>
天 马行空</w>
天 际线</w>
天 数</w>
天 平</w>
大大 增加</w>
大不 一样</w>
大 树</w>
大 时</w>
大 名</w>
大 儿子</w>
大 伙</w>
多 明
多 层次</w>
多 孔</w>
多 产</w>
外 祖母</w>
外 壁</w>
复活 节岛</w>
复合 性</w>
复 印机</w>
处 置</w>
声 望</w>
增 量</w>
增 重</w>
墙 体</w>
墓 穴</w>
填 埋</w>
塞 特</w>
塞 巴斯蒂安</w>
培 训
坑 里</w>
地心 引力</w>
地 车</w>
地 读</w>
地 热</w>
地 层</w>
地 名</w>
地 使</w>
在 技术上</w>
土 地
圆柱 体</w>
围 成</w>
因 人
因人 而异</w>
回顾 历史</w>
回 升</w>
四 射</w>
四 人</w>
噱 头</w>
喷 口</w>
喊 叫</w>
喇 叭
哈 里斯</w>
咫 尺</w>
咖啡 机</w>
咔 哒</w>
味 儿</w>
周边 环境</w>
听 得
听 信</w>
含 羞草</w>
含 水层</w>
君主 制</w>
向 南</w>
向 北</w>
吐 温</w>
后备 箱</w>
后 门</w>
名 望</w>
吉普 车</w>
吉 斯</w>
合作 项目</w>
合 金</w>
各种 类型</w>
各 有不同</w>
右 上方</w>
可 供</w>
另 有</w>
古 人类</w>
口 感</w>
口 吻</w>
变 色</w>
变 暗</w>
受 限制</w>
取得 联系</w>
取 款机</w>
取 暖</w>
发 髻</w>
发 送给</w>
发 货</w>
发 消息</w>
发 售</w>
反对 派</w>
反 作用</w>
双 倍</w>
去 玩</w>
原 文</w>
原 位</w>
历史 悠久</w>
厂 房</w>
印 章</w>
卫生 设施</w>
卡 纳
卡 扎菲</w>
南 端</w>
半 身</w>
半 叶</w>
千 亿</w>
千 万个</w>
十 诫</w>
十 次</w>
十 四</w>
化 器</w>
募 资</w>
勋 章</w>
助 推</w>
动 向</w>
劣 质</w>
务 必</w>
加州 理工学院</w>
加 班</w>
加 压</w>
加 一点</w>
力 争</w>
剪 切</w>
前 部</w>
刺 眼</w>
刺 伤</w>
制药 业</w>
别无 他
别 国</w>
利 克</w>
利 人</w>
创业 家</w>
创 举</w>
切 实
出 走</w>
出 演</w>
出 处</w>
出 去玩</w>
出 个</w>
凭 空
凡 是</w>
几百 美元</w>
几 代</w>
冷 却
冲 走</w>
冰 水</w>
农 耕</w>
军 服</w>
写 照</w>
具 象</w>
共同 体</w>
共产 党</w>
共 舞</w>
兰 迪</w>
兰 达</w>
公 鸡</w>
公 案</w>
八 度</w>
八 分钟</w>
全 自动</w>
入 式</w>
兑 换</w>
光 靠</w>
光 泽</w>
光 标</w>
先 辈</w>
催 泪
储蓄 率</w>
偶 然
健 壮</w>
停 歇</w>
值得 尊敬</w>
修 订</w>
修 好</w>
保 镖</w>
保 养</w>
侯 赛因</w>
供 选择</w>
使用 权</w>
你 试</w>
你 会用</w>
体重 增加</w>
体 力
住 址</w>
低 压</w>
但 用</w>
但 会</w>
伯克 利
伯 莎</w>
伯 尼</w>
传播 速度</w>
会 出</w>
伊阿 宋</w>
伊 莱</w>
任 教</w>
仰 慕</w>
代 词</w>
他 时</w>
今年 年底</w>
亿 多</w>
人情 味</w>
人 眼</w>
人 太多</w>
亲眼 见到</w>
亲 友</w>
交 警</w>
些 小</w>
亚 地区</w>
五 名</w>
五 亿</w>
互 补</w>
于 事</w>
二十 多岁</w>
事 有</w>
乳 酪</w>
乳 头</w>
乱 语</w>
习 性</w>
乔 恩</w>
乍 一看</w>
之 遥</w>
之 树</w>
之 又
主治 医生</w>
主 编</w>
主 机</w>
主 播</w>
为 二</w>
中 产</w>
严 苛</w>
两极 化</w>
两 间</w>
两 条线</w>
与 日俱增</w>
不难 理解</w>
不能 容忍</w>
不容 忽视</w>
不堪 设想</w>
不可 收拾</w>
不 锈钢</w>
不 远处</w>
不 赖</w>
不 留</w>
不 息</w>
不 屈</w>
不 宜</w>
不 均</w>
不 凡</w>
不 以为
不 下去</w>
下 肢</w>
上下 颠倒</w>
上下 文</w>
上 读</w>
上 千人</w>
三文 鱼</w>
三 万</w>
万 英镑</w>
万 元</w>
一小 撮</w>
一分 为二</w>
一 窥</w>
一 帧</w>
一 命</w>
v et
ust in</w>
un d</w>
um ia</w>
u k</w>
t ion</w>
ri l
re c
p er
p e
ol og
li ke</w>
li g
l itt
it ed</w>
it ch
ir a</w>
in k</w>
i x</w>
i j
em a</w>
e arch</w>
d o
d af</w>
cymat ics</w>
chang ing</w>
bur y</w>
ay l
at h</w>
art y</w>
and a</w>
Y R</w>
World changing</w>
Ven ter</w>
U r
Sh ir
SO PA</w>
S er
R og
Pr ot
Phot oshop</w>
Ob ama</w>
Net ra</w>
N o</w>
N an
Mou az</w>
Ma iden</w>
M il
M ath
M E
Lou is</w>
L A</w>
Ke ith</w>
K ur
Juli an</w>
Jer ry</w>
Jef f
J ack
I Q</w>
H PV</w>
G ore</w>
G h
F os
F e
Ev an</w>
E le
E 8</w>
D r</w>
D a</w>
D BC</w>
Car d</w>
C DC</w>
C C</w>
B en</w>
B L</w>
Ang el
Ale c</w>
A s
A li
7 500</w>
5 50</w>
5 0
194 3</w>
190 8</w>
19 12</w>
- ----</w>
龙 去
龙去 脉</w>
鼓 棒</w>
黑色 素瘤</w>
黄 热病</w>
麻风 病</w>
麦哲 伦</w>
麦 凯恩</w>
鹅 卵石</w>
鲍 林</w>
鲁 达</w>
高 能</w>
高 级
高 品质</w>
骨 灰</w>
骄傲 地</w>
驾驶 者</w>
驳 回</w>
驯 服</w>
马尔 科</w>
马克 思
马 路上</w>
香 糖</w>
首 当
首当 其
首当其 冲</w>
食 肉
食肉 动物</w>
风 顺</w>
风 声</w>
风 俗</w>
风 中</w>
领 头人</w>
领 先
预 订</w>
预 料
预 制</w>
页 岩</w>
音 域</w>
音 响
鞭 策</w>
面 墙</w>
非常 感激</w>
非 要</w>
非 对称</w>
静 音</w>
霸 主</w>
露 脊</w>
震 网</w>
雾 气</w>
雪 上加
雪上加 霜</w>
雌 激素</w>
集合 起来</w>
集 资</w>
雅 兹
难以 忘怀</w>
隔 膜</w>
隐 约</w>
降 级</w>
陌生 感</w>
附 于</w>
阿迪 达斯</w>
阿 蒙
阿蒙 森</w>
阿 比</w>
阿 帕
阿 布</w>
阴谋 论</w>
防 备</w>
闻 所未
闻所未 闻</w>
问 号</w>
门 话题</w>
长 岛</w>
长 凳</w>
镇 子</w>
铺 路</w>
铠 甲</w>
铁 人
铁人 三项</w>
钟 声</w>
野 猪</w>
重 蹈</w>
重 整</w>
重 中
重中 之重</w>
里 装</w>
里 兰</w>
酸 痛</w>
酸 度</w>
配 音</w>
部 就
部就 班</w>
那 部</w>
通 风
逗 留</w>
逐 出</w>
逐 个</w>
送 达</w>
退 税</w>
迪 斯科</w>
迟 早
迟早 会</w>
连续 不断</w>
远 胜</w>
远 亲</w>
远 不如</w>
进 午餐</w>
这 招</w>
这 封</w>
这 倒</w>
近在 咫尺</w>
过 会</w>
过 上</w>
迂 回</w>
达尔 文主义</w>
边 角</w>
辩 方</w>
辛 勤</w>
轰 动</w>
转 转</w>
转 角</w>
转 播</w>
车 开</w>
车 型</w>
躲 起来</w>
身 手</w>
跳 到</w>
足球 赛</w>
趣 事</w>
超 高</w>
趁 着</w>
起 火</w>
赤 裸</w>
赛 道</w>
赛 尔</w>
贫 血</w>
财务 状况</w>
财 力</w>
贝 特</w>
豪 宅</w>
豆 子</w>
谩 骂</w>
谋 划</w>
调节 器</w>
调 料</w>
调 低</w>
调 乏味</w>
谁 会
谁会 想到</w>
诺伊 曼</w>
诱 惑
误 区</w>
语 症</w>
评论 员</w>
论 调</w>
讶 异</w>
记 在
记在 心</w>
记 事</w>
议 论</w>
议 定
议定 书</w>
训练 营</w>
训 斥</w>
订 制</w>
计划 局</w>
计 时器</w>
警 员</w>
言 表</w>
言 行</w>
触 须</w>
解 法</w>
视 同仁</w>
西 里尔</w>
西 洋
装 水</w>
表示 感谢</w>
衣 架</w>
行 刑</w>
蠢 货</w>
蠢 事</w>
螨 虫</w>
蛞 蝓</w>
蚜 虫</w>
薄 荷</w>
蒙 德</w>
蒙 哥
蒙哥 马利</w>
菌 株</w>
莫 里斯</w>
荧 光
荡 荡</w>
荒 地</w>
苦 痛</w>
苦 差事</w>
苏 茜</w>
花 花
花 纹</w>
芝 诺</w>
节 育</w>
艾 略
艾略 特</w>
艾 琳</w>
艾 哈
色 胺</w>
良 性
船 身</w>
致 密</w>
臭 味</w>
自然 语言</w>
自助 餐</w>
自动 售货机</w>
自 残</w>
自 发性</w>
自 卫</w>
臆 想</w>
脱 离
脉 动</w>
胡 椒</w>
胡 扯</w>
胞 们</w>
胖 子</w>
背 负着</w>
胃 灼热</w>
肩 而过</w>
肥皂 泡</w>
聊 一聊</w>
聂 鲁达</w>
而 建</w>
而 不
而 三</w>
老 鹰</w>
老 手</w>
翻译 人员</w>
翻 页</w>
翻 版</w>
翻 一番</w>
群 体
署 名</w>
罪 羊</w>
罩 着</w>
罢 课</w>
罗 莎</w>
罗 比</w>
罗 拉</w>
罗 姆</w>
罗 夫</w>
绿 茶</w>
给 予
经 商</w>
绊 倒</w>
纵 横</w>
纳 粹
纳 格</w>
纳 人</w>
纤维 化</w>
紧 缺</w>
索 菲
索 内斯</w>
米 特</w>
篇 一律</w>
算 算</w>
算 数</w>
等 量</w>
笼 罩着</w>
第一 行</w>
站不 住脚</w>
立 足
立 不安</w>
窥 视</w>
窃 窃
窃窃 私语</w>
空 谈</w>
空 想</w>
空 心</w>
稽 之谈</w>
稻 米</w>
稳定 下来</w>
移 动性</w>
称 道</w>
种 树</w>
票 房</w>
神 器</w>
神 仙</w>
社会 效益</w>
磨 灭</w>
碰 见</w>
碰 巧是</w>
碎 裂</w>
硬 度</w>
破 除</w>
砖 墙</w>
砍 伐
砍伐 森林</w>
石灰 石</w>
石 匠</w>
矮 人</w>
矗 立</w>
睫 毛</w>
眷 顾</w>
真 能</w>
看 门人</w>
看 管</w>
看 守
省 去</w>
省 份</w>
相互 之间</w>
相 仿</w>
直 前</w>
盟 国</w>
盛 会</w>
盘 尼西
盘尼西 林</w>
益 率</w>
百分之九 十五</w>
百分之 七十五</w>
百 年
白 点</w>
白 化</w>
痛 哭</w>
病理 学</w>
病 患者</w>
病 原</w>
疆 界</w>
留 有</w>
畏 缩</w>
电 源
甲 醛</w>
用 笔</w>
生物 界</w>
生活 品质</w>
生命 线</w>
生 植物</w>
生 平</w>
甘 愿</w>
瓦 格纳</w>
瑞 奇</w>
理工 大学</w>
理 喻</w>
理 事会</w>
现场 表演</w>
现场 直播</w>
环 视</w>
玩 玩</w>
猴 面包树</w>
独 行</w>
犯 了
特 伦斯</w>
牢 笼</w>
牛 群</w>
爱 戴</w>
熬 过</w>
熬 夜</w>
熊 熊
照 常</w>
照 射到</w>
然 如此</w>
焕 发</w>
烹 调</w>
热 门话题</w>
热 身</w>
热 液</w>
热 气</w>
烘 焙</w>
点 击
火 星人</w>
激进 主义</w>
澳大 利亚人</w>
潜 藏
演奏 家</w>
漏 斗</w>
滨 海</w>
溜 走</w>
湿 婆</w>
游 泳
混 血</w>
混 为
混为 一谈</w>
深刻 印象</w>
深入 人心</w>
深 受
消 遣</w>
消 磨</w>
海 特</w>
海 湾
海 尔</w>
浮 力</w>
浓 烟</w>
济 于事</w>
浅 色</w>
流 水</w>
流 下</w>
洗 掉</w>
法 外</w>
没 完</w>
沙 袋</w>
沉 寂</w>
汽车 行业</w>
汽车 公司</w>
池 子</w>
求 是</w>
求 偶</w>
水 肺</w>
水 熊虫</w>
水 性</w>
水 岭</w>
水 坝</w>
水 坑</w>
水 危机</w>
水 力
民主 选举</w>
毛 细胞</w>
毛 毛虫</w>
比较 复杂</w>
比 萨</w>
每 星期</w>
每 块</w>
每 场</w>
母 性</w>
殿 堂</w>
武 士</w>
此 举</w>
正 题</w>
正 当
欧 语</w>
檀 香
橱 窗</w>
橘 子</w>
横 扫</w>
模 版</w>
榜 首</w>
概念 化</w>
梯 度</w>
桅 杆</w>
格陵 兰</w>
格 里
根 于</w>
标 榜</w>
标 价</w>
柔 和</w>
枚 举</w>
林 登</w>
林 木</w>
松 露</w>
杰 里</w>
来 龙去脉</w>
条 河</w>
机器 人学</w>
机 关
机关 枪</w>
本 子</w>
本 上</w>
朗 诵</w>
服务 器
服 困难</w>
月经 周期</w>
月 板</w>
替 罪羊</w>
曼 帝国</w>
更 正</w>
暴风 雪</w>
暴 民</w>
智 慧
显 现出</w>
昨 天晚上</w>
星 辰</w>
星 级</w>
易 行</w>
明 暗</w>
时代 周刊</w>
时 说</w>
时 炸弹</w>
时 宜</w>
早 饭</w>
旧金 山
日程 表</w>
日 食</w>
日 间</w>
日 趋</w>
日 新月
日新月 异</w>
无法 回答</w>
无可 救药</w>
无 稽之谈</w>
无 济于事</w>
无 政府</w>
无 忧</w>
无 声
无 垠</w>
无 价</w>
无 事</w>
族 谱</w>
旋 转
旁 人</w>
施 舍</w>
新鲜 空气</w>
新闻 标题</w>
新兴 国家</w>
斯巴 达克斯</w>
斯 马</w>
斯 尔</w>
斯 多德</w>
斯 伯格</w>
斟 酌</w>
文 不值</w>
整 件事</w>
敲 开</w>
敲 响
数 是</w>
数 十个</w>
教育 学</w>
敏 锐
政治 立场</w>
政治 信仰</w>
改 掉</w>
改 名</w>
收 起</w>
收 益率</w>
擦 肩而过</w>
操作 员</w>
撞 击
撕 掉</w>
摊 开</w>
摄 于</w>
搅拌 机</w>
提 了</w>
掩 体</w>
推 销员</w>
接 线
排 在</w>
捍 卫者</w>
挺 酷</w>
挥 霍</w>
挡风 玻璃</w>
按 部就班</w>
按 计划</w>
按 压</w>
按 住</w>
指示 牌</w>
持续 上升</w>
招 致</w>
招 来</w>
拘 禁</w>
拘 捕</w>
拖 网</w>
拐 角</w>
拍 电影</w>
拉 长</w>
拉 斐
拉 扯</w>
拉 巴</w>
拉 力</w>
押 韵</w>
护 送</w>
投票 站</w>
投 手</w>
把 握住</w>
技术 革新</w>
技术 手段</w>
承 载
批 改</w>
扰 动</w>
扫 弦</w>
扣 留</w>
托 尼
打 响</w>
打 到</w>
打 中</w>
手 榴弹</w>
扁 豆</w>
所 起</w>
戴 维
戒 毒</w>
成功 人士</w>
成 吉
成吉 思
成吉思 汗</w>
慷 慨
慢慢 来</w>
愿 不
愿不 愿意</w>
愤 慨</w>
意 外
想 通</w>
想 而知</w>
想 学</w>
惬 意</w>
惨 淡</w>
患 病率</w>
恼 人</w>
恶 臭</w>
恢复 性</w>
恐怖 电影</w>
恐怖 活动</w>
怪 诞</w>
怪 癖</w>
思 念</w>
忧心 忡
忧心忡 忡</w>
忧 心</w>
忘 不了</w>
必 然
必 备</w>
心理 咨询</w>
心 境</w>
心 事</w>
德 兰</w>
微 秒</w>
得 花</w>
得 着</w>
很 烂</w>
很 受</w>
往 右</w>
往 上爬</w>
形 态
形 容
形容 词</w>
形 图</w>
录 下来</w>
当 说</w>
归根 到底</w>
弹 跳</w>
弯 折</w>
张 白纸</w>
弗 雷
弗 洛
弗 拉
开幕 式</w>
开 药</w>
开 篇</w>
开 战</w>
建筑 工地</w>
建 国</w>
康 沃尔</w>
座 头</w>
库 克</w>
广 为
广为 流传</w>
幼 仔</w>
幸福 生活</w>
幸福 快乐</w>
年 长者</w>
平 行
干 掉</w>
幌 子</w>
常 现象</w>
帮 手</w>
帕 罗</w>
帕 尔
希 拉</w>
帆 风顺</w>
布拉 姆斯</w>
市场 需求</w>
巴 德</w>
左 宗
左宗 棠</w>
巡 回</w>
山 地车</w>
展 会</w>
居民 区</w>
尾 数</w>
尺 子</w>
尸 检</w>
尖 端
少 之又
少之又 少</w>
小提琴 家</w>
小 钱</w>
小 家庭</w>
寿 命
导航 系统</w>
导 火
对 齐</w>
富 于</w>
家长 会</w>
家庭 聚会</w>
家 禽</w>
客 服</w>
审 批</w>
实验 组</w>
实际 操作</w>
实用 性</w>
实 体化</w>
实 事
实事 求是</w>
定 论</w>
定 时炸弹</w>
完成 学业</w>
安然无 恙</w>
守 法</w>
学 奖</w>
字 谜</w>
妈 的</w>
如 实</w>
如 人意</w>
好几 代</w>
好 玩儿</w>
好 点</w>
好 孩子</w>
奥斯 曼帝国</w>
奉 行</w>
奈 特</w>
夹 板</w>
头 等
失 学</w>
失 事</w>
太阳 风暴</w>
太阳 风</w>
太阳 镜</w>
太子 港</w>
天文 馆</w>
天 壤
天壤 之别</w>
大 小便</w>
大 坝</w>
大 吉</w>
夜 夜</w>
多明 戈</w>
多 过</w>
多 西</w>
多 米</w>
多 快</w>
多 得</w>
多 多</w>
多 克</w>
多 位</w>
外 皮</w>
外 光</w>
复杂 化</w>
备 选</w>
声 呐</w>
壮 年</w>
墨西哥 人</w>
墨 守
增 高</w>
填 充
塞 万
塞万 提斯</w>
塔 布</w>
基 站</w>
基 特</w>
培养 基</w>
域 性</w>
埃 利
埃利 奥特</w>
坐标 轴</w>
坐 立不安</w>
地 面
地 来</w>
地 有</w>
在此 之后</w>
在 校</w>
在 你
在你 看来</w>
圣 彼得
图 形
国防 部长</w>
国家 卫生
国家卫生 研究院</w>
固 定
围 住</w>
回 音</w>
回 家
四分 五
四分五 裂</w>
四 项</w>
四 大</w>
嘟 嘟</w>
嘌 呤</w>
商业 行为</w>
唯 物
哪些 方面</w>
哈 萨克
哈 克</w>
和 华</w>
呆 板</w>
吼 叫</w>
听 者</w>
吐 丝</w>
同 辈</w>
同 胞们</w>
同 源</w>
同 时代</w>
合 理性</w>
合 影</w>
史瓦 西</w>
可 说</w>
可 数</w>
可 想而知</w>
可 取</w>
只 为</w>
口 香糖</w>
口 述</w>
变得 复杂</w>
变 糟</w>
变 种</w>
变 少</w>
受 雇</w>
受 力</w>
取 货</w>
取 证</w>
发展 壮大</w>
发动 战争</w>
发 财</w>
发 行
发 光
发 丝</w>
反 问</w>
双 鞋</w>
双 关</w>
双 亲</w>
参赛 者</w>
参加 者</w>
厨 艺</w>
原 状</w>
原 地
原 件</w>
压 倒</w>
即 使
即使 如此</w>
危 急</w>
印地 语</w>
印 着</w>
印 欧语</w>
印 有</w>
卢 克</w>
卡通 人物</w>
卡 马</w>
卡 多</w>
占 地</w>
博 雅</w>
博 爱</w>
博 格</w>
卖 点</w>
单 靠</w>
单 调乏味</w>
卓 有成效</w>
协 奏曲</w>
华尔 兹</w>
半 月板</w>
午 餐时间</w>
千 篇一律</w>
十 三岁</w>
十 一</w>
匣 子</w>
化 工厂</w>
包 涵</w>
勤 劳</w>
势 利</w>
动 弹</w>
加 里</w>
前 身</w>
前 男友</w>
前 才</w>
前 列</w>
制 表</w>
制 度
制 动</w>
到 右</w>
到 之处</w>
到 下</w>
创 作
创 世纪</w>
划 出</w>
切实 可行</w>
分子 生物学家</w>
分 清</w>
分 法</w>
分 水岭</w>
刀 刃</w>
击 退</w>
出版 物</w>
出口 国</w>
几百 米</w>
几百 种</w>
几百 名</w>
几 家</w>
几 十万</w>
凝 视着</w>
减 免</w>
冲 刷</w>
冰 河</w>
军 阀</w>
再 而三</w>
再 者</w>
内 分泌</w>
内 侧</w>
养 老</w>
具体 化</w>
关键 作用</w>
关 税</w>
共 进午餐</w>
公 职</w>
公 益
公 升</w>
公 会</w>
八 面体</w>
全 套</w>
入 选</w>
克里 斯托</w>
克莱 尔</w>
克 鲁</w>
克 顿</w>
克 服困难</w>
克 劳
克 制</w>
光 影</w>
光 度</w>
先 要</w>
像 素
健 将</w>
停 靠</w>
值 班</w>
借 由</w>
信 箱</w>
保 龄
便 签</w>
侦察 员</w>
侦 察</w>
供 暖</w>
侏 儒</w>
体 燃料</w>
体 征</w>
低 碳</w>
但 别</w>
伴 四郎</w>
伯 爵</w>
传送 门</w>
伟 哥</w>
会 诊</w>
会 犯</w>
伙 儿</w>
伊利诺伊 州</w>
伊 拉克
企 及</w>
任何 时刻</w>
仰 赖</w>
令人 讨厌</w>
付 诸</w>
他 妈的</w>
从左 到右</w>
从 上
今天 下午</w>
亿 到</w>
亿 光年</w>
人类 史上</w>
人 花</w>
人 死</w>
人 次</w>
人 权
人 情</w>
人 声</w>
人 上</w>
亲 缘</w>
亲 和力</w>
产 科</w>
产 房</w>
产 地</w>
交响 曲</w>
交 汇
交 战</w>
亡 者</w>
亚 特</w>
五 条</w>
互相 学习</w>
互 联
亏 欠</w>
二十 多年</w>
二十 分钟</w>
二 零零
二 百
事 无
习惯 化</w>
之 计</w>
之 屋</w>
之 宝</w>
主 动
为时 已晚</w>
为 一</w>
中 庭</w>
个人 行为</w>
个 面</w>
个 儿</w>
个 体化</w>
两栖 动物</w>
两 面
两 辆</w>
两 秒</w>
两 句话</w>
业 界</w>
专 门
与其 说</w>
不难 想象</w>
不知 疲倦</w>
不可 理喻</w>
不可 分割</w>
不 起来</w>
不 衰</w>
不 移</w>
不 明
不 惜</w>
不 在
不 合</w>
下 令</w>
下 一场</w>
上下 下</w>
上 移</w>
上 山</w>
上 取</w>
上 上下下</w>
三 餐</w>
三 步</w>
三 宝</w>
三 四个</w>
三 千万</w>
三 世</w>
七 百万</w>
一个 系列</w>
一 顿饭</w>
一 视同仁</w>
一 盏灯</w>
一 百万美元</w>
一 时期</w>
一 早</w>
一 整</w>
一 拳</w>
一 张白纸</w>
一 帆风顺</w>
一 夜间</w>
一 出</w>
一 丝
y l
w at
w as</w>
w a</w>
uc e</w>
u ardo</w>
tw itter</w>
t en
ro w</w>
re d</w>
r ac
p H</w>
ou se</w>
ot o</w>
on ia</w>
on go</w>
om a</w>
od i</w>
od e</w>
man n</w>
m o</w>
m i</w>
li f
k i</w>
k h</w>
jit ney</w>
iv ers
ion al</w>
in k
illi s</w>
ig n</w>
if er</w>
h h</w>
for d</w>
f el
fel d</w>
ex it</w>
ev er</w>
es h</w>
en d</w>
ell a</w>
el yn</w>
e x</w>
civ ility</w>
c o
as t</w>
ar k</w>
ar g
apm inder</w>
an s</w>
a p</w>
U S
T oo</w>
T H</w>
Stac ey</w>
Siftab le</w>
SU V</w>
S w
S ur
S un
Ros e</w>
Rabb it</w>
R ub
R am
P ub
P ol
P en
O n
O h</w>
N ov
N ew
N O
Ma x</w>
M os
M org
M BI</w>
L y
L os</w>
L isa</w>
L if
L ES</w>
K iva</w>
K han</w>
K enn
K KM</w>
Jeff erson</w>
J L</w>
IN CR
INCR A</w>
Hen ry</w>
Han s</w>
HI N</w>
GP HIN</w>
Fur by</w>
Fri ed
En t
Ed uardo</w>
D onn
D o
D er
D em
Cor exit</w>
Com p
Car ol</w>
CA T</w>
C M</w>
B row
B ot</w>
B abb
B J</w>
Ar m
A ug
A T</w>
8 60</w>
8 .5</w>
40 1</w>
2. 4</w>
2 600</w>
195 9</w>
194 1</w>
19 19</w>
19 10</w>
齐 默
黑 一片</w>
黏 在</w>
黄 石
黄石 公园</w>
麻醉 药</w>
麻 木
麦 金
麦 肯
麦 加</w>
鸡 块</w>
高 过</w>
高 烧</w>
高 点</w>
高 分</w>
骸 骨</w>
驱逐 出境</w>
马萨诸 塞</w>
马尾 藻</w>
馆 藏</w>
饭 桌</w>
飞 秒</w>
风 速</w>
额 度</w>
领 到</w>
预 留</w>
预 先
顾 忌</w>
顾 名
顾名 思
顾名思 义</w>
项 圈</w>
音 景</w>
韦 托</w>
鞭 子</w>
靶 心</w>
非常 灵活</w>
非 兹
静 静</w>
露 头
震撼 人心</w>
零 度</w>
雅各 布</w>
隐形 眼镜</w>
隐 居</w>
陪 同</w>
除 草</w>
除 草
除 术</w>
除 外</w>
限 速</w>
限 制
降 至</w>
陈 列</w>
陆 上</w>
附 肢</w>
陀 螺
陀螺 仪</w>
陀 罗</w>
阿尔茨 海默</w>
阿 门</w>
阿 桑
阿 克拉</w>
阿 克</w>
防 火
闸 门</w>
间 距</w>
问 好</w>
门 票</w>
门 厅</w>
门 别
门别 类</w>
长 篇</w>
长 存</w>
镶 嵌</w>
锡 克
锡克 教</w>
铺 天
铺天 盖
铺天盖 地</w>
钟 表</w>
金 鱼</w>
重大 意义</w>
重 燃</w>
重 创</w>
里 行
里行 间</w>
里 希</w>
里 夫</w>
酒 瓶</w>
酒 杯</w>
那 面</w>
那 点</w>
那 教</w>
那 就是说</w>
那 家伙</w>
邂 逅</w>
遗 留
遇 到
遇到 困难</w>
通 通</w>
通 性</w>
通 宵</w>
逍 遥
选 活动</w>
逆 时针</w>
逃 难</w>
逃 避
适 得其
适得其 反</w>
适 中</w>
送 货</w>
退 役军人</w>
迷 雾</w>
迫 者</w>
这 药</w>
还 清</w>
还 价</w>
运动 神经</w>
运 载</w>
过 热</w>
过 低</w>
达 佩斯</w>
轻 柔</w>
转 圈</w>
身无 分文</w>
蹴 而
蹴而 就</w>
蹈 矩</w>
路易斯安 那州</w>
路 障</w>
跨越 国界</w>
跟 得上</w>
跌 入</w>
足 智
足智 多
足智多 谋</w>
趣 味</w>
越 强</w>
超 文本</w>
趁 机</w>
赶 回</w>
走私 者</w>
走 了</w>
赫 尔
赛 季</w>
资 质</w>
费 尔
贡 献者</w>
贞 操</w>
贝 利</w>
谎 话</w>
读 一
读一 读</w>
诺 莱坞</w>
诺 拉</w>
诸 神</w>
说 不出</w>
语言 表达</w>
诗 句</w>
试 管
试管 婴儿</w>
词 儿</w>
诊 断
证 券</w>
讲 授</w>
记录 在案</w>
让 路</w>
讨 者</w>
订 婚</w>
计数 器</w>
言自 语</w>
言不 讳</w>
言 而
言 乱语</w>
触 即
触即 发</w>
解 散</w>
觉得 很
规 蹈矩</w>
观测 台</w>
观察 员</w>
见 影</w>
西 瓜</w>
西 德</w>
裁 剪</w>
被 试</w>
被 盗</w>
袍 子</w>
表 弟</w>
表 兄</w>
血 脉</w>
血 汗</w>
螺 丝</w>
虚 张
虚张 声势</w>
藏 有</w>
薪 阶层</w>
蒸 气</w>
葛 洛
葛 兰
落 差</w>
萨 马</w>
萨 曼莎</w>
萝 西</w>
菩 提</w>
莫 妮
药物 滥用</w>
药 用</w>
荧 光灯</w>
荒 者</w>
茶 叶</w>
茱 莉亚</w>
若 然</w>
苏 黎
苏 格拉
苏格拉 底</w>
苏 格
苏格 兰人</w>
花 豹</w>
花 岗
花 八
花八 门</w>
花 光</w>
节 拍
节拍 器</w>
艾哈 迈
艾 诗</w>
艰 险</w>
良 心</w>
舞 曲</w>
舞 团</w>
舞 动</w>
致 富</w>
自由 贸易</w>
自然 规律</w>
自 言自语</w>
自 有</w>
自 愈</w>
自 已</w>
自 于</w>
腐败 问题</w>
脱口 而出</w>
脑 瘤</w>
能量 消耗</w>
胸 针</w>
胡 须</w>
胡 言乱语</w>
胡 德</w>
背 景
胆 小</w>
肩 负着</w>
肖 邦</w>
肌 萎缩</w>
联 接</w>
耸 耸肩</w>
耸 人听闻</w>
耶 和华</w>
耆 那教</w>
考 试
老 鼠
老 话</w>
老 套</w>
翼 服</w>
翻 遍</w>
美国 空军</w>
美国 大使馆</w>
罗德 尼</w>
网络 系统</w>
网络 服务</w>
编 程
编 写
绿 光</w>
继承 人</w>
给予 帮助</w>
给 力</w>
结 账</w>
结 合体</w>
经营 者</w>
经常 性</w>
经 上</w>
细 看</w>
细 化</w>
细 分</w>
纽 瓦克</w>
纹 路</w>
纯 正</w>
繁 重</w>
繁 华</w>
紧 闭</w>
紧 紧
索 韦托</w>
糙 度</w>
精神 药物</w>
精确 性</w>
粘 合剂</w>
粗 糙度</w>
米 老鼠</w>
米 尔斯</w>
米 勒</w>
管理 系统</w>
管弦 乐团</w>
算 盘</w>
简单 易行</w>
简 约</w>
签 下</w>
筷 子</w>
答 题</w>
筑 巢</w>
第二 类</w>
第九 条</w>
第一 线</w>
竿 见影</w>
竞 选活动</w>
立 竿见影</w>
穿 衣</w>
穆 德</w>
积极 主动</w>
科幻 电影</w>
科 特
科 斯</w>
科 动物</w>
离 婚
离婚 率</w>
神经 性</w>
神 圣
社会 底层</w>
磷 虾</w>
碧昂 斯</w>
研究 生
研究生 院</w>
研究 室</w>
矛 盾
着 重于</w>
眼皮 底下</w>
眼 部</w>
看 台</w>
看 个</w>
相 投</w>
直 言不讳</w>
直 击</w>
目 惊
目惊 心</w>
盟 军</w>
盛 开</w>
盖 骨</w>
监 视
盐 湖
盐湖 城</w>
皮尔 伯格</w>
皮 桦</w>
皮 克斯</w>
百分之 二十五</w>
百 叶
百叶 窗</w>
登 机</w>
登 场</w>
癌 基因</w>
瘙 痒</w>
疙 瘩</w>
番 话</w>
画 得</w>
男 性化</w>
电话 公司</w>
电子 显微镜</w>
电信 公司</w>
电 冰箱</w>
田 里</w>
用 电器</w>
用 功</w>
生日 礼物</w>
生 土
生土 长</w>
生 与
生与 死</w>
甘 多</w>
瓦 西里</w>
琳 达</w>
理想 主义者</w>
理 睬</w>
理 发</w>
珍珠 港</w>
珍 藏</w>
玛 目</w>
玛 氏</w>
王 者</w>
王 位</w>
猫 科动物</w>
猎 户
猎户 座</w>
狼 群</w>
狱 之灾</w>
狄 克</w>
特鲁 斯</w>
特殊 性</w>
特 纳</w>
特 洛伊
特洛伊 木马</w>
物 化</w>
牢 狱之灾</w>
牛 角</w>
版 面</w>
爱达 荷</w>
爱荷 华州</w>
爱国 主义</w>
爱 意</w>
爱 伦</w>
爬 楼梯</w>
爬 墙</w>
燕 麦片</w>
照 样</w>
热 浪</w>
烟草 行业</w>
炼 金
点 火</w>
炒 鱿鱼</w>
炒 作</w>
炉 灶</w>
灼 伤</w>
灯 笼</w>
火山 爆发</w>
火 炬</w>
火 力</w>
激 素
演化 出</w>
演 说家</w>
漆 黑一片</w>
漂 白</w>
滴 答</w>
满满 的</w>
满意 足</w>
满 分</w>
滔 滔
滔滔 不绝</w>
溃 疡</w>
湖 边</w>
湖 水</w>
游 离</w>
温 度
渔 猫</w>
深 藏</w>
深 爱着</w>
深 埋</w>
润 滑
消耗 掉</w>
消 减</w>
涂 抹</w>
浸 于</w>
海洋 学</w>
浩 大</w>
测 谎</w>
测 者</w>
流 满面</w>
洗碗 机</w>
洋 溢</w>
泪 流满面</w>
油 炸</w>
没 落</w>
沟 渠</w>
沉 浸于</w>
沃尔 沃</w>
沃 斯</w>
沃 德</w>
汽车 旅馆</w>
永 动机</w>
水 晶
民族 主义者</w>
民 调</w>
民 用</w>
氏 菌</w>
毫无 关系</w>
毫无 价值</w>
毛 毯</w>
比 伯</w>
比 人</w>
毒 蛇</w>
毒 气</w>
每一 寸</w>
每 每</w>
每 加仑</w>
殡 葬</w>
死 定
死定 了</w>
武装 力量</w>
正 想</w>
正 常
正 对着</w>
正 像</w>
正 中</w>
檐 下</w>
橡 树</w>
概念 性</w>
楼 里</w>
椰 子
植 根于</w>
森 林
森 堡</w>
森 哲</w>
棘 龙</w>
棍 球</w>
梵 蒂
梅 毒</w>
根 治</w>
核 辐射</w>
核 燃料</w>
校 区</w>
柱 状</w>
柔 韧</w>
架 设</w>
枪 口</w>
枝 干</w>
板 上</w>
来 谈</w>
来 读</w>
来 访</w>
来 算</w>
来 教</w>
权 重</w>
杂 乱
本 着</w>
本 周</w>
木 雕</w>
木 制</w>
有 线</w>
有 氧</w>
有 失</w>
有 势</w>
最 广</w>
替 换成</w>
曼哈 顿
曼 森</w>
更 斯</w>
更 佳</w>
曲 率</w>
曲 棍球</w>
晴 朗</w>
景 致</w>
普遍 现象</w>
普通 话</w>
是 谁</w>
昌 盛</w>
时 差</w>
早 以前</w>
早 产</w>
旨 意</w>
日益 增长</w>
日 葵</w>
无穷 大</w>
无人 问津</w>
无一 失</w>
无 表情</w>
无 章</w>
无 理</w>
无 心</w>
方 针</w>
方 程
方 圆</w>
新 政</w>
新 一轮</w>
斯特 灵</w>
斯托 芬</w>
斯 皮尔伯格</w>
斯 瓦尔</w>
斯 文</w>
斯 卡
断 掉</w>
斧 头</w>
斑 斑</w>
斐 济</w>
敲响 警钟</w>
数百 种</w>
数据 处理</w>
数学 公式</w>
数 数</w>
散 居</w>
教 我
教我 如何</w>
救 治</w>
救 援
救 命
故 我
故我 在</w>
故 事会</w>
政治 权利</w>
政治 性</w>
改革 者</w>
改变 方向</w>
改 道</w>
撰 稿人</w>
播 下</w>
撞 倒</w>
搬 回</w>
搅 动</w>
揭 秘</w>
提 时代</w>
推 算</w>
控制 不了</w>
控 方</w>
探测 仪</w>
排 外</w>
掉 头</w>
掉 入</w>
掀 开</w>
换句 话</w>
振 兴</w>
挪 到</w>
挥 发</w>
挤 进</w>
挑 起</w>
指 点点</w>
指 指点点</w>
持 枪</w>
拼 贴</w>
招 牌</w>
招 待</w>
拖 鞋</w>
拖 拽</w>
拒绝 接受</w>
拉斐 尔</w>
拉 链</w>
拉 尔夫</w>
拉 出</w>
抵 挡</w>
报 税</w>
护 栏</w>
抢 先</w>
折 痕</w>
抗 性</w>
抖 动</w>
投 石</w>
投 在</w>
抒 发</w>
找 些</w>
扔 下</w>
打 针</w>
打 通</w>
打 破
打 火
打 人</w>
才 干</w>
手无 寸
手无寸 铁</w>
手 提</w>
手 做</w>
所 闻</w>
所 见
所 画</w>
所 愿</w>
所 到之处</w>
房 屋里</w>
截 面</w>
战 车</w>
战 前</w>
我 脑</w>
我 点</w>
我 得</w>
我 作</w>
我 付</w>
成群 结队</w>
慌 失措</w>
感觉 器官</w>
感染 性</w>
愈来 愈</w>
愈 加</w>
想 谈</w>
惠 及</w>
惊 慌失措</w>
情 理</w>
悲 剧
恶意 软件</w>
恶 棍</w>
息 日</w>
恢复 力</w>
总 督</w>
怪 才</w>
急 剧
急剧 下降</w>
思 潮</w>
快餐 店</w>
快速 增长</w>
忘 录</w>
忌 惮</w>
心 满意足</w>
心 无
心 房</w>
心 得</w>
心 上</w>
微 缩</w>
微 创</w>
循环 往复</w>
循 规蹈矩</w>
循 序
循序 渐进</w>
得 救</w>
得 快</w>
很 早以前</w>
很 广</w>
待 会</w>
征 得</w>
往 直前</w>
往 昔</w>
彻 夜
强加 在</w>
弧 菌</w>
异 形</w>
开 怀
开 垦</w>
开 场
开场 白</w>
广泛 传播</w>
年 少时</w>
平 日</w>
干 道</w>
干 枯</w>
常 去</w>
帕金森 氏症</w>
帐 单</w>
希 德</w>
希 利</w>
帅 气</w>
布宜诺斯 艾利斯</w>
布 达佩斯</w>
布 罗</w>
布 朗
市 里</w>
巴 纳</w>
巴 兹</w>
巨 资</w>
左 下方</w>
工作 狂</w>
工 蜂</w>
工 薪阶层</w>
巡 回
嵌 入式</w>
展览 馆</w>
屋 檐下</w>
尽 己</w>
尽 如人意</w>
尼 尔斯</w>
尼 加拉
就是 指</w>
尝 尝</w>
尔沃 基</w>
尔 瓦</w>
尔 文</w>
小 贩</w>
小 肠</w>
小 白鼠</w>
小 河</w>
小 把戏</w>
小 女儿</w>
小 声</w>
小 儿子</w>
射 精</w>
寻 思</w>
对 弈</w>
密 特</w>
密 尔沃基</w>
寄 托</w>
寄 出</w>
宫 颈
宫 廷</w>
室 温</w>
审 阅</w>
审 理</w>
宝 库</w>
宗教 团体</w>
完 事</w>
安全 措施</w>
安 详</w>
安 息日</w>
守 旧</w>
守 夜</w>
它 成</w>
孩 提时代</w>
学 老师</w>
学 名</w>
存 量</w>
存 货</w>
字 里行间</w>
字 样</w>
娜塔 莉</w>
妮 可</w>
好 日子</w>
女性 主义</w>
女 郎</w>
女 演员</w>
套 用</w>
奎 特</w>
奋 起</w>
奇 想</w>
夸 特</w>
头 等</w>
失 重</w>
失 语症</w>
失 去
太阳 神</w>
太 多人</w>
天 翁</w>
天 呀</w>
大气 污染</w>
大 陆
大 家族</w>
大 壶</w>
大 发
多米 尼加</w>
多 边形</w>
多 边</w>
多 萝西</w>
多 英里</w>
多 疑</w>
多 用</w>
多 有</w>
多 任务</w>
多 一点点</w>
外 显</w>
外 侧</w>
复活 节</w>
复 述</w>
备 忘录</w>
士 坦
壁 炉</w>
增 值</w>
填充 物</w>
塞尔 玛</w>
塞 德</w>
堆 砌</w>
埃 森哲</w>
埃 斯特</w>
坡 度</w>
块 头</w>
坎 塔
地 要</w>
地 段</w>
在 所
圣 坛</w>
土 生土长</w>
圈 养</w>
圆 满</w>
图 是</w>
困 苦</w>
囤 积</w>
回 落</w>
回 荡</w>
回 旋</w>
回 事儿</w>
囚 徒</w>
嘴 边</w>
喷气 式</w>
喷 水</w>
喷 嘴</w>
喝 点</w>
喉 头</w>
善 恶</w>
善 事</w>
商品 化</w>
商业 性</w>
商业 区</w>
商业 利益</w>
商业 价值</w>
哪 去</w>
哈萨克 斯坦</w>
哈 德</w>
哈 哈哈</w>
和 蕾</w>
和 玛丽</w>
命 中</w>
呼吸 困难</w>
呵 护</w>
周 到</w>
吸 血</w>
吩 咐</w>
吨 重</w>
吞 没</w>
君 士坦
向 日葵</w>
后 边</w>
名 顶替</w>
名 列
名列 前
名列前 茅</w>
同 居</w>
同 一性</w>
吉 布
吉 娜</w>
合作 性</w>
合 群</w>
合 子</w>
合 伙</w>
叹 气</w>
史密 森</w>
可 以
叫 停</w>
只 靠</w>
另一 类</w>
古 德</w>
口头 禅</w>
口 口
变 黑</w>
变 坏</w>
受益 者</w>
受 审</w>
发电 量</w>
发生 率</w>
发生 器</w>
发 扬</w>
双 金属</w>
双 关
双关 语</w>
去 学</w>
原 由</w>
原 始人</w>
压 迫者</w>
历史 背景</w>
印刷 品</w>
卫生 部门</w>
卫生 条件</w>
卡拉 奇</w>
占 有
占 地面积</w>
南 面</w>
南 斯拉夫</w>
卖 得</w>
华 特</w>
半 英里</w>
半 空</w>
千 瓦
千 张</w>
十 几
十 六
十 九岁</w>
十 七</w>
医药 行业</w>
医 学生</w>
北 海</w>
化学 键</w>
化学 性质</w>
勘 测</w>
劳 伦</w>
动 能</w>
加迪 休</w>
加利 福</w>
加 进去</w>
加 薪</w>
加 来</w>
加 快
加 个</w>
功 绩</w>
办事 员</w>
力 图</w>
制 剂</w>
到 家</w>
别无他 法</w>
利 姆</w>
利 华</w>
刑 讯
切割 机</w>
切 除术</w>
切 入点</w>
分 门别类</w>
分 枝</w>
刀 片</w>
击 掌</w>
出 面</w>
出 局</w>
出 力</w>
凯 克</w>
几何 图形</w>
几 百万个</w>
几 段</w>
几 样</w>
减 压</w>
准确 无误</w>
冻 土</w>
决 断</w>
决 斗</w>
军事 基地</w>
军 备</w>
写 文章</w>
写 实</w>
写 于</w>
冒 险
冒 名顶替</w>
再 过</w>
冈 比亚</w>
内 特</w>
内 源性</w>
养 牛</w>
其 事</w>
兴 建</w>
共同 行动</w>
六 十
公平 性</w>
公 牛</w>
公 爵</w>
公 义</w>
八 成</w>
八 小时</w>
八 倍</w>
全 额</w>
全 速</w>
全 称</w>
全 然不同</w>
入 眠</w>
克里 斯蒂安</w>
克 牌</w>
克 利</w>
克 伦</w>
充 血</w>
储 物
偷 听</w>
健康 人</w>
[...]
